{"!": 0, "\"": 1, "#": 2, "$": 3, "%": 4, "&": 5, "'": 6, "(": 7, ")": 8, "*": 9, "+": 10, ",": 11, "-": 12, ".": 13, "/": 14, "0": 15, "1": 16, "2": 17, "3": 18, "4": 19, "5": 20, "6": 21, "7": 22, "8": 23, "9": 24, ":": 25, ";": 26, "<": 27, "=": 28, ">": 29, "?": 30, "@": 31, "A": 32, "B": 33, "C": 34, "D": 35, "E": 36, "F": 37, "G": 38, "H": 39, "I": 40, "J": 41, "K": 42, "L": 43, "M": 44, "N": 45, "O": 46, "P": 47, "Q": 48, "R": 49, "S": 50, "T": 51, "U": 52, "V": 53, "W": 54, "X": 55, "Y": 56, "Z": 57, "[": 58, "\\": 59, "]": 60, "^": 61, "_": 62, "`": 63, "a": 64, "b": 65, "c": 66, "d": 67, "e": 68, "f": 69, "g": 70, "h": 71, "i": 72, "j": 73, "k": 74, "l": 75, "m": 76, "n": 77, "o": 78, "p": 79, "q": 80, "r": 81, "s": 82, "t": 83, "u": 84, "v": 85, "w": 86, "x": 87, "y": 88, "z": 89, "{": 90, "|": 91, "}": 92, "~": 93, "\u00a1": 94, "\u00a2": 95, "\u00a3": 96, "\u00a4": 97, "\u00a5": 98, "\u00a6": 99, "\u00a7": 100, "\u00a8": 101, "\u00a9": 102, "\u00aa": 103, "\u00ab": 104, "\u00ac": 105, "\u00ae": 106, "\u00af": 107, "\u00b0": 108, "\u00b1": 109, "\u00b2": 110, "\u00b3": 111, "\u00b4": 112, "\u00b5": 113, "\u00b6": 114, "\u00b7": 115, "\u00b8": 116, "\u00b9": 117, "\u00ba": 118, "\u00bb": 119, "\u00bc": 120, "\u00bd": 121, "\u00be": 122, "\u00bf": 123, "\u00c0": 124, "\u00c1": 125, "\u00c2": 126, "\u00c3": 127, "\u00c4": 128, "\u00c5": 129, "\u00c6": 130, "\u00c7": 131, "\u00c8": 132, "\u00c9": 133, "\u00ca": 134, "\u00cb": 135, "\u00cc": 136, "\u00cd": 137, "\u00ce": 138, "\u00cf": 139, "\u00d0": 140, "\u00d1": 141, "\u00d2": 142, "\u00d3": 143, "\u00d4": 144, "\u00d5": 145, "\u00d6": 146, "\u00d7": 147, "\u00d8": 148, "\u00d9": 149, "\u00da": 150, "\u00db": 151, "\u00dc": 152, "\u00dd": 153, "\u00de": 154, "\u00df": 155, "\u00e0": 156, "\u00e1": 157, "\u00e2": 158, "\u00e3": 159, "\u00e4": 160, "\u00e5": 161, "\u00e6": 162, "\u00e7": 163, "\u00e8": 164, "\u00e9": 165, "\u00ea": 166, "\u00eb": 167, "\u00ec": 168, "\u00ed": 169, "\u00ee": 170, "\u00ef": 171, "\u00f0": 172, "\u00f1": 173, "\u00f2": 174, "\u00f3": 175, "\u00f4": 176, "\u00f5": 177, "\u00f6": 178, "\u00f7": 179, "\u00f8": 180, "\u00f9": 181, "\u00fa": 182, "\u00fb": 183, "\u00fc": 184, "\u00fd": 185, "\u00fe": 186, "\u00ff": 187, "\u0100": 188, "\u0101": 189, "\u0102": 190, "\u0103": 191, "\u0104": 192, "\u0105": 193, "\u0106": 194, "\u0107": 195, "\u0108": 196, "\u0109": 197, "\u010a": 198, "\u010b": 199, "\u010c": 200, "\u010d": 201, "\u010e": 202, "\u010f": 203, "\u0110": 204, "\u0111": 205, "\u0112": 206, "\u0113": 207, "\u0114": 208, "\u0115": 209, "\u0116": 210, "\u0117": 211, "\u0118": 212, "\u0119": 213, "\u011a": 214, "\u011b": 215, "\u011c": 216, "\u011d": 217, "\u011e": 218, "\u011f": 219, "\u0120": 220, "\u0121": 221, "\u0122": 222, "\u0123": 223, "\u0124": 224, "\u0125": 225, "\u0126": 226, "\u0127": 227, "\u0128": 228, "\u0129": 229, "\u012a": 230, "\u012b": 231, "\u012c": 232, "\u012d": 233, "\u012e": 234, "\u012f": 235, "\u0130": 236, "\u0131": 237, "\u0132": 238, "\u0133": 239, "\u0134": 240, "\u0135": 241, "\u0136": 242, "\u0137": 243, "\u0138": 244, "\u0139": 245, "\u013a": 246, "\u013b": 247, "\u013c": 248, "\u013d": 249, "\u013e": 250, "\u013f": 251, "\u0140": 252, "\u0141": 253, "\u0142": 254, "\u0143": 255, "\u0120\u00ec": 256, "\u0120\u00eb": 257, "\u00ec\u013f": 258, "\u0120t": 259, "th": 260, "\u00eb\u0124": 261, "ou": 262, "he": 263, "in": 264, "\u0120i": 265, "\u00ed\u0137": 266, "\u0120\u00ea": 267, "\u00ec\u0137": 268, "\u0120a": 269, "\u0120m": 270, "\u0120s": 271, "\u00ec\u0139": 272, "\u0120w": 273, "\u00eb\u012d": 274, "an": 275, "yo": 276, "you": 277, "\u00ea\u00b0": 278, "\u00eb\u00a7": 279, "on": 280, "\u00ec\u00a7": 281, "re": 282, "\u00ec\u013f\u00b4": 283, "\u0120you": 284, "\u0120b": 285, "\u00ec\u0138": 286, "\u00eb\u012c": 287, "me": 288, "\u0120\u00ed": 289, "\u0120l": 290, "er": 291, "\u0120the": 292, "\u0120o": 293, "\u00ec\u0140": 294, "\u0120\u00eb\u0124": 295, "it": 296, "ve": 297, "nd": 298, "\u00ea\u00b3": 299, "\u00e3\u0123": 300, "\u00eb\u012c\u0136": 301, "\u013f\u00b4": 302, "\u0120d": 303, "\u00ec\u013c": 304, "\u0120h": 305, "\u0120c": 306, "to": 307, "ll": 308, "\u0120f": 309, "\u00eb\u00a6": 310, "\u00eb\u0126": 311, "\u00eb\u0131": 312, "\u00ea\u00b2": 313, "\u0120g": 314, "at": 315, "ing": 316, "\u00eb\u0140": 317, "\u00ec\u0138\u00b4": 318, "\u00ec\u00a7\u0122": 319, "\u00ec\u012d": 320, "st": 321, "ng": 322, "\u00ec\u0124": 323, "\u00ea\u00b0\u0122": 324, "ea": 325, "\u00ec\u0139\u0132": 326, "\u00ed\u0137\u013a": 327, "\u00ea\u00b7": 328, "\u00ec\u0142": 329, "\u00ea\u00b3\u0142": 330, "\u00ec\u013f\u0126": 331, "no": 332, "\u00ec\u0137\u0126": 333, "\u00ec\u0126": 334, "\u00eb\u0124\u013a": 335, "ow": 336, "\u0120n": 337, "\u0120to": 338, "\u0120\u00ec\u0137": 339, "li": 340, "or": 341, "\u013f\u00bc": 342, "\u00eb\u00a6\u00ac": 343, "\u00eb\u0131\u0126": 344, "\u00ec\u013a": 345, "\u00ea\u00b8": 346, "\u00eb\u012d\u00a4": 347, "ar": 348, "\u0120\u00eb\u00a7": 349, "\u00b8\u00eb": 350, "lo": 351, "\u012a\u00eb": 352, "se": 353, "ee": 354, "wa": 355, "\u0120\u00ec\u0140": 356, "\u0120th": 357, "\u0120me": 358, "\u00eb\u00b0": 359, "al": 360, "is": 361, "do": 362, "le": 363, "ne": 364, "\u00ec\u013f\u0122": 365, "\u00eb\u0135": 366, "\u00eb\u00aa": 367, "\u00eb\u00b3": 368, "ur": 369, "ke": 370, "wh": 371, "\u00ea\u00b2\u012e": 372, "be": 373, "\u0120\u00ec\u0124": 374, "\u00ec\u013f\u013a": 375, "go": 376, "\u00ed\u0137\u00b4": 377, "\u00eb\u013f\u00bc": 378, "en": 379, "\u00eb\u00a9": 380, "\u0120p": 381, "\u0120r": 382, "\u00eb\u00a5": 383, "\u0120\u00ea\u00b7": 384, "et": 385, "my": 386, "gh": 387, "ay": 388, "\u0120it": 389, "\u0120\u00ea\u00b0": 390, "\u00ac\u00eb\u0140": 391, "\u00ea\u00b1": 392, "\u00eb\u00a1": 393, "\u0120\u00eb\u0126": 394, "ut": 395, "\u00ec\u0128": 396, "ho": 397, "us": 398, "ca": 399, "ha": 400, "so": 401, "\u00ed\u0137\u013e": 402, "\u012a\u00ec": 403, "ot": 404, "\u0120my": 405, "es": 406, "\u00ec\u013c\u0136": 407, "\u0120\u00eb\u012d": 408, "\u0120\u00eb\u0124\u013a": 409, "we": 410, "\u00eb\u012f": 411, "\u0120on": 412, "\u0120in": 413, "\u00ec\u0125": 414, "ti": 415, "hi": 416, "\u0137\u013a": 417, "'t": 418, "\u00ec\u00a3": 419, "ver": 420, "\u0120\u00eb\u0124\u00b4": 421, "\u0120\u00ec\u0139": 422, "'s": 423, "\u0120lo": 424, "\u00eb\u00a1\u013e": 425, "\u00ec\u0126\u013e": 426, "and": 427, "ma": 428, "\u00ec\u012a": 429, "\u00eb\u0142": 430, "\u0120be": 431, "\u00ec\u013d": 432, "\u0120\u00eb\u00aa": 433, "\u0120k": 434, "ri": 435, "\u00ac\u00eb\u0140\u0133": 436, "\u0120he": 437, "\u00eb\u00a7\u012e": 438, "om": 439, "\u00ec\u013e": 440, "\u0120no": 441, "\u0120li": 442, "\u0120\u00eb\u00b0": 443, "ght": 444, "as": 445, "\u0124\u013a": 446, "\u0120e": 447, "\u00e3\u0124": 448, "\u0120and": 449, "\u0120\u00ec\u013f\u00b4": 450, "\u0120u": 451, "of": 452, "ld": 453, "\u00ec\u013b": 454, "ba": 455, "\u00eb\u00a5\u00bc": 456, "fo": 457, "ai": 458, "\u00ea\u00b8\u00b0": 459, "\u012e\u0122": 460, "\u0120of": 461, "ch": 462, "\u0120\u0120": 463, "\u00ec\u012c": 464, "ck": 465, "\u00eb\u00ac": 466, "\u013f\u013a": 467, "\u0120\u00ec\u0137\u0126": 468, "un": 469, "\u0120\u00ec\u013a": 470, "\u0138\u00b4": 471, "la": 472, "\u00eb\u012d\u012a": 473, "\u0120your": 474, "\u00ec\u012d\u013e": 475, "de": 476, "\u00eb\u0124\u00b4": 477, "sh": 478, "ro": 479, "\u00eb\u00b6": 480, "\u00eb\u00b9": 481, "\u00ec\u0137\u00bc": 482, "wo": 483, "\u013f\u0126": 484, "\u00ea\u00b9": 485, "te": 486, "\u00a7\u0122": 487, "\u00ec\u00b0": 488, "\u00eb\u00a9\u00b4": 489, "ta": 490, "\u013f\u0122": 491, "\u0120\u00ec\u012d": 492, "oo": 493, "ye": 494, "'m": 495, "\u0120love": 496, "\u0137\u013e": 497, "\u0120wi": 498, "\u0120\u00ed\u0137\u013a": 499, "oh": 500, "bo": 501, "now": 502, "\u00ec\u00b9": 503, "\u0120\u00ea\u00b1": 504, "\u0120\u00ec\u0124\u00ac\u00eb\u0140\u0133": 505, "mi": 506, "\u0120\u00ea\u00b7\u00b8": 507, "\u0120that": 508, "\u0120\u00eb\u00b3": 509, "ome": 510, "\u00eb\u012a": 511, "\u00eb\u0135\u00a4": 512, "\u0120(": 513, "\u00eb\u00b2": 514, "\u0120\u00ea\u00b0\u0122": 515, "na": 516, "\u00eb\u0126\u00a4": 517, "fe": 518, "\u0120\u00ec\u0139\u0128": 519, "\u0120\u00ec\u0140\u012a": 520, "ni": 521, "wi": 522, "ge": 523, "\u0120\u00ec\u012a": 524, "\u00eb\u0133": 525, "\u0120we": 526, "sa": 527, "\u0120ba": 528, "ce": 529, "kn": 530, "\u00ec\u0140\u0132": 531, "si": 532, "bu": 533, "\u00eb\u00af": 534, "\u0137\u00b4": 535, "\u0137\u0126": 536, "\u00ec\u00a4": 537, "\u0124\u00b4": 538, "\u00eb\u0141": 539, "\u00ea\u00b5": 540, "ry": 541, "ul": 542, "\u00ec\u00b2": 543, "\u0120\u00ec\u0142": 544, "mo": 545, "..": 546, "am": 547, "ight": 548, "\u00ec\u013a\u00a4": 549, "\u0120for": 550, "co": 551, "by": 552, "\u0120\u00ea\u00b7\u00b8\u00eb": 553, "\u0120\u00ec\u013c": 554, "\u0120\u00ea\u00b8": 555, "\u0120is": 556, "\u0120know": 557, "\u0120can": 558, "out": 559, "\u0120j": 560, "da": 561, "ir": 562, "ust": 563, "\u0120\u00ec\u0128": 564, "tr": 565, "\u0120\u00eb\u012d\u00a4": 566, "up": 567, "\u00ec\u013f\u012e": 568, "\u00ea\u00b9\u012e": 569, "el": 570, "\u0120\u00eb\u00a7\u0132": 571, "all": 572, "ed": 573, "\u00eb\u0142\u00a4": 574, "ad": 575, "\u0120re": 576, "\u0120y": 577, "\u0120all": 578, "\u0120go": 579, "\u00eb\u0127": 580, "nt": 581, "the": 582, "\u0120wan": 583, "\u0120\u00eb\u00aa\u00a8": 584, "ah": 585, "\u0120\u00ea\u00b3": 586, "\u0120do": 587, "\u0120don": 588, "\u00eb\u0138": 589, "ra": 590, "\u0120\u00ec\u00a3": 591, "\u00eb\u0140\u013a": 592, "\u00ec\u013e\u00bc": 593, "di": 594, "\u0120\u00ec\u0126": 595, "\u00e2\u0122": 596, "ki": 597, "\u0120\u00ea\u00b2": 598, "\u013a\u00ec": 599, "\u0120up": 600, "ake": 601, "\u00eb\u0136": 602, "\u00b0\u00eb\u00a6\u00ac": 603, "gi": 604, "\u0120\u00eb\u012a": 605, "\u00b0\u0122": 606, "\u00ec\u012d\u0142": 607, "\u0120\u00eb\u00b3\u00b4": 608, "\u00eb\u00a7\u012a": 609, "\u0120wh": 610, "\u0120with": 611, "\u00a4\u00ec": 612, "\u0120\u00ec\u012a\u013a": 613, "\u0120\u00ec\u00a7\u0122": 614, "\u0120\u00ec\u0138\u00b4": 615, "\u00ec\u00a3\u00bc": 616, "\u00ed\u0138": 617, "\u00ea\u00b7\u00b8": 618, "\u00ea\u00b7\u00b8\u00eb": 619, "\u0137\u012e": 620, "\u0120like": 621, "\u00eb\u0132": 622, "\u00b7\u00b8": 623, "\u0120\u00eb\u0124\u0142": 624, "\u0139\u0132": 625, "\u0120st": 626, "\u00ec\u0142\u013e": 627, "\u00eb\u00b3\u00b4": 628, "\u00ed\u0140": 629, "\u0120\u00eb\u0126\u012a": 630, "if": 631, "\u0120\u00eb\u0131": 632, "\u0120\u00ec\u0125": 633, "\u0120\u00ec\u00a3\u00bc": 634, "\u00ec\u013b\u0122": 635, "\u00eb\u00b4": 636, "\u00ed\u013a": 637, "\u0120so": 638, "\u0120ti": 639, "ly": 640, "\u0122\u013b": 641, "\u0120\u00eb\u00b6": 642, "one": 643, "\u00e2\u0122\u013b": 644, "\u00ec\u00a2": 645, "\u0120\u00ed\u0137": 646, "\u00ec\u0125\u0123": 647, "\u00ed\u0125": 648, "hen": 649, "\u0120\u00ec\u00b0": 650, "\u012a\u00eb\u00ac": 651, "\u00ec\u0139\u00ac": 652, "\u0120\u00ea\u00b8\u00b0": 653, "\u0120\u00eb\u00b0\u0136": 654, "'re": 655, "'r": 656, "\u0120\u00eb\u00b9": 657, "\u0120got": 658, "ever": 659, "\u00ea\u00b0\u0126": 660, "\u00eb\u0124\u013e": 661, "\u00b8\u00ec": 662, "\u012d\u00a4": 663, "own": 664, "\u0120\u00eb\u00a7\u012a": 665, "\u012e\u00ec": 666, "\u00eb\u012c\u013a": 667, "ould": 668, "\u0120get": 669, "pe": 670, "\u00eb\u00a3": 671, "art": 672, "ind": 673, "\u0120\u00ec\u0137\u012c": 674, "vi": 675, "\u00eb\u012f\u00b0": 676, "\u00ec\u00b6": 677, "fr": 678, "\u0120just": 679, "\u0122\u00ec": 680, "\u00ea\u00bb": 681, "av": 682, "\u00ec\u0128\u012e": 683, "eah": 684, "\u00ec\u013d\u012e": 685, "fi": 686, "su": 687, "'ll": 688, "'l": 689, "eel": 690, "\u00ec\u013f\u00bc": 691, "\u00ed\u0136": 692, "\u0120what": 693, "\u00eb\u0137": 694, "\u00b4\u00ec": 695, "\u0120\u00eb\u0135": 696, "\u00ea\u00b1\u00b0": 697, "\u00eb\u012f\u013a": 698, "\u0120this": 699, "\u0120mo": 700, "\u0120\u00ec\u013b": 701, "ru": 702, "\u0120\u00ec\u013a\u00a4": 703, "\u00ec\u013c\u00b4": 704, "ong": 705, "\u0120\u00eb\u00ac": 706, "way": 707, "\u0120ha": 708, "\u0120see": 709, "but": 710, "\u0120time": 711, "\u0120\u00ed\u0138": 712, "\u00eb\u0123": 713, "\u00ea\u00b5\u00ac": 714, "\u0120\u00eb\u00af": 715, "\u0120\u00ec\u00a2": 716, "\u013a\u00eb": 717, "\u0120oh": 718, "\u0120out": 719, "rou": 720, "\u0126\u00ec": 721, "\u00ec\u0124\u00ac\u00eb\u0140\u0133": 722, "il": 723, "\u0120\u00eb\u0132": 724, "\u00ec\u013f\u00b8": 725, "\u012c\u0136": 726, "nn": 727, "\u0120\u00eb\u012f": 728, "thing": 729, "\u00eb\u00a3\u00a8": 730, "\u00eb\u0133\u0132": 731, "\u0120\u00ed\u0137\u013e": 732, "\u00eb\u00a6\u00b0": 733, "\u00eb\u00a5\u00b4": 734, "\u0120feel": 735, "ns": 736, "ain": 737, "\u00eb\u0126\u012a": 738, "\u0120sh": 739, "\u0120ever": 740, "\u0120baby": 741, "\u0109\u0120": 742, "ss": 743, "\u0120\u00eb\u0124\u013e": 744, "\u00ec\u00a7\u0126": 745, "\u0120wor": 746, "\u0120\u00ea\u00b2\u0125": 747, "ear": 748, "\u0120\u00eb\u0138": 749, "\u00ec\u013c\u00b0": 750, "ig": 751, "\u0120\u00ec\u013e": 752, "\u00bc\u00ec": 753, "ak": 754, "\u0120down": 755, "\u00ed\u0140\u012a": 756, "\u00eb\u00a9\u00b0": 757, "\u00ec\u00b2\u013a": 758, "\u0123\u0126": 759, "\u0120\u00ed\u0137\u00b4": 760, "fa": 761, "\u0120\u00eb\u00b2": 762, "\u00eb\u00ac\u00b4": 763, "pa": 764, "dy": 765, "\u00eb\u0124\u0142": 766, "\u012e\u00ec\u0137\u0126": 767, "\u0120\u00ea\u00b7\u00b8\u00eb\u012e\u0122": 768, "\u0120\u00ec\u0138": 769, "\u00eb\u0135\u0142": 770, "\u0120\u00ec\u013d": 771, "\u00ec\u0139\u012a": 772, "\u00e3\u0123\u0126": 773, "\u00ec\u0124\u00ac": 774, "\u00a5\u00bc": 775, "\u0142\u00ec": 776, "ok": 777, "\u0120now": 778, "\u0120\u00ec\u012d\u013e": 779, "\u0120want": 780, "\u00ea\u00bb\u013a": 781, "ol": 782, "\u0120al": 783, "\u00eb\u012d\u013a": 784, "\u0120\u00eb\u00aa\u00bb": 785, "iv": 786, "ther": 787, "pl": 788, "\u00eb\u00aa\u00a8": 789, "\u0137\u0142": 790, "use": 791, "\u00ec\u00a1": 792, "\u00ac\u00eb\u0140\u012e": 793, "\u00eb\u013a": 794, "\u00eb\u00a8": 795, "aw": 796, "\u00ed\u0137\u0142": 797, "\u0120are": 798, "\u0120one": 799, "\u00eb\u0128": 800, "\u0124\u013e": 801, "\u0120\u00ea\u00b1\u00b0": 802, "id": 803, "\u00ec\u0126\u00b8": 804, "eep": 805, "\u0120some": 806, "\u00ec\u00a7\u0122\u00eb\u00a7\u012e": 807, "ic": 808, "ep": 809, "dr": 810, "im": 811, "io": 812, "\u013f\u00b8": 813, "\u00ed\u013b": 814, "\u0120say": 815, "\u00ec\u013e\u00bc\u00eb\u00a1\u013e": 816, "\u0120was": 817, "\u00eb\u00a7\u0132": 818, "nc": 819, "\u0120\u00eb\u0133": 820, "\u0120\u00ec\u0137\u012a": 821, "ac": 822, "\u0120\u00eb\u00a7\u012e": 823, "ter": 824, "bl": 825, "\u00ec\u0139\u0132\u00ec\u0126\u013e": 826, "\u0120\u0120\u0120\u0120": 827, "\u0120\u00ea\u00b0\u013b": 828, "\u0120\u00eb\u00a7\u012a\u00ec\u013f\u012e": 829, "\u00ec\u0128\u012f": 830, "cr": 831, "\u00ea\u00b2\u0142": 832, "\u0120way": 833, "\u00eb\u012e\u0122": 834, "\u00eb\u00a6\u0126": 835, "ine": 836, "\u00ea\u00b8\u012a": 837, "\u00eb\u0141\u00bc": 838, "\u0120\u00eb\u0137\u012e": 839, "\u00ed\u012e": 840, "\u0120never": 841, "irl": 842, "here": 843, "\u00eb\u0141\u00ac": 844, "\u0120let": 845, "eed": 846, "\u00ea\u00b0\u0123": 847, "\u0120la": 848, "em": 849, "br": 850, "\u00ec\u012c\u00a4": 851, "\u00ec\u0142\u0137": 852, "\u0120\u00eb\u0138\u0142": 853, "\u00ed\u0127": 854, "\u00ed\u0128": 855, "\u00eb\u00af\u00b8": 856, "\u00ed\u0125\u0122": 857, "\u0120make": 858, "\u0120\u00ec\u012d\u00b6": 859, "\u0122\u00eb": 860, "\u0126\u012a": 861, "'ve": 862, "'v": 863, "\u013b\u00ec": 864, "\u0120\u00ec\u0140\u0132": 865, "\u012a\u00eb\u00a5\u00bc": 866, "\u0120will": 867, "\u0120\u00ec\u00a7": 868, "\u00eb\u00b4\u0132": 869, "\u0120\u00ea\u00b1\u00b8": 870, "\u0120\u00ec\u013e\u0126": 871, "\u0120\u00eb\u012f\u0136": 872, "\u0120come": 873, "\u0120bo": 874, "\u0120not": 875, "\u0120wanna": 876, "\u0120\u00ec\u0125\u013f": 877, "\u00ac\u00ec": 878, "\u0120\u00ec\u00a2\u012d": 879, "\u012a\u00eb\u012f": 880, "\u00ec\u012a\u013a": 881, "\u0120\u00eb\u00a9": 882, "\u00ec\u00b9\u013a": 883, "\u00ac\u00eb": 884, "\u00ed\u013f": 885, "\u0120yeah": 886, "\u00ec\u0138\u00b5": 887, "ame": 888, "ink": 889, "\u0120\u00ec\u0124\u00ac": 890, "\u0120\u00ec\u0124\u00ac\u00eb\u0140\u012e": 891, "\u0120day": 892, "\u0120ro": 893, "\u0120have": 894, "pi": 895, "our": 896, "\u00ed\u0124": 897, "\u012a\u00eb\u00ac\u00b4": 898, "\u00e3\u0125": 899, "\u0120\u00ec\u0124\u00b4": 900, "\u00eb\u00b2\u0126": 901, "...": 902, "\u0120back": 903, "\u00bc\u00eb": 904, "\u0140\u013a": 905, "\u0120ho": 906, "\u00e3\u0123\u00aa": 907, "\u00ec\u0142\u00b8": 908, "\u0120\u00ec\u0139\u00ac": 909, "\u0120when": 910, "cause": 911, "\u0123\u00aa": 912, "\u00e3\u0123\u00a6": 913, "rom": 914, "ey": 915, "mu": 916, "\u0123\u00a6": 917, "\u0120night": 918, "\u00ec\u00b2\u013a\u00eb\u0141\u00bc": 919, "\u0120\u00ec\u0128\u012f": 920, "\u00b9\u00ec\u012d\u0142": 921, "\u00eb\u00b0\u0136": 922, "tu": 923, "bi": 924, "\u013a\u0132": 925, "\u00ea\u00b7\u00b8\u00eb\u012e\u0122": 926, "\u0120heart": 927, "\u0120\u00eb\u0124\u013a\u00eb\u00a5\u00bc": 928, "\u00ea\u00b3\u00bc": 929, "\u00ec\u0139\u0128": 930, "\u013f\u012e": 931, "\u0120\u00ec\u0126\u00b8": 932, "\u00e3\u0123\u00ae": 933, "\u0120at": 934, "\u0120\u00eb\u0124\u013a\u00ec\u013f\u013a": 935, "\u0120\u00ec\u013c\u00b0\u00eb\u00a6\u00ac": 936, "\u0123\u00ae": 937, "\u0120girl": 938, "\u0120gon": 939, "um": 940, "\u0120\u00eb\u0124\u00b4\u00ea\u00b0\u0122": 941, "\u0120need": 942, "\u0120\u00eb\u0127": 943, "\u0120\u00eb\u0132\u013a": 944, "\u0120man": 945, "\u013c\u00b0": 946, "\u00e3\u0122": 947, "\u0133\u00ec": 948, "qu": 949, "\u0120\u00ec\u00b6": 950, "\u00ec\u013d\u0132": 951, "een": 952, "\u012a\u00eb\u012f\u013a": 953, "\u00b4\u00eb": 954, "\u0120\u00ec\u00a4": 955, "when": 956, "\u00eb\u00b6\u0122": 957, "\u00ea\u00bf": 958, "oi": 959, "\u00ec\u0139\u0132\u00ea\u00b2\u012e": 960, "\u0120every": 961, "ood": 962, "op": 963, "\u0120ch": 964, "\u00ec\u00a4\u013a": 965, "\u0136\u00ec": 966, "\u0129\u00ea\u00b2\u012e": 967, "\u0120take": 968, "\u00ec\u00a7\u0123": 969, "ev": 970, "\u0120\u00eb\u0135\u00a4": 971, "\u00ed\u0137\u013a\u00eb\u012c\u0136": 972, "\u0120there": 973, "ab": 974, "\u0120\u00ec\u0140\u012a\u00ec\u0138\u00b4": 975, "\u0137\u00a8": 976, "\u012a\u00eb\u00ac\u00bc": 977, "\u0120life": 978, "\u00ec\u0142\u0122": 979, "\u0120te": 980, "\u00ec\u013c\u00b0\u00eb\u00a6\u00ac": 981, "ie": 982, "\u0120\u00ec\u0128\u012e": 983, "\u0120an": 984, "ion": 985, "\u0120\u00ec\u0139\u0128\u00eb\u012c\u0136": 986, "\u0120\u00eb\u012c": 987, "\u00eb\u013f": 988, "\u00ec\u012c\u00b4": 989, "pp": 990, "\u00ea\u00b8\u00b8": 991, "\u00eb\u0127\u00b8": 992, "\u00eb\u00b3\u00b5": 993, "\u00b0\u00ec": 994, "\u0120\u00eb\u0128": 995, "\u0120\u00eb\u0126\u0132": 996, "\u0120they": 997, "\u0120as": 998, "\u0120\u00ec\u0137\u012e": 999, "\u0120\u00ea\u00b3\u0142": 1000, "\u0120\u00eb\u0124\u00a8": 1001, "\u00a4\u00eb": 1002, "\u0120she": 1003, "don": 1004, "\u0120from": 1005, "\u0120\u00ea\u00bf": 1006, "\u0120\u00ec\u0139\u0128\u00ec\u0138\u00b4": 1007, "\u00ed\u0127\u012e": 1008, "rt": 1009, "\u00a1\u013e": 1010, "\u0120\u00eb\u00a7\u013a": 1011, "\u00ea\u00b4": 1012, "\u0120\u00ec\u0125\u013f\u00ea\u00b0\u0123": 1013, "\u012d\u012a": 1014, "\u0120\u00ec\u00b2": 1015, "\u00a8\u00ea\u00bb\u013a": 1016, "\u0120away": 1017, "\u0120\u00ed\u013f": 1018, "\u0120gonna": 1019, "lu": 1020, "\u00ed\u0137\u013a\u00ea\u00b3\u0142": 1021, "\u0120\u00ec\u012c": 1022, "\u00e3\u0123\u0141": 1023, "\u0120right": 1024, "\u00eb\u00b9\u0126": 1025, "\u0132\u00ec": 1026, "\u0123\u0141": 1027, "\u0120good": 1028, "\u0120\u00eb\u0133\u0132": 1029, "\u0120\u00eb\u00b6\u0122": 1030, "\u00ec\u0137\u012a": 1031, "\u0120\u00ec\u013f\u00bc": 1032, "sp": 1033, "\u0120but": 1034, "that": 1035, "\u0120pl": 1036, "\u0120\u00ec\u0140\u012c": 1037, "pr": 1038, "ew": 1039, "\u0120\u00eb\u00b0\u00a4": 1040, "\u0125\u00ec": 1041, "\u0120\u00eb\u00af\u00b8": 1042, "\u0120\u00ec\u00b9": 1043, "\u00b3\u0132": 1044, "\u0120\u00ea\u00b9": 1045, "ty": 1046, "ci": 1047, "\u0124\u0142": 1048, "\u0120\u00ed\u0137\u013a\u00eb\u0124\u013a": 1049, "\u00ec\u013c\u00b8": 1050, "\u013e\u00ec": 1051, "\u00ea\u00b1\u00b8": 1052, "\u0120\u00eb\u00ac\u00b4": 1053, "\u0120if": 1054, "\u00eb\u0124\u013a\u00eb\u012c\u0136": 1055, "\u00eb\u0136\u0136": 1056, "\u0120\u00eb\u012a\u012a": 1057, "\u0120could": 1058, "\u0120ma": 1059, "\u0126\u00e3": 1060, "cl": 1061, "\u00ed\u0123": 1062, "\u0120\u00eb\u0136": 1063, "fl": 1064, "ream": 1065, "\u00b0\u00eb\u013f\u00bc": 1066, "\u00ec\u0137\u013a": 1067, "\u00ed\u0128\u0142": 1068, "nl": 1069, "\u00eb\u0124\u00b4\u00ea\u00b0\u0122": 1070, "\u013b\u0122": 1071, "\u0123\u013f": 1072, "\u00ec\u012c\u00b5": 1073, "ive": 1074, "\u0120her": 1075, "\u0120\u00eb\u013a\u0132": 1076, "ard": 1077, "\u0120\u00eb\u00a8": 1078, "\u0120more": 1079, "tle": 1080, "\u00ec\u0140\u012a": 1081, "\u0120\u00eb\u0126\u00a4": 1082, "\u0120ca": 1083, "\u00ec\u0125\u013f": 1084, "\u00eb\u0140\u0122": 1085, "\u0120\u00ec\u013a\u0123": 1086, "\u0120\u00ed\u0125": 1087, "round": 1088, "body": 1089, "\u0120v": 1090, "\u0120\u00eb\u0126\u012a\u00eb\u00a5\u00bc": 1091, "\u00ed\u0124\u00a4": 1092, "\u00ec\u00a3\u0142": 1093, "\u00ec\u0142\u0142": 1094, "\u00ec\u0140\u00a5": 1095, "fu": 1096, "\u0120here": 1097, "\u0120\u00eb\u00b9\u0126": 1098, "\u0122\u0122": 1099, "bout": 1100, "\u00e3\u0122\u0122": 1101, "ings": 1102, "\u0120\u00ec\u0142\u0137": 1103, "\u0120\u00ec\u0128\u0132": 1104, "\u0120\u00eb\u0127\u00b8": 1105, "alk": 1106, "\u00ed\u0138\u012a": 1107, "\u0120think": 1108, "po": 1109, "\u0120won": 1110, "\u0123\u00ab": 1111, "\u00e3\u0123\u00ab": 1112, "\u0120\u00eb\u00b4": 1113, "\u0120been": 1114, "ate": 1115, "\u00b8\u00ec\u0142\u013e": 1116, "\u00b5\u00ed": 1117, "\u0120\u00eb\u0126\u012a\u00eb\u00ac\u00b4": 1118, "\u012d\u00e3": 1119, "\u0120\u00eb\u0124\u00b4\u00ea\u00b2\u012e": 1120, "\u00ea\u00b2\u00a8": 1121, "\u0120\u00ed\u0137\u0142": 1122, "\u0120\u00ea\u00bf\u012a": 1123, "\u0123\u00ec": 1124, "\u0120\u00ea\u00b8\u00b8": 1125, "\u0120world": 1126, "\u00eb\u00a5\u00b8": 1127, "\u0120sto": 1128, "urn": 1129, "\u00aa\u00e3": 1130, "\u00bd\u0136": 1131, "\u0120\u00ec\u013c\u00b0": 1132, "\u0120\u00eb\u012d\u00a4\u00ec\u012d\u013e": 1133, "\u00a8\u00ec": 1134, "\u0120\u00eb\u0124\u013a\u00eb\u012c\u0136": 1135, "yes": 1136, "\u012e\u00eb": 1137, "gr": 1138, "\u0120ag": 1139, "\u00eb\u0140\u012e": 1140, "\u00ea\u00b9\u012e\u00ec\u00a7\u0122": 1141, "\u0120\u00ed\u013a": 1142, "ga": 1143, "\u0120\u00ec\u0140\u012a\u00eb\u012c\u0136": 1144, "\u0120\u00ec\u013d\u0125": 1145, "\u00ed\u0137\u013a\u00ea\u00b2\u012e": 1146, "\u0120who": 1147, "\u0120\u00ed\u0137\u00a8\u00ea\u00bb\u013a": 1148, "\u00ec\u00b0\u00a8": 1149, "what": 1150, "\u00eb\u0143": 1151, "\u0120fa": 1152, "\u00a7\u012e": 1153, "\u0120de": 1154, "aid": 1155, "\u00a7\u012a": 1156, "\u0120\u00eb\u0131\u012e\u00ec\u0137\u0126": 1157, "\u0120\u00eb\u012a\u012a\u00eb\u00ac\u00bc": 1158, "\u0120tell": 1159, "\u0120by": 1160, "\u0120\u00eb\u0126\u012a\u00ec\u013f\u013a": 1161, "ds": 1162, "\u0120\u00eb\u012d\u00ac": 1163, "let": 1164, "\u00a6\u00ac": 1165, "\u0120\u00ea\u00b5": 1166, "ill": 1167, "\u013e\u00eb": 1168, "yi": 1169, "pu": 1170, "\u00ea\u00be": 1171, "\u00e3\u0124\u012d": 1172, "\u0120look": 1173, "\u00ea\u00bd": 1174, "\u0120\u00ec\u0142\u0126": 1175, "\u00ea\u00b2\u0125": 1176, "ven": 1177, "\u0120\u00ec\u0126\u00b8\u00ec\u0125\u0123": 1178, "\u0131\u0126": 1179, "she": 1180, "\u00eb\u013e": 1181, "\u0120wa": 1182, "\u00ec\u00b9\u00b4": 1183, "\u0120again": 1184, "ound": 1185, "day": 1186, "yt": 1187, "\u00ec\u0142\u0126": 1188, "\u00eb\u012d\u00a4\u00eb\u00a9\u00b4": 1189, "\u00eb\u012e": 1190, "\u0120ain": 1191, "\u0120\u00ec\u00b0\u00be": 1192, "\u0123\u00a8": 1193, "\u0120about": 1194, "\u0120\u00eb\u0138\u0142\u00eb\u0124\u013a": 1195, "\u00ec\u0139\u0136": 1196, "\u0120how": 1197, "ang": 1198, "ug": 1199, "\u0135\u00e3": 1200, "\u012b\u00eb\u00b3\u00b5": 1201, "just": 1202, "\u0120give": 1203, "\u0126\u00ed": 1204, "ya": 1205, "\u0133\u00ed": 1206, "sl": 1207, "ance": 1208, "ide": 1209, "\u00ec\u00a4\u0126": 1210, "ap": 1211, "--": 1212, "\u0120\u00ec\u0126\u013e": 1213, "\u00ed\u0137\u013a\u00ec\u00a7\u0122": 1214, "\u0120\u00ea\u00b0\u0122\u00ec\u012c\u00b4": 1215, "\u00eb\u012d\u00a4\u00ea\u00b3\u0142": 1216, "\u0120\u00ea\u00b1\u00b4": 1217, "\u00eb\u012f\u0136": 1218, "rs": 1219, "\u00ea\u00b0\u013b": 1220, "\u00ed\u0139": 1221, "\u00b3\u0142": 1222, "\u00ec\u012d\u00ac": 1223, "\u0120\u00ec\u013c\u00b8": 1224, "yeah": 1225, "\u00a3\u00e3": 1226, "\u0120'": 1227, "\u00ea\u00b1\u00b4": 1228, "\u0120bre": 1229, "ue": 1230, "\u00ea\u00bc": 1231, "\u0120\u00ec\u012d\u013e\u00ea\u00b0\u0126": 1232, "\u0120\u00ec\u0142\u0122": 1233, "\u00e3\u0123\u0139": 1234, "\u0120\u00ec\u00a1": 1235, "\u00ed\u013d": 1236, "\u00eb\u012d\u012a\u00eb\u012d\u00a4": 1237, "\u0120keep": 1238, "\u0123\u0139": 1239, "\u00ed\u013b\u0136": 1240, "rough": 1241, "ittle": 1242, "\u00ec\u0140\u0138": 1243, "\u0120too": 1244, "\u0120\u00ed\u0139": 1245, "\u00ec\u013f\u00b4\u00eb\u013f\u00bc": 1246, "\u0120\u00eb\u00aa\u00a8\u00eb\u0135\u0142": 1247, "\u00eb\u012c\u0136\u00eb\u012f\u00b0": 1248, "\u00ec\u012d\u00a4": 1249, "\u012e\u00e3": 1250, "hu": 1251, "\u0120only": 1252, "\u0120\u00ea\u00b7\u00b8\u00eb\u00a6\u00ac": 1253, "sw": 1254, "\u00ed\u012e\u012e": 1255, "\u012a\u00ec\u013b\u0122": 1256, "\u0120\u00eb\u012d\u012a": 1257, "\u0120\u0109": 1258, "\u0120qu": 1259, "\u0123\u012d": 1260, "ec": 1261, "\u0120\u00eb\u00a7\u0130": 1262, "\u00eb\u00bf": 1263, "\u0120\u00ea\u00b0\u0132": 1264, "ov": 1265, "\u0120\u00ec\u013f\u00b8": 1266, "\u0120\u00ec\u00a2\u012d\u00ec\u0137\u0126": 1267, "\u00e3\u0124\u0124": 1268, "\u00ed\u0126": 1269, "iss": 1270, "\u00eb\u00a1\u013f": 1271, "\u0120lea": 1272, "\u0120over": 1273, "\u0120dream": 1274, "\u00eb\u0125": 1275, "\u00bf\u0142": 1276, "till": 1277, "ers": 1278, "\u00ec\u0140\u0138\u00ec\u0137\u0126": 1279, "\u00eb\u00a6\u00b4": 1280, "\u0120mind": 1281, "os": 1282, "\u0120\u00ec\u0140\u013a": 1283, "uck": 1284, "\u0126\u00eb": 1285, "\u0120\u00ed\u0140\u013a": 1286, "\u00ec\u013f\u00b4\u00ec\u0142\u013e": 1287, "\u00e3\u0123\u012d": 1288, "\u0120\u00eb\u012d\u00b9\u00ec\u012d\u0142": 1289, "\u0120us": 1290, "\u00ec\u00a7\u012a": 1291, "\u0120\u00ec\u012d\u00b6\u00ec\u0138\u00b4": 1292, "\u0120am": 1293, "\u00ec\u013a\u00a4\u00eb\u012c\u013a": 1294, "\u00eb\u012d\u00a8": 1295, "red": 1296, "ree": 1297, "sc": 1298, "\u0120fall": 1299, "\u0120\u00eb\u00b2\u0126": 1300, "\u00eb\u00ac\u00bc": 1301, "\u00eb\u00b3\u0126": 1302, "\u0120little": 1303, "uh": 1304, "\u0120\u00eb\u00aa\u00a8\u00ec\u012c\u00b5": 1305, "\u0120\u00eb\u012a\u0126": 1306, "\u0120\u00eb\u00b0\u0136\u00eb\u013f\u00bc": 1307, "\u00e3\u0123\u00a3": 1308, "\u00ec\u013f\u00b4\u00ec\u0137\u00bc": 1309, "\u0120eyes": 1310, "\u0120our": 1311, "\u0123\u00a3": 1312, "\u00ec\u00bc": 1313, "\u0120bet": 1314, "\u0120com": 1315, "\u00eb\u0142\u0129\u00ea\u00b2\u012e": 1316, "\u0120\u00eb\u00aa\u00a8\u00eb\u0133\u0132": 1317, "ways": 1318, "\u0120-": 1319, "\u00eb\u0131\u013b": 1320, "\u00eb\u0142\u012a": 1321, "\u0120\u00ec\u0137\u012c\u00ec\u0137\u0126": 1322, "every": 1323, "od": 1324, "\u0139\u00ac": 1325, "\u0141\u00ac": 1326, "\u0120\u00eb\u0127\u00b8\u00eb\u0140\u013a": 1327, "\u00ec\u013e\u0142": 1328, "\u0120\u00ec\u012a\u013e": 1329, "\u0139\u00e3": 1330, "\u00ea\u00b0\u0122\u00eb\u012c\u0136": 1331, "ving": 1332, "\u00ed\u0131": 1333, "\u0120through": 1334, "\u0120\u00ea\u00b8\u00b0\u00ec\u0138\u00b5": 1335, "sed": 1336, "\u0142\u00eb": 1337, "\u00b2\u012e": 1338, "\u012a\u013a": 1339, "for": 1340, "\u0120hand": 1341, "\u00ea\u00b0\u013e": 1342, "gu": 1343, "\u0120long": 1344, "\u0141\u00e3": 1345, "\u0120try": 1346, "\u0120run": 1347, "\u0120light": 1348, "\u00bc\u00ec\u0140\u0132": 1349, "\u00b5\u00ec": 1350, "\u00ec\u012b": 1351, "there": 1352, "some": 1353, "\u0120\u00eb\u0123\u013f": 1354, "baby": 1355, "\u00ec\u0126\u0142": 1356, "\u00eb\u00aa\u0127": 1357, "\u00bf\u00bd": 1358, "ally": 1359, "low": 1360, "\u00eb\u012c\u0132": 1361, "\u0120around": 1362, "\u00b0\u00eb": 1363, "\u0120where": 1364, "\u00e3\u0124\u012b": 1365, "\u0120call": 1366, "end": 1367, "come": 1368, "hy": 1369, "ange": 1370, "nder": 1371, "\u0120sha": 1372, "\u0120would": 1373, "\u00ef\u00bf\u00bd": 1374, "\u00ef\u00bf": 1375, "\u0120or": 1376, "\u00eb\u0134": 1377, "\u0120fo": 1378, "onight": 1379, "\u012a\u00ec\u012a\u013a": 1380, "\u0120still": 1381, "\u0120\u00eb\u012c\u0132": 1382, "\u00eb\u00b2\u012a": 1383, "\u0120\u00eb\u012e\u0122": 1384, "mm": 1385, "\u0123\u012e": 1386, "row": 1387, "\u00eb\u0124\u013a\u00ec\u013f\u013a": 1388, "\u0120\u00ed\u0138\u012b\u00eb\u00b3\u00b5": 1389, "\u00ec\u00b1": 1390, "\u0120\u00ec\u0138\u00bc": 1391, "\u00e3\u0124\u012e": 1392, "\u0120\u00ec\u013d\u0132": 1393, "eet": 1394, "\u00ec\u0138\u0133": 1395, "\u012c\u013a": 1396, "\u00e3\u0123\u00a8": 1397, "ning": 1398, "\u00eb\u00a6\u00ac\u00eb\u012c\u0136": 1399, "\u0120co": 1400, "\u00e3\u0123\u0128": 1401, "\u00ec\u013d\u0122": 1402, "tw": 1403, "\u0124\u00e3": 1404, "get": 1405, "ough": 1406, "\u0120\u00eb\u0143": 1407, "\u0123\u0128": 1408, "\u00eb\u0140\u0126": 1409, "\u0120\u00ea\u00b8\u00b0\u00eb\u012d\u00a4": 1410, "\u00ec\u0124\u00b4": 1411, "\u00eb\u012d\u012a\u00ea\u00b9\u012e": 1412, "\u00ec\u0135": 1413, "sel": 1414, "\u0120\u00eb\u00af\u00bf": 1415, "\u00ec\u0138\u00b4\u00ec\u013c\u0136": 1416, "\u00eb\u0141\u00b0": 1417, "this": 1418, "\u0120su": 1419, "\u00ec\u00a7\u0122\u00eb\u012c\u0136": 1420, "with": 1421, "\u00eb\u00a7\u00a4": 1422, "right": 1423, "\u00eb\u0140\u0133": 1424, "ts": 1425, "\u0137\u00bc": 1426, "\u00ec\u013a\u00a8": 1427, "\u0120\u00ec\u0140\u00a1": 1428, "\u0120find": 1429, "\u0120home": 1430, "\u0120sp": 1431, "where": 1432, "\u0120con": 1433, "\u0120le": 1434, "'d": 1435, "\u0120\u00ed\u012e": 1436, "\u00eb\u0135\u013e": 1437, "\u0120\u00ed\u0136": 1438, "\u00ec\u0140\u0133": 1439, "\u00ea\u00b1\u00b0\u00ec\u0137\u00bc": 1440, "can": 1441, "\u0136\u00eb": 1442, "ble": 1443, "ms": 1444, "\u0120said": 1445, "\u00ed\u0126\u00b0": 1446, "\u0120\u00ea\u00bd": 1447, "\u0120any": 1448, "\u00e3\u0123\u0131": 1449, "\u00eb\u0135\u00a4\u00ec\u013f\u00b4": 1450, "\u00e3\u0124\u0134": 1451, "\u0123\u0131": 1452, "\u00eb\u00b0\u00a4": 1453, "\u00eb\u012d\u00b9\u00ec\u012d\u0142": 1454, "\u00eb\u00a6\u00ac\u00ea\u00b3\u0142": 1455, "\u00ac\u00ed\u0136": 1456, "\u0120\u00ea\u00b4": 1457, "\u0123\u00af": 1458, "\u0120\u00eb\u00b4\u0132": 1459, "\u0120\u00ed\u013d": 1460, "\u0120\u00ec\u00b6\u0136": 1461, "lie": 1462, "\u0120\u00ec\u0124\u00ac\u00eb\u0140\u0133\u00ed\u0137\u00b4": 1463, "\u0120\u00ea\u00b3\u00b3": 1464, "\u0120always": 1465, "\u0120ya": 1466, "\u0120\u00ed\u0138\u00a5": 1467, "\u00eb\u012d\u00a4\u00ec\u012d\u013e": 1468, "\u00ec\u00a1\u00b0": 1469, "\u0120\u00ec\u013e\u0126\u00ed\u0137\u00b4": 1470, "\u0120\u00ec\u013b\u013e": 1471, "\u013e\u00ea\u00b5\u00ac": 1472, "\u0120hold": 1473, "\u0120\u00ec\u00a1\u00b0": 1474, "\u00ec\u0136": 1475, "\u0120wait": 1476, "\u00e3\u0123\u00a7": 1477, "\u00ec\u0139\u0128\u00ec\u013f\u00b4": 1478, "\u0120had": 1479, "ls": 1480, "\u0120did": 1481, "wr": 1482, "\u0123\u00a7": 1483, "ber": 1484, "\u00e3\u0123\u00af": 1485, "\u00ec\u013e\u0126": 1486, "\u00eb\u0126\u0132": 1487, "\u0120were": 1488, "\u0120\u00ed\u0137\u013a\u00eb\u012c\u013a": 1489, "\u0120\u00ea\u00b5\u00ac": 1490, "\u00ec\u00bd": 1491, "\u0120mu": 1492, "\u0120\u00ed\u013f\u013a": 1493, "\u0120\u00ec\u00a4\u0126": 1494, "\u0120hi": 1495, "\u0120\u00ec\u0137\u0140": 1496, "\u0120boy": 1497, "cu": 1498, "\u0120\u00ea\u00b0\u013b\u00ec\u013f\u0122": 1499, "\u00b8\u00eb\u00a1\u013e": 1500, "\u00ea\u00b5\u00b4": 1501, "\u0120live": 1502, "\u0120\u00ec\u013f\u00b4\u00ec\u0142\u013e": 1503, "self": 1504, "side": 1505, "\u0120en": 1506, "\u0120\u00ec\u0140\u0142": 1507, "sk": 1508, "\u00ec\u0128\u012e\u00eb\u00a6\u00ac": 1509, "\u0120why": 1510, "\u00ac\u00ea": 1511, "\u00eb\u0124\u013a\u00ec\u013c\u0136": 1512, "\u0120\u00eb\u0126\u012e": 1513, "\u00eb\u0124\u013a\u00eb\u00a5\u00bc": 1514, "\u0140\u0132": 1515, "\u00eb\u00ac\u00b8": 1516, "they": 1517, "\u00ec\u00a6": 1518, "\u00e3\u0123\u012e": 1519, "\u0120\u00ed\u0136\u00bc": 1520, "\u0120\u00ec\u0124\u00b4\u00ec\u0137\u0126": 1521, "\u0120di": 1522, "\u00eb\u00b6\u0126": 1523, "orus": 1524, "\u0141\u00b0": 1525, "ation": 1526, "\u00eb\u00a7\u013f": 1527, "\u0120tonight": 1528, "\u00eb\u012a\u0126": 1529, "ei": 1530, "\u00ec\u0137\u0126\u00eb\u00ac\u00b4": 1531, "\u0123\u0142": 1532, "\u0120\u00ed\u013b": 1533, "\u0120str": 1534, "\u0120\u0120\u0120\u0120\u0120\u0120\u0120\u0120": 1535, "\u00ec\u0124\u00b0": 1536, "\u0120play": 1537, "\u00ec\u0125\u012a": 1538, "\u00eb\u0135\u00a4\u00ec\u0138\u00b4": 1539, "\u00eb\u013f\u00bc\u00eb\u013f\u00bc": 1540, "ct": 1541, "fore": 1542, "\u00a6\u00e3": 1543, "ady": 1544, "\u0120\u00ec\u0137\u0126\u00ed\u0136": 1545, "\u0120\u00eb\u00aa\u00a8\u00eb\u00a5\u00b4": 1546, "\u0120\u00eb\u00ac\u00bc": 1547, "\u00ea\u00be\u00b8": 1548, "\u0120them": 1549, "\u0120\u00ec\u0128\u012f\u00ec\u0139\u0132": 1550, "\u00ed\u0138\u012a\u00eb\u012f\u013a": 1551, "\u013a\u00ed": 1552, "\u00a8\u00eb": 1553, "\u013f\u00ec": 1554, "how": 1555, "\u0120tru": 1556, "oney": 1557, "nk": 1558, "\u0120his": 1559, "\u0120star": 1560, "\u00eb\u0126\u012a\u00ec\u013f\u013a": 1561, "\u0120stop": 1562, "\u00eb\u00b3\u00b4\u00eb\u012d\u00a4": 1563, "riend": 1564, "ite": 1565, "ik": 1566, "\u0123\u0135": 1567, "\u0126\u0132": 1568, "\u00ea\u00b0\u012a": 1569, "\u0120better": 1570, "\u0120off": 1571, "ease": 1572, "\u0109\u0120\u0120": 1573, "\u00ec\u0139\u00b0": 1574, "\u0120sun": 1575, "\u013a\u00a4": 1576, "ous": 1577, "\u0120sw": 1578, "\u012a\u00e3": 1579, "\u0140\u0126": 1580, "\u012a\u00eb\u013f\u00bc": 1581, "ex": 1582, "\u0135\u00a4": 1583, "sm": 1584, "lieve": 1585, "atch": 1586, "\u0120than": 1587, "\u00eb\u00a9\u00b4\u00ec\u0126\u013e": 1588, "\u0120\u00ea\u00b1\u00b0\u00ec\u0137\u00bc": 1589, "ent": 1590, "\u0142\u0129\u00ea\u00b2\u012e": 1591, "\u00ef\u00bf\u00bd\u00ef\u00bf\u00bd": 1592, "ted": 1593, "ft": 1594, "\u00bd\u00ef": 1595, "\u0120\u00eb\u00b9\u013d": 1596, "wn": 1597, "\u0120\u00eb\u00a9\u0122": 1598, "\u0120new": 1599, "\u00eb\u00b0\u013e": 1600, "\u00eb\u00b9\u0142": 1601, "\u0120hear": 1602, "\u00ec\u0128\u012e\u00ec\u0126\u013e": 1603, "\u01201": 1604, "\u00eb\u0137\u012e": 1605, "\u00b8\u00ec\u0142\u013e\u00eb\u0124\u013a": 1606, "\u0120stay": 1607, "du": 1608, "\u0120\u00ed\u0134": 1609, "\u00ec\u00a7\u0122\u00eb\u00a7\u012a": 1610, "\u012c\u00ec": 1611, "\u00ec\u0126\u00b8\u00ec\u0125\u0123": 1612, "time": 1613, "\u0120\u00ea\u00b3\u0123": 1614, "\u00ec\u013a\u0123": 1615, "\u0120\u00eb\u00b3\u00b4\u00ea\u00b3\u0142": 1616, "\u0120\u00ec\u013a\u00a4\u00eb\u012c\u013a": 1617, "\u00ea\u00b7\u00b8\u00eb\u0140\u013a": 1618, "\u0120\u00ec\u0137\u0126\u00eb\u012d": 1619, "\u00eb\u012a\u012a": 1620, "love": 1621, "\u0120\u00ec\u00b1": 1622, "\u00ec\u0126\u00b1": 1623, "ish": 1624, "\u0120\u00ec\u0138\u00b4\u00eb\u0138": 1625, "\u0120\u00ec\u00a7\u0122\u00ea\u00b8\u012a": 1626, "\u00b8\u00eb\u0142": 1627, "\u0120\u00ec\u00b0\u00be\u00ec\u0137\u0126": 1628, "\u00ec\u0142\u0123": 1629, "hey": 1630, "\u0132\u00eb": 1631, "chorus": 1632, "\u00ba\u00bc": 1633, "\u0120clo": 1634, "che": 1635, "\u0125\u00a5": 1636, "\u00ed\u0134": 1637, "\u0120\u00eb\u00b6\u012a": 1638, "\u0120gone": 1639, "\u0120\u00ec\u0125\u0123": 1640, "\u012a\u00ec\u00a3": 1641, "ui": 1642, "\u00eb\u012d\u00ac": 1643, "\u013c\u012e": 1644, "\u00e3\u0123\u0142": 1645, "\u0120things": 1646, "der": 1647, "\u0120gotta": 1648, "\u0120\u00ec\u0140\u0127": 1649, "\u00eb\u0132\u013a": 1650, "\u0120end": 1651, "rl": 1652, "\u0120believe": 1653, "\u0120really": 1654, "\u00e3\u0123\u0135": 1655, "\u0120na": 1656, "\u0120pre": 1657, "\u0120sk": 1658, "\u0120\u00ea\u00b0\u013b\u00ec\u0137\u0126": 1659, "af": 1660, "\u0120si": 1661, "\u0120should": 1662, "\u013e\u00bc": 1663, "\u0120cry": 1664, "''": 1665, "\u0120\u00eb\u0134": 1666, "\u0120nothing": 1667, "\u0120\u00eb\u013e": 1668, "\u0120much": 1669, "\u0120\u00ed\u0131": 1670, "\u0120show": 1671, "\u00ec\u00a7\u0122\u00ea\u00b8\u012a": 1672, "\u00ed\u0130": 1673, "\u00ec\u013f\u0126\u00ea\u00b9\u012e": 1674, "\u00ed\u0133": 1675, "ting": 1676, "hh": 1677, "like": 1678, "ny": 1679, "\u00ed\u0137\u013a\u00eb\u0124\u013a": 1680, "\u00ec\u0128\u012f\u00ec\u0139\u0132": 1681, "\u0120wr": 1682, "\u00e3\u0123\u00be": 1683, "\u0120mi": 1684, "\u00eb\u012d\u00a4\u00eb\u012c\u0136": 1685, "\u00ea\u00b8\u00b4": 1686, "\u00e3\u0123\u00aa\u00e3\u0123\u0126": 1687, "\u0120\u00ec\u0138\u00b4\u00eb\u0136\u0136": 1688, "\u0120\u00ea\u00bd\u0125": 1689, "ity": 1690, "ess": 1691, "\u0123\u00be": 1692, "\u0120\u00ec\u00a7\u0122\u00eb\u0124\u013a": 1693, "\u0137\u00ec": 1694, "\u0120leave": 1695, "\u0120\u00ec\u00a3\u00bc\u00eb\u012d\u013a": 1696, "\u00eb\u0125\u0132": 1697, "\u00eb\u0126\u012e": 1698, "\u00eb\u0124\u013a\u00ec\u013f\u00b4": 1699, "\u0120head": 1700, "\u00e4\u00b8": 1701, "\u0120\u00eb\u00b0\u013d": 1702, "\u00ed\u013a\u0122": 1703, "\u0132\u00ed": 1704, "\u0120\u00ea\u00b2\u012e": 1705, "\u0120break": 1706, "\u0120\u00eb\u00b0\u0136\u00eb\u0140\u012e": 1707, "\u0120\u00ec\u0142\u0137\u00eb\u00a7\u0132": 1708, "\u00eb\u0124\u00a8": 1709, "\u00eb\u00a9\u0136": 1710, "\u0120\u00ec\u012a\u00a8": 1711, "\u0120\u00ec\u0139\u0128\u00ec\u013f\u00b4": 1712, "\u00b8\u00eb\u012f": 1713, "\u00eb\u00b2\u0126\u00eb\u00a6\u00b0": 1714, "\u00ec\u00a7\u013f": 1715, "\u0120hard": 1716, "\u00ea\u00b7\u00bc": 1717, "\u0120into": 1718, "\u0120pla": 1719, "\u00ec\u0126\u00b8\u00ec\u013c\u0136": 1720, "\u00aa\u00a8": 1721, "\u0120\u00eb\u00b6\u012a\u00eb": 1722, "\u0120alone": 1723, "ked": 1724, "\u00eb\u013f\u00bc\u00ea\u00b3\u0142": 1725, "\u00ec\u00b4": 1726, "\u0120\u00eb\u0131\u0126": 1727, "\u0120friend": 1728, "\u0120br": 1729, "\u0120high": 1730, "\u00ac\u00ed": 1731, "\u0120\u00ec\u012b": 1732, "\u012a\u00ed": 1733, "\u0120fi": 1734, "\u0120\u00eb\u00aa\u00a9": 1735, "\u0126\u012e": 1736, "\u0120\u00ed\u0123": 1737, "\u0120thing": 1738, "\u0120gu": 1739, "ark": 1740, "\u0120nig": 1741, "ears": 1742, "\u01202": 1743, "\u00eb\u00a7\u012b": 1744, "ob": 1745, "\u00eb\u0126\u012a\u00eb\u00a5\u00bc": 1746, "\u0120\u00ec\u00a7\u0126": 1747, "\u00eb\u013a\u0132": 1748, "\u0120then": 1749, "\u0120\u00eb\u00b0\u013a": 1750, "\u0120\u00ea\u00bc": 1751, "\u00eb\u0135\u013f": 1752, "\u0120\u00ec\u0137\u0126\u00eb\u012d\u012a": 1753, "\u0120talk": 1754, "ud": 1755, "\u0120walk": 1756, "\u00e3\u0124\u012c": 1757, "\u0120\u00ec\u013a\u0123\u00ec\u013d\u0132": 1758, "ought": 1759, "\u013d\u00e3": 1760, "ant": 1761, "\u00a7\u0126": 1762, "\u00eb\u012d\u00b5": 1763, "\u00eb\u012e\u0122\u00eb\u00a1\u013e": 1764, "\u0120\u00ec\u0124\u00ac\u00eb\u0140\u0133\u00ec\u013f\u0126": 1765, "\u0120\u00eb\u0135\u00a4\u00ec\u0138\u00b4": 1766, "\u012a\u00ec\u013e\u00bc": 1767, "\u0120\u00ec\u00b0\u00b8": 1768, "\u0120\u00eb\u0131\u00bc": 1769, "\u0120\u00ec\u0137\u0126\u00eb\u00ac\u00b4": 1770, "\u0131\u00e3": 1771, "\u00a5\u00ed": 1772, "\u0120rock": 1773, "\u0120da": 1774, "\u00ed\u013a\u00b8": 1775, "\u0120sing": 1776, "\u0120bit": 1777, "\u0137\u0143": 1778, "\u00ea\u00b2\u0142\u00ec\u00a7\u0122": 1779, "\u0128\u00e3": 1780, "\u00ec\u0128\u0132": 1781, "\u0120\u00ed\u0130": 1782, "\u0120\u00eb\u00b3\u0122": 1783, "\u0120song": 1784, "\u0120\u00ea\u00b0\u0126": 1785, "\u00eb\u00a6\u0126\u00eb\u012d\u00a4": 1786, "\u0120ver": 1787, "\u0120\u00ec\u012a\u013e\u00ea\u00b0\u0126": 1788, "\u0120sou": 1789, "\u0120\u00ec\u0135": 1790, "\u0120turn": 1791, "\u0120\u00ec\u013b\u0122": 1792, "\u0120cra": 1793, "\u00a4\u00ed": 1794, "\u00eb\u012d\u00a4\u00ea\u00b0\u0122": 1795, "\u00ec\u013a\u00ac": 1796, "\u0120\u00ec\u00b0\u00a8": 1797, "\u0120\u00ec\u0139\u00b4": 1798, "\u00eb\u00b9\u013d": 1799, "\u00ec\u013f\u00b4\u00ec\u0142\u0142": 1800, "\u0120\u00ec\u0142\u013e": 1801, "\u00b8\u0142": 1802, "\u00eb\u0142\u00b8": 1803, "\u00ed\u0137\u00a8": 1804, "\u00ed\u0136\u00bc": 1805, "\u012a\u00ec\u00b9": 1806, "\u00ec\u0142\u012a": 1807, "==": 1808, "\u0120\u00eb\u00aa\u00b0\u00eb\u013f\u00bc": 1809, "\u0120\u00ec\u0124\u00ac\u00eb\u0140\u0133\u00ec\u013f\u00b4": 1810, "~~": 1811, "\u00eb\u0131\u012e\u00ec\u0137\u0126": 1812, "\u00e3\u0123\u0133": 1813, "\u0120\u00eb\u0136\u00b0": 1814, "\u0120fuck": 1815, "\u0120everything": 1816, "\u00ec\u0137\u0126\u00ec\u013c\u0136": 1817, "ps": 1818, "\u0120un": 1819, "\u0123\u0133": 1820, "\u00ec\u00b0\u00ae": 1821, "\u00ed\u0137\u00b4\u00ec\u013c\u0136": 1822, "\u0120\u00eb\u00bf": 1823, "\u0120\u00ed\u0125\u0122": 1824, "\u0142\u0122": 1825, "feat": 1826, "\u0120\u00ed\u0138\u012a": 1827, "\u0120real": 1828, "\u0120\u00ec\u00b6\u0136\u00ec\u0138\u00b5": 1829, "zy": 1830, "\u00ec\u00a7\u0135": 1831, "\u0120\u00ed\u0137\u013a\u00eb\u012c\u0136": 1832, "\u00e3\u0123\u012f": 1833, "\u0120\u00eb\u00a7\u012e\u00eb\u0124\u013a": 1834, "\u00ec\u00a4\u0133": 1835, "\u0120\u00ec\u0128\u012e\u00eb\u00a6\u00ac": 1836, "ise": 1837, "\u0123\u012f": 1838, "\u00ec\u00b9\u013e": 1839, "\u0120under": 1840, "\u00eb\u00a8\u00b8": 1841, "\u0120\u00ec\u012c\u00ac\u00ed\u0136": 1842, "\u00eb\u0126\u012a\u00eb\u00ac\u00b4": 1843, "\u00ec\u00b6\u0136": 1844, "\u00ec\u00b3\u0132": 1845, "\u0120something": 1846, "\u00ec\u013d\u0136": 1847, "who": 1848, "\u0120him": 1849, "well": 1850, "\u0120ea": 1851, "\u0120pa": 1852, "\u0120\u00ed\u0139\u00a4": 1853, "\u00ea\u00b3\u0126": 1854, "\u00eb\u00aa\u00bb": 1855, "\u0120\u00ed\u0137\u013a\u00eb\u00a3\u00a8": 1856, "\u00ec\u0139\u012a\u00ec\u0138\u00b4": 1857, "\u0120care": 1858, "gl": 1859, "\u0120\u00eb\u00b3\u0126": 1860, "\u0120free": 1861, "your": 1862, "\u0120\u00ec\u00b1\u0126": 1863, "\u013c\u00b4": 1864, "\u0120\u00eb\u00a7\u00a4": 1865, "jo": 1866, "\u00ec\u00bf\u0142": 1867, "\u00ec\u0139\u012a\u00eb\u012f\u013a": 1868, "usic": 1869, "\u0120\u00ec\u012d\u00ab": 1870, "\u0120sho": 1871, "\u0126\u00a4": 1872, "\u00eb\u013f\u00bc\u00eb\u0131\u0126": 1873, "ster": 1874, "\u00ed\u0137\u00a9": 1875, "oc": 1876, "\u0120\u00ea\u00b3\u0126": 1877, "\u0120\u00eb\u0137": 1878, "\u0122\u00ed": 1879, "\u0120\u00ec\u013a\u00ac": 1880, "\u0128\u00ec": 1881, "\u0120\u00ec\u013f\u00b4\u00eb\u0142\u0129\u00ea\u00b2\u012e": 1882, "\u0120\u00ec\u00b0\u00ac": 1883, "\u0120face": 1884, "\u0120\u00eb\u00b3\u00bc": 1885, "\u0120name": 1886, "\u0120chi": 1887, "\u012a\u00ec\u00b6": 1888, "\u0120\u00e3": 1889, "\u0123\u013e": 1890, "\u0120going": 1891, "\u00e3\u0124\u012a": 1892, "\u00ec\u013a\u0122": 1893, "\u00ec\u00a9": 1894, "\u00ec\u0140\u00a1": 1895, "\u00eb\u00a6\u00ac\u00eb\u013f\u00bc": 1896, "\u00e3\u0124\u0135": 1897, "\u0120\u00eb\u0143\u0132": 1898, "\u0120part": 1899, "\u0133\u00e3": 1900, "\u0120\u00eb\u0133\u013a": 1901, "\u00eb\u00a7\u012a\u00ec\u013f\u012e": 1902, "\u0120bro": 1903, "\u0120bla": 1904, "\u0120\u00eb\u0131\u013b": 1905, "\u0120\u00ec\u013f\u00b4\u00eb\u00a6\u0126": 1906, "\u012e\u00ed": 1907, "got": 1908, "\u00a7\u0132": 1909, "\u00eb\u0135\u00a4\u00ec\u013f\u0122": 1910, "\u0120change": 1911, "\u00eb\u0135\u00af": 1912, "\u0120\u00eb\u00b2\u012a": 1913, "\u0120put": 1914, "\u0120\u00eb\u00b0\u013e": 1915, "\u0120\u00ec\u013a\u00a8": 1916, "\u0120\u00ec\u0140\u0133": 1917, "ople": 1918, "\u012c\u00e3": 1919, "\u0140\u0133": 1920, "\u0120\u00ec\u0138\u00bc\u00ea\u00b5\u00b4": 1921, "\u0120dance": 1922, "\u0123\u012a": 1923, "\u0120rain": 1924, "\u00ed\u0137\u013a\u00eb\u012c\u013a": 1925, "\u00eb\u00b0\u0136\u00eb\u0140\u012e": 1926, "\u0120che": 1927, "\u013e\u00ec\u00b0\u00ae": 1928, "\u0120stand": 1929, "take": 1930, "\u00b0\u00ea": 1931, "\u00eb\u00a7\u012a\u00eb": 1932, "\u00ea\u00b5\u0143": 1933, "\u00ed\u012c": 1934, "ned": 1935, "\u0120ex": 1936, "tion": 1937, "\u0120\u00ea\u00b0\u012a": 1938, "\u0143\u00ec\u0125\u0123": 1939, "\u0120\u00eb\u012d\u00a4\u00ea\u00b0\u0122": 1940, "\u00ec\u0127": 1941, "\u00ea\u00b8\u00b0\u00ec\u0139\u0132": 1942, "\u0120sc": 1943, "\u0120\u00ec\u00b9\u013e\u00ea\u00b5\u00ac": 1944, "\u0120\u00ed\u013a\u00bc\u00ec\u0140\u0132": 1945, "\u00ea\u00bd\u0125": 1946, "\u0120happ": 1947, "\u0120\u00ec\u0124\u00b6": 1948, "\u00ea\u00b8\u00b0\u00eb\u00a5\u00bc": 1949, "why": 1950, "\u00ed\u0137\u00b4\u00eb\u0131\u0126": 1951, "\u012f\u00ec": 1952, "\u0120bea": 1953, "ull": 1954, "ose": 1955, "\u0120made": 1956, "\u00e5\u0132": 1957, "\u00a4\u00ea": 1958, "ze": 1959, "\u0120cl": 1960, "\u0120pe": 1961, "\u0120vi": 1962, "\u0120\u00ec\u0139\u00ac\u00ec\u0140\u0132": 1963, "\u00ec\u00a3\u00bc\u00eb\u012d\u013a": 1964, "\u0123\u013a": 1965, "\u0120\u00ec\u012d\u0142": 1966, "\u012b\u00e3": 1967, "\u012f\u00e3": 1968, "\u0137\u012a": 1969, "\u00ec\u00b2\u013e": 1970, "\u00ec\u013b\u013e": 1971, "\u0127\u0122": 1972, "\u00eb\u0131\u0126\u00eb\u00a1\u013f": 1973, "\u0120\u00ea\u00b0\u0122\u00eb\u012c\u0136": 1974, "\u00ea\u00b0\u0132": 1975, "\u0120\u00eb\u00a7\u0140": 1976, "\u0120\u00ed\u013f\u013a\u00eb\u0141\u00ac": 1977, "\u0120fore": 1978, "\u00ea\u00b0\u013b\u00ec\u013f\u0122": 1979, "\u0120hey": 1980, "\u00eb\u00b6\u0122\u00ed\u0126\u00b0": 1981, "\u00be\u00e3": 1982, "\u00eb\u00aa\u00a8\u00eb\u0133\u0132": 1983, "\u0120mine": 1984, "\u00ea\u00b2\u0132": 1985, "\u0136\u00ed": 1986, "\u00ec\u013e\u00bc\u00eb\u00a9\u00b4": 1987, "ool": 1988, "\u0120\u00eb\u012d\u012a\u00ea\u00b0\u0122": 1989, "\u0120\u00ec\u0126\u0142": 1990, "\u0120\u00eb\u0128\u0135": 1991, "\u0120bad": 1992, "\u00ec\u00b9\u00a8": 1993, "tell": 1994, "\u0120\u00eb\u0134\u00a4": 1995, "\u0120\u00eb\u0136\u00b0\u00eb\u013f\u00bc": 1996, "\u00e3\u0123\u0124": 1997, "\u0120music": 1998, "\u0120place": 1999, "\u0123\u0124": 2000, "\u0120tra": 2001, "\u00eb\u0124\u00b4\u00ea\u00b2\u012e": 2002, "ave": 2003, "sy": 2004, "\u00ed\u0123\u00bc": 2005, "\u0120\u00ed\u0125\u013e": 2006, "\u0120last": 2007, "\u00bc\u00ed": 2008, "\u0142\u00e3": 2009, "\u0120dea": 2010, "\u00e5\u00a4": 2011, "ag": 2012, "\u0120inside": 2013, "\u0120ar": 2014, "mp": 2015, "mor": 2016, "\u0120shit": 2017, "les": 2018, "\u0120\u00ec\u00a2\u0122": 2019, "\u0120\u00ed\u013f\u0132": 2020, "\u00eb\u0136\u00b0": 2021, "mber": 2022, "\u0120before": 2023, "\u0120\u00eb\u0126\u013a": 2024, "\u00ec\u0138\u00b4\u00eb\u0124\u013a": 2025, "\u0122\u00ea": 2026, "ass": 2027, "ia": 2028, "\u0120pr": 2029, "\u0120\u00ec\u0137\u0126\u00ec\u00a7\u0123": 2030, "\u00e3\u0123\u012a": 2031, "\u0120\u00ec\u0137\u012a\u00eb": 2032, "\u0120\u00ec\u012c\u00a4": 2033, "\u0120fire": 2034, "\u0120yo": 2035, "\u0120\u00ed\u0128": 2036, "\u0120\u00ed\u013f\u0136": 2037, "\u0120\u00ec\u0137\u012e\u00ec\u0137\u0126": 2038, "\u012f\u00a8": 2039, "\u0120fly": 2040, "rist": 2041, "\u0120\u00eb\u013f\u00bc": 2042, "\u0120\u00ec\u013a\u012a\u00ec\u012a\u013a": 2043, "\u0120feeling": 2044, "\u0120\u00ea\u00b3\u0123\u00ec\u0139\u0132": 2045, "\u00eb\u00b0\u00a9": 2046, "ooh": 2047, "\u00a8\u00e3": 2048, "\u0142\u00ea": 2049, "\u00ec\u0140\u012c": 2050, "\u0120\u00eb\u0126\u012a\u00ec\u013b\u0122": 2051, "\u0120blu": 2052, "\u00ab\u00e3": 2053, "\u0120same": 2054, "rd": 2055, "less": 2056, "\u00ec\u0137\u0126\u00ec\u00a7\u0123": 2057, "\u00ec\u0138\u00b4\u00eb\u0131\u0126": 2058, "\u0120left": 2059, "\u00e3\u0123\u00a3\u00e3\u0123\u00a6": 2060, "\u0120ano": 2061, "\u0120these": 2062, "\u00a5\u00ec": 2063, "\u013b\u013e": 2064, "\u0132\u00ea": 2065, "\u012a\u00eb\u00b9": 2066, "ely": 2067, "\u00ec\u013a\u012a": 2068, "\u00ec\u00bb": 2069, "gether": 2070, "\u00ed\u0137\u013a\u00ec\u00a7\u0122\u00eb\u00a7\u012e": 2071, "\u0120\u00ea\u00b9\u012c": 2072, "\u00eb\u0127\u0126": 2073, "\u00ea\u00b2\u0142\u00ec\u0138\u00b4": 2074, "\u0120\u00ec\u00b2\u013a": 2075, "\u0120\u00eb\u0128\u0122": 2076, "\u0120\u00eb\u00b0\u00a9": 2077, "never": 2078, "\u0120\u00eb\u00aa\u00b8": 2079, "\u013f\u00e3": 2080, "\u0120even": 2081, "\u0120car": 2082, "\u0120old": 2083, "\u0120\u00ea\u00b0\u0122\u00eb\u0135\u013f": 2084, "\u00ed\u013a\u00bc": 2085, "\u00ec\u013b\u0136": 2086, "\u00ea\u00b2\u00b0": 2087, "\u0120soul": 2088, "mer": 2089, "\u0120wrong": 2090, "\u0120pain": 2091, "\u00eb\u012d\u012a\u00ea\u00b0\u0122": 2092, "rn": 2093, "\u0120\u00ed\u0133": 2094, "\u0120may": 2095, "\u00eb\u00b0\u00b1": 2096, "\u0120\"": 2097, "\u00ec\u012d\u013f": 2098, "\u0120sky": 2099, "\u0120another": 2100, "\u0120tri": 2101, "\u00e3\u0123\u00a4": 2102, "\u00eb\u013c": 2103, "king": 2104, "vin": 2105, "\u00eb\u00a5\u00b4\u00eb\u012c\u0136": 2106, "\u00ec\u013f\u00b4\u00eb\u012c\u0136": 2107, "\u00ae\u00e3": 2108, "\u0120pro": 2109, "\u0123\u00a4": 2110, "\u0120\u00ed\u0137\u013a\u00ea\u00b3\u0142": 2111, "\u0137\u00e3": 2112, "\u00ec\u0124\u00ac\u00eb\u0140\u012e": 2113, "ht": 2114, "\u00e3\u0123\u013f": 2115, "\u00eb\u0126\u012a\u00ec\u013b\u0122": 2116, "\u00ec\u0138\u00bc": 2117, "\u0120thought": 2118, "uc": 2119, "\u00ea\u00b3\u00b3": 2120, "\u0120sl": 2121, "ure": 2122, "\u00bd\u00ec": 2123, "\u00ec\u0139\u0128\u00eb\u012c\u0136": 2124, "\u0120has": 2125, "\u0120forever": 2126, "\u0120move": 2127, "\u00ec\u00bc\u013e": 2128, "\u012f\u00bc": 2129, "\u0120side": 2130, "\u0120true": 2131, "ick": 2132, "\u00eb\u00b6\u012a": 2133, "\u0120\u00ec\u0137\u012c\u00eb\u012c\u0136": 2134, "ord": 2135, "\u00ec\u0138\u00b4\u00eb\u0138": 2136, "\u00ed\u0138\u00a5": 2137, "\u00ec\u012d\u013e\u00ea\u00b0\u0126": 2138, "\u0120\u00eb\u0132\u0142": 2139, "\u0120mean": 2140, "\u0120money": 2141, "\u0120\u00ec\u0137\u00bd": 2142, "\u0120\u00ea\u00b9\u00a8": 2143, "\u0120without": 2144, "\u0120die": 2145, "\u0120stre": 2146, "\u0120\u00eb\u0131\u012e": 2147, "\u00ec\u012a\u0142": 2148, "\u0127\u00ec": 2149, "\u00ec\u012a\u00a8": 2150, "\u0120miss": 2151, "\u0120\u00ec\u0138\u013a": 2152, "llow": 2153, "\u0120start": 2154, "\u0120\u00ec\u0125\u012a": 2155, "\u0120other": 2156, "\u0120\u00eb\u00b9\u0142": 2157, "til": 2158, "\u0120\u00ea\u00b7\u00b8\u00eb\u0141\u00b0": 2159, "\u0120hands": 2160, "\u00a9\u00b4": 2161, "\u00ea\u00b5\u00ac\u00eb\u0124\u013a": 2162, "\u0120\u00ec\u0137\u0142": 2163, "\u0120people": 2164, "\u012e\u012a": 2165, "\u0120lost": 2166, "\u00ec\u0126\u00a4": 2167, "\u0120bl": 2168, "\u00ec\u0140\u0136": 2169, "\u0120\u00eb\u00b0\u0136\u00eb\u013f\u00bc\u00eb\u00b3\u00b4": 2170, "\u00bb\u00ea\u00b2\u012e": 2171, "\u00ec\u00bd\u0136": 2172, "\u0120\u00eb\u00a7\u0132\u00ed\u0137\u00b4": 2173, "\u0120own": 2174, "\u00b8\u00ea": 2175, "\u0120\u00eb\u00aa\u00b0": 2176, "----": 2177, "member": 2178, "\u0120\u00ec\u00a3\u00bd": 2179, "\u0120far": 2180, "\u0120\u00ec\u013f\u012e": 2181, "\u00eb\u0123\u00bc": 2182, "\u00a3\u00a8": 2183, "\u0120\u00eb\u012d\u00a4\u00eb\u00a5\u00b8": 2184, "\u00ea\u00bf\u012a": 2185, "\u0120\u00eb\u0124\u00a8\u00ec\u0140\u0132": 2186, "\u0120nigga": 2187, "\u0120myself": 2188, "rr": 2189, "\u00ea\u00b0\u0122\u00ec\u012c\u00b4": 2190, "\u00ed\u0137\u013a\u00eb\u00a3\u00a8": 2191, "\u0120\u00eb\u0135\u00af": 2192, "\u0120hur": 2193, "\u0120q": 2194, "\u0120\u00ec\u013f\u00b4\u00eb\u00b3\u0126": 2195, "\u0120god": 2196, "\u0120smi": 2197, "\u00eb\u00bb": 2198, "\u0120\u00eb\u00a7\u012a\u00ec\u013f\u012e\u00ec\u013f\u0126": 2199, "\u0120\u00ec\u012d\u00b6\u00ec\u013f\u0122": 2200, "\u0120beat": 2201, "\u0120body": 2202, "\u00ed\u0137\u013a\u00eb\u00a9\u00b0": 2203, "\u0120\u00ea\u00b7\u00b8\u00eb\u0140\u013a": 2204, "ouch": 2205, "ump": 2206, "\u0126\u00ec\u013c\u0136": 2207, "\u00ed\u0137\u013a\u00ec\u0139\u00ac": 2208, "\u0135\u0142": 2209, "light": 2210, "\u0120\u00eb\u00a8\u00b9": 2211, "\u00eb\u00a6\u0126\u00eb\u012d\u00a4\u00ec\u013c\u00b4": 2212, "\u0120\u00eb\u00a8\u00b8": 2213, "\u0120el": 2214, "\u0139\u012a": 2215, "\u00ec\u0142\u0132": 2216, "\u0120gre": 2217, "\u0120together": 2218, "\u0120\u00ea\u00b1\u00b8\u00ec\u0138\u00b4": 2219, "\u0120\u00eb\u00bf\u0132": 2220, "\u0124\u00a4": 2221, "\u012f\u0136": 2222, "\u00eb\u0131\u00bc": 2223, "\u00ec\u00a4\u0122": 2224, "\u00eb\u00b0\u00b0": 2225, "\u0120cha": 2226, "\u00eb\u012a\u012a\u00eb\u00ac\u00bc": 2227, "\u0120\u00ec\u013f\u00b4\u00ec\u0142\u0142": 2228, "\u0120two": 2229, "live": 2230, "\u0120\u00ec\u00a7\u0133": 2231, "\u00ec\u00a7\u0122\u00eb\u0131\u0126": 2232, "\u00ea\u00b5\u00b0": 2233, "\u0120se": 2234, "\u0120wish": 2235, "then": 2236, "\u0120mor": 2237, "\u0120\u00eb\u00af\u00b8\u00ec\u0128\u012e": 2238, "\u0120roll": 2239, "\u00ec\u00a7\u0122\u00ea\u00b3\u0142": 2240, "\u00ec\u013f\u00b4\u00eb\u0142\u0129\u00ea\u00b2\u012e": 2241, "\u0120enough": 2242, "\u0120\u00ec\u012d\u013e\u00ec\u0140\u0133": 2243, "\u0120lon": 2244, "\u0120\u00eb\u00a9\u012a\u00ec\u00b6": 2245, "\u00eb\u00a7\u012e\u00ec\u013f\u0126": 2246, "\u0120\u00ec\u0128\u0132\u00ec\u013f\u0126": 2247, "\u00eb\u0135\u00a4\u00ec\u013f\u0126": 2248, "\u00ea\u00bb\u00b4": 2249, "\u0120\u00eb\u00a7\u0130\u00ec\u013f\u0122": 2250, "\u00b0\u0136": 2251, "lp": 2252, "\u0120\u00ea\u00b7\u00b8\u00eb\u0142\u0129\u00ea\u00b2\u012e": 2253, "\u0120\u00eb\u00b3\u00b4\u00ec\u0139\u00ac": 2254, "\u0120kiss": 2255, "\u0120.": 2256, "\u00eb\u0124\u013a\u00eb\u0124\u013a": 2257, "\u0120\u00eb\u0138\u00a8": 2258, "\u0120fun": 2259, "\u0126\u00ea": 2260, "\u0123\u0137": 2261, "\u0120crazy": 2262, "\u0120ri": 2263, "\u00eb\u0126\u00a4\u00ec\u013c\u0136": 2264, "\u00a3\u00bc": 2265, "\u0120\u00ec\u0139\u00b0": 2266, "\u00ed\u0138\u012b": 2267, "\u00ec\u0140\u012a\u00eb\u012c\u0136": 2268, "\u00eb\u00b3\u00bc": 2269, "\u00ea\u00b8\u0122": 2270, "\u0120whi": 2271, "\u0120\u00ec\u013b\u0136": 2272, "\u00eb\u00aa\u00a8\u00eb\u0135\u0142": 2273, "\u0120\u00ed\u012e\u012e": 2274, "\u0120\u00eb\u0128\u0134": 2275, "stand": 2276, "\u0120\u00eb\u0126\u00a4\u00ea\u00b0\u0122": 2277, "new": 2278, "\u00ec\u013c\u00a9": 2279, "\u00ea\u00b0\u013b\u00ec\u013f\u00b4": 2280, "\u0120uh": 2281, "\u00ec\u0137\u0127": 2282, "\u0123\u00e3": 2283, "\u00eb\u00a7\u012a\u00ec": 2284, "\u0120big": 2285, "\u00ec\u00a7\u0133": 2286, "\u0120\u00eb\u00b6\u012a\u00eb\u0141\u00ac": 2287, "\u0120que": 2288, "\u0120\u00ec\u00a6": 2289, "nu": 2290, "ling": 2291, "\u0120\u00ed\u0137\u00b4\u00eb\u0131\u0126": 2292, "\u0120\u00ec\u013f\u00b8\u00ec\u0125\u013f": 2293, "\u0120\u00eb\u0132\u013a\u00ec\u0138\u00b4": 2294, "\u00eb\u0123\u013f": 2295, "\u00eb\u0124\u00ac": 2296, "com": 2297, "\u00ed\u013d\u0126": 2298, "\u0120days": 2299, "\u0120\u00eb\u012a\u012a\u00ec\u013f\u0126": 2300, "\u0120\u00ec\u0125\u012a\u00eb": 2301, "\u0120ooh": 2302, "ub": 2303, "\u0126\u013e": 2304, "\u00eb\u00a7\u012a\u00eb\u012d\u00a4": 2305, "\u0120\u00ea\u00b7\u0122": 2306, "iful": 2307, "au": 2308, "\u0120\u00ea\u00b0\u0137": 2309, "\u0120\u00eb\u012d\u00b4": 2310, "\u0120\u00ea\u00b1\u00b7": 2311, "\u0120ah": 2312, "\u00ec\u0137\u00bd": 2313, "\u00eb\u00a7\u0130": 2314, "\u00eb\u00a6\u00bc": 2315, "\u00ec\u012d\u00b6": 2316, "\u0120\u00ea\u00b4\u013e\u00ec\u00b0\u00ae": 2317, "\u00eb\u0138\u0142": 2318, "\u0120\u00ea\u00b0\u013b\u00ec\u013f\u00b4": 2319, "\u0120\u00ec\u00a2\u012d\u00ec\u013f\u0122": 2320, "\u0120\u00eb\u00b3\u00b4\u00eb\u0124\u00b4": 2321, "\u0120dr": 2322, "res": 2323, "mas": 2324, "anc": 2325, "\u0120beaut": 2326, "\u00ec\u0137\u0142": 2327, "\u0120\u00eb\u0135\u013e": 2328, "\u00e4\u00ba": 2329, "ken": 2330, "\u0120\u00ec\u013e\u0142": 2331, "\u00eb\u00bf\u0132": 2332, "sion": 2333, "\u0120\u00ec\u0124\u00ac\u00eb\u0140\u0133\u00ed\u0137\u013e": 2334, "\u0120fight": 2335, "\u00ed\u013f\u00ac": 2336, "\u00ec\u0140\u0142": 2337, "\u00eb\u0124\u013a\u00eb\u0131\u0126": 2338, "\u00ed\u012d": 2339, "\u00e3\u0123\u0137": 2340, "\u012a\u00ec\u00a3\u0142": 2341, "\u0120\u00ec\u0137\u0140\u00ec\u0139\u0132": 2342, "\u00ed\u0137\u013a\u00eb\u00a9\u00b4": 2343, "\u00a9\u00ec": 2344, "\u00ec\u0139\u0129": 2345, "\u00ec\u0140\u0126": 2346, "ness": 2347, "\u0120\u00eb\u012d\u00a8": 2348, "\u00ed\u0139\u00a4": 2349, "\u0120\u00eb\u013e\u00a8": 2350, "\u0120des": 2351, "\u0120\u00eb\u0126\u012a\u00eb\u012c\u0136": 2352, "\u0120\u00ed\u0137\u0126\u00ec\u013c\u0136": 2353, "\u00ec\u0138\u00b8\u00ec\u0142\u013e\u00eb\u0124\u013a": 2354, "\u0120alright": 2355, "\u00ec\u00a7\u013e": 2356, "\u00ea\u00ba\u00bc": 2357, "\u0120\u00ec\u0140\u012a\u00ec\u013f\u0126": 2358, "\u0120\u00ec\u013f\u013a": 2359, "\u00eb\u0126\u00a4\u00ea\u00b0\u0122": 2360, "\u0120mat": 2361, "\u0120x": 2362, "\u0120\u00ec\u0139\u00ac\u00ea\u00b8\u00b0": 2363, "give": 2364, "\u0120christ": 2365, "\u0120\u00eb\u012c\u013a": 2366, "\u0120dark": 2367, "ins": 2368, "ste": 2369, "\u00ec\u013f\u00b4\u00eb\u0140\u0122": 2370, "\u0120\u00ec\u0124\u00b0": 2371, "bye": 2372, "girl": 2373, "\u0120po": 2374, "\u0120\u00ed\u0137\u013a\u00eb\u0124\u013a\u00eb\u012d\u013a": 2375, "wor": 2376, "\u00eb\u012d\u00b9": 2377, "\u0120\u00ea\u00b8\u00b8\u00ec\u013f\u0126": 2378, "\u0120wind": 2379, "\u0120\u00ec\u0140\u00a5": 2380, "\u0120done": 2381, "\u0120\u00ec\u0137\u0126\u00eb\u012d\u012e": 2382, "\u00ec\u0139\u012a\u00ec\u00a7\u0122": 2383, "\u00ec\u0138\u00b4\u00ec\u0142\u00b8": 2384, "irst": 2385, "\u0120\u00eb\u0137\u012e\u00eb\u00ac\u00b8": 2386, "\u0126\u00eb\u00a7\u012a": 2387, "\u00ec\u013f\u00b4\u00ec\u00a7\u0122": 2388, "sten": 2389, "\u0120\u00eb\u012d\u00ac\u00eb\u0142\u00a4": 2390, "ush": 2391, "\u00ec\u00a7\u0122\u00eb\u00a7\u012b": 2392, "\u00ed\u012a": 2393, "\u00ec\u00a2\u012d": 2394, "\u0137\u00ed": 2395, "\u0120\u00ed\u0137\u013e\u00eb\u00b2\u012a": 2396, "\u0137\u00eb": 2397, "\u0120dis": 2398, "\u012b\u00ec": 2399, "\u00eb\u0126\u012a\u00eb\u012c\u0136": 2400, "\u00ed\u0128\u00b5": 2401, "\u0120\u00eb\u0124\u0142\u00ec\u0137\u0126": 2402, "\u012d\u013a": 2403, "\u0120ra": 2404, "\u0120sweet": 2405, "\u00eb\u013d": 2406, "\u0120war": 2407, "\u0120best": 2408, "\u0120coming": 2409, "\u0120\u00eb\u012c\u0132\u00eb\u0124": 2410, "\u0120ang": 2411, "\u012d\u013e": 2412, "\u0120per": 2413, "ja": 2414, "\u00bc\u0122": 2415, "\u00ec\u013d\u0125": 2416, "\u0120sleep": 2417, "\u0120\u00eb\u0124\u013a\u00eb\u0131\u0126": 2418, "\u0126\u00b8": 2419, "\u00ed\u0137\u00a9\u00eb\u012d\u012a\u00eb\u012d\u00a4": 2420, "\u0120\u00ec\u0140\u0125": 2421, "\u0120\u00eb\u00a9\u0122\u00eb\u00a6\u00ac": 2422, "\u012d\u00ac": 2423, "eh": 2424, "look": 2425, "\u0120\u00ea\u00b7\u00b8\u00eb\u0125\u00a5": 2426, "\u00b8\u00ed": 2427, "orn": 2428, "\u00eb\u0131\u012e": 2429, "\u0120dri": 2430, "\u0120wonder": 2431, "\u00ec\u013a\u00a4\u00eb\u012c\u0136": 2432, "\u0120af": 2433, "\u0120\u00ec\u00bd\u0136": 2434, "\u0126\u00ed\u013c\u012e": 2435, "\u0130\u00ec": 2436, "\u0120\u00ed\u0137\u013a\u00ec\u00a7\u0122": 2437, "\u0120game": 2438, "\u0120\u00ec\u0142\u0123": 2439, "tin": 2440, "\u00ec\u0140\u013a": 2441, "\u00a4\u00e3": 2442, "\u0120&": 2443, "\u0120brea": 2444, "\u00ec\u0139\u0132\u00eb\u012c\u0136": 2445, "\u012a\u00ec\u00b9\u013a": 2446, "\u00b6\u0122": 2447, "\u0120\u00ec\u0140\u0133\u00ec\u013f\u0122": 2448, "\u00b4\u00ea": 2449, "\u00ea\u00b2\u00bd": 2450, "sing": 2451, "\u00eb\u0140\u0126\u00eb\u013f\u00bc": 2452, "\u00b3\u00ec": 2453, "\u0120\u00eb\u0126\u012a\u00ec\u0139\u0132\u00ea\u00b2\u012e": 2454, "\u0120blue": 2455, "\u0120\u00ec\u012a\u013a\u00ea\u00b0\u0122": 2456, "\u0120burn": 2457, "\u0120\u00eb\u00a8\u00bc": 2458, "\u0120touch": 2459, "\u00b0\u00ed": 2460, "\u0120\u00ed\u0127": 2461, "\u0120\u00ec\u0126\u00b1": 2462, "ater": 2463, "\u00eb\u012c\u0136\u00ec\u00a7\u0122": 2464, "\u00ec\u013a\u0123\u00ec\u013d\u0132": 2465, "\u0120hot": 2466, "\u00ba\u00e3": 2467, "\u00ea\u00b0\u0137": 2468, "\u0120their": 2469, "\u00ea\u00b0\u0122\u00ec\u013c\u0136": 2470, "\u00ec\u00b0\u00b8": 2471, "\u00ec\u0139\u0132\u00eb\u0131\u0126": 2472, "cy": 2473, "\u0120\u00ec\u013b\u00b8\u00eb\u00a1\u013e": 2474, "lub": 2475, "\u0120hope": 2476, "oy": 2477, "\u0120hell": 2478, "per": 2479, "\u0120\u00eb\u00b6\u0122\u00eb\u00a5\u00b4": 2480, "\u00ea\u00b3\u00b5": 2481, "\u0120\u00ec\u0124\u00ac\u00eb\u013f\u00bc": 2482, "\u0120please": 2483, "\u0120might": 2484, "\u012a\u00eb\u012e\u0122": 2485, "\u00b8\u00eb\u012f\u00b0": 2486, "\u0120\u00ec\u00b0\u00ac\u00ec\u0138\u0133": 2487, "\u0123\u00ed": 2488, "\u0120door": 2489, "\u0120\u00ec\u012d\u00ac": 2490, "\u00ec\u0138\u00b4\u00ec\u0126\u013e": 2491, "\u00eb\u00b0\u013a": 2492, "\u0120kill": 2493, "\u0120ye": 2494, "\u00ed\u0137\u013a\u00ec\u012d\u0142": 2495, "\u00a8\u00ea": 2496, "\u0120smile": 2497, "\u0120\u00ec\u0137\u0126\u00ed\u012e\u012e": 2498, "\u0120came": 2499, "\u0120found": 2500, "\u0120\u00ec\u00b2\u013e": 2501, "\u00ec\u0137\u012e": 2502, "\u00a7\u013f": 2503, "\u0120dreams": 2504, "\u0120blo": 2505, "\u0120\u00eb\u00a7\u0132\u00ec\u013f\u0126": 2506, "\u00ec\u013d\u0142": 2507, "\u0120work": 2508, "\u0120\u00ec\u0140\u0132\u00ea\u00be\u00b8": 2509, "\u0120\u00ec\u0137\u012e\u00ea\u00b3\u0142": 2510, "\u00ec\u00bf": 2511, "not": 2512, "\u0120\u00ec\u013f\u00b4\u00ec\u0125\u0123": 2513, "\u00ec\u0138\u00b8": 2514, "\u0120\u00ea\u00b1\u00b0\u00eb\u00a6\u00ac": 2515, "\u0120\u00ea\u00bf\u012a\u00ec\u013f\u0126": 2516, "\u0120\u00ed\u0137\u0143\u00ec\u0125\u0123": 2517, "\u0120watch": 2518, "\u0120sound": 2519, "\u0120\u00eb\u00a7\u013a\u00ec\u013f\u0126": 2520, "\u0120\u00ec\u0137\u012c\u00ec\u013f\u0126": 2521, "\u0123\u013b": 2522, "\u0120close": 2523, "\u0120cold": 2524, "\u0120\u00eb\u012a\u0126\u00ea\u00b5\u00ac": 2525, "\u00ed\u0125\u013e": 2526, "\u0120remember": 2527, "\u00e3\u0124\u0123": 2528, "\u00ea\u00b7\u00b8\u00eb\u00a6\u00ac": 2529, "\u00ec\u013c\u00b0\u00eb\u00a6\u00b0": 2530, "aa": 2531, "\u0120tr": 2532, "\u012a\u00eb\u00b9\u013d": 2533, "\u0120\u00ed\u0124\u00a4": 2534, "sn": 2535, "\u00b1\u00ec\u0142\u0137": 2536, "man": 2537, "\u00ec\u00bc\u0122": 2538, "\u0120bring": 2539, "va": 2540, "\u00b9\u00ec": 2541, "\u0120goes": 2542, "\u013f\u00ed": 2543, "\u00eb\u0132\u013e": 2544, "\u00eb\u00a7\u00a4\u00ec\u013f\u00bc": 2545, "\u0120waiting": 2546, "\u00e3\u0123\u013b": 2547, "\u0136\u00a9": 2548, "\u0136\u0136": 2549, "\u0120\u00ec\u0126\u00a4": 2550, "\u0120\u00ec\u0138\u00b8\u00ec\u0142\u013e\u00eb\u0124\u013a": 2551, "\u0124\u00a8": 2552, "....": 2553, "more": 2554, "\u0120\u00ea\u00bc\u0143": 2555, "\u0120lonely": 2556, "\u00ec\u012a\u013e": 2557, "\u00eb\u00b3\u00b4\u00ea\u00b3\u0142": 2558, "\u0120words": 2559, "\u0120beg": 2560, "\u0120hit": 2561, "aking": 2562, "\u00ec\u0138\u00b4\u00ec\u00a7\u0122": 2563, "\u0120ready": 2564, "\u0120must": 2565, "\u0120gr": 2566, "\u00ed\u0137\u00b4\u00ec\u0126\u013e": 2567, "\u00ea\u00b4\u0133": 2568, "\u0120\u00ea\u00b7\u00b8\u00eb\u00a6\u00ac\u00ec\u013d\u012e": 2569, "\u00ec\u00b9\u0142": 2570, "\u0120\u00eb\u012a\u012a\u00eb\u00ac\u00bc\u00ec\u013f\u00b4": 2571, "\u00b7\u00a8": 2572, "\u00ec\u0137\u0126\u00ec\u00a3\u00bc": 2573, "\u00eb\u00aa\u00a9": 2574, "\u00ea\u00b1\u00b0\u00eb\u00a6\u00ac": 2575, "\u00ea\u00b4\u0122": 2576, "\u00a5\u00b8": 2577, "\u0120\u00ed\u0134\u012a": 2578, "from": 2579, "\u0120flo": 2580, "\u0120ride": 2581, "\u0120\u00ed\u013d\u0126": 2582, "\u0120comes": 2583, "\u00eb\u013f\u00bd": 2584, "\u013a\u0123": 2585, "\u00ec\u00a3\u00bc\u00ec\u013f\u013a": 2586, "\u00ec\u013e\u00bc\u00eb\u00a9\u00b0": 2587, "\u00ef\u00bc": 2588, "\u0120someone": 2589, "\u0120ste": 2590, "\u0120\u00eb\u00b0\u0136\u00eb\u00b3\u00b4": 2591, "\u0120\u00ed\u0130\u00b8": 2592, "ies": 2593, "\u0123\u00a9": 2594, "are": 2595, "make": 2596, "\u0120young": 2597, "\u00e3\u0123\u00a9": 2598, "nce": 2599, "\u00ed\u0140\u013a": 2600, "\u00ec\u0128\u00a1": 2601, "\u00ec\u0140\u0127": 2602, "\u0120\u00eb\u00b0\u00b0": 2603, "\u00ea\u00b2\u0125\u00eb\u0131\u0126": 2604, "aven": 2605, "\u0120\u00ea\u00b8\u00b0\u00ec": 2606, "ses": 2607, "\u00ec\u0125\u012b": 2608, "\u0120\u00ec\u00b4": 2609, "\u0120told": 2610, "\u0120lie": 2611, "\u00eb\u00a7\u013a": 2612, "\u00ea\u00b0\u0122\u00ea\u00b3\u0142": 2613, "\u00ec\u013f\u00b4\u00ec\u0142\u013e\u00eb\u012c\u0136": 2614, "\u0120party": 2615, "\u0120\u00ec\u0137\u0126\u00ec\u013f\u00b4": 2616, "\u0120\u00ec\u00b9\u013a": 2617, "\u0120\u00eb\u00a7\u012b": 2618, "\u00b8\u00b0": 2619, "\u0120happy": 2620, "\u0120\u00ec\u00a3\u00bc\u00ec\u013f\u013a": 2621, "air": 2622, "ded": 2623, "\u0120\u00eb\u0124\u013a\u00ec\u013b\u0122": 2624, "\u00ea\u00b9\u00a8": 2625, "\u0120\u00eb\u00a7\u0132\u00ea\u00b3\u0142": 2626, "ans": 2627, "\u0120help": 2628, "say": 2629, "\u0120beautiful": 2630, "tro": 2631, "\u0120\u00ed\u0123\u00ac": 2632, "\u00e4\u00bb": 2633, "\u0120\u00ec\u013a\u0123\u00ec\u013d\u0132\u00ed\u0140\u012a": 2634, "\u0120street": 2635, "\u00ec\u0137\u012c": 2636, "\u0120\u00ec\u0138\u013a\u00ea\u00b8\u00b0": 2637, "may": 2638, "\u00ea\u00b7\u00b8\u00eb\u0141\u00b0": 2639, "\u0120matter": 2640, "\u00ea\u00b7\u00b8\u00eb\u0142\u0129\u00ea\u00b2\u012e": 2641, "\u00bd\u00a4": 2642, "\u0120used": 2643, "\u0120\u00ec\u00bb": 2644, "\u00ec\u012d\u013e\u00eb\u0126\u00a4": 2645, "\u0120christmas": 2646, "\u0120\u00ec\u0137\u012a\u00ec\u0139\u0132": 2647, "\u0120cause": 2648, "\u0120sur": 2649, "\u0120\u00eb\u013d": 2650, "\u0120\u00ea\u00b3\u00b5": 2651, "\u0120\u00ec\u0140\u012a\u00eb\u012d\u00a4\u00eb\u00a9\u00b4": 2652, "\u00eb\u0128\u0135": 2653, "\u00ed\u0137\u00a8\u00ea\u00bb\u013a": 2654, "\u0120times": 2655, "\u00eb\u0140\u0132": 2656, "\u0120\u00ec\u00a4\u0122": 2657, "\u0120\u00ec\u0124\u00ac\u00eb\u0140\u0133\u00ec\u013f\u0122": 2658, "\u00ec\u0138\u00b4\u00eb\u0136\u0136": 2659, "\u0120knew": 2660, "\u00e6\u013e": 2661, "ff": 2662, "\u0120par": 2663, "\u0120does": 2664, "\u0120\u00ec\u013c\u00b0\u00eb\u00a6\u00b0": 2665, "\u0120morning": 2666, "\u0120deep": 2667, "\u00ed\u0137\u013a\u00eb\u0126\u00a4": 2668, "\u0120\u00ec\u012b\u00ac": 2669, "tt": 2670, "uz": 2671, "\u0120moon": 2672, "\u0127\u0137": 2673, "\u00ec\u00b2\u00b4": 2674, "pen": 2675, "\u00ec\u012d\u013e\u00ea\u00b3\u0142": 2676, "ju": 2677, "\u0120\u00eb\u00a7\u0130\u00ec\u013f\u00b4": 2678, "\u00eb\u00a7\u012a\u00eb\u0124\u013a": 2679, "\u0120\u00ec\u00a4\u0133": 2680, "\u0120z": 2681, "\u00b0\u0126": 2682, "\u0142\u012a": 2683, "\u0120\u00ec\u0126\u013e\u00eb\u00a1\u013e": 2684, "\u00eb\u00af\u00bc": 2685, "\u0120lose": 2686, "\u00ec\u0137\u0140": 2687, "\u0120\u00ec\u00a7\u0122\u00ec\u00bc\u013e": 2688, "\u0120didn": 2689, "\u0120\u00ec\u013e\u0126\u00eb\u00a1\u013e": 2690, "\u00ec\u00a4\u013a\u00ec\u013c\u0136": 2691, "\u012d\u00ec": 2692, "\u0120spe": 2693, "\u00ec\u0138\u0122": 2694, "\u00eb\u0142\u00a5": 2695, "\u00ec\u0137\u013a\u00ec\u0138\u00b4": 2696, "\u0120\u00eb\u0124\u00b4\u00eb\u0142\u00a4": 2697, "\u00a7\u0123": 2698, "\u0120\u00eb\u00b0\u013f": 2699, "feel": 2700, "\u0120mar": 2701, "\u0120\u00ea\u00b0\u0122\u00ec\u012c\u00b4\u00ec\u0139\u0132": 2702, "\u00eb\u0133\u013a": 2703, "\u0120\u00e2": 2704, "\u0138\u00ec\u0139\u0132": 2705, "\u0120\u00ec\u0140\u012c\u00ec\u0138\u00b4": 2706, "\u00ed\u012c\u00b8": 2707, "vo": 2708, "\u0120sea": 2709, "\u00e5\u0132\u013d": 2710, "\u0120\u00ec\u013f\u0122": 2711, "\u0120well": 2712, "\u0120cou": 2713, "\u0120first": 2714, "\u0120\u00ed\u0131\u012b": 2715, "\u013e\u00ea": 2716, "je": 2717, "\u0120looking": 2718, "\u0120many": 2719, "\u0120\u00eb\u00b6\u013b": 2720, "\u0120\u00ec\u0137\u00bc": 2721, "\u0109\u0120\u0120\u0120": 2722, "her": 2723, "\u00ec\u0138\u00b4\u00ec\u00a7\u0126": 2724, "\u00ec\u0126\u013f": 2725, "\u00af\u00e3": 2726, "\u0120wings": 2727, "\u00ec\u013a\u00a4\u00eb\u012c\u013a\u00eb\u0131\u0126": 2728, "ful": 2729, "\u0120black": 2730, "\u0120\u00ec\u00a6\u0132": 2731, "\u00ec\u0142\u00b8\u00eb": 2732, "\u0120\u00eb\u0124\u00a8\u00ec\u0137\u0126": 2733, "oman": 2734, "\u0120\u00ec\u0135\u00b0": 2735, "hr": 2736, "\u0120friends": 2737, "peat": 2738, "fuck": 2739, "eak": 2740, "\u00ec\u00a2\u0127": 2741, "eo": 2742, "ash": 2743, "\u00eb\u00a7\u012e\u00ec\u013f\u013a": 2744, "\u0120sor": 2745, "\u00ed\u0138\u012a\u00ec\u0138\u00b4": 2746, "\u0129\u00ea": 2747, "\u0120\u00eb\u00aa\u00bb\u00ed\u0137\u00b4": 2748, "times": 2749, "\u00eb\u0127\u0122": 2750, "\u0120\u00eb\u0124\u013a\u00ec\u0139\u0132\u00ea\u00b2\u012e": 2751, "eg": 2752, "\u0120\u00ea\u00b2\u0125\u00ec\u013f\u00b4": 2753, "\u0120\u00eb\u00ac\u00bb": 2754, "\u0137\u00a9": 2755, "\u00ec\u0138\u00b4\u00eb\u012c\u0132": 2756, "\u0120\u00eb\u013d\u00b0": 2757, "\u00eb\u00a1\u0142": 2758, "\u00e3\u0123\u0139\u00e3\u0123\u00a6": 2759, "\u00e6\u0139": 2760, "\u0120\u00ec\u0137\u00bd\u00ec\u0128\u012f": 2761, "\u00ec\u00a9\u012e": 2762, "\u0120slow": 2763, "\u00bd\u00ea\u00b2\u012e": 2764, "\u00ec\u0142\u0137\u00eb\u00a7\u0132": 2765, "\u00a4\u00ec\u013f\u0126": 2766, "\u00ec\u013f\u00b4\u00eb\u0141\u00b0": 2767, "\u00ea\u00b0\u0122\u00ec\u0139\u0132": 2768, "\u012c\u00a4": 2769, "\u0120\u00ec\u013f\u00b4\u00eb\u0141\u00b0": 2770, "\u0120\u00ec\u0124\u00ac\u00ec\u013f\u00b4": 2771, "\u00b3\u00bc": 2772, "ten": 2773, "\u00e3\u0124\u0131": 2774, "\u00eb\u0133\u0142": 2775, "everybody": 2776, "\u0120yourself": 2777, "!!": 2778, "\u00ec\u013f\u00b4\u00eb\u0124\u013a": 2779, "\u00eb\u0135\u00a4\u00ec\u013f\u013a": 2780, "ple": 2781, "\u0120\u00ec\u013a\u0123\u00ed\u013a\u00bc": 2782, "\u00ec\u0138\u00b8\u00ec\u0142\u013e": 2783, "\u00ec\u012d\u00b8": 2784, "\u01203": 2785, "lly": 2786, "\u0120fine": 2787, "\u0120\u00eb\u00a7\u00a4\u00ec\u013f\u00bc": 2788, "\u0120cho": 2789, "\u00ec\u013f\u00b8\u00eb\u012f\u00b0": 2790, "\u0120\u0120\u0120": 2791, "\u0120babe": 2792, "\u0120\u00ec\u00a3\u0126": 2793, "\u0142\u00a4": 2794, "\u0120angel": 2795, "\u00ec\u012e": 2796, "\u00a1\u00ec": 2797, "\u00ed\u0131\u00ac": 2798, "\u00a8\u00ed": 2799, "\u0120else": 2800, "\u0120nobody": 2801, "00": 2802, "\u00e8\u00a6": 2803, "\u00ec\u0127\u00a8": 2804, "\u012a\u012a": 2805, "\u0120\u00ec\u013c\u00a9": 2806, "\u00ec\u00a4\u0126\u00ea\u00b2\u012e": 2807, "====": 2808, "\u00ea\u00b3\u0142\u00ec\u0126\u013e": 2809, "\u00eb\u00a7\u0130\u00ec\u013f\u0122": 2810, "\u0120town": 2811, "\u0120\u00ec\u012d\u00ab\u00ec\u0138\u00b4": 2812, "\u00eb\u00b3\u0122": 2813, "\u00ec\u013f\u00b4\u00ea\u00b3\u0142": 2814, "keep": 2815, "\u00ea\u00b7\u0122": 2816, "\u0120forget": 2817, "\u0120ac": 2818, "\u0120\u00e6": 2819, "\u0120\u00eb\u0137\u012e\u00eb\u00ac\u00b8\u00ec\u0139\u0132": 2820, "\u0125\u00e3": 2821, "!)": 2822, "\u00ed\u0123\u00ac": 2823, "\u0120\u00ea\u00b7\u00b8\u00eb\u012e\u0122\u00eb\u00a5\u00bc": 2824, "\u0120set": 2825, "\u0120\u00eb\u012a\u012a\u00eb\u00b9\u013d": 2826, "\u0120falling": 2827, "\u0120strong": 2828, "\u00eb\u00b4\u0132\u00eb\u0131\u0126": 2829, "\u0120\u00ec\u013a\u012a\u00ec": 2830, "\u0120\u00ea\u00b7\u00b8\u00eb\u0127\u0122": 2831, "\u0139\u0128": 2832, "\u0120em": 2833, "\u00ec\u0125\u012a\u00eb": 2834, "\u0120child": 2835, "yone": 2836, "\u00b3\u00b4": 2837, "\u00ec\u012c\u00a8": 2838, "\u0120\u00eb\u0135\u00a3": 2839, "\u00eb\u00a7\u012e\u00ed\u0123\u00bc": 2840, "\u00ef\u00bf\u00bd\u00ef\u00bf\u00bd\u00ef\u00bf\u00bd\u00ef\u00bf\u00bd": 2841, "\u0120\u00ea\u00b2\u0125\u00ec\u013f\u0126": 2842, "\u00eb\u00a7\u012e\u00ec\u013f\u00b4": 2843, "\u0120sure": 2844, "\u00b1\u00ec": 2845, "\u0120\u00eb\u012c\u0132\u00ea\u00bb\u00b4": 2846, "\u00a5\u00e3": 2847, "\u00ec\u0137\u012a\u00ed\u0137\u00b4": 2848, "\u0122\u00e3": 2849, "\u00ec\u00b6\u00b0": 2850, "\u00ec\u0140\u00ac": 2851, "\u012d\u00b9": 2852, "\u00af\u00a4": 2853, "\u0120\u00ea\u00b7\u00b8\u00eb\u012e\u012a": 2854, "\u00eb\u00b3\u00b8": 2855, "\u00ac\u00ec\u00bd\u00a4": 2856, "\u00ec\u00b8\u0142": 2857, "tc": 2858, "\u0120\u00eb\u00b4\u0126": 2859, "\u00ec\u0128\u0136": 2860, "\u00ea\u00b1\u00b0\u00ec\u013c\u00b4": 2861, "\u0120those": 2862, "yb": 2863, "\u00ec\u012f": 2864, "\u0120\u00ec\u00b2\u013a\u00ec\u013f\u012e": 2865, "\u0120\u00ec\u0140\u012a\u00ec\u013f\u0126\u00ea\u00b9\u012e": 2866, "ment": 2867, "\u0120girls": 2868, "\u0120flow": 2869, "\u0120\u00ec\u013f": 2870, "ka": 2871, "\u00ec\u00b3": 2872, "\u00e3\u0123\u012d\u00e3\u0124\u012b": 2873, "\u013a\u012a": 2874, "\u0120knows": 2875, "\u00ea\u00b0\u0122\u00ec\u00a7\u0122": 2876, "\u0120sec": 2877, "\u00ed\u013a\u00bc\u00ec\u0140\u0132": 2878, "\u00eb\u013e\u00bb": 2879, "\u0120\u00eb\u00a7\u0132\u00ec\u0137\u0126\u00ec\u013c\u0136": 2880, "\u012a\u00ec\u00a3\u00bc": 2881, "\u0120understand": 2882, "\u012e\u00ec\u0138\u00b4": 2883, "\u0120\u00eb\u012d\u00b9": 2884, "reak": 2885, "nf": 2886, "\u0120\u00eb\u0124\u00b4\u00ec\u013f\u00bc": 2887, "ph": 2888, "\u0120ni": 2889, "\u00b0\u013e": 2890, "\u013d\u012e": 2891, "\u00eb\u0142\u012a\u00eb": 2892, "\u0120open": 2893, "ail": 2894, "\u0120\u00ec\u00b9\u00b4": 2895, "\u0120\u00eb\u00b9\u00a8": 2896, "\u00ec\u0140\u0130": 2897, "\u00ec\u00a3\u00bc\u00eb\u012c\u0136": 2898, "\u00ea\u00b2\u0123": 2899, "ason": 2900, "\u00a1\u00b1": 2901, "\u0120\u00e5": 2902, "\u0120\u00ec\u0140\u012a\u00ec\u013e\u00bc": 2903, "\u0120\u00eb\u00b6\u0126": 2904, "\u00eb\u0123\u0136": 2905, "\u00ed\u013a\u013e": 2906, "\u0120\u00ec\u0124\u00ac\u00eb\u0140\u0133\u00ed\u0137\u013a": 2907, "\u0120\u00eb\u012d\u013a": 2908, "\u0120heaven": 2909, "\u0120\u00ec\u013e\u0126\u00ec\u0139\u0132": 2910, "\u00ec\u00b0\u00bd": 2911, "\u0120\u00eb\u0132\u013e": 2912, "\u00ec\u0124\u00ac\u00eb\u0140\u0133\u00ed\u0137\u00b4": 2913, "\u00eb\u00af\u00b8\u00eb": 2914, "\u0120rea": 2915, "\u0120tu": 2916, "\u0120road": 2917, "gg": 2918, "\u0120\u00eb\u00a8\u00b8\u00eb\u00a6\u00ac": 2919, "\u0120\u00ed\u013b\u0136": 2920, "\u00eb\u00a6\u00ac\u00ec\u00a7\u0122": 2921, "\u00e3\u0123\u013a": 2922, "\u0120\u00eb\u0137\u0127": 2923, "\u013c\u0136": 2924, "\u0120\u00eb\u00ac\u00b4\u00ec\u0139\u0129": 2925, "ouse": 2926, "\u0120\u00eb\u00a9\u012d": 2927, "\u0120bitch": 2928, "\u00ed\u0138\u012b\u00eb\u00b3\u00b5": 2929, "\u0120win": 2930, "\u0120\u00ed\u013d\u0126\u00ed\u013c\u012e": 2931, "\u0120seen": 2932, "thin": 2933, "\u0120\u00ec\u0137\u0126\u00eb\u00a6\u0126\u00eb\u012d\u00a4\u00ec\u013c\u00b4": 2934, "\u0120\u00ed\u0140\u013a\u00eb\u0135\u00a4": 2935, "\u0120\u00eb\u012f\u00b0": 2936, "\u0120\u00ec\u0125\u0123\u00ec\u00b2\u013a": 2937, "\u0120line": 2938, "\u0120\u00eb\u00b3\u00b4\u00eb\u00a9\u00b4": 2939, "\u0120lover": 2940, "ves": 2941, "\u00ea\u00b6": 2942, "\u0120\u00ec\u0139\u0132": 2943, "\u0120\u00eb\u00b0\u0136\u00eb\u012d\u00a4": 2944, "\u0120\u00ea\u00b8\u00b0\u00eb\u00b6\u0126": 2945, "tty": 2946, "\u0120tre": 2947, "\u00e4\u00bd": 2948, "\u0120sin": 2949, "\u00eb\u0140\u00ac": 2950, "\u00ec\u0140\u012a\u00ec\u0138\u00b4": 2951, "\u0120\u00eb\u00b0\u0136\u00eb\u00a1\u013e": 2952, "rk": 2953, "\u0120\u00ed\u0128\u0142": 2954, "\u00eb\u00b0\u013d": 2955, "\u00eb\u00b2\u0126\u00eb\u0142\u00a4": 2956, "see": 2957, "\u0120gra": 2958, "verse": 2959, "maybe": 2960, "\u0120ear": 2961, "\u0120\u00ea\u00ba\u00bc": 2962, "\u0120\u00ea\u00be": 2963, "\u00ec\u0126\u013e\u00eb\u00a1\u013e": 2964, "\u0120\u00ed\u0123\u00b0": 2965, "\u0120sup": 2966, "\u00ea\u00b0\u0133": 2967, "\u00b8\u00eb\u00ac": 2968, "\u0120\u00ec\u00a4\u013a": 2969, "\u0120round": 2970, "turn": 2971, "\u0120\u00ec\u013f\u00b4\u00ec\u013e\u0142": 2972, "\u00e6\u0126": 2973, "\u00b9\u00ec\u012d\u013e": 2974, "\u0120ok": 2975, "\u0120\u00ec\u012d\u00a4": 2976, "\u0120\u00ea\u00b8\u00b0\u00eb\u012d\u00a4\u00eb\u0142\u00a4": 2977, "\u012d\u00a8": 2978, "\u0120whole": 2979, "\u0120\u00ec\u013d\u0125\u00ec\u013f\u012e": 2980, "\u0120\u00ea\u00b8\u00b0\u00eb\u0131\u0126": 2981, "\u00ea\u00b7\u00b8\u00eb\u0125\u00a5": 2982, "\u00eb\u0142\u00b9": 2983, "\u0120\u00ec\u0140\u0136": 2984, "\u0120ta": 2985, "\u00a9\u00e3": 2986, "\u00e2\u0122\u00a6": 2987, "\u0120city": 2988, "\u00eb\u00b0\u0122": 2989, "\u0120\u00ec\u0124\u00ac\u00eb\u012c\u0136": 2990, "\u0120woman": 2991, "\u0120pray": 2992, "\u00eb\u0124\u013a\u00eb\u00b4\u0132": 2993, "hind": 2994, "\u0120\u00ec\u00bb\u00a4": 2995, "\u0120getting": 2996, "\u0120\u00eb\u0132\u0132": 2997, "\u0120\u00ea\u00b0\u0122\u00ea\u00b3\u0142": 2998, "\u0120easy": 2999, "\u00bc\u00ea": 3000, "\u0120\u00ea\u00b3\u0126\u00ec\u0128\u012f": 3001, "\u0123\u00b0": 3002, "sha": 3003, "please": 3004, "\u013e\u00ed": 3005, "\u0120\u00eb\u00aa\u00b0\u00eb\u0140\u0132": 3006, "\u0120alive": 3007, "\u0120\u00ec\u013a\u0128": 3008, "\u0122\u00a6": 3009, "\u0120air": 3010, "\u0120\u00ec\u0142\u0126\u00eb\u00b6\u0122": 3011, "\u0120after": 3012, "ught": 3013, "oment": 3014, "ef": 3015, "\u0120\u00ec\u0140\u012a\u00ec\u0138\u00b4\u00ec\u013c\u0136": 3016, "\u00ec\u0137\u0126\u00ec\u00a4\u013a": 3017, "\u0120\u00ec\u013c\u00b8\u00ea\u00b3\u0142": 3018, "\u0120lot": 3019, "hold": 3020, "\u0120\u00ec\u0138\u00b4\u00eb\u012c\u0132": 3021, "\u0120\u00ec\u012c\u00ac\u00ed\u0136\u0136": 3022, "\u00ec\u012d\u013e\u00eb\u012c\u0136": 3023, "\u00ec\u013a\u012a\u00ec\u012a\u013a": 3024, "\u00ec\u0125\u013f\u00ea\u00b0\u0123": 3025, ".)": 3026, "\u0120kind": 3027, "\u00ea\u00b7\u00b8\u00eb\u0141\u00ac": 3028, "\u0120chance": 3029, "\u0120while": 3030, "\u013a\u0133": 3031, "\u00a7\u00e3": 3032, "\u0120\u00ec\u0126\u00b8\u00ec\u013d\u0136": 3033, "\u0120hate": 3034, "\u00e6\u0139\u00a5": 3035, "\u0120\u00ec\u0137\u0126\u00ed\u0136\u0126": 3036, "\u0120\u00eb\u00a7\u012a\u00eb": 3037, "\u00ec\u0131": 3038, "\u0120\u00eb\u00aa\u00a9\u00ec\u0128\u012e\u00eb\u00a6\u00ac": 3039, "rm": 3040, "\u0120\u00ec\u0136": 3041, "\u00ec\u0137\u0126\u00ec\u0137\u0126": 3042, "\u00ea\u00bc\u00ac": 3043, "\u0120\u00ec\u00a1\u00b0\u00ea\u00b8\u012a": 3044, "\u00ea\u00b8\u00b0\u00ea\u00b0\u0122": 3045, "\u00ec\u0140\u0132\u00ea\u00b0\u0122": 3046, "\u0120makes": 3047, "\u0120today": 3048, "part": 3049, "\u0120\u00eb\u00aa\u00bb\u00ed\u0137\u013e": 3050, "20": 3051, "\u0120tears": 3052, "pt": 3053, "\u0120reason": 3054, "\u0120dar": 3055, "\u00ea\u00b8\u00b0\u00eb\u0131\u0126": 3056, "\u0120moment": 3057, "\u0120\u00ea\u00b7\u00b8\u00eb\u0137\u012e": 3058, "\u00eb\u0142\u00a4\u00ea\u00b3\u0142": 3059, "\u0120shake": 3060, "\u0120ke": 3061, "\u00ec\u013c\u00b1": 3062, "\u0120\u00ec\u0139\u0128\u00eb\u0126\u00a4": 3063, "\u0120\u00ec\u0124\u00ac\u00eb\u0140\u012e\u00ec\u013f\u00b4": 3064, "\u00eb\u00b2\u0126\u00ec\u00a7\u0122": 3065, "\u0120living": 3066, "cks": 3067, "\u00ec\u00b0\u00ac": 3068, "\u0120its": 3069, "\u00ec\u0139\u012a\u00eb\u0126\u00a4": 3070, "\u013a\u00ea": 3071, "&#": 3072, "\u0120low": 3073, "\u0120\u00eb\u0140\u0126": 3074, "\u0120\u00eb\u00b3\u00b8": 3075, "\u00eb\u0124\u00bc": 3076, "\u0120\u00ec\u0137\u012b": 3077, "\u0120mou": 3078, "\u00ec\u00b9\u013a\u00eb\u012c\u0136": 3079, "\u00b0\u00e3": 3080, "\u0120cr": 3081, "ross": 3082, "\u0120arms": 3083, "\u0120yes": 3084, "nit": 3085, "\u0120\u00ec\u013a\u012a": 3086, "\u0120\u00ec\u0137\u0126\u00ec\u00b9\u00a8": 3087, "\u0120dead": 3088, "\u0120\u00eb\u00a7\u0132\u00ec\u013f\u00b4": 3089, "\u00e3\u0123\u00a1": 3090, "\u0120\u00ec\u0138\u00b4\u00eb\u0138\u00a4": 3091, "\u00ec\u013f\u00b4\u00eb\u013f\u00bc\u00eb\u0131\u0126": 3092, "\u0120\u00ed\u0140": 3093, "\u0120\u00ea\u00b7\u00b8\u00eb\u00a7\u012e": 3094, "\u00ec\u00b7": 3095, "\u00eb\u00a9\u0122": 3096, "\u0120\u00ed\u013b\u0122": 3097, "\u0120somebody": 3098, "\u00ec\u012c\u00ac": 3099, "\u0120truth": 3100, "\u00b2\u00bd": 3101, "\u0120\u00ea\u00b1\u00b0\u00ec\u00a7\u0135": 3102, "\u0123\u00a1": 3103, "\u00ea\u00b8\u012a\u00ec": 3104, "\u00ea\u00b3\u00a4": 3105, "\u0120lady": 3106, "\u0120late": 3107, "\u0120once": 3108, "\u0120\u00ea\u00b9\u012e": 3109, "\u0133\u0132": 3110, "\u0120mother": 3111, "\u00eb\u00a8\u00b9": 3112, "\u0120\u00ec\u0138\u00b4\u00eb\u0138\u00bb\u00ea\u00b2\u012e": 3113, "\u0120fr": 3114, "\u0120\u00ed\u0131\u00ac": 3115, "\u00eb\u00a6\u00ac\u00ea\u00b0\u0122": 3116, "ond": 3117, "\u0120\u00ec\u0137\u0126\u00ed\u0136\u0136": 3118, "\u00a9\u00ed": 3119, "\u0120bye": 3120, "\u00ec\u0124\u00ac\u00eb\u0140\u0133\u00ec\u013f\u0122": 3121, "\u0120\u00ec\u00b0\u00bd": 3122, "\u012e\u0126": 3123, "\u0120goodbye": 3124, "\u0120save": 3125, "\u00ec\u0140\u0132\u00ea\u00be\u00b8": 3126, "\u013c\u00e3": 3127, "\u0120\u00ea\u00b1\u00b1\u00ec\u0142\u0137": 3128, "\u0120running": 3129, "\u0129\u00ec\u0124\u00b4": 3130, "\u0120\u00ec\u0142\u0138": 3131, "\u0120\u00ec\u012a\u0142": 3132, "\u0120listen": 3133, "\u0138\u00ec": 3134, "\u0123\u00bf": 3135, "\u00ea\u00b8\u00b0\u00eb\u012c\u0136": 3136, "\u0120\u00ed\u0133\u013e": 3137, "\u00ae\u00ec": 3138, "\u00b3\u00e3": 3139, "\u0120sum": 3140, "\u0120mon": 3141, "\u0120\u00ed\u013f\u00ac": 3142, "\u0120lear": 3143, "\u0120sit": 3144, "\u0120\u00ea\u00b8\u00b0\u00ec\u0123\u00a8": 3145, "\u0142\u013e": 3146, "\u00ec\u0123\u013e": 3147, "\u00e3\u0123\u00bf": 3148, "\u0120sta": 3149, "ane": 3150, "\u00ec\u00a1\u00b0\u00ea\u00b8\u012a": 3151, "**": 3152, "\u0120behind": 3153, "dd": 3154, "\u013c\u00b8": 3155, "\u0120stars": 3156, "oe": 3157, "good": 3158, "\u00eb\u012d\u00a4\u00eb\u00a5\u00b8": 3159, "\u0120\u00eb\u012a\u0126\u00ea\u00b0\u0122": 3160, "\u0120blow": 3161, "\u00b8\u00eb\u0142\u00a4": 3162, "\u0120sa": 3163, "\u0139\u0126": 3164, "\u00ec\u012c\u00ac\u00ed\u0136": 3165, "\u00ec\u0124\u00ac\u00eb\u0140\u0133\u00ec\u013f\u00b4": 3166, "\u00eb\u0140\u013e": 3167, "\u0120\u00ea\u00b7\u00b8\u00eb\u012e\u0122\u00eb\u00a1\u013e": 3168, "\u00e5\u012a": 3169, "\u0120\u00ec\u00a7\u0122\u00ec\u013d\u012e": 3170, "\u00eb\u013f\u00bc\u00eb\u00a9\u00b4": 3171, "put": 3172, "\u0120fool": 3173, "\u00eb\u00bd": 3174, "\u0120wall": 3175, "\u0120dro": 3176, "\u0120es": 3177, "\u00ed\u0131\u012b": 3178, "\u00eb\u013f\u00bc\u00eb\u012c\u0136": 3179, "\u0120\u00ec\u0140\u012a\u00ea\u00b2\u012e": 3180, "\u0109\u0120\u0109\u0120\u0120": 3181, "\u00ec\u012a\u013b": 3182, "ction": 3183, "world": 3184, "\u0120hurt": 3185, "\u01204": 3186, "\u0120\u00ec\u00b7\u00a8": 3187, "\u0120anything": 3188, "ell": 3189, "\u00b8\u012a": 3190, "\u0120everybody": 3191, "\u0120\u00ec\u0140\u012c\u00ec\u00a7\u0122": 3192, "\u0120pri": 3193, "amn": 3194, "ank": 3195, "lt": 3196, "\u0120bed": 3197, "\u00e3\u0123\u00a3\u00e3\u0123\u0141": 3198, "\u0120\u00ec\u00b2\u013b": 3199, "\u0127\u00b8": 3200, "\u0120broken": 3201, "\u0120\u00ec\u013c\u00b4": 3202, "\u00b8\u00eb\u013f\u00bc": 3203, "\u0120\u00ea\u00b8\u00b0\u00eb\u012e\u0122": 3204, "\u0120\u00eb\u00a9\u0136": 3205, "rf": 3206, "\u00ed\u0130\u00b8": 3207, "\u0120\u00ec\u0138\u00b8\u00ec\u0142\u013e": 3208, "\u0120\u00ec\u00a2\u0127": 3209, "\u0120heard": 3210, "will": 3211, "\u00aa\u00bd": 3212, "\u0120\u00eb\u0131\u012a": 3213, "\u00a1\u00e3": 3214, "\u00ed\u0139\u012a": 3215, "\u00ea\u00b8\u00b0\u00eb\u00a7\u012e": 3216, "\u00e3\u0123\u013d": 3217, "\u013a\u00e3": 3218, "\u00ea\u00b8\u00b0\u00eb\u012d\u00a4": 3219, "\u0120bir": 3220, "\u00ed\u0137\u013a\u00eb\u012d\u012a": 3221, "\u0120\u00ec\u0128\u012e\u00ec\u00a4\u0133": 3222, "\u0120lights": 3223, "\u0123\u013d": 3224, "\u0120\u00ea\u00b2\u00a8": 3225, "\u0120mani": 3226, "\u0120\u00eb\u00a7\u012a\u00ec\u00a7\u0122\u00eb\u00a7\u012b": 3227, "\u00af\u00b8": 3228, "\u0120gl": 3229, "\u013d\u00ec": 3230, "\u0120\u00eb\u00a7\u012a\u00ec\u013f\u012e\u00ec\u013f\u00b4": 3231, "\u0120\u00eb\u0138\u0142\u00eb\u0124\u013e": 3232, "\u0123\u012c": 3233, "\u0120\u00ed\u012e\u0136": 3234, "\u0120\u00ec\u0140\u0132\u00eb\u00a6\u00ac": 3235, "\u0143\u00ec": 3236, "\u00ec\u00a3\u00bd": 3237, "\u0120\u00ec\u0124\u00ac\u00eb\u0140\u0133\u00ed\u0137\u013a\u00eb\u012c\u0136": 3238, "\u00ec\u0124\u00ac\u00eb\u0140\u0133\u00ed\u0137\u013e": 3239, "\u00ec\u013f\u00b4\u00eb\u00a9\u00b4": 3240, "\u0120ground": 3241, "\u0120\u00eb\u0126\u00a4\u00ea\u00b2\u012e": 3242, "pre": 3243, "morrow": 3244, "\u00ea\u00b8\u00b0\u00ec\u0138\u00b5": 3245, "\u00ea\u00ba": 3246, "\u0120fin": 3247, "\u00ec\u0137\u0126\u00ec\u013f\u00b4": 3248, "\u0120im": 3249, "ute": 3250, "\u0120\u00ec\u0137\u012a\u00eb\u0131\u00bc": 3251, "\u0120\u00eb\u00af\u00b8\u00ec\u013d\u012e": 3252, "\u00ec\u00b9\u013e\u00ea\u00b5\u00ac": 3253, "\u00a5\u00b4": 3254, "pped": 3255, "\u0120lord": 3256, "\u0120\u00ec\u0140\u0127\u00ec\u012a\u0142": 3257, "\u0134\u00e3": 3258, "\u0127\u0136": 3259, "\u0120\u00eb\u0126\u012a\u00eb": 3260, "\u00ea\u00b0\u0136": 3261, "\u00eb\u00b0\u0137": 3262, "\u00ec\u013f\u00b4\u00eb\u00b3\u0126": 3263, "\u0120\u00ed\u013f\u0136\u00eb\u0135\u00a4": 3264, "\u0120\u00eb\u012a\u012a\u00ec\u013f\u00b4": 3265, "\u0120took": 3266, "\u00ea\u00bf\u0122": 3267, "\u00ed\u013b\u00a9": 3268, "long": 3269, "\u0120floor": 3270, "\u0120\u00ec\u0128\u012f\u00ec\u0139\u0132\u00ec\u0126\u013e": 3271, "\u0120\u00ec\u012d\u013e\u00ea\u00b0\u0126\u00ec\u013f\u00b4": 3272, "\u00ec\u00b2\u013a\u00ec\u013f\u012e": 3273, "because": 3274, "\u00ec\u00b6\u013a": 3275, "\u0120saw": 3276, "\u00ec\u0137\u0126\u00eb\u0131\u0126": 3277, "\u0120\u00ec\u00b6\u0137": 3278, "zi": 3279, "\u0120\u00ec\u0140\u00a1\u00ea\u00b3\u0142": 3280, "\u0120\u00eb\u0133\u0132\u00eb\u0142\u00a4": 3281, "\u0120prom": 3282, "\u00ec\u0142\u0126\u00ed\u0140\u012a": 3283, "\u00b8\u00eb\u0142\u00a8": 3284, "\u00eb\u00b1": 3285, "\u0120\u00eb\u013a\u0133": 3286, "\u00eb\u00b4\u0132\u00ec\u013c\u0136": 3287, "\u00ea\u00b2\u0142\u00eb\u0126\u00a4": 3288, "\u00ec\u0138\u00b4\u00eb\u013f\u00bc": 3289, "\u0124\u00ac": 3290, "\u0120\u00ec\u0140\u012c\u00ec\u013f\u0126": 3291, "\u00ed\u0136\u012a": 3292, "\u00b1\u00e3": 3293, "\u0120room": 3294, "night": 3295, "ys": 3296, "\u00b7\u00bc": 3297, "\u0120\u00ec\u0124\u00ac\u00eb\u0140\u0133\u00ec\u013f\u013a": 3298, "\u00ec\u0138\u00b8\u00ec\u0142\u0142": 3299, "\u00ec\u012d\u0143": 3300, "\u00ea\u00b7\u00b8\u00eb\u0137\u012e": 3301, "vu": 3302, "won": 3303, "\u0120\u0120\u0120\u0109": 3304, "\u0120\u00eb\u0133\u0132\u00ea\u00b3\u0142": 3305, "\u0120white": 3306, "10": 3307, "\u00eb\u0133\u00a5": 3308, "sr": 3309, "\u0120\u00eb\u00ac\u00b8": 3310, "\u0120\u00ec\u013a\u0123\u00ea\u00b4\u0133": 3311, "\u0120ask": 3312, "\u00eb\u0126\u012a\u00ec\u0139\u0132\u00ea\u00b2\u012e": 3313, "\u0120ru": 3314, "\u0120\u00ec\u0138\u00b4\u00eb\u00a6\u00b0": 3315, "\u0120ve": 3316, "\u00ed\u0136\u0126": 3317, "ons": 3318, "\u00eb\u0138\u0142\u00eb\u0124\u013a": 3319, "\u0120\u00ec\u0140\u0132\u00ec\u012d\u0142": 3320, "ua": 3321, "\u00e8\u00a6\u012d": 3322, "\u0120pas": 3323, "try": 3324, "\u0120\u00ea\u00bc\u00ac": 3325, "\u00ed\u013a\u0126": 3326, "\u0120shine": 3327, "\u0120\u00ec\u013f\u00b4\u00ec\u0137\u00bc": 3328, "\u0131\u013b": 3329, "\u00ec\u0137\u013a\u00eb\u012f\u013a": 3330, "\u0120grow": 3331, "\u0120years": 3332, "\u0120cri": 3333, "ext": 3334, "\u0120sad": 3335, "\u00eb\u00a3\u00a9": 3336, "\u0120maniac": 3337, "led": 3338, "\u0120mer": 3339, "\u0120\u00ea\u00b5\u00ac\u00eb\u00a6\u0126": 3340, "\u0120till": 3341, "\u0120\u00ec\u0137\u012a\u00eb\u0132": 3342, "\u0120\u00ec\u012e": 3343, "\u00ec\u0137\u0126\u00eb\u00a6\u00ac": 3344, "\u0120\u00ec\u00b6\u00a4\u00ec\u013f\u0126": 3345, "\u0120bright": 3346, "\u0120gold": 3347, "\u0120feels": 3348, "\u0120next": 3349, "gas": 3350, "\u0120\u00ec\u0137\u012c\u00ec\u013f\u0122": 3351, "\u0120cool": 3352, "\u00ec\u0139\u00b4": 3353, "\u0120\u00ed\u0138\u00a5\u00ed\u0137\u00b4": 3354, "repeat": 3355, "\u00ec\u013f\u00b4\u00ec\u0139\u00ac": 3356, "ches": 3357, "\u0120\u00ec\u0140\u00ac": 3358, "\u00e3\u0123\u00ae\u00e5": 3359, "\u00ec\u00b9\u00b4\u00eb\u013f\u00bc": 3360, "\u0120\u00eb\u012c\u0132\u00eb\u0124\u012e": 3361, "est": 3362, "\u0120pretty": 3363, "\u0120contro": 3364, "\u00eb\u0138\u00bc": 3365, "cha": 3366, "\u00eb\u00a6\u00bf": 3367, "\u0120drink": 3368, "\u0120\u00ed\u013b\u0122\u00eb\u00a1\u013e": 3369, "\u0120house": 3370, "\u0120hide": 3371, "\u0120\u00ed\u013a\u00b8": 3372, "its": 3373, "\u0120\u00ec\u013c\u0136": 3374, "\u0120trying": 3375, "\u0120\u00ed\u0127\u012e": 3376, "\u0120follow": 3377, "\u00e3\u0123\u00a3\u00e3\u0123\u00a8": 3378, "\u0120\u00ec\u0125\u013f\u00ea\u00b0\u0123\u00ed\u0137\u00b4": 3379, "eb": 3380, "\u0120\u00eb\u00b0\u00b1": 3381, "\u00ec\u00b5": 3382, "\u0120\u00eb\u0126\u012a\u00eb\u00a7\u012e": 3383, "\u00ed\u0137\u0142\u00ea\u00b2\u012e": 3384, "\u0120bra": 3385, "\u00ed\u0137\u013a\u00eb\u0124\u013a\u00eb\u012d\u013a": 3386, "\u0120lay": 3387, "\u012a\u00ea": 3388, "\u0120summer": 3389, "mb": 3390, "\u0120\u00ec\u0124\u00bc": 3391, "\u0120min": 3392, "\u0120\u00ec\u013c\u00b0\u00eb\u00a6\u00ac\u00ec\u013f\u013a": 3393, "everything": 3394, "\u0120\u00ea\u00b7\u00b8\u00eb\u0124\u0142": 3395, "\u0120\u00eb\u0124\u013a\u00eb\u013f\u00bc": 3396, "\u00b8\u00eb\u00a5\u00b8": 3397, "\u00eb\u012d\u00b4": 3398, "ces": 3399, "only": 3400, "\u00ec\u00b0\u012e": 3401, "\u00ea\u00b3\u0123": 3402, "\u00a9\u00b0": 3403, "\u0120along": 3404, "\u0120fai": 3405, "\u00eb\u0124\u013a\u00eb\u013f\u00bc": 3406, "\u0120woo": 3407, "\u00ea\u00b3\u00a1": 3408, "\u00ec\u00b2\u0143": 3409, "\u0120maniaclub": 3410, "\u0120\u00eb\u0131\u012e\u00ec\u0137\u0126\u00ec\u013b\u0122": 3411, "\u0120wo": 3412, "rms": 3413, "\u0120\u00ec\u0124\u00ac\u00eb\u0140\u012e\u00eb\u0135\u00a4": 3414, "\u0120danc": 3415, "\u0139\u0136": 3416, "tain": 3417, "?)": 3418, "ser": 3419, "whi": 3420, "\u00b8\u00ec\u00b3\u0132": 3421, "ower": 3422, "\u0120\u00eb\u013c": 3423, "\u0120boo": 3424, "\u0120\u00ea\u00b0\u0122\u00ec\u00a7\u0122": 3425, "\u00e6\u013a": 3426, "\u00ea\u00b0\u0126\u00eb\u012d\u00a4": 3427, "\u0140\u012e": 3428, "\u0120\u00ec\u00b2\u0143": 3429, "\u00eb\u0142\u00a8": 3430, "\u00ec\u00a7\u0122\u00eb\u0124\u013a": 3431, "\u0120bu": 3432, "\u0120feet": 3433, "\u00ea\u00b2\u0142\u00ec\u00a7\u0122\u00eb\u00a7\u012e": 3434, "\u00ea\u00b2\u0142\u00ec\u00a3\u0142": 3435, "\u00ec\u0124\u00ac\u00eb\u0140\u0133\u00ec\u013f\u0126": 3436, "\u0120\u00ea\u00b2\u00b0": 3437, "ppin": 3438, "\u00b3\u0126": 3439, "\u0120\u00ec\u013e\u0126\u00ed\u0137\u013e": 3440, "\u00ec\u0137\u00bc\u00ec\u00a7\u0122": 3441, "\u0120step": 3442, "\u0120\u00ec\u013f\u00b4\u00eb\u00af\u00b8": 3443, "ren": 3444, "\u00e2\u0136": 3445, "\u0120red": 3446, "\u0120sorry": 3447, "\u0120hu": 3448, "\u0120\u00ea\u00b2\u0125\u00eb\u0131\u0126": 3449, "\u00eb\u012d\u00a5": 3450, "\u0120\u00ec\u0137\u0126\u00ed\u0136\u012a": 3451, "\u0120top": 3452, "\u0120\u00ed\u0138\u012a\u00eb\u012f\u013a": 3453, "\u00ed\u0128\u0142\u00eb\u00a1\u013f": 3454, "\u0120wanted": 3455, "\u0120\u00ec\u013a\u00ac\u00eb\u013f\u00bc": 3456, "\u0120\u00ec\u0137\u0126\u00eb\u0125\u0132": 3457, "\u0120fla": 3458, "cyworld": 3459, "\u0120dou": 3460, "\u0120\u00ea\u00b9\u012c\u00ec\u013f\u0122": 3461, "\u0120loving": 3462, "any": 3463, "\u0120tur": 3464, "\u0120kid": 3465, "\u0120\u00ec\u0139\u0128\u00ec\u013f\u0126": 3466, "\u0120water": 3467, "\u00ec\u00a1\u012e": 3468, "nothing": 3469, "\u00ec\u0136\u0122": 3470, "\u012a\u00eb\u00b6\u0122": 3471, "\u0120wake": 3472, "\u00b2\u00e3": 3473, "\u00ea\u00b1\u00b8\u00ec\u013f\u012e": 3474, "\u0120ph": 3475, "ji": 3476, "\u00ec\u013f\u00b8\u00ea\u00b0\u0122": 3477, "ret": 3478, "\u00ec\u012b\u00ac": 3479, "\u00eb\u0127\u00b8\u00eb\u0140\u013a": 3480, "\u00ea\u00b7\u00b8\u00eb\u0140\u013a\u00eb\u0131\u0126": 3481, "ign": 3482, "\u00ec\u00a3\u00bc\u00ea\u00b3\u0142": 3483, "\u0120\u0120\u0120\u0120\u0120\u0120\u0120\u0120\u0120\u0120\u0120\u0120\u0120\u0120\u0120\u0120": 3484, "\u0120cre": 3485, "vus": 3486, "\u0120lou": 3487, "\u0120guess": 3488, "\u00e3\u0123\u00b0": 3489, "\u0120king": 3490, "\u0120\u00eb\u012d\u00bf": 3491, "fere": 3492, "lls": 3493, "\u00ec\u013a\u00a4\u00ec\u013a\u00a4": 3494, "\u0120wild": 3495, "\u00ec\u013e\u00bc\u00eb\u012d\u012a": 3496, "\u0120...": 3497, "nv": 3498, "\u0120\u00ea\u00b6": 3499, "rmsdy": 3500, "rmsdyd": 3501, "\u0120lies": 3502, "\u00ea\u00b7\u00b8\u00eb\u012e\u0122\u00ea\u00b0\u0122": 3503, "vusrmsdyd": 3504, "down": 3505, "\u00eb\u013f\u00bc\u00eb\u00a6\u00ac": 3506, "\u0120count": 3507, "\u00ea\u00b5\u00b0\u00ea\u00b0\u0122": 3508, "\u0120\u00ec\u0140\u0126": 3509, "\u0120gave": 3510, "\u0120\u00ec\u00a7\u0122\u00eb\u0124\u013e": 3511, "\u0120control": 3512, "\u0120pull": 3513, "\u00eb\u012a\u012a\u00ec\u013f\u0126": 3514, "\u013b\u00e3": 3515, "\u00ec\u013a\u0123\u00ec\u013d\u0132\u00ed\u0140\u012a": 3516, "\u00ed\u012e\u0136": 3517, "ying": 3518, "--------": 3519, "\u00ed\u0140\u012e": 3520, "\u0120\u00ec\u0142\u013e\u00eb\u00b0\u013e": 3521, "\u0120\u00ec\u0137\u0126\u00eb\u0140\u013a": 3522, "\u00ec\u0137\u0126\u00ec\u0126\u013e": 3523, "\u0120\u00ec\u012c\u00ac\u00ed\u0136\u012a": 3524, "\u00ec\u00b8": 3525, "\u0120shin": 3526, "\u00ec\u013c\u00b0\u00ec\u013c\u00b0": 3527, "\u0120\u00eb\u00a7\u012a\u00ec\u00a3\u00bc": 3528, "\u0120rest": 3529, "\u0120\u00ec\u013f\u012e\u00ec\u0137\u0127": 3530, "\u0120\u00eb\u0138\u0142\u00eb\u0124\u013a\u00ea\u00b0\u0122": 3531, "\u0120\u00eb\u012d\u00a4\u00ea\u00b0\u0122\u00ec\u013b\u0122": 3532, "\u00eb\u0131\u0127": 3533, "\u00ec\u0139\u0128\u00ec\u0138\u00b4": 3534, "\u0142\u0126": 3535, "\u0120\u00ea\u00b3\u00b3\u00ec\u0139\u0132": 3536, "\u0120very": 3537, "\u00ec\u0139\u0126\u00eb\u00a7\u012a": 3538, "\u00b2\u013a": 3539, "\u0140\u0142": 3540, "\u00e4\u00bb\u012c": 3541, "\u0120rhy": 3542, "\u00ec\u0137\u0126\u00ec\u00a7\u0123\u00eb\u0131\u0126": 3543, "\u0120\u00ec\u0124\u00ac\u00eb\u0140\u0133\u00ed\u0138\u012a": 3544, "\u0120dif": 3545, "\u00eb\u0142\u0132": 3546, "\u0120\u00eb\u0126\u013a\u00ec\u0138\u00b4": 3547, "\u0120\u00ea\u00b7\u00b8\u00eb\u012e\u0122\u00ea\u00b0\u0122": 3548, "\u0120\u00eb\u00a8\u00b8\u00eb\u00ac": 3549, "\u0120mis": 3550, "\u0120\u00ea\u00b8\u00b0\u00eb\u012d\u00a4\u00eb\u00a6\u00ac": 3551, "\u00a2\u00e3": 3552, "\u0120\u00ec\u013a\u00a4\u00eb\u012c\u013a\u00eb\u0131\u0126": 3553, "fect": 3554, "\u00b1\u00ed": 3555, "\u0120thinking": 3556, "',": 3557, "\u0120\u00ec\u013f\u0122\u00ed\u013a\u013e": 3558, "\u0135\u00ec": 3559, "\u00ea\u00ba\u00bc\u00ec\u0137\u00bc": 3560, "\u00eb\u013e\u00a8": 3561, "ated": 3562, "\u0120\u00ec\u00a7\u0135": 3563, "\u00ea\u00b7\u00b8\u00eb\u0127\u0122": 3564, "\u0120ad": 3565, "\u0120\u00ea\u00b0\u013e": 3566, "\u00e5\u00bf": 3567, "\u0120\u00eb\u0135\u00a4\u00eb\u0142\u00a4": 3568, "\u00ec\u00b9\u013a\u00ea\u00b3\u0142": 3569, "\u0120maybe": 3570, "\u0120\u00ec\u012d\u0143": 3571, "\u0120\u00eb\u0126\u012a\u00eb\u00ac\u00b4\u00eb\u0124\u013a": 3572, "\u0120\u00eb\u00b2\u0139": 3573, "\u0142\u0132": 3574, "\u0120\u00ed\u0139\u012a": 3575, "\u00eb\u0124\u00b4\u00ec\u013f\u00bc": 3576, "\u0120eye": 3577, "\u0120\u00ec\u013b\u0137": 3578, "que": 3579, "\u00ec\u0136\u00a8": 3580, "\u0120memor": 3581, "\u00ec\u00a7\u0122\u00ec\u00a7\u0122": 3582, "ip": 3583, "\u00ea\u00b7\u00b8\u00ec\u0142\u0122": 3584, "\u0120\u00ed\u0126": 3585, "\u00eb\u00af\u00bf": 3586, "\u00ea\u00b5\u0132": 3587, "\u00a1\u0143": 3588, "run": 3589, "\u00e5\u0129": 3590, "\u0120\u00ec\u013d\u0125\u00ec\u0138\u00b4": 3591, "even": 3592, "\u00eb\u00b2\u0126\u00eb\u0142\u00b8": 3593, "\u0123\u00bc": 3594, "\u00e4\u00ba\u00ba": 3595, "back": 3596, "\u0120\u00eb\u00a7\u012e\u00ed\u0123\u00bc": 3597, "\u0120\u00eb\u0137\u0132": 3598, "\u00e3\u0123\u0141\u00e3\u0123\u0126": 3599, "\u00eb\u012d\u012a\u00eb": 3600, "\u00e6\u012b": 3601, "\u0120\u00eb\u00b0\u0136\u00eb\u0140\u013a": 3602, "\u0120\u00eb\u00a7\u013a\u00ec\u0139\u0132": 3603, "\u0120fear": 3604, "\u0120ass": 3605, "tor": 3606, "\u0123\u013c": 3607, "\u00a4\u00ec\u00b6": 3608, "\u00ed\u0125\u0122\u00ec\u013f\u00b4": 3609, "\u00ed\u0137\u0143\u00ec\u0125\u0123": 3610, "\u00b2\u013a\u00eb\u0141\u00bc": 3611, "\u0120niggas": 3612, "\u00eb\u0141\u00ac\u00ec\u013d\u012e": 3613, "\u00ec\u013f\u00b8\u00ec\u00a7\u0122": 3614, "\u00ed\u012a\u00ac": 3615, "\u0120meet": 3616, "\u0120\u00eb\u00b2\u0126\u00eb\u00a6\u00b0": 3617, "eace": 3618, "\u0120\u00eb\u0124\u013a\u00ea\u00b0\u0122": 3619, "\u00ec\u0124\u0143": 3620, "\u0120\u00eb\u00a7\u013a\u00ec\u013f\u00b4": 3621, "\u0120tomorrow": 3622, "\u00ec\u0138\u00b4\u00eb\u0138\u00bb\u00ea\u00b2\u012e": 3623, "\u0120gun": 3624, "dge": 3625, "\u0120\u00ea\u00b4\u013e\u00ec\u00b0\u00ae\u00ec\u0137\u0126": 3626, "\u00eb\u012d\u00b9\u00ec\u012d\u0142\u00ec\u013f\u0122": 3627, "\u0120\u00eb\u00a7\u012e\u00eb\u0124\u0142": 3628, "\u00eb\u00a7\u012a\u00eb\u0136\u0136": 3629, "\u0120\u00ed\u0137\u013a\u00ec\u0128\u012e\u00ec\u0126\u013e": 3630, "gic": 3631, "\u0120ring": 3632, "\u00ed\u0137\u013a\u00eb\u00a6\u00ac": 3633, "\u0120\u00ec\u012d\u00b8": 3634, "\u0120dra": 3635, "\u0120\u00eb\u0132\u013a\u00eb\u012c\u0136": 3636, "\u0120\u00eb\u00b3\u00b4\u00eb\u00a9\u00b0": 3637, "\u0120\u00eb\u00aa\u0129": 3638, "\u0120\u00ec\u0126\u00b8\u00ec\u0125\u0123\u00ec\u0139\u0132": 3639, "\u0120\u00eb\u00b0\u00a4\u00ec\u013f\u00b4": 3640, "\u00eb\u012a\u0126\u00ea\u00b5\u00ac": 3641, "\u0120though": 3642, "\u00e3\u0123\u013c": 3643, "\u0120je": 3644, "\u0120\u00eb\u00bb": 3645, "\u0120pop": 3646, "\u00ec\u00ba": 3647, "\u012f\u00ed": 3648, "unk": 3649, "lk": 3650, "\u0120tight": 3651, "\u0120\u00eb\u00a7\u012e\u00eb\u0135\u00a4\u00ec\u0138\u00b4": 3652, "\u00c3\u00a9": 3653, "\u00eb\u0143\u0132": 3654, "fraid": 3655, "\u0120\u00ed\u0138\u00a5\u00ed\u0137\u013e": 3656, "\u00e4\u00b8\u0122": 3657, "\u0120\u00eb\u012c\u00a6": 3658, "\u0120tried": 3659, "ugh": 3660, "\u0120\u00ea\u00b0\u0122\u00ea\u00b9\u012e": 3661, "\u00eb\u0141\u00ac\u00ec\u013c\u00b4": 3662, "\u00eb\u00b3\u00b4\u00eb\u00a9\u00b4": 3663, "\u0120\u00ed\u012c": 3664, "\u0120\u00ec\u0142\u0126\u00ec\u0139\u0132": 3665, "hm": 3666, "\u0120\u00ed\u0138\u012b": 3667, "\u0120sen": 3668, "-.": 3669, "\u0120\u00eb\u012d\u00b9\u00ec\u012d\u0142\u00ec\u013f\u0126": 3670, "\u00ed\u013c\u012e": 3671, "\u00e7\u0136": 3672, "gon": 3673, "\u00b0\u012a": 3674, "\u0120each": 3675, "\u012b\u00ed": 3676, "\u0120\u00ed\u0128\u00b5": 3677, "\u00b2\u0126": 3678, "\u0122\u013f": 3679, "\u00eb\u012c\u00a5": 3680, "\u0120couldn": 3681, "\u0120sli": 3682, "\u00eb\u00b9\u0126\u00ea\u00b0\u0122": 3683, "\u0120\u00ec\u0142\u012a\u00eb\u012e\u0122": 3684, "\u0120blood": 3685, "under": 3686, "\u00eb\u0124\u00b8": 3687, "\u00ec\u0139\u0132\u00ea\u00b2\u0132": 3688, "\u0120\u00ec\u013f\u00bc\u00ec\u0138\u00b4\u00eb\u0124\u013a": 3689, "\u00ec\u013f\u00bc\u00ea\u00b9\u012e": 3690, "\u0120\u00ec\u00bd": 3691, "oa": 3692, "bum": 3693, "\u0120\u00ea\u00b7\u00b8\u00eb\u00a6": 3694, "\u0120\u00ec\u00a3\u00bc\u00ea\u00b3\u0142": 3695, "\u00ec\u012d\u013e\u00ea\u00b0\u0126\u00ec\u013f\u00b4": 3696, "call": 3697, "\u0120\u00ec\u0124\u00b4\u00ea\u00b3\u0142": 3698, "\u00e3\u0125\u00b3": 3699, "\u0140\u00a5": 3700, "ready": 3701, "\u0120\u00eb\u0135\u00b1": 3702, "ano": 3703, "ching": 3704, "\u0120\u00ec\u013a\u012a\u00eb": 3705, "\u00bf\u00e3": 3706, "dow": 3707, "\u0120\u00eb\u0124\u00a8\u00ea\u00b2\u00a8": 3708, "\u0120apart": 3709, "\u00eb\u0136\u00b1": 3710, "\u0120\u00ea\u00b2\u0125\u00ec\u013f\u0122": 3711, "\u0120sex": 3712, "\u00eb\u00a8\u00b8\u00eb\u00a6\u00ac": 3713, "\u0120went": 3714, "con": 3715, "\u0120\u00ec\u0137\u012a\u00eb\u0127\u0137": 3716, "\u0120loved": 3717, "\u0120\u00ec\u0142\u0126\u00ed\u013b\u0136": 3718, "\u0120word": 3719, "\u00ec\u0137\u012a\u00eb": 3720, "\u0139\u00b0": 3721, "\u00a7\u00a4": 3722, "\u0120\u00eb\u00a7\u0132\u00eb\u0131\u0126": 3723, "\u0120\u00eb\u00aa\u00bb\u00ed\u0137\u0142": 3724, "\u0120anymore": 3725, "\u00ec\u0139\u012a\u00eb\u012d\u00a4": 3726, "\u0127\u00a8": 3727, "\u00b8\u00eb\u00a9\u00b4": 3728, "\u0120land": 3729, "\u0120until": 3730, "\u0120\u00ed\u013f\u0132\u00eb\u00a5\u00b4": 3731, "\u0120\u00eb\u00b0\u0137": 3732, "\u00ed\u0137\u013a\u00eb\u012f\u013a": 3733, "\u00eb\u012a\u0126\u00ea\u00b0\u0122": 3734, "\u00ec\u0138\u00b4\u00ec\u00a7\u0122\u00eb\u012c\u0136": 3735, "\u00ea\u00b0\u0122\u00ec\u013c\u00b4": 3736, "\u0120mad": 3737, "\u00eb\u00aa\u00a8\u00ec\u012c\u00b5": 3738, "\u00e6\u012a": 3739, "\u0120differe": 3740, "\u0120\u00eb\u00a7\u0132\u00ec\u0136\u0122": 3741, "\u0120trou": 3742, "\u00eb\u00bb\u0132": 3743, "\u0120past": 3744, "anger": 3745, "\u00b4\u00ed": 3746, "\u0120\u00ea\u00b7\u00b8\u00eb\u00a6\u00ac\u00ec\u013d\u0122": 3747, "\u0120full": 3748, "sometimes": 3749, "cked": 3750, "\u0120\u00ed\u0134\u0122": 3751, "\u00ec\u00b2\u013b": 3752, "\u0120pay": 3753, "bove": 3754, "nin": 3755, "\u00eb\u0135\u00b1": 3756, "\u00e6\u0143": 3757, "\u0120\u00ea\u00b0\u0136": 3758, "lea": 3759, "ary": 3760, "\u00ec\u0138\u00b4\u00eb\u0138\u00a4": 3761, "\u0120=": 3762, "\u00e3\u0123\u0126\u00e3\u0123\u00a6": 3763, "\u00e8\u00a8": 3764, "\u00eb\u00a8\u00bc": 3765, "\u00eb\u00b9\u013b": 3766, "\u0120wit": 3767, "\u00b8\u00eb\u0135": 3768, "cuz": 3769, "\u0120\u00ec\u0140\u00a1\u00ec\u0137\u0126": 3770, "ence": 3771, "\u00a1\u00b0": 3772, "\u0120\u00ea\u00b0\u0122\u00ec\u012c\u00b4\u00ec\u013f\u00b4": 3773, "\u0120du": 3774, "\u0120\u00eb\u012d\u00ae": 3775, "\u00a4\u00ec\u00b3\u0132": 3776, "\u0120\u00eb\u0133\u013a\u00ec\u013f\u00b4": 3777, "\u0120dre": 3778, "\u0120goin": 3779, "\u00a1\u012e": 3780, "\u00ec\u013a\u00ac\u00eb\u013f\u00bc": 3781, "\u0120mir": 3782, "vil": 3783, "\u0120\u00ea\u00b2\u00bd": 3784, "\u0120boys": 3785, "\u00eb\u00b8": 3786, "\u0120\u00eb\u00b0\u0122": 3787, "\u0120\u00eb\u0128\u0134\u00ec\u013f\u00b4": 3788, "\u00ec\u00a7\u0122\u00ec\u0137\u012c": 3789, "dom": 3790, "\u00eb\u0142\u0132\u00eb\u00a3\u00a8": 3791, "az": 3792, "\u00e3\u0124\u0125": 3793, "\u00e3\u0124\u012a\u00e3\u0123\u0128": 3794, "\u00eb\u0123\u0126": 3795, "\u00eb\u0131\u012a": 3796, "\u0120\u00ec\u013a\u00a4\u00ec\u00a7\u0123": 3797, "\u0120\u00eb\u00b2\u0126\u00eb\u0142\u00a4": 3798, "\u0120mid": 3799, "\u0120\u00eb\u0127\u00b9": 3800, "\u0120\u00ec\u0126\u00a4\u00eb\u0142\u012a": 3801, "\u0120\u00ec\u0138\u00bc\u00eb\u00a7\u012a\u00eb\u0124\u013a": 3802, "\u00ac\u00eb\u0140\u013a": 3803, "\u00ac\u00ed\u012f\u00bc": 3804, "\u0120ne": 3805, "\u0123\u00ec\u013f\u00b4": 3806, "\u00eb\u00a1\u0143": 3807, "\u00ed\u0137\u013e\u00eb\u00b2\u012a": 3808, "\u0120bur": 3809, "\u0120\u00ec\u0142\u0132": 3810, "\u0120jump": 3811, "\u0120\u00eb\u012d\u00ac\u00eb\u013f\u00bc": 3812, "\u00ec\u0138\u00b4\u00eb\u00b2\u0126\u00eb\u00a6\u00b0": 3813, "\u0120promise": 3814, "\u0120\u00ec\u00a3\u00bc\u00eb\u00a5\u00bc": 3815, "\u00ec\u0137\u00bc\u00eb\u00a7\u012e": 3816, "\u0120\u00ec\u0140\u012a\u00ec\u0140\u0138\u00ec\u0137\u0126": 3817, "\u00a7\u012b": 3818, "nock": 3819, "\u0120\u00ea\u00b2\u0125\u00eb\u00a7\u012e": 3820, "\u00ec\u013b\u00b8\u00eb\u00a1\u013e": 3821, "\u00eb\u00a7\u012a\u00ec\u0142\u0122": 3822, "boy": 3823, "\u00ec\u013f\u00b4\u00eb\u013f\u00bc\u00ea\u00b3\u0142": 3824, "\u00ea\u00b8\u00b8\u00ec\u013f\u0126": 3825, "\u0120\u00eb\u00b3\u00b4\u00ec\u013f\u00b4": 3826, "\u00eb\u0136\u013e": 3827, "\u00eb\u0136\u00b0\u00eb\u013f\u00bc": 3828, "\u0120\u00ea\u00b7\u00b8\u00ec\u0142\u0122": 3829, "\u0120\u00ec\u0124\u00ac\u00eb\u0140\u0133\u00ed\u0137\u0142": 3830, "\u00e6\u00b0": 3831, "\u00eb\u0134\u00a4": 3832, "\u0120\u00eb\u00a7\u012a\u00ec\u013f\u012e\u00ec\u0139\u0132": 3833, "\u0125\u0137": 3834, "\u0120doing": 3835, "\u00ec\u00a7\u0132": 3836, "\u0120story": 3837, "\u00eb\u0142\u00b5": 3838, "\u00eb\u0140\u0126\u00eb\u0140\u0126": 3839, "oooo": 3840, "\u0123\u0143": 3841, "still": 3842, "\u00ed\u0134\u012f": 3843, "\u0120honey": 3844, "\u0120\u00ea\u00b3\u0142\u00eb\u00b0\u00b1": 3845, "\u0120\u00ec\u012d\u00ac\u00ec\u0140\u00a5": 3846, "\u00eb\u0140\u013a\u00ec\u013c\u0136": 3847, "\u0120fill": 3848, "\u00e5\u0129\u00ba": 3849, "\u00eb\u00b2\u0142": 3850, "gs": 3851, "shine": 3852, "\u0120\u00eb\u00af\u00bf\u00ec\u0138\u00b4": 3853, "\u0120\u00eb\u00aa\u00a8\u00ec\u012c\u00b5\u00ec\u013f\u00b4": 3854, "\u0109\u0109": 3855, "\u00bc\u013e": 3856, "ket": 3857, "\u00e3\u0123\u0143": 3858, "\u0120hang": 3859, "\u00a5\u0132": 3860, "\u0120\u00ec\u012e\u0135": 3861, "\u00bd\u00e3": 3862, "\u0120[": 3863, "\u00ea\u00bc\u0143": 3864, "\u0120\u00ea\u00b4\u00b4": 3865, "\u0120\u00ec\u0138\u00b4\u00eb\u0133\u0142": 3866, "19": 3867, "\u0120\u00ec\u013d\u0132\u00ed\u0137\u00b4": 3868, "\u00ea\u00bb\u0131": 3869, "aight": 3870, "\u013a\u00a8": 3871, "\u00ec\u0140\u00a1\u00ea\u00b3\u0142": 3872, "\u0120\u00ec\u0138\u00b8": 3873, "\u0136\u00a8": 3874, "\u00ea\u00b8\u012a\u00ec\u0136\u00a9": 3875, "\u0120\u00eb\u00b4\u0132\u00eb\u0131\u0126": 3876, "\u0120\u00eb\u00b3\u00b4\u00eb\u012c\u0136": 3877, "\u0120\u00ec\u0140\u012a\u00eb\u0126\u00a4": 3878, "\u0142\u0129": 3879, "\u0120\u00ed\u0125\u0122\u00ea\u00b3\u0142": 3880, "\u00ed\u0139\u013a": 3881, "\u00ed\u013f\u0136": 3882, "\u0120\u00ed\u013b\u013a": 3883, "\u00ec\u0139\u00ac\u00ea\u00b8\u00b0": 3884, "\u00ec\u013f\u00b4\u00eb\u012d\u00a4": 3885, "\u00ec\u013c\u00b0\u00eb\u00a6\u00ac\u00ea\u00b0\u0122": 3886, "mes": 3887, "\u00eb\u00a6\u00ac\u00eb\u0126\u00a4": 3888, "\u00ec\u0140\u0132\u00eb\u00a6\u00ac": 3889, "\u0120\u00ec\u0139\u0126\u00eb\u00a7\u012a": 3890, "\u0120river": 3891, "\u0120\u00ec\u00a7\u0122\u00ec\u00b3\u0132": 3892, "\u00ec\u0140\u0133\u00ec\u013f\u0122": 3893, "\u0132\u00eb\u012f\u00b0": 3894, "head": 3895, "\u00ec\u013c\u00b0\u00eb\u00a6\u00ac\u00ec\u013f\u013a": 3896, "\u0120\u00eb\u00b2\u0142": 3897, "\u0120\u00ec\u0138\u00b4\u00ea\u00b9\u00a8": 3898, "eal": 3899, "\u0120fast": 3900, "\u0120afraid": 3901, "\u0120\u00ea\u00b0\u0138": 3902, "\u0120seems": 3903, "\u0120bar": 3904, "\u0122\u012e": 3905, "\u0120\u00ec\u00a1\u00b4": 3906, "\u00ec\u00b6\u0136\u00ec\u0138\u00b5": 3907, "\u0120\u00ea\u00b7\u00b8\u00eb\u012e\u0122\u00ec\u013f\u013a": 3908, "\u0120\u00eb\u00a7\u013f": 3909, "\u00ec\u0137\u012a\u00ec\u0139\u0132": 3910, "wait": 3911, "oice": 3912, "pping": 3913, "hed": 3914, "\u00eb\u0141\u00bd": 3915, "\u00ea\u00b7\u00b8\u00eb\u012e\u0122\u00eb\u00a5\u00bc": 3916, "\u0120born": 3917, "\u0120soon": 3918, "\u0120sat": 3919, "\u00eb\u00b3\u00b4\u00ec\u0140\u0132": 3920, "\u0120\u00eb\u0124\u00b4\u00ea\u00b2\u0132": 3921, "\u00ea\u00b0\u013e\u00eb\u00a5\u00bc": 3922, "\u0120\u00ec\u013c\u0137": 3923, "mon": 3924, "\u0120\u00ec\u013a\u00b7": 3925, "\u0120son": 3926, "\u0120\u00ed\u0138\u012b\u00eb\u00b3\u00b5\u00ed\u0137\u00b4": 3927, "\u0120\u00ec\u0139\u0128\u00ec\u0138\u00b4\u00ec\u013c\u0136": 3928, "\u0120\u00ec\u013a\u012a\u00ec\u0123\u013e": 3929, "\u0120year": 3930, "\u00eb\u00b4\u0126": 3931, "\u0120trouble": 3932, "\u0143\u00e3": 3933, "\u00ea\u00b8\u00b0\u00eb\u00a1\u013e": 3934, "\u0120\u00eb\u00aa\u00bb\u00ed\u0137\u013a\u00ea\u00b3\u0142": 3935, "\u012d\u0142": 3936, "did": 3937, "\u0120\u00ed\u0138\u0129\u00ec\u0124\u00b4": 3938, "have": 3939, "\u00ea\u00b9\u012e\u00ec\u013c\u0136": 3940, "\u0120three": 3941, "\u00bd\u00ed": 3942, "\u00b8\u00eb\u012f\u013a": 3943, "\u00ec\u013f\u00b8\u00ea\u00b1\u00b8": 3944, "\u0120\u00ec\u0137\u012c\u00ea\u00b3\u0142": 3945, "\u00e6\u013b": 3946, "\u0120\u00eb\u00b2\u012e": 3947, "\u0120\u00ea\u00b1\u00b0\u00ec\u00a7\u0135\u00eb\u00a7\u0132": 3948, "\u0120\u00eb\u00a8\u00bc\u00ec\u0142\u0122": 3949, "\u00ec\u00a1\u00b0\u00ec\u00b0\u00a8": 3950, "\u0120\u00ec\u0138\u00b4\u00eb\u0138\u00a1": 3951, "\u0142\u00ed": 3952, "\u0120pie": 3953, "\u0120\u00eb\u012c\u0132\u00eb\u0123\u00bc": 3954, "\u0120pass": 3955, "\u00ed\u013a\u00b8\u00ec\u013b\u0122": 3956, "\u0120peace": 3957, "\u0120\u00ed\u0126\u00b0": 3958, "\u0120twi": 3959, "\u0120\u00ec\u00b3\u0132": 3960, "\u00ec\u013e\u0126\u00ec\u0139\u0132": 3961, "while": 3962, "\u0120above": 3963, "\u0120\u00eb\u012a\u012a\u00ec\u0139\u0132": 3964, "\u00bf\u0132": 3965, "\u0120\u00ed\u0134\u012a\u00ec\u0139\u0132": 3966, "\u00ec\u0142\u00b8\u00eb\u00b2\u0126": 3967, "\u00eb\u00b3\u00b4\u00eb\u012c\u0136": 3968, "ks": 3969, "\u0120mama": 3970, "\u00ea\u00b2\u0142\u00eb\u012d\u012a": 3971, "\u0120num": 3972, "\u0120\u00ec\u0137\u0126\u00eb\u012d\u012a\u00ec\u0137\u00bc": 3973, "zo": 3974, "\u00ec\u012d\u013e\u00ed\u0127\u012e": 3975, "\u0120\u00eb\u00a7\u012e\u00eb\u0124\u013e": 3976, "\u00ea\u00b8\u00b0\u00ea\u00b3\u0142": 3977, "\u0120\u00ed\u012d": 3978, "\u0120\u00eb\u00a7\u012e\u00eb\u0135\u00a4": 3979, "\u0120\u00ec\u0137\u012c\u00ea\u00b2\u012e": 3980, "\u0120\u00ec\u0137\u012a\u00ea\u00b3\u0142": 3981, "\u00e8\u00aa": 3982, "think": 3983, "\u0120\u00e2\u0122": 3984, "otion": 3985, "\u0120breath": 3986, "\u0120\u00eb\u00b3\u00b5": 3987, "\u0120shi": 3988, "\u0120\u00ed\u013a\u0126": 3989, "\u0120\u0109\u0120": 3990, "\u00ec\u0137\u0126\u00eb\u00a6\u0126\u00eb\u012d\u00a4\u00ec\u013c\u00b4": 3991, "\u00eb\u0135\u013e\u00eb\u012c\u0136": 3992, "\u0120cut": 3993, "\u0136\u00ea": 3994, "\u00eb\u0128\u0122": 3995, "\u00ec\u013a\u00a4\u00eb\u012c\u013a\u00ec\u013f\u0122": 3996, "\u0120\u00e7": 3997, "\u0120fel": 3998, "\u00eb\u0131\u0126\u00eb\u012d\u00a4": 3999, "\u0120gets": 4000, "\u0138\u00b8": 4001, "ym": 4002, "\u0120\u00ec\u0140\u012a\u00ec\u0139\u012a": 4003, ":]": 4004, "\u00ed\u0137\u013a\u00eb\u012d\u00a4": 4005, "\u00ec\u013a\u012a\u00ec\u013c\u0136": 4006, "\u0120kn": 4007, "\u0120\u00ec\u0137\u012e\u00ec\u0137\u013a": 4008, "\u00ac\u00ec\u00bd\u00a4\u00ed\u0137\u013e": 4009, "\u00ec\u012d\u013e\u00eb\u012d\u012a": 4010, "would": 4011, "pla": 4012, "\u00eb\u00a6\u00ac\u00eb\u00a9\u00b4": 4013, "\u00ea\u00b5\u00ac\u00eb\u00a6\u0126": 4014, "\u0120\u00ed\u0140\u013a\u00ec\u013f\u00b4": 4015, "\u00eb\u00a8\u00b8\u00eb\u012d\u012a": 4016, "\u0120\u00ec\u0125\u013f\u00eb\u00aa\u0127": 4017, "\u0120pic": 4018, "sto": 4019, "\u0120bot": 4020, "\u0120met": 4021, "\u00ec\u0137\u0126\u00ec\u00b9\u00a8": 4022, "\u00ed\u013a\u0137": 4023, "\u00e3\u0123\u0126\u00e3\u0123\u00a4": 4024, "\u00ec\u0124\u00ac\u00eb\u0140\u0133\u00ec\u013f\u013a": 4025, "\u00ec\u0137\u0126\u00eb\u00ac\u00b4\u00eb\u0131\u0126": 4026, "\u00ec\u00a7\u00b8": 4027, "lla": 4028, "\u00ec\u00a7\u0122\u00eb\u00a5\u00bc": 4029, "ating": 4030, "\u0120\u00ec\u013d\u0125\u00ea\u00b3\u0142": 4031, "\u00eb\u0135\u00af\u00ec\u013f\u00b4": 4032, "\u00ed\u0137\u013a\u00ec\u0138\u0122": 4033, "rg": 4034, "\u0120qui": 4035, "life": 4036, "show": 4037, "\u012a\u00eb\u0135\u00a4": 4038, "\u00ec\u013f\u00b4\u00ea\u00b0\u0122": 4039, "\u0120\u00eb\u00ac\u00b4\u00ec\u012c\u00a8": 4040, "\u00eb\u012d\u00b9\u00ec\u012d\u0142\u00ec\u013f\u00b4": 4041, "fall": 4042, "\u00ec\u0128\u012f\u00ec\u0139\u0132\u00ec\u0126\u013e": 4043, "lin": 4044, "\u00ec\u0138\u00b4\u00ec\u00a9\u012e": 4045, "\u0120worry": 4046, "\u0120\u00ec\u0137\u0126\u00ec\u00a7\u0123\u00eb\u0131\u0126": 4047, "ale": 4048, "\u00ec\u013c\u00b0\u00ea\u00b3\u0142": 4049, "\u00e2\u013b": 4050, "\u0120\u00ec\u0126\u00b8\u00ec\u0125\u0123\u00ec\u013f\u0126": 4051, "\u0120dad": 4052, "\u0125\u012a": 4053, "\u00e3\u0123\u0142\u00e3\u0123\u0133": 4054, "\u0120\u00ec\u013a\u013d": 4055, "\u0120blind": 4056, "sta": 4057, "\u00ec\u0126\u00b8\u00ec\u013d\u0136": 4058, "\u0120\u00eb\u00a9\u012a\u00ec\u00b6\u00b0": 4059, "\u00eb\u0142\u0132\u00eb\u00a3\u00a8\u00ec\u0137\u00bc": 4060, "\u0120perfect": 4061, "\u0120dir": 4062, "\u0120doesn": 4063, "\u0120such": 4064, "\u00ea\u00b7\u00b8\u00eb\u012e\u0122\u00eb\u012c\u0136": 4065, "\u0120bus": 4066, "\u0120scream": 4067, "\u0120smo": 4068, "\u0120damn": 4069, "int": 4070, "\u0120\u00eb\u012f\u013a": 4071, "\u00ed\u013f\u0132": 4072, "mr": 4073, "\u0120yours": 4074, "\u0120\u00eb\u00a7\u012a\u00ec\u013f\u012e\u00ec\u013f\u0122": 4075, "\u00ec\u0127\u00a8\u00eb\u0126\u00a4": 4076, "\u0136\u00e3": 4077, "\u0120laugh": 4078, "\u0120fac": 4079, "\u00eb\u012f\u0136\u00eb\u013f\u00bc": 4080, "\u0120col": 4081, "break": 4082, "\u00eb\u012c\u0136\u00eb\u012d\u00a4": 4083, "\u00b8\u00eb\u0135\u00a4": 4084, "\u00eb\u00b0\u0136\u00eb\u00b3\u00b4": 4085, "\u00e3\u0125\u00bc": 4086, "\u0120\u00ec\u0140\u012a\u00ec\u00a7\u0122": 4087, "kin": 4088, "\u0135\u00b8": 4089, "\u0120\u00ec\u013f\u00b4\u00ed\u0137\u00b4": 4090, "\u00ea\u00b0\u0122\u00eb\u0126\u00a4": 4091, "\u012e\u00ea": 4092, "\u0120\u00ec\u013f\u00b4\u00ec\u0142\u013e\u00eb\u012c\u0136": 4093, "\u0120\u00ed\u013e": 4094, "\u0120\u00eb\u00b6\u0122\u00ec": 4095, "\u00e6\u0126\u013d": 4096, "\u0120\u00ea\u00b0\u0132\u00ec\u0124\u00ac": 4097, "\u0120felt": 4098, "\u0122\u00eb\u00a1\u013e": 4099, "\u0120\u00ea\u00b0\u0126\u00eb\u012d\u00a4": 4100, "\u0120\u00ed\u0137\u013a\u00ec\u00a7\u0122\u00eb\u00a7\u012e": 4101, "angel": 4102, "\u0120power": 4103, "\u0120mill": 4104, "\u0120\u00ec\u013b\u00b8": 4105, "\u00e3\u0123\u00a7\u00e3\u0124\u0124": 4106, "\u0120\u00eb\u013e\u00bb": 4107, "\u012a\u00eb\u012f\u00b0": 4108, "\u0120\u00eb\u00aa\u00a8\u00eb\u00a5\u00b4\u00eb\u012c\u0136": 4109, "\u00eb\u00a6\u0126\u00eb\u012d\u00b5": 4110, "\u0120\u00eb\u00b9\u012a": 4111, "\u00bb\u00ed": 4112, "ky": 4113, "tend": 4114, "\u0120\u00eb\u00a6\u00ac": 4115, "\u0120\u00ea\u00b2\u00a8\u00ec\u013c\u00b8": 4116, "\u0120\u00ec\u013a\u0128\u00ec\u0139\u0132": 4117, "wake": 4118, "\u01205": 4119, "\u0120\u00ea\u00b3\u0142\u00ed\u0138\u00a5": 4120, "\u00ec\u00a2\u0122": 4121, "\u0120being": 4122, "\u0120hair": 4123, "\u0120\u00ea\u00b0\u0122\u00ec\u0142\u00b8": 4124, "\u0120\u00ec\u013c\u00b8\u00ec\u0138\u00b4": 4125, "\u00b8\u00e3": 4126, "\u0120dru": 4127, "\u0120\u00ec\u00b1\u0126\u00ec\u013d\u012e": 4128, "\u0120mist": 4129, "\u0120\u00eb\u00aa\u00a8\u00eb\u00a5\u00b4\u00ea\u00b2\u012e": 4130, "xi": 4131, "\u0141\u00ec\u0137\u0126": 4132, "yle": 4133, "ture": 4134, "\u00ea\u00b0\u0122\u00eb\u00a9\u00b4": 4135, "\u0133\u00eb": 4136, "too": 4137, "\u0120\u00ec\u0137\u012a\u00ec\u0137\u0126": 4138, "\u0120throw": 4139, "\u00ec\u0139\u0132\u00ec\u013c\u0136": 4140, "\u00ea\u00b7\u00b8\u00eb\u012e\u0122\u00ec\u013f\u013a": 4141, "\u0120trust": 4142, "\u0120hig": 4143, "\u0120because": 4144, "\u0120\u00eb\u012d\u00b9\u00ec\u012d\u0142\u00ec\u013f\u013a": 4145, "\u0120happen": 4146, "ees": 4147, "\u0141\u00b4": 4148, "\u00eb\u0124\u013a\u00ec\u0139\u0132\u00ea\u00b2\u012e": 4149, "\u00eb\u00a1\u00b1": 4150, "\u00eb\u00b4\u00a4": 4151, "\u00ec\u013f\u00b4\u00eb\u00af\u00b8": 4152, "\u00eb\u00a9\u0122\u00eb\u00a6\u00ac": 4153, "\u0123\u00eb": 4154, "\u0120ans": 4155, "\u00e3\u0124\u00a4": 4156, "\u0120luck": 4157, "rap": 4158, "\u00ec\u0138\u00b4\u00ec\u0142\u013e": 4159, "iness": 4160, "\u0120men": 4161, "\u00b5\u00ec\u012a\u013b": 4162, "\u00ec\u0137\u0126\u00eb\u00b9\u0142": 4163, "bit": 4164, "\u00e5\u0131": 4165, "\u00ec\u013a\u00a4\u00ec\u00a7\u0123": 4166, "\u00bf\u00ec": 4167, "\u0120\u00eb\u0132\u013a\u00ea\u00b3\u0142": 4168, "\u00ec\u013f\u00b8\u00ec\u0125\u013f": 4169, "\u0120\u00ec\u0128\u012f\u00ec\u0124\u0143": 4170, "\u00e6\u0125": 4171, "ner": 4172, "wan": 4173, "des": 4174, "\u0120\u00ec\u013f\u00b4\u00eb\u012e\u0122\u00eb\u00a1\u013e": 4175, "\u0120\u00ec\u00b6\u00a4\u00ec\u00b6": 4176, "\u00ec\u0142\u013e\u00eb\u00b0\u013e": 4177, "\u0120check": 4178, "\u00e9\u0122": 4179, "\u0120\u00ec\u00b5": 4180, "\u00eb\u0126\u012a\u00eb\u0131\u0126": 4181, "\u00eb\u00a7\u0140": 4182, "\u00eb\u00a7\u012e\u00ec\u013f\u0122": 4183, "\u0120takes": 4184, "lw": 4185, "\u00eb\u00a9\u012f": 4186, "\u0120\u00ec\u013c\u00b0\u00eb\u00a6\u00ac\u00ea\u00b0\u0122": 4187, "\u00ec\u0124\u00b4\u00ec\u0137\u0126": 4188, "\u013f\u00eb": 4189, "\u00ec\u012d\u00b6\u00ec\u0138\u00b4": 4190, "\u00ec\u012a\u013a\u00ea\u00b0\u0122": 4191, "ont": 4192, "alal": 4193, "\u0120spa": 4194, "\u0120\u00eb\u00b6\u012a\u00ec\u0138\u00b4": 4195, "\u0120\u00eb\u0143\u0136": 4196, "\u0120\u00eb\u00a9\u012f": 4197, "\u00e7\u013c": 4198, "\u0120speak": 4199, "\u0120\u00ed\u0134\u012f": 4200, "\u0120\u00eb\u0137\u012e\u00ea\u00b9\u012e\u00ec\u00a7\u0122": 4201, "star": 4202, "\u0120\u00ea\u00b7\u00b8\u00eb\u0140\u00ac": 4203, "\u0120clou": 4204, "sin": 4205, "\u0120\u00ea\u00b7\u00b8\u00eb\u0142\u00a4": 4206, "\u00ea\u00b3\u00b3\u00ec\u0139\u0132": 4207, "\u0120catch": 4208, "\u00a6\u00b0": 4209, "\u00ea\u00b2\u012e\u00ec\u013c\u0136": 4210, "\u0120voice": 4211, "\u0120snow": 4212, "\u0120making": 4213, "\u00ec\u013c\u00b0\u00eb\u00a6\u00ac\u00eb\u012c\u0136": 4214, "\u0120\u00eb\u00a8\u00b8\u00eb\u00ac\u00bc": 4215, "\u00ec\u013b\u0136\u00eb\u012f\u013a": 4216, "\u0120\u00ec\u0131": 4217, "land": 4218, "\u00bf\u00b5": 4219, "\u0120earth": 4220, "\u0120\u00eb\u0143\u013a": 4221, "\u00eb\u0135\u00a4\u00ea\u00b3\u00bc": 4222, "\u0120\u00ea\u00b8\u00b0\u00ec\u0138\u00b5\u00ed\u0137\u00b4": 4223, "\u00ed\u013a\u00b9\u00ec\u012d\u013e": 4224, "\u00eb\u0128\u0135\u00ea\u00b3\u0142": 4225, "ort": 4226, "12": 4227, "\u0120\u00eb\u0136\u00b0\u00eb\u013e\u00bb": 4228, "\u0120\u00eb\u00af\u00b8\u00eb\u0142\u00a8": 4229, "\u0120\u00ea\u00b1\u00b8\u00ec\u013f\u012e": 4230, "\u00ed\u0137\u00b4\u00ec\u0142\u00b8": 4231, "\u0120\u00eb\u012f\u0136\u00ec\u013c\u00b1": 4232, "\u0120worth": 4233, "\u0120\u00ec\u00a3\u00bc\u00ea\u00bb\u013a": 4234, "\u0120\u00ec\u013f\u00b8\u00eb\u0131\u0126": 4235, "\u00eb\u013a\u0133": 4236, "tonight": 4237, "\u012a\u00ec\u00b9\u00b4": 4238, "\u0120wants": 4239, "\u00e3\u0123\u0135\u00e3\u0123\u00ae": 4240, "\u00eb\u00aa\u00b8": 4241, "aise": 4242, "\u012a\u00ec\u013e\u00bc\u00eb\u00a1\u013e": 4243, "\u00b6\u00ec": 4244, "lb": 4245, "\u0120\u00ec\u0140\u012a\u00eb\u0124\u013a\u00ec\u013c\u0136": 4246, "\u0120:": 4247, "\u00b0\u0137": 4248, "\u00ec\u0139\u012a\u00ec\u00a3\u0142": 4249, "cial": 4250, "\u012e\u00ec\u012f\u00a8": 4251, "\u0120burning": 4252, "ones": 4253, "\u0137\u013b": 4254, "\u0120tea": 4255, "\u00ea\u00b3\u0123\u00ec\u0139\u0132": 4256, "\u0120\u00eb\u00b1": 4257, "\u0120wouldn": 4258, "\u0120\u00eb\u0126\u012a\u00eb\u0131\u0126": 4259, "\u0120\u00eb\u012d\u00b9\u00ec\u012d\u0142\u00ec\u013f\u00b4": 4260, "\u0120phone": 4261, "\u0120pi": 4262, "\u0120\u00ec\u0137\u0126\u00eb\u00a6\u0126\u00eb\u012d\u00a4": 4263, "sure": 4264, "\u0120belong": 4265, "\u00e3\u0124\u0126": 4266, "\u0120\u00ea\u00b8\u00b4": 4267, "\u0120\u00ec\u0124\u00ac\u00eb\u0140\u0133\u00ed\u0137\u00b4\u00ec\u013c\u0136": 4268, "something": 4269, "\u0120plan": 4270, "\u00ed\u013f\u013a": 4271, "\u00ec\u013e\u00bc\u00eb\u00a6\u00ac": 4272, "\u0120\u00ec\u0139\u0143": 4273, "\u0120ser": 4274, "\u00eb\u00b9\u00a8": 4275, "always": 4276, "\u0120\u00ea\u00b0\u0132\u00ec\u012d\u00b8": 4277, "before": 4278, "\u0120upon": 4279, "\u00a1\u013e\u00ec\u013c\u00b4": 4280, "\u00e3\u0124\u0135\u00e3\u0123\u00aa": 4281, "\u00ed\u0137\u013a\u00ec\u00a7\u0122\u00eb\u00a7\u012a": 4282, "\u00e3\u0124\u012e\u00e3\u0123\u00a6": 4283, "\u00e3\u0123\u0126\u00e3\u0123\u0141": 4284, "\u00ed\u0137\u013a\u00ea\u00b8\u00b0": 4285, "\u00ea\u00b9\u012c": 4286, "\u0120\u00eb\u012d\u00b5": 4287, "\u0120\u00ea\u00b7\u00b8\u00eb\u0141\u00ac": 4288, "\u0120\u00eb\u0124\u00a8\u00ec\u013f\u0122": 4289, "\u0120seem": 4290, "\u0120act": 4291, "\u0120\u00eb\u0127\u00b8\u00eb\u0140\u013a\u00eb\u00a5\u00bc": 4292, "adio": 4293, "\u00ea\u00b0\u0122\u00eb\u0123\u0136": 4294, "\u0120dancing": 4295, "\u00b0\u00b8": 4296, "gin": 4297, "\u0120\u00ec\u0124\u00ac\u00eb\u0140\u0133\u00ec\u0139\u0132": 4298, "\u0120\u00eb\u00b0\u013a\u00ec\u00a7\u013f": 4299, "\u0129\u00e3": 4300, "\u0120hearts": 4301, "\u0120\u00ea\u00b0\u0122\u00ec\u0140\u0132": 4302, "\u00ed\u013e": 4303, "\u0120shot": 4304, "\u00eb\u00a6\u00b0\u00eb\u012d\u00a4": 4305, "med": 4306, "\u00e5\u0125\u0137": 4307, "\u0120\u00ec\u0140\u012c\u00ed\u013a\u0122": 4308, "\u0120calling": 4309, "\u0120\u00eb\u012d\u00b9\u00ec\u012d\u0142\u00ec\u013f\u0122": 4310, "\u0120drive": 4311, "\u0120\u00ec\u013f\u00b4\u00ec\u0137\u00bc\u00ea\u00b8\u00b0": 4312, "\u0120drop": 4313, "\u00b0\u00a4": 4314, "\u00eb\u0133\u0136": 4315, "\u0120\u00eb\u00b0\u00a4\u00ec\u013f\u0126": 4316, "\u00ec\u012a\u013e\u00ea\u00b0\u0126": 4317, "\u0120breathe": 4318, "\u0120\u00eb\u00a7\u0132\u00ec\u013f\u0122": 4319, "\u00eb\u012d\u00b9\u00ec\u012d\u0142\u00ec\u013f\u013a": 4320, "\u0127\u00ed": 4321, "\u0120fl": 4322, "\u0120death": 4323, "str": 4324, "\u0120\u00eb\u00b2\u0126\u00eb\u00a6\u00ac\u00ea\u00b3\u0142": 4325, "\u00b9\u00e3": 4326, "\u00ed\u0133\u013e": 4327, "\u00ec\u0137\u0126\u00eb\u012d\u012a": 4328, "\u00e4\u00bd\u0137": 4329, "\u0120answ": 4330, "\u0120lips": 4331, "\u00eb\u00b0\u0138\u00ec\u0139\u0132": 4332, "\u0120\u00ec\u00a7\u0126\u00ec\u00a7\u013e": 4333, "\u0120\u00eb\u00a7\u012a\u00ec": 4334, "\u0120different": 4335, "\u0120cla": 4336, "\u00ed\u012e\u0132": 4337, "\u0120\u00eb\u0124\u0142\u00ec\u013f\u00b4": 4338, "\u0120\u00ec\u00b5\u013e": 4339, "\u00eb\u00a6\u00ac\u00ec\u012c\u00a4": 4340, "ko": 4341, "llo": 4342, "\u00ed\u0137\u013b": 4343, "\u0120\u00ed\u0137\u013e\u00eb\u00a7\u012a\u00eb\u0136\u0136": 4344, "\u0120\u00ed\u0133\u013e\u00ec\u0142\u0137": 4345, "\u0120nice": 4346, "\u00ec\u0128\u0132\u00ec\u013f\u0126": 4347, "\u0120\u00ec\u013f\u00b4\u00eb\u00a3\u00a8": 4348, "\u0138\u00bc": 4349, "\u0120huh": 4350, "rv": 4351, "\u0120cli": 4352, "\u0120\u00eb\u00a7\u00a1": 4353, "\u00ea\u00b2\u0123\u00ea\u00b2\u012e": 4354, "\u00ea\u00b7\u00b8\u00eb\u012e\u012a": 4355, "esus": 4356, "could": 4357, "\u0120hop": 4358, "\u0120talking": 4359, "\u0120\u00ec\u0137\u0126\u00eb\u00b9\u0142": 4360, "\u0120\u00ec\u0137\u0126\u00eb\u00b2\u0126\u00ec\u00a7\u0122": 4361, "\u0120\u00ec\u0137\u012c\u00ec\u0137\u013a": 4362, "\u0120\u00ec\u0140\u012a\u00eb\u012c\u0136\u00eb\u012f\u00b0": 4363, "\u00eb\u0135\u00ac": 4364, "\u00b8\u0122": 4365, "\u0120brother": 4366, "\u00eb\u00a7\u012a\u00ec\u00a7\u0122\u00eb\u00a7\u012b": 4367, "\u00ea\u00b7\u00b8\u00eb\u00a6\u00ac\u00ea\u00b3\u0142": 4368, "\u0120tired": 4369, "\u00b8\u00ec\u0135\u00b8": 4370, "\u00ea\u00b4\u013e\u00ec\u00b0\u00ae": 4371, "\u0120\u00ec\u0124\u00ac\u00eb\u0140\u0133\u00ec\u0137\u0126": 4372, "\u0120skin": 4373, "\u0120fell": 4374, "\u00ec\u013e\u00bc\u00eb\u0142\u00a4": 4375, "\u0120\u00eb\u00b4\u00a4": 4376, "\u0120\u00ea\u00b7\u00b8\u00ea\u00b2\u012e": 4377, "\u0120shadow": 4378, "\u0120\u00ed\u012e\u012e\u00eb\u0131\u0126": 4379, "gonna": 4380, "\u0120\u00ec\u0128\u0136": 4381, "stay": 4382, "uture": 4383, "\u012a\u00ec\u00b2\u013a\u00eb\u0141\u00bc": 4384, "\u00ea\u00b2\u0125\u00ec\u013f\u00b4": 4385, "\u00e9\u013d": 4386, "\u0120jo": 4387, "\u0120sile": 4388, "\u00ea\u00b9\u0132": 4389, "\u0120doo": 4390, "\u00ec\u0137\u0126\u00eb\u00ac\u00b4\u00eb\u00a6\u00ac": 4391, "\u00ed\u012d\u0122": 4392, "\u0120\u00ec\u012c\u00ac\u00ed\u012f\u00bc": 4393, "\u0120\u00ec\u0137\u0126\u00ec\u00a3\u00bc": 4394, "\u00e3\u0125\u00a9": 4395, "chi": 4396, "\u0120both": 4397, "\u00ec\u0124\u00bc": 4398, "\u0120\u00ec\u0140\u013a\u00eb\u00aa\u00bb": 4399, "\u0120magic": 4400, "iz": 4401, "ppy": 4402, "\u0120\u00ea\u00be\u00b8": 4403, "\u0120\u00ed\u0137\u013a\u00ec\u00a7\u0122\u00eb\u00a7\u012a": 4404, "\u00eb\u0142\u00b4": 4405, "\u0120\u00ed\u0137\u013a\u00ec\u0138\u0122": 4406, "\u0120\u00ea\u00b4\u0122": 4407, "\u00ec\u00a2\u012d\u00ec\u0137\u0126": 4408, "\u0120\u00ec\u0137\u012a\u00eb\u0132\u013a": 4409, "\u0120\u00ea\u00b3\u00bc": 4410, "\u0120clear": 4411, "album": 4412, "\u0120ce": 4413, "\u0120\u00eb\u00b9\u0126\u00ea\u00b0\u0122": 4414, "\u0120says": 4415, "\u0120\u00ec\u013a\u00a4\u00eb\u012c\u0136": 4416, "\u0120faith": 4417, "\u0120use": 4418, "\u0120\u00eb\u013d\u00b0\u00ec\u0138\u00b4": 4419, "\u00eb\u0135\u0142\u00ec\u00a7\u0122": 4420, "\u00eb\u00b0\u0136\u00eb\u013f\u00bc": 4421, "\u0120\u00ea\u00b7\u00b8\u00eb\u00a6\u00ac\u00ea\u00b3\u0142": 4422, "\u0120\u00ea\u00b8\u00b8\u00ec\u013f\u00b4": 4423, "\u00ec\u0137\u0140\u00ec\u0139\u0132": 4424, "\u0120\u00ec\u013e\u0126\u00ed\u0137\u00b4\u00ec\u0126\u013e": 4425, "\u00ed\u0137\u013a\u00eb\u013f\u00bc": 4426, "\u00eb\u0124\u013a\u00ea\u00b2\u012e": 4427, "these": 4428, "\u0120\u00ec\u0138\u00b4\u00ec\u00a9\u012e": 4429, "\u00ec\u013f\u00b4\u00ec\u0125\u0123": 4430, "\u0120\u00eb\u00af\u00b8\u00eb\u0140\u013a": 4431, "\u0120\u00eb\u00aa\u00b8\u00ec\u013f\u0126": 4432, "\u0120near": 4433, "\u0120hour": 4434, "\u0120giv": 4435, "gotta": 4436, "\u00ec\u00a3\u00bc\u00eb\u012d\u013a\u00ec\u013f\u013a": 4437, "\u0120\u00eb\u00b9\u0139": 4438, "\u00eb\u012d\u00b7": 4439, "\u0120app": 4440, "gy": 4441, "\u0120\u00ec\u0139\u00ac\u00eb\u00a6\u0126": 4442, "\u0120\u00eb\u00a7\u0132\u00ed\u0137\u0142": 4443, "\u0120nights": 4444, "\u0120\u00ec\u013b\u0126": 4445, "\u00ed\u0124\u00ac": 4446, "\u00ec\u012d\u013e\u00eb\u012d\u00a4": 4447, "\u00ec\u013e\u012a": 4448, "\u00eb\u0131\u013b\u00ec\u0137\u012a": 4449, "\u0120\u00ed\u013a\u0137": 4450, "\u0120\u00eb\u00a7\u013d": 4451, "alf": 4452, "\u0120\u00ea\u00b2\u0125\u00ec\u00b2\u013a\u00eb\u0141\u00bc": 4453, "\u0120spend": 4454, "fly": 4455, "\u012a\u00eb\u0141\u00ac": 4456, "\u0120since": 4457, "\u0120club": 4458, "\u0120\u00ec\u0140\u012a\u00ea\u00b3\u0142": 4459, "\u0120bang": 4460, "\u00ec\u0139\u012a\u00eb\u012c\u0136\u00eb\u012f\u00b0": 4461, "\u0120\u00ec\u00a4\u0122\u00eb\u00b9\u0126": 4462, "\u00e9\u0138": 4463, "ger": 4464, "\u0120\u00ec\u013f\u00bc\u00ec\u013f\u00b4": 4465, "\u0137\u0140": 4466, "\u0120loves": 4467, "eath": 4468, "\u0120\u00ec\u00b6\u00a9": 4469, "\u0120dest": 4470, "\u0120\u00ec\u0126\u0142\u00eb\u00ac\u00bc": 4471, "\u0120\u00eb\u00b2\u0126\u00eb\u0142\u00b8": 4472, "\u0120learn": 4473, "\u00b9\u013d": 4474, "\u00ec\u00a4\u0126\u00eb\u0140\u013a": 4475, "\u0120\u00ea\u00b1\u00b8\u00ea\u00b9\u012e": 4476, "\u0120bri": 4477, "\u00ec\u0124\u00ac\u00eb\u0140\u0133\u00ed\u0137\u013a\u00eb\u012c\u0136": 4478, "\u0127\u00e3": 4479, "\u00ec\u0138\u00b8\u00ec\u0142\u0142\u00ea\u00b0\u0122": 4480, "min": 4481, "\u013f\u00bd": 4482, "\u0120\u00ec\u013d\u0132\u00ed\u0137\u013a\u00eb\u012c\u0136": 4483, "\u00e3\u0124\u0135\u00e3\u0123\u0142": 4484, "bla": 4485, "rock": 4486, "\u00e7\u013c\u0126": 4487, "\u00ea\u00b9\u0122": 4488, "woo": 4489, "\u0120walking": 4490, "\u00ec\u00ab": 4491, "\u0120har": 4492, "\u0120\u00ec\u00b6\u0137\u00eb\u00b3\u00b5": 4493, "\u0120\u00ec\u012f\u00a8": 4494, "\u0120hoo": 4495, "\u0130\u00e3": 4496, "ween": 4497, "\u0120\u00ec\u013c\u00b4\u00eb\u00aa\u0127": 4498, "\u0129\u00ec": 4499, "\u0120\u00ec\u00b2\u00ab": 4500, "\u0120\u00ed\u0125\u013e\u00ec\u0138\u0133": 4501, "\u0137\u0132": 4502, "\u0120wee": 4503, "\u012c\u00ac": 4504, "\u0120darling": 4505, "ric": 4506, "\u0120knock": 4507, "\u0120\u00eb\u0140": 4508, "\u0109\u0120\u0120\u0120\u0120": 4509, "though": 4510, "\u0120sca": 4511, "\u00ed\u0138\u012a\u00ec\u00a7\u0122": 4512, "\u0120between": 4513, "========": 4514, "\u0120\u00eb\u00a9\u012a\u00ec\u00b6\u0136": 4515, "\u0120\u00ec\u0137\u0126\u00eb\u00ac\u00b4\u00ea\u00b2\u0125\u00eb\u0131\u0126": 4516, "\u0138\u0133": 4517, "\u00b0\u0133": 4518, "\u0120window": 4519, "ana": 4520, "\u0120boom": 4521, "\u0120emp": 4522, "\u0129\u00bc": 4523, "\u00eb\u0135\u00a4\u00eb\u0131\u0126": 4524, "\u00eb\u0124\u00a8\u00ec\u0140\u0132": 4525, "\u012a\u00ac": 4526, "\u0120\u00ec\u0140\u012a\u00ec\u0138\u00b4\u00eb\u0131\u0126": 4527, "\u00e3\u0124\u012e\u00e3\u0124\u012d": 4528, "\u0120rap": 4529, "\u0120started": 4530, "\u0120\u00ea\u00bf\u012a\u00ec\u013f\u00b4": 4531, "\u0120\u00eb\u00b0\u00a4\u00ec\u0139\u0132": 4532, "play": 4533, "\u0120\u00eb\u00a7\u00ba": 4534, "\u0120\u00eb\u00af\u00b8\u00ec\u0137\u012a\u00ed\u0137\u00b4": 4535, "\u0120\u00eb\u00b0\u0138\u00ec\u0139\u0132": 4536, "\u0120higher": 4537, "\u0120\u00ec\u0137\u012c\u00ec\u0137\u0126\u00eb\u0131\u0126": 4538, "\u0120\u00eb\u00af\u00bf\u00ec\u013f\u012e": 4539, "\u0120\u00ea\u00b5\u00ac\u00ec\u013d\u0132": 4540, "\u00ea\u00b1\u00b0\u00eb\u013f\u00bc": 4541, "\u0120ja": 4542, "\u00ec\u013d\u0142\u00eb\u012f\u013a": 4543, "know": 4544, "\u0120\u00eb\u0124\u013a\u00eb\u00a7\u012e": 4545, "\u00ec\u00a9\u0136": 4546, "\u00a6\u012a": 4547, "\u0120feelin": 4548, "\u0120\u00ec\u0128\u012e\u00ec\u00a4\u0133\u00ed\u0137\u013e": 4549, "\u0120lu": 4550, "\u0120et": 4551, "\u0120\u00ec\u013d\u012e": 4552, "\u0120\u00ec\u0140\u012c\u00ea\u00b3\u0142": 4553, "\u00ed\u0137\u00b4\u00ec\u0137\u00bc": 4554, "\u0120\u00ec\u0139\u0128\u00eb\u012c\u0136\u00eb\u012f\u00b0": 4555, "\u0120\u00ec\u013c\u00a9\u00ec\u0126\u013e": 4556, "\u0120\u00ec\u013a\u00a4\u00eb\u0140\u013a": 4557, "\u00ea\u00b7\u00b8\u00eb\u012e\u0122\u00ec\u013b\u0122": 4558, "\u0120gen": 4559, "\u0142\u0137": 4560, "\u0120future": 4561, "\u0120\u00ec\u0125\u013f\u00ea\u00b0\u0123\u00ec\u013f\u00b4": 4562, "\u0120\u00eb\u012e\u0122\u00eb\u00a1\u013e": 4563, "\u0120begin": 4564, "\u0120wea": 4565, "\u0120kick": 4566, "\u0120\u00eb\u012c\u00a5": 4567, "\u0120\u00eb\u0124\u013a\u00eb\u00ac\u00b4": 4568, "\u00ec\u013f\u00b4\u00eb\u013f\u00bc\u00eb\u00a9\u00b4": 4569, "\u00ec\u012a\u013a\u00eb\u00a1\u013f": 4570, "\u00eb\u0133\u0132\u00ea\u00b7\u00bc": 4571, "\u0120?": 4572, "\u0120standing": 4573, "\u0120ay": 4574, "\u00ea\u00b7\u00b8\u00ea\u00b2\u012e": 4575, "\u0120super": 4576, "\u00ec\u0138\u00b4\u00eb\u0124\u013e": 4577, "\u0120pick": 4578, "\u0120\u00ec\u0138\u0133": 4579, "\u0120\u00eb\u0123\u012e": 4580, "\u0120\u00ed\u0133\u00b8\u00eb\u00a5\u00b8": 4581, "eu": 4582, "\u0120\u00eb\u00a7\u0130\u00ec\u0137\u0126": 4583, "\u0120\u00ea\u00b0\u0122\u00eb\u00a9\u00b4": 4584, "dle": 4585, "\u0120\u00ec\u013d\u0125\u00eb\u012c\u0136": 4586, "\u0120\u00eb\u0133\u00a5": 4587, "\u0120ski": 4588, "\u0120\u00eb\u00b0\u013d\u00ec\u0137\u0126": 4589, "\u0120rise": 4590, "watch": 4591, "\u00e5\u00be": 4592, "\u00e5\u0127": 4593, "\u00ec\u0142\u0126\u00ec\u0139\u0132": 4594, "\u00ec\u013a\u012a\u00ec": 4595, "\u0120\u00eb\u0131\u012e\u00ec\u0137\u0126\u00ec\u0126\u013e": 4596, "\u00ec\u00b0\u00a9": 4597, "\u0141\u00bc": 4598, "\u0123\u0130": 4599, "ors": 4600, "\u0120\u00ec\u0138\u00bb": 4601, "anta": 4602, "\u0120\u00eb\u00a7\u012a\u00ec\u00b9\u013a": 4603, "\u0120\u00ef\u00bf\u00bd\u00ef\u00bf\u00bd\u00ef\u00bf\u00bd\u00ef\u00bf\u00bd": 4604, "\u0120\u00ea\u00b7\u00b8\u00eb\u012e\u0122\u00eb\u012c\u0136": 4605, "\u0120\u00ec\u0140\u012a\u00ec\u013e\u00bc\u00eb\u00a9\u00b4": 4606, "able": 4607, "\u00eb\u0124\u013a\u00ec\u013b\u0122": 4608, "\u00e6\u013b\u0124": 4609, "\u0120\u00eb\u00aa\u00a8\u00ec\u012c\u00b5\u00ec\u013f\u0126": 4610, "ision": 4611, "\u00ed\u0137\u00b4\u00ec\u00a4\u013a": 4612, "\u00eb\u00a7\u012a\u00ec\u012c\u00a4": 4613, "\u0120\u00ea\u00b0\u0122\u00ea\u00b9\u012e\u00ec\u013f\u00b4": 4614, "\u0120whe": 4615, "\u00e3\u0124\u012f": 4616, "without": 4617, "\u00e3\u0123\u0126\u00e3\u0124\u012d": 4618, "\u0140\u012a": 4619, "\u0120\u00eb\u00af\u00bf\u00ea\u00b3\u0142": 4620, "\u0120\u00ed\u0138\u00a5\u00ea\u00b8\u00b0": 4621, "\u00eb\u013f\u00bc\u00eb\u013f\u00bc\u00eb\u013f\u00bc": 4622, "\u00eb\u0124\u013a\u00eb\u00ac\u00b4": 4623, "\u0120\u00eb\u0134\u00b7": 4624, "\u0120\u00ec\u0139\u0128\u00ec\u00a7\u0122\u00eb\u00a7\u012e": 4625, "\u00ec\u00b1\u0126": 4626, "\u0120rid": 4627, "\u0120straight": 4628, "\u0120\u00ec\u00a3\u00bc\u00eb\u012d\u013a\u00ec\u013f\u013a": 4629, "\u00ec\u0137\u012a\u00eb\u0127\u0137": 4630, "\u00ec\u0137\u0126\u00ea\u00b0\u0122": 4631, "\u0120\u00ec\u00a7\u0122\u00eb\u0124\u00b4": 4632, "\u0120\u00ec\u0124\u00ac\u00eb\u0140\u0133\u00ed\u0137\u013a\u00ea\u00b3\u0142": 4633, "\u0120already": 4634, "\u00ed\u0137\u013e\u00eb\u012d\u00a4": 4635, "\u0120\u00ea\u00b7\u00b8\u00eb\u012e\u0122\u00ec\u0139\u00ac": 4636, "\u00b6\u012a": 4637, "sted": 4638, "\u0120eh": 4639, "\u0122\u013a": 4640, "\u00e3\u0124\u00b9": 4641, "\u0120hum": 4642, "\u00ec\u00a2\u012d\u00ec\u013f\u0122": 4643, "\u0120okay": 4644, "\u00b7\u00e3": 4645, "\u0125\u0132": 4646, "\u0120mic": 4647, "\u0120lovin": 4648, "\u00e8\u00a8\u0122": 4649, "\u0120\u00ed\u0138\u012b\u00eb\u00b3\u00b5\u00ed\u0137\u013e": 4650, "\u0120dear": 4651, "\u00ec\u0137\u0139": 4652, "ats": 4653, "\u0120\u00ec\u0139\u0128\u00eb\u012d\u00a4": 4654, "bt": 4655, "tom": 4656, "nobody": 4657, "\u0120\u00eb\u012a\u012a\u00eb\u00ac\u00bc\u00ec\u013f\u0126": 4658, "\u00ec\u00b0\u00a8\u00ed\u0136\u00bc": 4659, "\u00e3\u0124\u012e\u00e3\u0123\u0141": 4660, "\u0120\u00eb\u0133\u0132\u00eb\u0142\u00a4\u00ec\u013d\u012e": 4661, "\u00eb\u012c\u0132\u00eb\u0125\u0132": 4662, "\u0120\u00ec\u0137\u012b\u00ec\u0137\u0126": 4663, "\u013d\u00eb": 4664, "\u0120\u00ec\u0140\u0142\u00ec\u012d\u013e": 4665, "\u0120\u00ed\u0140\u013a\u00eb\u0135\u00a4\u00ec\u0138\u00b4": 4666, "\u00a1\u00ed": 4667, "\u0120\u00ea\u00b1\u00b4\u00ec\u00a7\u0122": 4668, "\u00ec\u0139\u00ac\u00ec\u0140\u0132": 4669, "\u0120\u00eb\u00b9\u00a8\u00eb\u00a6\u00ac": 4670, "\u0120\u00ec\u0139\u0128\u00ea\u00b3\u0142": 4671, "\u0120\u00ec\u0139\u0128\u00ec\u00a7\u0122": 4672, "\u0120\u00ec\u0124\u00b4\u00ec\u0137\u0126\u00ea\u00b0\u0122": 4673, "\u0120\u00ec\u0140\u0132\u00ec\u013e\u0142": 4674, "\u0120holding": 4675, "als": 4676, "\u00e3\u0123\u013f\u00e3\u0123\u0128": 4677, "\u00ec\u00a5": 4678, "\u00e3\u0123\u00aa\u00e3\u0124\u012b": 4679, "\u00ed\u0134\u0122": 4680, "\u0120\u00ec\u0137\u0140\u00ec\u0139\u0132\u00ec\u0126\u013e": 4681, "\u0120fade": 4682, "\u00bc\u0143": 4683, "\u0120reach": 4684, "\u0120cur": 4685, "\u00ea\u00b1\u00b0\u00ec\u013d\u012e": 4686, "\u0140\u0122": 4687, "\u0120\u00ec\u00b0\u00a9": 4688, "\u0120\u00ec\u012d\u00b6\u00ec\u0138\u00b4\u00ec\u013c\u0136": 4689, "\u0120meant": 4690, "\u00ec\u00a3\u00bc\u00ec\u0126\u00b8\u00ec\u013c\u0136": 4691, "\u0120dreaming": 4692, "\u0120\u00eb\u0126\u012a\u00ed\u013f\u00ac": 4693, "\u0120saying": 4694, "\u0120\u00ec\u00a7\u0122\u00ed\u0124\u00a4": 4695, "\u0120lead": 4696, "\u0120den": 4697, "\u0120sim": 4698, "dream": 4699, "\u0120style": 4700, "\u0120knees": 4701, "\u0120\u00e8": 4702, "\u0120\u00eb\u0135\u00a3\u00ea\u00b3\u0142": 4703, "through": 4704, "\u0120\u00ec\u0126\u00b8\u00ec\u0125\u0123\u00ec\u013f\u00b4": 4705, "\u0120\u00ec\u0124\u00ac\u00eb\u013f\u00bc\u00ec\u0142\u00b8": 4706, "\u0120\u00ec\u012d\u013e\u00ec\u0142\u012a": 4707, "\u00e3\u0123\u0139\u00e3\u0123\u0141": 4708, "\u0120bou": 4709, "\u0120comin": 4710, "\u00ea\u00b7\u00bc\u00eb\u012f\u00b0": 4711, "\u0120\u00ed\u0137\u013e\u00ec\u012a\u00a8": 4712, "\u00ec\u00b0\u00be": 4713, "\u00b9\u0126": 4714, "\u00eb\u00a6\u00ac\u00eb\u012d\u012a": 4715, "\u0120\u00ec\u012d\u013e\u00ea\u00b0\u0126\u00ec\u013f\u0126": 4716, "\u0120tear": 4717, "\u00ec\u00a2\u0127\u00ec\u013f\u00bc": 4718, "\u00ec\u0137\u0126\u00eb\u00ac\u00b4\u00ea\u00b2\u0125\u00eb\u0131\u0126": 4719, "\u00a4\u0126": 4720, "\u00eb\u00a7\u012a\u00ec\u00b9\u013a": 4721, "\u0120million": 4722, "cos": 4723, "\u00ed\u0137\u00b4\u00ec\u00a7\u0126": 4724, "\u00e5\u00ae": 4725, "\u0120\u00eb\u0128\u012a": 4726, "\u00eb\u00a7\u012a\u00ec\u013d\u012e": 4727, "\u0120\u00ec\u012a\u013a\u00eb\u0131\u0126": 4728, "\u0120lives": 4729, "cho": 4730, "\u0120\u00eb\u00a9\u012d\u00ec\u00a7\u0126": 4731, "\u0120\u00ea\u00b3\u0142\u00eb\u00af\u00bc": 4732, "\u0120nothin": 4733, "\u0120\u00ed\u0139\u00a4\u00eb\u00a7\u00a4": 4734, "\u0120\u00eb\u00bd": 4735, "\u0120most": 4736, "\u0120sick": 4737, "\u0109\u0120\u0120\u0120\u0120\u0120\u0120\u0120\u0120": 4738, "ched": 4739, "\u0120\u00ec\u012b\u00bd\u00ea\u00b2\u012e": 4740, "\u0120reg": 4741, "\u0120\u00ed\u0138\u012a\u00ec\u0138\u00b4": 4742, "\u0120\u00eb\u00bf\u012e": 4743, "\u00eb\u00a9\u012a\u00ec\u00b6": 4744, "\u00eb\u0124\u00b4\u00ea\u00b2\u0132": 4745, "\u0120\u00eb\u00b0\u0136\u00eb\u0140\u012e\u00ec\u013f\u00b4": 4746, "\u0120sight": 4747, "\u0142\u00ec\u00a7\u0122": 4748, "listen": 4749, "clo": 4750, "\u0120\u00eb\u0136\u00b1": 4751, "\u00eb\u0137\u0127": 4752, "\u00ed\u013b\u013e": 4753, "\u00eb\u012a\u012a\u00ec\u013f\u00b4": 4754, "\u00ec\u0139\u0143": 4755, "\u00ec\u0138\u00bc\u00eb\u00a7\u012a\u00eb\u0124\u013a": 4756, "\u0120green": 4757, "\u00b3\u00a4": 4758, "\u00b0\u0132": 4759, "men": 4760, "\u0139\u00ea\u00b2\u012e": 4761, "stic": 4762, "\u00e3\u0122\u012f": 4763, "\u00e3\u0123\u00aa\u00e3\u0123\u0141": 4764, "\u0120daddy": 4765, "\u00e3\u0123\u0139\u00e3\u0123\u0126": 4766, "\u0123\u00ea": 4767, "\u0120\u00eb\u00aa\u0127": 4768, "\u0120\u00ea\u00b7\u00b8\u00eb\u012e\u0122\u00ec\u013b\u0122": 4769, "\u0120everyone": 4770, "\u00ed\u0137\u013a\u00eb\u00a6\u00ac\u00eb\u013f\u00bc": 4771, "\u0120\u00eb\u00a7\u012e\u00eb\u0124\u00ac": 4772, "\u0120\u00ec\u0137\u0126\u00eb\u012d\u012a\u00eb\u013f\u00bc": 4773, "\u0120\u00ec\u00a3\u00bc\u00eb\u012c\u0136": 4774, "\u0120great": 4775, "\u0120warm": 4776, "\u0120sti": 4777, "\u0120streets": 4778, "\u0120\u00ec\u0140\u012a\u00eb\u012d\u00a4": 4779, "\u00e3\u0122\u012e": 4780, "\u0120\u00eb\u012c\u0132\u00eb\u0124\u0126": 4781, "\u0120version": 4782, "\u0120\u00ea\u00b3\u00a8": 4783, "\u0120mouth": 4784, "\u00e3\u0123\u0124\u00e3\u0123\u00aa\u00e3\u0123\u0141": 4785, "\u00b4\u012a": 4786, "wanna": 4787, "\u0120comp": 4788, "\u00ec\u00a7\u0122\u00eb\u0124\u013e": 4789, "\u00ea\u00b7\u00b8\u00eb\u0140\u013a\u00ec\u0126\u013e": 4790, "\u0120\u00eb\u0137\u012e\u00eb\u00a9\u00b4": 4791, "\u0120fuckin": 4792, "\u0120\u00ec\u013a\u00a4\u00eb\u00a9\u00b4": 4793, "\u00ac\u00eb\u0140\u012e\u00ec\u0137\u0126": 4794, "\u00eb\u012d\u00b9\u00ec\u012d\u0142\u00ec\u013f\u0126": 4795, "\u00eb\u00a1\u013e\u00eb\u012c\u0136": 4796, "\u00ec\u00b2\u0142": 4797, "\u0120\u00eb\u00b3\u00b4\u00eb\u012d\u00a4": 4798, "\u00ec\u00af\u00a4": 4799, "\u0120\u00ec\u0128\u012e\u00eb\u00a7\u013f": 4800, "\u0120\u00ea\u00b9\u0122": 4801, "\u0120taking": 4802, "\u0120ball": 4803, "\u00e3\u0123\u012c": 4804, "\u0120\u00ed\u0137\u013a\u00eb\u012c\u013a\u00ec\u013f\u0126": 4805, "\u0120\u00ec\u0140\u012a\u00eb\u012f\u013a": 4806, "\u00ea\u00b9\u012e\u00eb\u00b4\u0132": 4807, "\u0120\u00eb\u0124\u00b4\u00eb\u00a7\u013a": 4808, "\u00e6\u012b\u012d": 4809, "\u00eb\u00a1\u013e\u00eb\u012d\u00a4": 4810, "\u00ec\u013b\u0137": 4811, "\u00bb\u00e3": 4812, "\u0120\u00ea\u00b0\u0122\u00ec\u0140\u00a5": 4813, "\u0120\u00ed\u0137\u013a\u00eb\u00a9\u00b4": 4814, "\u0120gettin": 4815, "dl": 4816, "\u00ea\u00b7\u00b8\u00eb\u00a7\u012e": 4817, "until": 4818, "\u0120\u00ec\u00b6\u00a4\u00ec\u00b6\u0136": 4819, "\u00ec\u0138\u00b4\u00eb\u0133\u0132": 4820, "\u0120\u00ec\u0140\u012a\u00eb\u0124\u013a": 4821, "\u00eb\u00a5\u00b4\u00eb\u00a5\u00b4": 4822, "\u0120\u00ec\u0139\u00ac\u00ec\u013f\u00b8": 4823, "\u0120\u00ec\u00b2\u0143\u00ec\u00b6\u013a": 4824, "\u0120\u00ec\u0125\u013f\u00ea\u00b0\u0123\u00eb\u0124\u013a": 4825, "\u0120everyday": 4826, "\u0120\u00ec\u013c\u00b0\u00eb\u00a6\u00ac\u00eb\u012c\u0136": 4827, "\u00eb\u00b0\u0136\u00eb\u0140\u012e\u00ec\u013f\u00b4": 4828, "\u00eb\u0133\u00ac": 4829, "??": 4830, "\u00ea\u00bb\u013a\u00ec\u0126\u013e": 4831, "\u00eb\u00a3\u00a8\u00eb\u00a3\u00a8": 4832, "\u0142\u00ec\u012f\u00a8": 4833, "\u0120\u00eb\u012d\u00ac\u00eb\u0140\u013a": 4834, "\u0120ways": 4835, "\u00bb\u0132": 4836, "\u0120/": 4837, "\u0120sign": 4838, "\u0120singing": 4839, "\u0120\u00ed\u013a\u0126\u00ec\u012d\u00a4": 4840, "\u0120~": 4841, "\u00eb\u0138\u00a8": 4842, "pect": 4843, "\u0120reali": 4844, "\u0120\u00ec\u0137\u012e\u00ea\u00b2\u012e": 4845, "lic": 4846, "\u00e3\u0123\u0135\u00e3\u0123\u00a8": 4847, "\u0120\u00eb\u00b3\u00b4\u00ec\u013f\u00b4\u00ec\u00a7\u0122": 4848, "\u00ec\u00a3\u0126": 4849, "bet": 4850, "\u00ed\u013c": 4851, "\u0120\u00ed\u013f\u0132\u00eb\u00a5\u00b4\u00eb\u012c\u0136": 4852, "\u0120crying": 4853, "\u0120\u00ed\u013f\u00ac\u00eb\u00a7\u013f": 4854, "\u00ed\u0137\u013a\u00ed\u0137\u013a": 4855, "\u0120closer": 4856, "ations": 4857, "\u00eb\u0126\u012a\u00eb\u00ac\u00b4\u00eb\u0124\u013a": 4858, "\u0120four": 4859, "\u00ed\u0124\u00a4\u00eb\u00af\u00b8": 4860, "\u0120\u00eb\u0138\u0142\u00eb\u0124\u0142": 4861, "\u0120\u00eb\u012e\u0122\u00eb\u012d\u00b5": 4862, "\u0120\u00ec\u00b0\u00ac\u00ec\u0128\u00a1": 4863, "\u0120\u00ec\u013c\u00b8\u00eb\u0142\u00a4": 4864, "ines": 4865, "\u0120\u00ec\u012d\u0143\u00ec\u0140\u0132\u00ea\u00b0\u0122": 4866, "\u0120carry": 4867, "\u00ea\u00b3\u00a8": 4868, "\u0120\u00ec\u012d\u013f": 4869, "\u0120minute": 4870, "\u0120\u00ed\u0137\u013a\u00eb\u0126\u00a4": 4871, "\u0120hor": 4872, "11": 4873, "sterday": 4874, "\u00c2\u00b4": 4875, "\u0120\u00ec\u013c\u00b0\u00eb\u012c\u0136": 4876, "\u0120\u00ec\u0137\u0126\u00eb\u012c\u0136": 4877, "\u0120\u00ec\u0125\u013f\u00ea\u00b0\u0123\u00ec\u0139\u0132": 4878, "\u00ac\u0133": 4879, "\u0120front": 4880, "og": 4881, "\u0120\u00ec\u0125\u012a\u00eb\u00b2\u00bd": 4882, "\u0120gro": 4883, "\u00e4\u00b8\u0143": 4884, "\u0120\u00ec\u0138\u00b4\u00eb\u0136\u0136\u00eb\u00a1\u013e": 4885, "\u0120\u00eb\u00a7\u00b4": 4886, "\u0120bout": 4887, "\u0120wear": 4888, "akin": 4889, "\u0120\u00ea\u00b2\u00ac": 4890, "),": 4891, "\u0120train": 4892, "\u012a\u00eb\u00a9\u00b4": 4893, "\u0124\u00b0": 4894, "\u00eb\u00a7\u013d": 4895, "ards": 4896, "\u0120\u00eb\u0125": 4897, "\u0122\u012f": 4898, "\u0120\u00ec\u0139\u0128\u00ec\u0140\u0138\u00ec\u0137\u0126": 4899, "\u0120loud": 4900, "\u0136\u0124": 4901, "\u00eb\u00aa\u0129": 4902, "\u0120dont": 4903, "\u00eb\u0136\u013a": 4904, "\u00e2\u0136\u0124": 4905, "\u0120\u00ec\u0139\u0128\u00ec\u0138\u00b4\u00eb\u0131\u0126": 4906, "\u00ec\u0139\u0127": 4907, "\u0120\u00ea\u00b7\u00b8\u00eb\u00a6\u00ac\u00ec\u013c\u00b4": 4908, "\u00ec\u012d\u00ac\u00ec\u013f\u0126": 4909, "mix": 4910, "\u0120\u00ec\u00ab": 4911, "\u0120cru": 4912, "\u00e5\u00a4\u00a2": 4913, "\u00eb\u0141\u00bd\u00ea\u00b2\u012e": 4914, "\u0120\u00eb\u0124\u013a\u00ec\u013f\u00b4": 4915, "\u00ea\u00b3\u00b0": 4916, "\u0120\u00eb\u00a8\u00b9\u00ea\u00b3\u0142": 4917, "\u0120\u00eb\u0135\u00a4\u00ea\u00b3\u0142": 4918, "\u0120\u00ec\u0136\u00bb": 4919, "\u0137\u00bd": 4920, "\u0120hello": 4921, "\u0120\u00ea\u00bf\u0122": 4922, "\u00ec\u013f\u012e\u00ec\u013f\u0126": 4923, "\u00ec\u0142\u0137\u00ed\u0137\u013e": 4924, "rea": 4925, "tv": 4926, "\u0120known": 4927, "\u0120shoot": 4928, "\u0120less": 4929, "\u00ec\u013a\u00b5": 4930, "\u0120\u00ec\u00a3\u00bc\u00ec\u012d\u0142": 4931, "\u00b0\u00b0": 4932, "\u0120\u00ec\u013f\u013a\u00eb\u00af\u00b8": 4933, "ero": 4934, "\u0120\u00ec\u0139\u00ac\u00ed\u013a\u00b8\u00ec\u013b\u0122": 4935, "\u0120\u00ea\u00b0\u0126\u00ec\u00a7\u0123": 4936, "lling": 4937, "\u0120ones": 4938, "\u01209": 4939, "\u0120moun": 4940, "\u0120lookin": 4941, "\u00ea\u00b8\u012d": 4942, "\u0120\u00eb\u0133\u0132\u00ea\u00b7\u00bc": 4943, "\u0120\u00ea\u00b0\u0122\u00ec\u00a7\u0126": 4944, "\u0120fing": 4945, "\u00ec\u012c\u00b5\u00eb\u012d\u012a\u00eb\u012d\u00a4": 4946, "\u00ea\u00b2\u00a9": 4947, "most": 4948, "\u0120push": 4949, "\u0120\u00ec\u0124\u00ac\u00eb\u0140\u012e\u00ec\u013f\u0126": 4950, "\u0120\u00ec\u00a7\u0126\u00ec\u012d\u00a4": 4951, "pri": 4952, "\u0120wasn": 4953, "\u00eb\u0127\u0123": 4954, "\u00ec\u012d\u013e\u00eb\u00a9\u00b0": 4955, "\u0120space": 4956, "\u00eb\u0126\u013a": 4957, "\u00ec\u00bb\u00a4": 4958, "\u00e5\u00a5": 4959, "set": 4960, "over": 4961, "\u00eb\u0135\u00a4\u00ea\u00b3\u0142": 4962, "\u00ec\u013f\u00b4\u00ec\u00a3\u0142": 4963, "\u0120read": 4964, "\u0120cannot": 4965, "\u0120blame": 4966, "\u0120\u00ec\u0142\u013e\u00ec\u013f\u00bc": 4967, "\u0120)": 4968, "\u0120\u00e2\u013b": 4969, "\u0120daw": 4970, "\u0120\u00ea\u00b7\u00b8\u00eb\u00a6\u00bc\u00ec\u0140\u0132": 4971, "\u0120\u00ec\u0124\u00ac\u00eb\u0140\u0133\u00ed\u0138\u012a\u00eb\u012f\u013a": 4972, "\u00ec\u0138\u00b4\u00eb\u0133\u0142": 4973, "\u0120\u00ed\u0137\u00b4\u00ec\u013c\u0136": 4974, "god": 4975, "ousand": 4976, "hn": 4977, "\u0120\u00eb\u012f\u00b0\u00eb\u0142\u00a4": 4978, "ory": 4979, "mit": 4980, "\u00b0\u0123": 4981, "\u00a9\u012f": 4982, "\u0120keeps": 4983, "\u00e7\u013d": 4984, "\u0120yet": 4985, "\u0120conf": 4986, "\u0120\u00ec\u00b2\u013a\u00eb\u0141\u00bc": 4987, "\u00ea\u00b2\u00bc": 4988, "\u0120\u00eb\u00b9\u0126\u00ec\u00b6\u0136": 4989, "sit": 4990, "\u0120\u00eb\u012f\u00ae": 4991, "\u00ec\u0142\u0123\u00ec\u013f\u00b8": 4992, "walk": 4993, "\u0120sma": 4994, "\u0133\u00ec\u013f\u0122": 4995, "\u0120\u00ed\u013b\u0137": 4996, "\u0120\u00eb\u00aa\u00a8\u00ec\u0139\u00ac": 4997, "\u0120outside": 4998, "\u0120\u00ec\u013b\u00b8\u00eb\u00a1\u013e\u00ec\u013d\u0122": 4999, "\u0120\u00ed\u0140\u013a\u00eb\u0135\u0142": 5000, "\u0120\u00ec\u0140\u012a\u00ec\u00a3\u0142": 5001, "\u00ea\u00b0\u0122\u00eb\u0131\u0126": 5002, "\u0120turned": 5003, "\u00ec\u0141": 5004, "\u00e6\u012a\u0133": 5005, "\u0120\u00eb\u0128\u0122\u00eb\u013f\u00bc": 5006, "\u00ea\u00b7\u00b8\u00eb\u012e\u0126": 5007, "\u00ed\u0125\u013f": 5008, "\u00ea\u00bf\u0136": 5009, "\u0120\u00eb\u00b9\u0142\u00ec\u0142\u00b8": 5010, "\u0120\u00ed\u0137\u00b4\u00ec\u0137\u00bc": 5011, "\u0120\u00eb\u00aa\u00a8\u00eb\u00a5\u00b8": 5012, "\u00eb\u00b2\u012e": 5013, "\u0120\u00eb\u00b4\u0132\u00ec\u013c\u0136": 5014, "\u00ec\u0123\u013a": 5015, "\u0120dem": 5016, "\u0120\u00ec\u013f\u00b8\u00ec\u0124\u00ac": 5017, "\u0120\u00ec\u0142\u0132\u00ec\u0142\u0132": 5018, "\u00eb\u00b2\u0136": 5019, "\u0120ju": 5020, "\u0120ten": 5021, "\u0120caught": 5022, "\u00ec\u013c\u00b0\u00eb\u012c\u0136": 5023, "\u00ec\u0138\u00b4\u00eb\u012c\u0132\u00ec\u0125\u012a": 5024, "\u00a7\u013e": 5025, "\u00ec\u013f\u00b4\u00eb\u012e\u0122\u00eb\u00a1\u013e": 5026, "\u00eb\u00a6\u00ac\u00eb\u00a6\u00ac": 5027, "\u00eb\u00b3\u0133": 5028, "\u013e\u00e3": 5029, "\u0120called": 5030, "sting": 5031, "\u0139\u00b4": 5032, "\u0120\u00eb\u00a7\u0132\u00ec\u0137\u0126": 5033, "\u0120\u00ec\u013c\u00b0\u00eb\u00a6\u00b4": 5034, "\u0120merry": 5035, "\u00b8\u00eb\u00a1\u0143": 5036, "\u0120scared": 5037, "\u00bd\u00ea": 5038, "\u00ec\u00af": 5039, "\u0120proble": 5040, "was": 5041, "\u0120\u00eb\u0123\u013f\u00ea\u00b9\u012e\u00ec\u00a7\u0122": 5042, "\u00ec\u0140\u0132\u00ea\u00b3\u0142": 5043, "\u0120taste": 5044, "\u0120\u00ea\u00b2\u0122": 5045, "\u0120\u00ed\u013f\u00a9": 5046, "\u0120\u00eb\u0124\u00b4\u00ea\u00b2\u012e\u00eb\u00a1\u013e": 5047, "\u0120,": 5048, "\u00ed\u0125\u0126": 5049, "\u0120mess": 5050, "za": 5051, "\u0120missing": 5052, "\u0120\u00eb\u00b9\u00bc": 5053, "\u0120\u00ec\u0138\u00b8\u00ec\u0142\u0142": 5054, "\u00bc\u00e3": 5055, "\u0136\u00ec\u00bd\u0136": 5056, "\u00ec\u00a7\u0122\u00ec\u013c\u0136": 5057, "\u0120\u00eb\u0124\u013b": 5058, "\u012b\u00ec\u013f\u0122": 5059, "ib": 5060, "\u0120\u00eb\u00af\u00b8\u00ec\u0137\u012a": 5061, "\u0120\u00eb\u0131\u012e\u00ec\u0137\u0126\u00ec\u013a\u00a4": 5062, "\u00e3\u0124\u0124\u00e3\u0123\u0128": 5063, "\u00eb\u00b0\u0136\u00eb\u00a1\u013e": 5064, "\u0120\u00ec\u0139\u0128\u00eb\u012f\u013a": 5065, "\u0120\u00ea\u00b8\u00b0\u00eb\u00bb\u0132": 5066, "\u0120\u00ea\u00b0\u0132\u00ec\u0142\u0137": 5067, "\u0120dog": 5068, "\u00eb\u00a1\u013e\u00ec\u013c\u00b4": 5069, "ead": 5070, "\u0120number": 5071, "\u00eb\u0133\u013a\u00ec\u013f\u00b4": 5072, "ror": 5073, "\u00eb\u0124\u013a\u00ed\u0125\u0122": 5074, "\u00ec\u013f\u00b4\u00ea\u00b2\u012e": 5075, "rc": 5076, "\u0120joy": 5077, "\u00eb\u0132\u013a\u00eb\u012c\u0136": 5078, "\u00eb\u00a5\u00b4\u00ea\u00b3\u0142": 5079, "\u0120half": 5080, "\u00eb\u00a6\u00ac\u00eb\u00a5\u00bc": 5081, "\u00eb\u012e\u0122\u00ec\u00b2\u00b4": 5082, "\u00ec\u013f\u00b4\u00eb\u013f\u00bc\u00eb\u012c\u0136": 5083, "\u00ec\u0124\u00ac\u00ec\u012d\u00a4": 5084, "\u0120\u00ec\u0124\u00ac\u00eb\u0140\u012e\u00ec\u0137\u0126": 5085, "\u0120\u00ec\u0138\u00b4\u00eb\u0142\u00a4": 5086, "\u0120\u00eb\u00b0\u013f\u00ec\u013f\u0122": 5087, "\u0120\u00ea\u00b3\u0142\u00ea\u00b0\u013e": 5088, "\u00a9\u00eb": 5089, "\u0120crow": 5090, "\u00ed\u0127\u012e\u00ec\u013f\u00b4": 5091, "\u0120\u00ec\u0124\u00b6\u00ec\u013f\u0126": 5092, "\u012a\u00eb\u00a1\u013e": 5093, "\u0120sometimes": 5094, "\u0120\u00ec\u0126\u00ac": 5095, "\u0120\u00ed\u013f\u0136\u00eb\u0135\u00a4\u00ec\u0138\u00b4": 5096, "\u00ea\u00b3\u0126\u00ec\u0128\u012f": 5097, "\u00e7\u0136\u0141": 5098, "\u0120\u00ea\u00b7\u00bc": 5099, "\u00bc\u00ec\u00b3\u0132": 5100, "\u0120track": 5101, "\u00eb\u00a6\u0130": 5102, "\u0143\u012b": 5103, "\u00a1\u0142": 5104, "hes": 5105, "\u00ec\u0139\u00bc": 5106, "friend": 5107, "\u00e3\u0124\u0143": 5108, "sweet": 5109, "\u0120\u00eb\u00b3\u0133": 5110, "\u0120\u00ec\u0139\u00b4\u00ec\u0138\u00b4": 5111, "shake": 5112, "\u0120\u00ec\u0137\u0126\u00ea\u00b0\u0122": 5113, "\u0120\u00ea\u00b0\u0122\u00ec\u012c\u00b4\u00ec\u013f\u0126": 5114, "\u00eb\u012a\u012a\u00eb\u00ac\u00bc\u00ec\u013f\u00b4": 5115, "\u00ec\u0142\u0122\u00ea\u00b8\u00b0": 5116, "\u0120\u00ea\u00b9\u012c\u00ec\u013f\u00b4": 5117, "\u00ec\u0137\u0126\u00eb\u00b2\u0126\u00ec\u00a7\u0122": 5118, "\u00e8\u00bf": 5119, "\u00ec\u0140\u0132\u00ea\u00b8\u00b0": 5120, "\u0120\u00eb\u0138\u0142\u00ec\u013a\u00a4": 5121, "\u0120radio": 5122, "\u00eb\u00a7\u00a8": 5123, "\u0120oce": 5124, "\u0120birth": 5125, "\u0120fami": 5126, "\u0120thousand": 5127, "hool": 5128, "\u0120needs": 5129, "\u0120\u00eb\u0124\u00b4\u00eb\u00a6\u00ac\u00eb\u012c\u0136": 5130, "\u0120\u00eb\u00ac\u00b4\u00eb\u0126\u012a": 5131, "\u0120\u00eb\u012e\u0122\u00ec\u012d\u0142": 5132, "\u0120answer": 5133, "\u00eb\u0131\u0126\u00eb\u012c\u0136": 5134, "\u00ec\u00a6\u0132": 5135, "\u013a\u00eb\u012e\u0122": 5136, "\u0120shining": 5137, "\u00eb\u00ba": 5138, "\u00ec\u0137\u013a\u00eb\u0126\u00a4": 5139, "\u00eb\u0124\u013a\u00ea\u00b0\u0122": 5140, "\u0120fre": 5141, "\u0120\u00eb\u00b6\u0122\u00ec\u00a1\u00b1": 5142, "\u0120yea": 5143, "\u0120\u00eb\u00b9\u013d\u00eb\u0124\u013a\u00eb\u012c\u0136": 5144, "\u0120bui": 5145, "\u012c\u00b1": 5146, "\u0120\u00ec\u0137\u012c\u00ec\u0137\u0126\u00ec\u013c\u0136": 5147, "\u0120\u00ec\u00a2\u012d\u00ec\u0137\u0126\u00ec\u013c\u0136": 5148, "\u0120\u00ec\u0137\u0126\u00eb\u00a6\u00ac": 5149, "\u0120guy": 5150, "\u00a7\u0133": 5151, "\u0120\u00eb\u0126\u0135": 5152, "bring": 5153, "~~~~": 5154, "\u00ec\u00b9\u00b4\u00ec": 5155, "\u00ec\u0126\u00b8\u00ec\u0125\u0123\u00ec\u0139\u0132": 5156, "\u00e3\u0123\u012a\u00e3\u0123\u00a6": 5157, "\u00eb\u00b2\u0126\u00eb\u00a6\u00b4": 5158, "\u0120\u00ea\u00b0\u0133": 5159, "\u00ec\u013d\u012e\u00ec\u0126\u013e": 5160, "\u00eb\u0132\u013a\u00ec\u0138\u00b4": 5161, "talk": 5162, "\u0120children": 5163, "\u0120\u00eb\u00b9\u013d\u00ec\u013f\u00b4": 5164, "\u00ec\u0126\u00b8\u00eb": 5165, "\u01206": 5166, "\u0120sear": 5167, "\u0120gla": 5168, "fin": 5169, "\u0120\u00eb\u00b3\u0122\u00ed\u0137\u00b4": 5170, "somebody": 5171, "\u0120moving": 5172, "\u0120build": 5173, "\u00ec\u0139\u00bd": 5174, "\u0120er": 5175, "\u0120\u00ed\u0131\u00ac\u00ea\u00b8\u00b0": 5176, "\u00a3\u00ea\u00b3\u0142": 5177, "\u0120broke": 5178, "ire": 5179, "\u0120\u00ec\u00a3\u00bc\u00ec\u0126\u00b8\u00ec\u013c\u0136": 5180, "\u0120mistake": 5181, "\u00eb\u0126\u012a\u00eb\u00a7\u012e": 5182, "\u0120vo": 5183, "ars": 5184, "\u00eb\u00a6\u00ac\u00eb\u00a9\u00b0": 5185, "key": 5186, "\u00eb\u00b2\u00bd": 5187, "\u0120\u00ec\u0137\u0126\u00ea\u00b8\u00b0": 5188, "\u0120dist": 5189, "\u00ec\u013e\u0126\u00eb\u00a1\u013e": 5190, "\u0120diam": 5191, "\u0120dig": 5192, "\u00ed\u0134\u012a": 5193, "\u00b2\u013e": 5194, "\u0120und": 5195, "\u0120\u00ed\u0137\u013a\u00eb\u0124\u013a\u00eb\u012d\u013a\u00ec\u013f\u013a": 5196, "\u0124\u00bc": 5197, "\u0123\u00b2": 5198, "\u0120\u00ec\u0137\u0126\u00eb\u00a6\u0126\u00eb\u012d\u00b5": 5199, "\u00ec\u00b2\u013e\u00ed\u0140\u012a": 5200, "\u0120\u00eb\u00ac\u00bc\u00ec\u0138\u00b4": 5201, "stop": 5202, "\u00ec\u012c\u00a4\u00eb\u0141\u00b0": 5203, "\u00e3\u0123\u00ae\u00e7": 5204, "two": 5205, "\u0120\u00ec\u013d\u0122": 5206, "\u00ec\u0139\u013a": 5207, "\u0120empty": 5208, "\u00ea\u00b0\u0122\u00eb\u013f\u00bd": 5209, "dj": 5210, "\u0123\u00b8": 5211, "adise": 5212, "\u0120ill": 5213, "\u0120mix": 5214, "\u0120cross": 5215, "\u0120giving": 5216, "\u00b2\u00b0": 5217, "\u0120swear": 5218, "\u00e3\u0123\u00aa\u00e3\u0123\u0131": 5219, "\u0120\u00ec\u0137\u0127": 5220, "\u0120ice": 5221, "\u00eb\u00b2\u0126\u00eb\u00a6\u00ac\u00ea\u00b3\u0142": 5222, "lle": 5223, "\u0120\u00eb\u0131\u012e\u00eb\u0142\u00a4": 5224, "\u0120\u00eb\u00aa\u00bb\u00ed\u0137\u013a\u00eb\u012c\u0136": 5225, "happy": 5226, "\u0120\u00eb\u00b3\u00b4\u00ec\u013f\u00b4\u00eb\u012c\u0136": 5227, "\u0120\u00ec\u0128\u0132\u00ec\u0139\u0132": 5228, "\u0120ben": 5229, "\u00eb\u00a7\u012e\u00ed\u0140\u012a": 5230, "\u00ed\u0127\u012e\u00eb\u012d\u012a": 5231, "\u00eb\u0142\u0129": 5232, "\u0120\u00ea\u00b3\u00a7": 5233, "\u00eb\u0128\u0134": 5234, "\u00b8\u00eb\u012f\u0137": 5235, "\u0120\u00eb\u0131\u013b\u00ec\u0137\u012a": 5236, "\u0120\u00eb\u0131\u012e\u00ec\u0137\u0126\u00ea\u00b0\u0122": 5237, "\u0122\u0123": 5238, "\u00ec\u00a4\u012f": 5239, "\u0120pour": 5240, "\u00ec\u00a4\u00ac": 5241, "\u00e3\u0124\u0134\u00e6": 5242, "\u0120\u00ec\u00a7\u00a7": 5243, "\u0120\u00ea\u00b7\u00b8\u00eb\u0142\u0129": 5244, "\u00ea\u00b1\u00b1\u00ec\u0142\u0137": 5245, "\u0120darkness": 5246, "\u0120\u00ec\u013f\u00b4\u00eb\u00a6\u00ac": 5247, "\u0120\u00ec\u0137\u0126\u00eb\u00ac\u00b4\u00eb\u0131\u0126": 5248, "\u0120sunshine": 5249, "\u0120\u00eb\u00b9\u012e": 5250, "\u0120\u00eb\u00aa\u00b0\u00eb\u0140\u013a": 5251, "\u0120\u00ea\u00b6\u0123": 5252, "lean": 5253, "\u0120\u00eb\u012a\u0126\u00ea\u00b5\u00b0\u00ea\u00b0\u0122": 5254, "\u00eb\u012e\u0122\u00eb\u0131\u0126": 5255, "\u0120tree": 5256, "\u00ec\u00a1\u00b4": 5257, "\u00ed\u0125\u0123": 5258, "\u0120>": 5259, "someone": 5260, "ison": 5261, "\u00ec\u012c\u00ac\u00ed\u0136\u012a": 5262, "\u00c2\u0142": 5263, "\u0120kids": 5264, "\u00ec\u00b6\u013e": 5265, "\u00ed\u013b\u013a": 5266, "\u00ed\u0130\u013a": 5267, "\u00ec\u013f\u00b4\u00ea\u00b1\u00b4": 5268, "\u0120freak": 5269, "\u0120\u00ec\u012c\u00a4\u00ec\u00b3\u0132": 5270, "people": 5271, "\u0120\u00eb\u00b0\u0136\u00eb\u013f\u00bc\u00eb\u00b4\u0132": 5272, "\u0120\u00ea\u00b0\u0122\u00eb\u0126\u00a4": 5273, "\u0120blues": 5274, "\u0120wal": 5275, "\u0120leaving": 5276, "\u0120\u00ea\u00b0\u0122\u00eb\u0142\u00a4": 5277, "\u0120\u00ed\u0123\u00ac\u00ea\u00b2\u012e": 5278, "\u00eb\u00ac\u00b4\u00ec\u0139\u0129": 5279, "\u00eb\u00ac\u00b4\u00ec\u012c\u00a8": 5280, "\u0120whoa": 5281, "\u00ec\u013a\u00a5": 5282, "pro": 5283, "\u00ec\u013f\u00b4\u00eb\u00a6\u00ac": 5284, "\u0120pretend": 5285, "\u0120char": 5286, "\u0120gang": 5287, "ming": 5288, "ried": 5289, "\u00eb\u0132\u0132": 5290, "\u00eb\u00a9\u012d": 5291, "tra": 5292, "\u00eb\u00a6\u00ac\u00ec\u012c\u00a4\u00eb\u00a7\u012a\u00ec\u012c\u00a4": 5293, "\u0120mes": 5294, "\u0120stu": 5295, "\u0120doubt": 5296, "\u00e9\u00a1": 5297, "\u0120\u00eb\u012c\u00a5\u00eb\u0142\u00a5": 5298, "\u0120\u00ec\u013a\u012a\u00eb\u00bb\u0132": 5299, "\u00e5\u0133": 5300, "\u0120\u00ec\u0125\u0123\u00ea\u00b4\u0122": 5301, "\u012a\u00eb\u012f\u0136": 5302, "\u00e5\u00bf\u0125": 5303, "\u0120ima": 5304, "\u00eb\u012d\u012a\u00eb\u013f\u00bc": 5305, "bea": 5306, "\u0120\u00ec\u0124\u00b6\u00ec\u013f\u013a": 5307, "\u00ed\u0137\u013a\u00ec\u0140\u0132": 5308, "\u0120\u00eb\u00b9\u0126\u00ec\u00b6\u00b0": 5309, "forever": 5310, "\u0120playing": 5311, "\u00e3\u0123\u013a\u00e3\u0124\u0125": 5312, "\u00b5\u00eb": 5313, "\u0120\u00eb\u0132\u0132\u00ec\u0138\u00b4": 5314, "\u0120deser": 5315, "\u00ea\u00b1\u00b0\u00eb\u0135\u0142": 5316, "\u0120\u00ea\u00b0\u0122\u00eb\u0135\u013f\u00ed\u0137\u013e": 5317, "another": 5318, "\u0120\u00ec\u012d\u013e\u00ec\u0126\u0142": 5319, "\u0120\u00ec\u012a\u013a\u00eb\u012c\u0136": 5320, "\u00eb\u00b3\u00bc\u00ea\u00b9\u012e": 5321, "\u00e3\u0125\u012a": 5322, "\u00ec\u012c\u00b9": 5323, "\u0120\u00eb\u0123\u012c": 5324, "\u0120\u00ec\u013f\u00b5\u00ec\u012a\u013b": 5325, "\u0120\u00eb\u0134\u00a4\u00ec\u0139\u0132": 5326, "\u0120\u00ec\u0138\u00b4\u00ec\u0142\u013e": 5327, "\u00ed\u0137\u00a8\u00ec\u013f\u0126": 5328, "\u00b8\u00b4": 5329, "\u00e3\u0122\u0123": 5330, "\u0120rec": 5331, "\u0120\u00ec\u0125\u0123\u00ec\u0125\u0123": 5332, "\u0120survi": 5333, "\u00eb\u00a5\u00b4\u00ea\u00b2\u012e": 5334, "\u0120\u00ec\u0138\u00b4\u00ec\u0126\u013e": 5335, "iny": 5336, "\u0120\u00ec\u0125\u012b": 5337, "\u0120special": 5338, "\u00ec\u0140\u0142\u00ec\u012d\u013e": 5339, "zing": 5340, "\u0120\u00eb\u00b9\u013d\u00ec\u013f\u0126": 5341, "\u0120changed": 5342, "\u013f\u00ea": 5343, "\u0120tw": 5344, "ala": 5345, "\u0120\u00ec\u0140\u0142\u00ec\u013f\u00b4": 5346, "\u0120bat": 5347, "\u00ec\u00b6\u00a9": 5348, "\u00ec\u00a7\u0122\u00ea\u00b0\u0122": 5349, "\u0120whis": 5350, "gie": 5351, "\u00ec\u013a\u00a4\u00eb\u012d\u012a": 5352, "\u0120\u00eb\u012d\u00a4\u00ec\u013f\u012e": 5353, "\u0120fli": 5354, "\u00e8\u00aa\u00b0": 5355, "\u00ed\u013d\u0126\u00ed\u013c\u012e": 5356, "pened": 5357, "\u00b0\u00a8": 5358, "\u0120\u00eb\u00aa\u00a8\u00eb\u0135\u0142\u00ea\u00b1\u00b8": 5359, "\u0120\u00ec\u013c\u00b8\u00ec\u00a7\u0122": 5360, "\u01208": 5361, "\u00e5\u013e": 5362, "oked": 5363, "\u0120\u00eb\u00a7\u013a\u00ec\u013f\u0122": 5364, "\u0120nowhere": 5365, "\u00b8\u00eb\u0142\u00a5": 5366, "\u0120;": 5367, "\u0120second": 5368, "\u00ea\u00b0\u0122\u00ec\u012c\u00b4\u00ec\u013f\u00b4": 5369, "\u0120\u00ec\u012d\u00b6\u00ec\u013f\u0122\u00eb\u012f\u00b0": 5370, "\u0120buy": 5371, "cious": 5372, "\u0120\u00ec\u0138\u00b4\u00eb\u0136\u0136\u00ec\u0139\u0132": 5373, "\u0120\u00ec\u0124\u00ac\u00eb\u0140\u012e\u00ec\u013f\u0122": 5374, "\u0120become": 5375, "\u0120school": 5376, "bs": 5377, "car": 5378, "vel": 5379, "\u0120\u00ec\u0124\u00ac\u00eb\u0140\u0133\u00ed\u0137\u013e\u00eb\u012d\u00a4": 5380, "\u0120\u00eb\u00b9\u013d\u00eb\u0124\u013a": 5381, "\u0120\u00ec\u0142\u012c": 5382, "\u0120doin": 5383, "hello": 5384, "\u00ed\u013a\u00b9": 5385, "ice": 5386, "cer": 5387, "\u0120bull": 5388, "\u00ec\u0124\u00ac\u00eb\u0140\u0133\u00ed\u0137\u00b4\u00ec\u013c\u0136": 5389, "\u00ea\u00b1\u00b0\u00ec\u00a7\u0135": 5390, "\u0120\u00ec\u013e\u0126\u00ed\u0137\u013a\u00ec\u0139\u00ac": 5391, "\u00ed\u013f\u013a\u00eb\u0141\u00ac": 5392, "\u0120\u00eb\u0128\u0135\u00ea\u00b3\u0142": 5393, "read": 5394, "\u0120quest": 5395, "\u0120send": 5396, "\u00ec\u013e\u00bc\u00eb\u012d\u012a\u00ea\u00b9\u012e": 5397, "\u0120chang": 5398, "\u0120\u00ec\u00a1\u00b4\u00ec\u0140\u00ac": 5399, "\u00ec\u0138\u00b4\u00eb\u00a6\u00b0": 5400, "\u0120share": 5401, "app": 5402, "\u013b\u00ed": 5403, "\u00ec\u0139\u00b0\u00ed\u0140\u012a": 5404, "\u00ec\u0138\u00b4\u00ea\u00b0\u0122": 5405, "\u00ec\u0138\u00b4\u00ec\u00a7\u012a": 5406, "\u0120\u00eb\u00b0\u0133": 5407, "\u0120smoke": 5408, "\u00ec\u0136\u00a9": 5409, "\u0120\u00eb\u012d\u00ac\u00eb\u00b9\u013d": 5410, "\u00ec\u0138\u00bc\u00ea\u00b5\u00b4": 5411, "\u00eb\u0127\u00b8\u00eb\u013f\u00bc": 5412, "nb": 5413, "\u0120isn": 5414, "\u00e3\u0123\u00ab\u00e3\u0123\u00aa": 5415, "\u0120hall": 5416, "\u0120\u00ea\u00b1\u00b4\u00eb\u0126\u012a": 5417, "\u0120spin": 5418, "\u0122\u00eb\u00bd": 5419, "\u0120\u00ec\u0142\u0126\u00ed\u0137\u00b4": 5420, "\u0120sel": 5421, "\u00ea\u00b8\u012b": 5422, "\u0120\u00eb\u0124\u013a\u00eb\u00a7\u012e\u00ec\u013f\u013a": 5423, "lcome": 5424, "\u0120fav": 5425, "ved": 5426, "\u0120\u00ec\u0124\u00ac\u00ec\u00a7\u0126": 5427, "\u00ec\u0126\u00b8\u00ec\u0125\u0123\u00ec\u013f\u00b4": 5428, "ition": 5429, "\u0120\u00eb\u00a7\u0132\u00ec\u0137\u00bc": 5430, "\u0120shoes": 5431, "\u00ea\u00bb\u013a\u00ec\u013c\u0136": 5432, "\u00ea\u00b2\u00b0\u00ea\u00b5\u0143": 5433, "\u00e3\u0125\u00ab": 5434, "\u0120\u00eb\u0140\u00a9": 5435, "\u013c\u013e": 5436, "\u0120\u00ec\u013b\u00b8\u00eb\u00a1\u013e\u00ec\u013c\u00b4": 5437, "\u0120\u00eb\u0123\u013f\u00ec\u013f\u00b4": 5438, "\u012a\u00eb\u00b9\u0126": 5439, "ious": 5440, "\u0120\u00eb\u012d\u00b4\u00ec\u0137\u0126": 5441, "\u0120finally": 5442, "\u0120\u00ec\u0135\u00b8\u00ec\u0135\u00b8": 5443, "\u0120\u00eb\u00b6\u012a\u00eb\u00b9\u013d": 5444, "thes": 5445, "\u0120tem": 5446, "\u00eb\u00b3\u00b8\u00eb\u012d\u00a4": 5447, "kiss": 5448, "\u00eb\u0133\u0132\u00ea\u00b3\u0142": 5449, "\u00eb\u00b0\u013a\u00ec\u00a7\u013f": 5450, "\u0120\u00ec\u0124\u00ac\u00eb\u0140\u0133\u00ec\u013e\u00bc\u00eb\u00a1\u013e": 5451, "\u0120\u00ec\u0140\u012a\u00ec\u00a7\u0122\u00eb\u00a7\u012e": 5452, "\u0120dirty": 5453, "\u0128\u012e": 5454, "\u0120\u00ec\u012a\u00b2": 5455, "\u00e3\u0123\u0134": 5456, "\u0120\u00ec\u0137\u0126\u00ed\u0136\u0126\u00ea\u00b2\u012e": 5457, "\u00bc\u012b": 5458, "\u0120\u00eb\u00a7\u012a\u00eb\u013f\u00bc": 5459, "\u00ec\u00a7\u0122\u00ea\u00b8\u012a\u00ec\u013f\u0122": 5460, "\u0120waste": 5461, "dance": 5462, "\u0120\u00ed\u0137\u013a\u00eb\u012c\u013a\u00ec\u0139\u0132": 5463, "\u00aa\u00bb": 5464, "\u0120queen": 5465, "\u0123\u0134": 5466, "\u0120\u00ec\u013d\u0122\u00ec\u00a7\u0123": 5467, "\u0120\u00ec\u0137\u0126\u00ec\u012b\u00ac": 5468, "vers": 5469, "\u00e5\u00a4\u00a7": 5470, "\u013b\u00ed\u0137\u00a9": 5471, "\u00ed\u0137\u013a\u00ec\u0128\u012e\u00ec\u0126\u013e": 5472, "tic": 5473, "\u00eb\u012d\u00ac\u00eb\u0142\u00a4": 5474, "\u00eb\u00a6\u00ac\u00ea\u00b2\u012e": 5475, "\u00ed\u0137\u013a\u00eb\u00a9\u00b4\u00ec\u0126\u013e": 5476, "\u0120cand": 5477, "\u0120\u00ea\u00b0\u0122\u00ec\u013f\u0126": 5478, "\u0120ty": 5479, "\u0120\u00ea\u00b5\u00b3": 5480, "99": 5481, "\u00ec\u0139\u012a\u00eb\u0124\u013a": 5482, "\u0120\u00eb\u00b9\u013b": 5483, "\u0120thank": 5484, "\u00ed\u0125\u0137": 5485, "\u0120\u00ea\u00b7\u00b8\u00eb\u012e\u0126": 5486, "\u00ec\u0138\u00b4\u00ec\u00a9\u012e\u00eb\u00a9\u00b4": 5487, "\u0120\u00eb\u00b0\u013a\u00eb\u00b3\u00b5": 5488, "\u0120\u00eb\u00a9\u0122\u00ec\u0138\u00b4\u00ec\u0142\u00b8": 5489, "\u0120ocean": 5490, "\u00ec\u0128\u012f\u00ec\u013f\u013a": 5491, "said": 5492, "hook": 5493, "\u0120\u00ec\u0138\u00b4\u00eb\u0137\u012e": 5494, "pin": 5495, "\u0120\u00ea\u00b1\u00b0\u00ea\u00b8\u00b0": 5496, "\u0120\u00eb\u0124\u00ae": 5497, "den": 5498, "\u0120\u00ed\u0137\u00a9": 5499, "son": 5500, "\u00eb\u0124\u013a\u00eb\u00a7\u012e": 5501, "\u00ed\u0125\u0122\u00ec": 5502, "\u00ed\u012e\u00a8": 5503, "\u0120band": 5504, "\u00a9\u00ba": 5505, "\u00ec\u013f\u00b4\u00eb\u00a6\u0126": 5506, "\u00ea\u00b2\u00ac": 5507, "\u00eb\u00a7\u012a\u00eb\u013f\u00bc": 5508, "\u00e3\u0123\u00b8": 5509, "\u00ec\u013a\u00a4\u00eb\u012c\u013a\u00eb\u00b0\u00a4": 5510, "\u00ec\u00b0\u00a8\u00eb\u013f\u00bc\u00eb\u00a6\u00ac": 5511, "\u00ed\u0127\u0132\u00eb\u012f\u00b0": 5512, "\u00ec\u012a\u013a\u00eb\u00a7\u0130\u00ec\u013f\u0122": 5513, "\u0120bill": 5514, "\u0120bi": 5515, "hd": 5516, "\u00eb\u012d\u00a4\u00ec\u013a\u00a4": 5517, "\u00ec\u0140\u0127\u00eb\u012d\u012a\u00eb\u012d\u00a4": 5518, "\u0120cor": 5519, "\u0120jesus": 5520, "\u0120talkin": 5521, "\u0120\u00eb\u0128\u0134\u00ec\u013f\u0122": 5522, "\u0140\u00e3": 5523, "\u0120stri": 5524, "\u0120hat": 5525, "\u0120\u00eb\u0137\u012e\u00eb\u0131\u0126": 5526, "\u0120eat": 5527, "\u00eb\u013f\u00bc\u00eb\u013f\u00bc\u00eb\u013f\u00bc\u00eb\u013f\u00bc": 5528, "\u00e4\u00b8\u012f": 5529, "\u0120doll": 5530, "\u0125\u0123": 5531, "\u0120\u00ec\u0142\u0138\u00ec\u0138\u00b4": 5532, "\u00ec\u013c\u00b8\u00eb": 5533, "\u00eb\u012a\u0126\u00ea\u00b5\u00b0\u00ea\u00b0\u0122": 5534, "bra": 5535, "\u0120\u00eb\u0124\u00af": 5536, "\u0120secret": 5537, "\u0120\u00eb\u00a7\u0140\u00ec\u00b6\u00b0": 5538, "\u0120fucking": 5539, "\u0120\u00eb\u00af\u00b8\u00ec\u00b9\u013a": 5540, "\u0120sla": 5541, "aving": 5542, "\u0120\u00ec\u013a\u0123\u00ec\u013d\u0132\u00ed\u0137\u013e": 5543, "\u0120\u00ed\u013b\u00a9": 5544, "\u0120\u00eb\u00aa\u00a8\u00eb\u00a5\u00b4\u00ea\u00b3\u0142": 5545, "\u00eb\u00aa\u00b0": 5546, "\u0120ins": 5547, "\u0120por": 5548, "\u00ec\u0135\u00b0": 5549, "\u00eb\u00a7\u0132\u00ea\u00b3\u0142": 5550, "\u00ec\u0124\u00ac\u00eb\u012c\u0136": 5551, "\u00ec\u00b6\u0137": 5552, "\u0120memories": 5553, "\u0120\u00ed\u0137\u0142\u00eb\u0142\u0132\u00eb\u00a3\u00a8\u00ec\u0137\u00bc": 5554, "\u00ea\u00b8\u00b0\u00ec\u0139\u0136": 5555, "step": 5556, "\u00ec\u013f\u00b4\u00eb\u0126\u00a4": 5557, "\u0120across": 5558, "\u0120\u00ed\u0137\u0126\u00ec\u013c\u0136\u00ed\u0137\u00b4": 5559, "\u0120\u00ec\u0135\u00b0\u00eb\u0141\u00ac": 5560, "\u0120\u00eb\u00a7\u012e\u00eb\u0124\u00a8": 5561, "\u0120\u00eb\u00b6\u013b\u00ec\u0140\u00a1": 5562, "bow": 5563, "plain": 5564, "\u00a6\u013f": 5565, "\u0120\u00ec\u013f\u00b4\u00eb\u0141\u00ac": 5566, "\u0120\u00eb\u00b0\u0136\u00eb\u013f\u00bc\u00eb\u00b3\u00b4\u00eb\u00a9\u00b0": 5567, "\u0120\u00ea\u00b0\u0122\u00ec\u0137\u00bc": 5568, "ged": 5569, "\u00a5\u00eb": 5570, "\u0120memory": 5571, "\u0120\u00ec\u012b\u00b4": 5572, "\u0120fle": 5573, "\u0120everywhere": 5574, "\u0120\u00ed\u013e\u013a": 5575, "\u00ed\u0123\u00b0": 5576, "\u0120\u00ec\u00b2\u0142": 5577, "\u00ed\u0137\u013a\u00ec\u00a3\u0142": 5578, "\u0120\u00ec\u013f\u00b4\u00eb\u00a6\u0126\u00ec\u013f\u0126": 5579, "\u00ec\u0139\u00ac\u00ec\u013c\u00b4": 5580, "mind": 5581, "\u0120\u00eb\u0123\u013f\u00eb\u0124\u013a": 5582, "\u0120\u00ea\u00b3\u0126\u00ec\u0142\u012a": 5583, "\u00ec\u012d\u013e\u00ed\u0125\u0122": 5584, "\u00ea\u00b7\u00b8\u00eb\u0124\u0142": 5585, "\u00b0\u013a": 5586, "\u00ec\u0140\u012c\u00ec\u0138\u00b4": 5587, "\u00ec\u0143": 5588, "remember": 5589, "\u00ec\u0137\u0126\u00eb\u00a7\u012a": 5590, "\u0120niggaz": 5591, "\u012a\u00eb\u00b3\u00b4": 5592, "\u0120telling": 5593, "\u0120breaking": 5594, "\u00eb\u012d\u00a4\u00ec\u00bc\u0122": 5595, "\u00eb\u00b0\u00a5": 5596, "\u00ec\u00a3\u00bc\u00eb\u00a5\u00bc": 5597, "\u00ec\u013c\u00a9\u00ed\u0140\u012a": 5598, "\u00eb\u00b6\u013b": 5599, "\u00eb\u013f\u00bc\u00ec\u013f\u00b4": 5600, "\u00ef\u00bd": 5601, "\u0120paradise": 5602, "roll": 5603, "\u0120\u00ec\u0124\u00ac\u00ec\u012d\u00a4": 5604, "\u0120\u00eb\u0137\u012e\u00ec\u0139\u0132": 5605, "\u0120\u00ec\u00ba": 5606, "whoa": 5607, "\u00eb\u0142\u012a\u00eb\u00a3\u00a8": 5608, "big": 5609, "\u0120au": 5610, "\u00ec\u0125\u0123\u00ec\u00b2\u013a": 5611, "\u00c3\u0142": 5612, "\u0120brain": 5613, "\u00eb\u012f\u00a9": 5614, "\u0120\u00ec\u0137\u012a\u00ec\u0139\u0132\u00ec\u0126\u013e": 5615, "\u00eb\u00ac\u00b8\u00ec\u013f\u0126": 5616, "antas": 5617, "\u00eb\u0124\u013a\u00eb\u012d\u012a": 5618, "\u0120\u00ed\u012d\u0122": 5619, "ingle": 5620, "\u0120\u00ea\u00b0\u0138\u00ea\u00b3\u0142": 5621, "\u0120\u00ed\u012a\u00ac": 5622, "\u0120mom": 5623, "\u00ec\u0138\u00b4\u00ec\u00b0\u00a8\u00ed\u0136\u00bc": 5624, "\u00ec\u012c\u00ac\u00ed\u0136\u0136": 5625, "\u00b1\u0126": 5626, "\u0125\u00eb": 5627, "\u00ec\u00bd\u00a9": 5628, "\u0120single": 5629, "\u00eb\u00a6\u00bd": 5630, "\u012c\u00a8": 5631, "looking": 5632, "\u0120six": 5633, "oooh": 5634, "\u00ea\u00b9\u012e\u00ec\u00a7\u0122\u00eb\u0124\u013a": 5635, "\u00e3\u0123\u00bb": 5636, "\u00ec\u00b2\u00ab": 5637, "\u0142\u00ec\u00bf\u0142": 5638, "\u00ec\u00b4\u012a": 5639, "\u0120father": 5640, "\u0120sexy": 5641, "\u0142\u00b4": 5642, "cene": 5643, "\u0120bleed": 5644, "once": 5645, "\u0120\u00ec\u0137\u0126\u00eb\u012d\u012a\u00eb\u00a9\u00b4": 5646, "\u00eb\u00b0\u0143": 5647, "\u00eb\u0131\u012e\u00ec\u0137\u0126\u00ec\u0126\u013e": 5648, "\u0120\u00eb\u0124\u0142\u00eb\u0135\u00a4": 5649, "\u0120songs": 5650, "\u0120\u00ea\u00bd\u0125\u00ec\u0140\u0130": 5651, "\u0120\u00e9": 5652, "\u00e3\u0124\u012e\u00e3\u0123\u00aa\u00e3\u0123\u0126": 5653, "ara": 5654, "\u0120\u00ec\u0124\u00ac\u00eb\u0140\u0133\u00eb\u0131\u0126": 5655, "\u0120\u00ec\u00a7\u013f": 5656, "\u0120\u00ed\u012f\u00bc": 5657, "\u0120bitches": 5658, "\u00eb\u00b3\u00b4\u00eb\u012d\u012a": 5659, "\u00ea\u00b7\u00b8\u00eb\u00a6\u00ac\u00ec\u013d\u0122": 5660, "\u00e7\u00ac\u0133": 5661, "\u0120wide": 5662, "\u0120tryin": 5663, "dic": 5664, "\u0120aint": 5665, "\u00e3\u0123\u0126\u00e3\u0123\u0126": 5666, "\u0120\u00ec\u0124\u00ac\u00eb\u0140\u0133\u00ed\u0137\u00a9\u00eb\u012d\u012a\u00eb\u012d\u00a4": 5667, "\u00e6\u013f": 5668, "\u00eb\u0126\u00a4\u00ea\u00b2\u012e": 5669, "\u0120\u00ec\u0128\u00a1": 5670, "\u0123\u00bb": 5671, "\u0120\u00eb\u00ac\u00b4\u00eb\u00a6\u0130": 5672, "\u0120shout": 5673, "\u0120\u00eb\u00ba": 5674, "\u00e3\u0124\u0123\u00e3\u0123\u00a6": 5675, "\u00eb\u0140\u0126\u00eb\u0140\u0126\u00eb\u013f\u00bc": 5676, "\u00eb\u0142\u0123": 5677, "\u0120lovely": 5678, "\u0138\u00b5": 5679, "\u0120\u00ec\u012c\u00b9": 5680, "\u00ec\u00a7\u0122\u00eb\u00a9\u00b4": 5681, "\u00eb\u00a9\u00b0\u00ec\u012d\u013e": 5682, "\u0120\u00ed\u0126\u00b8": 5683, "ii": 5684, "\u00eb\u0140\u013a\u00eb\u0131\u0126": 5685, "\u0120devil": 5686, "whe": 5687, "\u0120winter": 5688, "\u0120\u00ec\u0140\u0125\u00ec\u013f\u0122": 5689, "\u0120ahead": 5690, "\u00ed\u013f\u0136\u00eb\u0135\u00a4": 5691, "mc": 5692, "\u0120kis": 5693, "\u00b1\u00b0": 5694, "avy": 5695, "\u00ec\u013d\u012e\u00eb\u0131\u0126": 5696, "\u00eb\u0132\u0142": 5697, "\u00eb\u00a5\u00b8\u00eb\u012d\u00a4": 5698, "\u0120rema": 5699, "\u00ec\u00a6\u012a": 5700, "\u00b8\u00eb\u0135\u013f": 5701, ".\"": 5702, "\u0120\u00ec\u013d\u0125\u00ec\u013e\u00bc\u00eb\u00a9\u00b0": 5703, "tory": 5704, "\u0120corn": 5705, "\u0120hill": 5706, "\u0120picture": 5707, "\u013e\u00ed\u0140\u012a": 5708, "\u00a8\u00ec\u012b": 5709, "bri": 5710, "ast": 5711, "\u00eb\u0136\u00b0\u00eb\u013e\u00bb": 5712, "\u00ec\u0142\u012a\u00eb\u012e\u0122": 5713, "\u0120\u00ec\u0140\u00a5\u00eb\u0124\u013e": 5714, "\u0120\u00ec\u0124\u00ac\u00eb\u0140\u0133\u00ed\u0137\u013e\u00eb\u012d\u00a4\u00ea\u00b3\u0142": 5715, "\u0120stone": 5716, "\u0120heat": 5717, "sho": 5718, "\u0120whatever": 5719, "\u00ec\u0124\u00ac\u00eb\u0140\u0133\u00ec\u0139\u0132": 5720, "\u0120losing": 5721, "\u00eb\u012d\u013a\u00ec\u013f\u00b4": 5722, "\u0120pos": 5723, "\u0120\u00eb\u012a\u0126\u00ea\u00b5\u00ac\u00eb\u0131\u0126": 5724, "cra": 5725, "\u0120bom": 5726, "\u00ec\u00b9\u00b4\u00ec\u013f\u00b4": 5727, "\u0120dum": 5728, "ries": 5729, "\u0120\u00ec\u013f\u013a\u00ec\u00a7\u0122": 5730, "\u00eb\u00b0\u0136\u00eb\u012d\u00a4": 5731, "\u00ea\u00bd\u0123": 5732, "\u0120pap": 5733, "\u0120\u00ea\u00b0\u0122\u00eb\u0123\u0136": 5734, "\u00eb\u012e\u0122\u00eb\u012c\u0136": 5735, "\u0120\u00ea\u00b8\u00b0\u00eb\u012d\u00a4\u00eb\u00a6\u00b4": 5736, "\u00e7\u0126": 5737, "\u0120tryna": 5738, "\u0120\u00ec\u00a1\u00b0\u00ea\u00b8\u012a\u00ec\u0136\u00a9": 5739, "\u0120\u00eb\u0124\u013a\u00eb\u0124\u013a\u00eb\u0124\u013a": 5740, "\u0127\u012d": 5741, "\u00e4\u00b8\u012c": 5742, "\u0120question": 5743, "\u00ed\u013b\u0122\u00eb\u00a1\u013e": 5744, "\u00ea\u00b2\u00a8\u00ec\u00a7\u0126": 5745, "\u00eb\u00a4\u0126": 5746, "\u0120miles": 5747, "\u00eb\u012c\u00a6": 5748, "\u0120\u00ed\u013f\u0136\u00ec\u0142\u0123": 5749, "\u00ec\u013c\u0136\u00ed\u0137\u013e": 5750, "\u0120motherfuck": 5751, "\u00e5\u00a4\u013e": 5752, "\u0120\u00eb\u0123\u013f\u00ec\u0139\u0132": 5753, "\u0120\u00eb\u00aa\u00a8\u00eb\u00a5\u00bc": 5754, "\u0120ele": 5755, "\u0120\u00eb\u00aa\u00a8\u00eb\u0133\u0132\u00ea\u00b0\u0122": 5756, "gra": 5757, "\u0120against": 5758, "\u0120\u00ec\u0137\u012a\u00ea\u00b2\u00a8": 5759, "ando": 5760, "\u00e4\u00bf": 5761, "\u0120\u00eb\u0138\u0142\u00eb\u0124\u013a\u00ea\u00b0\u0126": 5762, "\u00e8\u0125": 5763, "\u00e8\u0129": 5764, "\u00ec\u0142\u0132\u00ec\u0142\u0132": 5765, "\u00ec\u00a7\u0122\u00ea\u00b2\u012e": 5766, "\u0120\u00ec\u0140\u0132\u00ea\u00be\u00b8\u00eb\u00a7\u012e": 5767, "irc": 5768, "\u00ec\u00a7\u0122\u00eb\u0126\u00a4": 5769, "\u0120looks": 5770, "\u00ea\u00b7\u00b8\u00eb\u012e\u0122\u00ec\u0139\u00ac": 5771, "\u0120swa": 5772, "\u0120\u00ea\u00b3\u0123\u00ec\u0139\u0132\u00ec\u0126\u013e": 5773, "cking": 5774, "\u0120\u00eb\u00b0\u0136\u00eb\u013f\u00bc\u00eb\u00b3\u00b4\u00eb\u012c\u0136": 5775, "\u0120\u00eb\u0131\u0127": 5776, "\u0120\u00ed\u0140\u012a": 5777, "\u0120weak": 5778, "\u0120\u00eb\u0135\u00af\u00ec\u013f\u00b4": 5779, "\u0120feelings": 5780, "\u00e6\u0125\u00b3": 5781, "\u0120rather": 5782, "thm": 5783, "\u0120somewhere": 5784, "\u0120ga": 5785, "\u00eb\u00a5\u013a": 5786, "\u0133\u00b8": 5787, "\u013c\u00a9": 5788, "since": 5789, "\u0120\u00ec\u0126\u00b8\u00ea\u00b3\u0126": 5790, "\u0120\u00ec\u0140\u012a\u00eb\u012c\u0136\u00ec\u00a7\u0122": 5791, "\u012c\u0132": 5792, "\u00eb\u0135\u00a4\u00ec\u0137\u0126": 5793, "\u00a2\u0122": 5794, "lon": 5795, "\u0120\u00eb\u00b2\u012e\u00ec\u012f\u00a8": 5796, "\u0120repeat": 5797, "24": 5798, "\u0120self": 5799, "\u0120sof": 5800, "\u00ed\u012e\u012e\u00eb\u0140\u0122": 5801, "\u0120yesterday": 5802, "\u00ec\u0139\u012a\u00ec\u00a7\u0122\u00eb\u00a7\u012e": 5803, "better": 5804, "\u00ed\u0125\u0122\u00eb\u00a6\u00ac": 5805, "\u00eb\u013c\u013e": 5806, "\u0120\u00ec\u0139\u00ac\u00ec\u0142\u0126\u00ed\u0140\u012a": 5807, "into": 5808, "\u00ec\u013a\u012a\u00ec\u0123\u013e": 5809, "\u00eb\u00b0\u00a9\u00ec\u013c\u00b8": 5810, "\u0120\u00ec\u0138\u00b4\u00eb\u0133\u0132": 5811, "\u00eb\u00af\u00b8\u00ec\u0137\u012a": 5812, "\u0120\u00eb\u00b2\u0126\u00eb\u00a6\u00b4": 5813, "\u00ec\u012d\u00ac\u00ec\u013f\u00b4": 5814, "\u0120turning": 5815, "\u0120hung": 5816, "\u0120wow": 5817, "\u00e3\u0125\u00aa": 5818, "ced": 5819, "\u00eb\u0124\u00b4\u00ea\u00b3\u0142": 5820, "\u0120\u00ec\u00b7\u00a8\u00ed\u0137\u00b4": 5821, "igh": 5822, "\u00ec\u0128\u012f\u00ec\u013f\u0126": 5823, "\u0120spir": 5824, "\u0120\u00eb\u0124\u013a\u00eb\u012a\u0126": 5825, "\u0120\u00ec\u012d\u013e\u00ea\u00b0\u0126\u00ec\u013f\u0122": 5826, "\u0120walls": 5827, "\u00e6\u0122\u013f": 5828, "\u00ec\u013f\u0126\u00eb\u0137\u012e": 5829, "\u00a8\u00b8": 5830, "ati": 5831, "\u0120\u00ec\u00a7\u012a": 5832, "\u0120silence": 5833, "\u0120sy": 5834, "\u00ec\u013b\u0126": 5835, "\u00ec\u0139\u00ac\u00ec\u0142\u0126\u00ed\u0140\u012a": 5836, "\u0130\u012e": 5837, "\u00e4\u00bc": 5838, "\u0120kin": 5839, "\u00eb\u00a7\u012a\u00eb\u012f\u00b0": 5840, "\u00ea\u00bf\u012a\u00ec\u013f\u0126": 5841, "\u0120anyone": 5842, "\u00ec\u00a1\u00b1": 5843, "\u0120\u00eb\u0126\u012a\u00eb\u00a7\u012e\u00ec\u013f\u0126": 5844, "\u0120heal": 5845, "\u0120nat": 5846, "itar": 5847, "\u0120\u00eb\u00af\u00b8\u00ec\u00b3\u0132": 5848, "\u00ed\u0137\u0142\u00ea\u00b9\u012e": 5849, "\u0120\u00eb\u0127\u00b8\u00eb\u0140": 5850, "\u0120middle": 5851, "\u00ec\u013f\u00b4\u00ec\u013c\u0136": 5852, "\u00ef\u00bc\u0141": 5853, "\u00eb\u0127\u00b8\u00eb": 5854, "\u0120\u00ea\u00b5\u00b4": 5855, "\u0120\u00ea\u00b0\u0122\u00eb\u00a1\u013e": 5856, "\u00e3\u0124\u0128": 5857, "\u0120\u00ec\u00b9\u00a8": 5858, "\u0120sand": 5859, "\u012a\u0126": 5860, "\u00ec\u0140\u012c\u00ec\u013f\u0126": 5861, "\u0120\u00eb\u012d\u00ac\u00ec\u00bd\u00a4\u00ed\u0137\u013e": 5862, "dad": 5863, "\u00be\u00ec": 5864, "\u00ed\u0137\u013a\u00ea\u00b8\u00b8": 5865, "\u0120\u00eb\u00b0\u0138": 5866, "\u0120\u00eb\u0124\u013a\u00ed\u0125\u0122": 5867, "\u0120\u00ea\u00bd\u0125\u00ec\u013f\u00b4": 5868, "\u0120\u00ec\u0142\u012a": 5869, "\u00ea\u00b7\u00b9": 5870, "\u00ea\u00b2\u0122": 5871, "\u0120pen": 5872, "\u0120fie": 5873, "\u00e3\u0123\u012a\u00e3\u0124\u012d": 5874, "\u0120family": 5875, "away": 5876, "\u0120strange": 5877, "\u0120brand": 5878, "\u00ed\u0125\u0122\u00ec\u012d\u013e": 5879, "dies": 5880, "\u0120\u00eb\u00a1\u013e": 5881, "\u0120clouds": 5882, "\u0143\u0132": 5883, "\u0120\u00ea\u00b3\u0142\u00ed\u0128\u00b5": 5884, "\u0120\u00ea\u00b1\u00b7\u00ea\u00b3\u0142": 5885, "\u0120\u00ea\u00b7\u00b8\u00eb\u0141\u00b4": 5886, "\u013f\u00b5": 5887, "\u0120\u00ec\u013a\u0123\u00ed\u013b\u0136": 5888, "\u00ec\u00a3\u00bc\u00eb\u012f\u013a": 5889, "\u0120\u00ea\u00b0\u0132\u00ea\u00b3\u0142": 5890, "\u0120\u00ed\u0140\u013a\u00ec\u013f\u0126": 5891, "\u0120\u00ec\u00a7\u0133\u00ec\u0139\u0132": 5892, "\u00e5\u00bc": 5893, ",,": 5894, "\u01207": 5895, "\u0120\u00ea\u00b1\u00b0\u00eb\u00a3\u00a9": 5896, "\u00e8\u00a1\u012e": 5897, "\u00ea\u00b2\u0125\u00ec\u013f\u0122": 5898, "\u0120ref": 5899, "\u0120dying": 5900, "\u00ed\u012e\u012e\u00eb\u0131\u0126": 5901, "\u00e5\u012a\u0128": 5902, "\u00eb\u00b9\u012a": 5903, "\u0120\u00eb\u0138\u0142\u00ec\u013a\u00ac": 5904, "\u0120\u00ed\u013c\u012e": 5905, "\u0120\u00ec\u012d\u00b6\u00eb\u012d\u00a4": 5906, "upid": 5907, "\u00e6\u012e": 5908, "\u0120means": 5909, "\u0120glad": 5910, "\u0120dawn": 5911, "\u0120foo": 5912, "\u0120\u00ec\u0139\u00ac\u00ed\u0138\u012b": 5913, "zed": 5914, "\u0120safe": 5915, "\u00e3\u0122\u0122\u00e3\u0122\u0122": 5916, "\u0120storm": 5917, "onds": 5918, "\u00b8\u00b8": 5919, "\u00eb\u0137\u0132": 5920, "\u0120\u00ec\u012d\u00b6\u00ec\u00a7\u0122": 5921, "\u0120rich": 5922, "\u0120clothes": 5923, "\u00ed\u013f\u00b0": 5924, "posed": 5925, "\u0120point": 5926, "\u00ea\u00b2\u00a8\u00ec\u013c\u00b8": 5927, "\u0120ly": 5928, "\u0120sense": 5929, "gt": 5930, "\u00eb\u0124\u00b4\u00eb\u0142\u00a4": 5931, "\u0120hurts": 5932, "\u0120\u00ec\u0137\u0126\u00ea\u00b0\u0122\u00ec\u0136\u00a8": 5933, "\u0120hero": 5934, "\u00e5\u00ba": 5935, "\u0120\u00ec\u00b5\u013e\u00ea\u00b3\u0142": 5936, "\u00ef\u00bc\u0123": 5937, "\u00e3\u0123\u00b2": 5938, "\u00eb\u012f\u0136\u00eb\u012d\u012a": 5939, "\u0120\u00ed\u0131\u012b\u00ed\u013b\u0136": 5940, "\u0120\u00eb\u0124\u0142\u00ea\u00b0\u013e": 5941, "\u00ed\u0127\u012e\u00eb\u00a3\u00a8": 5942, "\u00eb\u012d\u0132": 5943, "little": 5944, "\u0120\u00ea\u00b3\u0142\u00ec\u013c\u00b4": 5945, "\u00ea\u00b7\u00b8\u00ea\u00b1\u00b4": 5946, "\u00af\u00ec": 5947, "\u00ec\u013a\u00a4\u00eb\u0140\u013a": 5948, "\u00ed\u0137\u0143": 5949, "\u00ea\u00b2\u0125\u00ec\u013f\u0126": 5950, "\u0123\u0132": 5951, "\u00b9\u00ed": 5952, "bb": 5953, "\u0120inst": 5954, "\u0120longer": 5955, "used": 5956, "\u00ed\u0137\u013e\u00ed\u0127\u012e": 5957, "ove": 5958, "\u00a1\u013f": 5959, "\u00eb\u00b2\u00bc": 5960, "\u0120\u00ed\u0137\u013a\u00eb\u00a3\u00a8\u00ea\u00b0\u0122": 5961, "\u0120ame": 5962, "\u0120\u00ec\u00b3\u0132\u00eb\u012d\u00a4": 5963, "\u0120\u00eb\u00b0\u013d\u00ea\u00b3\u0142": 5964, "\u00ea\u00b2\u0142\u00eb\u012d\u00a4": 5965, "\u0120shame": 5966, "off": 5967, "\u0122\u013e": 5968, "\u0120\u00ea\u00b2\u00b0\u00ea\u00b5\u0143": 5969, "\u00e3\u0123\u00b3": 5970, "\u00b0\u00a9": 5971, "after": 5972, "sty": 5973, "\u00bc\u0141": 5974, "\u0120imp": 5975, "\u0120\u00ec\u0138\u00b4\u00ec\u00a9\u0136": 5976, "\u0120\u00eb\u0132\u013a\u00eb\u00a9\u00b4": 5977, "ising": 5978, "\u0120nee": 5979, "does": 5980, "\u0120sold": 5981, "\u00b6\u00e3": 5982, "\u0120\u00e2\u013b\u00aa": 5983, "nh": 5984, "beaut": 5985, "\u0120\u00eb\u0128\u0135\u00ec\u00a7\u0122": 5986, "\u0120scene": 5987, "\u0123\u00b3": 5988, "\u0120\u00eb\u00b0\u00a5": 5989, "\u0120\u00ea\u00b7\u00b8\u00ea\u00b1\u00b4": 5990, "\u0120\u00ec\u0126\u00b1\u00eb\u0142\u00b9": 5991, "\u0120\u00ea\u00b7\u00b8\u00eb\u012e\u0122\u00ec\u0139\u0132\u00ea\u00b2\u012e": 5992, "\u00eb\u00a9\u00b4\u00ec\u0126\u013e\u00eb\u0131\u0126": 5993, "\u00eb\u012d\u00a4\u00eb\u0140\u0122": 5994, "\u00eb\u00aa\u00a8\u00ec\u013f\u00b4": 5995, "\u0120bottle": 5996, "\u00ea\u00b3\u00b1": 5997, "\u00ec\u012d\u013e\u00eb\u00a6\u00ac": 5998, "\u0120\u00ec\u0140\u012a\u00eb\u0131\u0126\u00eb\u00a1\u013f": 5999, "\u00ec\u0137\u012b": 6000, "\u0120watching": 6001, "\u00e6\u00b3": 6002, "tre": 6003, "\u0120\u00ec\u00b6\u0136\u00ec\u0138\u00b5\u00ec\u013f\u00b4": 6004, "\u0120\u00ec\u00b6\u013e": 6005, "sq": 6006, "\u0120hid": 6007, "\u00e9\u0138\u0135": 6008, "\u00e2\u0122\u013f": 6009, "\u00e5\u00b9": 6010, "\u0120\u00ec\u0138\u00b4\u00eb\u0138\u00a1\u00ed\u0137\u00b4": 6011, "\u00ec\u0124\u00ac\u00ec\u013f\u00b4": 6012, "\u0120mr": 6013, "\u0120hap": 6014, "\u00e7\u013e": 6015, "----------------": 6016, "\u0137\u0133": 6017, "\u0120\u00ed\u0125\u013e\u00ec\u0138\u00b4\u00eb\u0124\u013e": 6018, "\u0120lad": 6019, "ding": 6020, "\u00eb\u00b2\u012a\u00ec": 6021, "\u00eb\u0131\u013b\u00ec\u0140\u0132": 6022, "\u0120chorus": 6023, "\u00ac\u00eb\u0140\u0122": 6024, "\u00ea\u00b6\u0123": 6025, "\u0120\u00eb\u00a7\u013f\u00ec\u0126\u00a4": 6026, "\u0120shut": 6027, "\u0120\u00ea\u00b7\u00b8\u00eb\u0135\u00a4": 6028, "\u0120holy": 6029, "\u0120\u00ec\u013b\u00b8\u00ec\u00b3\u0132": 6030, "leave": 6031, "\u013a\u00ec\u00b3\u0132": 6032, "\u00e3\u0123\u00be\u00e3\u0123\u00a7": 6033, "\u00ed\u0137\u013a\u00eb\u0142\u00a4": 6034, "\u00ec\u0140\u0125": 6035, "\u0120\u00ea\u00b2\u0123": 6036, "\u00e3\u0123\u013f\u00e3\u0124\u012e": 6037, "\u0120nah": 6038, "\u0120key": 6039, "\u00ea\u00b1\u00b0\u00eb\u012d\u012a": 6040, "\u00eb\u00bf\u0132\u00ec\u013f\u00b8": 6041, "\u0120\u00ec\u0137\u0126\u00eb\u00a7\u012a": 6042, "\u0120\u00ec\u0142\u0137\u00ec\u012d\u0142": 6043, "whatever": 6044, "\u00ed\u0140\u0132": 6045, "\u012a\u00eb\u00b6\u0122\u00ec\u012d\u0142": 6046, "\u00e3\u0123\u013b\u00e3\u0123": 6047, "waiting": 6048, "\u00ea\u00b0\u013b\u00ec\u0137\u0126": 6049, "\u0120treat": 6050, "\u00e3\u0125\u0125": 6051, "ets": 6052, "\u00b6\u0126": 6053, "\u00ec\u0125\u012a\u00eb\u00b2\u00bd": 6054, "\u00ec\u0125\u00a4": 6055, "\u012010": 6056, "\u0120birthday": 6057, "\u0120\u00eb\u012e\u0122\u00ed\u0137\u013e": 6058, "\u0120\u00eb\u0131\u012e\u00ec\u0137\u0126\u00ec\u013a\u00ac": 6059, "\u0120\u00eb\u00b0\u0136\u00eb\u0140\u012e\u00ec\u0139\u0132": 6060, "\u00b1\u0127": 6061, "\u00ec\u012c\u00a4\u00ed\u0137\u013e": 6062, "\u00ec\u0139\u0126": 6063, "\u0120york": 6064, "\u00ec\u013a\u00a4\u00eb\u00a9\u00b4": 6065, "usion": 6066, "\u00ed\u013b\u012f": 6067, "\u0120\u00ec\u0126\u013e\u00ec\u0126\u013e": 6068, "ooo": 6069, "\u0120\u00ea\u00b8\u00b0\u00eb\u012d\u00a4\u00eb\u00a6\u00ac\u00eb\u012c\u0136": 6070, "\u00eb\u00a9\u013a": 6071, "\u00eb\u00b0\u0136\u00eb\u0140\u012e\u00ec\u0139\u0132": 6072, "\u0120\u00ec\u0137\u012e\u00ec\u00a7\u0122": 6073, "\u0120wine": 6074, "\u00e3\u0123\u00aa\u00e3\u0124\u0135": 6075, "hhhh": 6076, "\u0120bounce": 6077, "\u00ec\u0139\u012a\u00ea\u00b3\u0142": 6078, "\u00eb\u00aa\u00a8\u00eb\u0133\u0132\u00ea\u00b0\u0122": 6079, "\u0120gim": 6080, "\u0134\u00ec": 6081, "\u00e3\u0124\u012a\u00e3\u0123\u0128\u00e3\u0123\u00ab": 6082, "\u0120\u00ec\u0139\u0128\u00eb\u012d\u00a4\u00ea\u00b3\u0142": 6083, "\u0120\u00ec\u0138\u00b4\u00ec\u00b0\u012e": 6084, "\u00ec\u00a7\u012a\u00eb": 6085, "\u00eb\u0142\u00a4\u00ec\u013c\u0136": 6086, "\u0120\u00ea\u00b6\u0123\u00ea\u00b8\u012a": 6087, "\u0120walked": 6088, "\u00ec\u00a7\u0122\u00ea\u00b0\u013e": 6089, "\u00eb\u0141\u00b4": 6090, "\u0120\u00eb\u00b3\u00b4\u00eb\u0124\u00b8": 6091, "\u0120\u00ec\u013f\u00b4\u00ea\u00b1\u00b4": 6092, "\u00ec\u0137\u012e\u00ec\u0137\u0126": 6093, "rican": 6094, "qui": 6095, "\u00eb\u00b2\u0137": 6096, "\u00ea\u00b1\u00b4\u00ec\u00a7\u0122": 6097, "\u00eb\u00a7\u012a\u00eb\u00a5\u00b8": 6098, "\u00ec\u00a3\u00bc\u00ec\u00a7\u0122": 6099, "\u0120\u00ec\u0139\u0128\u00ea\u00b2\u012e": 6100, "\u0120\u00ec\u0128\u012e\u00ec\u013c\u00a9": 6101, "\u0120\u00ed\u0137\u00b4\u00ec\u00a4\u013a": 6102, "\u0120\u00ec\u013a\u00a4\u00ec": 6103, "yu": 6104, "\u0120\u00ed\u0137\u013e\u00ec\u0140\u0136": 6105, "\u0120livin": 6106, "\u0120fantas": 6107, "\u0120\u00ed\u0130\u00b4": 6108, "inst": 6109, "black": 6110, "\u00e6\u00b5": 6111, "\u0120\u00ec\u00b8\u0142": 6112, "\u0120danger": 6113, "\u0120\u00ec\u013a\u00a4\u00ec\u00a7\u0122": 6114, "\u00ed\u0133\u00b8\u00eb\u00a5\u00b8": 6115, "hip": 6116, "\u0120\u00ec\u0138\u00b4\u00eb\u0136\u0136\u00ec\u0126\u013e": 6117, "\u0120lucky": 6118, "bly": 6119, "\u0120fake": 6120, "\u00ea\u00bf\u0122\u00ea\u00bf\u0122": 6121, "ita": 6122, "hear": 6123, "\u0120\u00ec\u012a\u013a\u00eb\u00a7\u0130\u00ec\u013f\u0122": 6124, "\u0120simple": 6125, "\u00ea\u00b9\u0136": 6126, "\u0120thoughts": 6127, "\u0120five": 6128, "\u00ea\u00b1\u00b0\u00eb\u0124\u013a": 6129, "\u0120quick": 6130, "\u0120piece": 6131, "\u0120sug": 6132, "\u00ed\u0131\u0143": 6133, "\u0120funny": 6134, "\u0120\u00ec\u00b0\u00be\u00ec\u013f\u0126": 6135, "\u00eb\u00a7\u012e\u00eb\u0124\u013a": 6136, "\u0120\u00ea\u00b3\u00b3\u00ec\u0139\u0132\u00ec\u0126\u013e": 6137, "\u0120\u00eb\u0124\u013a\u00ec\u0126\u013e": 6138, "\u0120\u00eb\u00a7\u0132\u00eb\u00a1\u013e": 6139, "\u0120write": 6140, "\u013e\u00eb\u00a1\u013e": 6141, "\u0120\u00ed\u0137\u013a\u00eb\u0124\u013a\u00eb\u00a7\u012e": 6142, "ution": 6143, "\u0120\u00ea\u00b3\u00b3\u00ec\u013f\u0126": 6144, "pend": 6145, "\u0120\u00eb\u00a7\u00b9": 6146, "\u0120mas": 6147, "\u0120looked": 6148, "\u0120\u00ea\u00b8\u00b8\u00ec\u0139\u0132": 6149, "\u0120somethin": 6150, "\u0120\u00ec\u0126\u0142\u00ed\u0125\u013f": 6151, "\u0120\u00ec\u00a7\u0122\u00ec\u013c\u00b8": 6152, "\u00eb\u00a7\u012a\u00ec\u013f\u012e\u00ec\u013f\u0126": 6153, "\u0120bes": 6154, "\u0120\u00ea\u00b1\u00b0\u00eb\u013f\u00bc\u00ea\u00b3\u0142": 6155, "\u0138\u00e3": 6156, "\u00ec\u0140\u012c\u00ec\u00a7\u0122": 6157, "open": 6158, "\u0120\u00eb\u0136\u00b0\u00eb\u013e\u00bb\u00ed\u0137\u013e": 6159, "\u00eb\u00af\u00b8\u00eb\u0127\u00b8": 6160, "\u0120\u00ec\u00b1\u0127": 6161, "\u012a\u0142": 6162, "\u0120cuz": 6163, "\u0120\u00ec\u013c\u00b0\u00eb\u00a6\u00ac\u00eb\u00a5\u00bc": 6164, "free": 6165, "\u00ec\u0137\u013a\u00ec\u00a7\u0122": 6166, "\u012a\u00ec\u013e\u00bc\u00eb\u00a9\u00b4": 6167, "\u00ec\u012d\u00b6\u00ec\u013f\u0122": 6168, "\u0120\u00eb\u00b6\u0122\u00eb\u00a5\u00b4\u00eb\u012c\u0136": 6169, "\u00ec\u013c\u0137": 6170, "\u0120\u00ec\u013b\u0122\u00ec\u0126\u013e": 6171, "\u00eb\u00b3\u00b4\u00ec\u00bf\u0142": 6172, "\u0120\u00ec\u00a7\u0132": 6173, "\u00ec\u0138\u0139\u00ea\u00b2\u012e": 6174, "hop": 6175, "\u0120\u00ec\u0140\u0132\u00eb\u00a6\u00ac\u00ec\u0139\u0132": 6176, "\u00ec\u0124\u00ac\u00eb\u0140\u0133\u00ec\u013f\u00b4\u00eb\u0140\u0122": 6177, "\u0120\u00eb\u00b3\u00b4\u00eb\u0124\u00bc": 6178, "\u0120\u00ec\u00a5\u0132": 6179, "nday": 6180, "\u0120within": 6181, "\u00ec\u013f\u012e\u00ec\u0137\u0127": 6182, "\u0120fig": 6183, "\u00ec\u0124\u00b6": 6184, "\u0120spot": 6185, "\u0120\u00ea\u00ba\u00bc\u00eb\u0124\u00b4": 6186, "\u0120law": 6187, "\u0120pan": 6188, "\u0120tv": 6189, "\u00ea\u00b0\u0122\u00ec\u012c\u00b4\u00ec\u0139\u0132": 6190, "\u00b3\u00b5": 6191, "\u0120\u00ed\u013f\u00b0": 6192, "\u00ec\u00a1\u00b0\u00ea\u00b8\u012a\u00ec\u0136\u00a9": 6193, "\u00e6\u0138": 6194, "\u0120wonderful": 6195, "25": 6196, "\u00ec\u013c\u0136\u00ec\u013f\u00bc": 6197, "mmer": 6198, "\u0120\u00ec\u0137\u0126\u00eb\u00a6\u0126\u00eb\u012d\u00a4\u00ec\u013d\u012e": 6199, "lebr": 6200, "\u00eb\u00a6\u00ac\u00eb\u012f\u013a": 6201, "\u00ec\u0138\u0133\u00ec\u013f\u00b4": 6202, "rop": 6203, "\u0120\u00ec\u00a3\u00bc\u00ec\u0128\u012e\u00ec\u0126\u013e": 6204, "\u0120\u00eb\u00b9\u0126\u00eb\u00b0\u0122": 6205, "\u0120\u00ed\u0130\u00bc\u00ec\u00b3\u0132": 6206, "\u0120pride": 6207, "his": 6208, "\u00ed\u012f\u00bc": 6209, "\u00eb\u00a7\u0130\u00ec\u013f\u00b4": 6210, "cape": 6211, "\u0120!": 6212, "erson": 6213, "\u0120small": 6214, "\u0120\u00ed\u0131\u012b\u00ec\u0125\u013f": 6215, "\u0120bells": 6216, "\u0120\u00eb\u00b3\u00b4\u00eb\u012d\u012a": 6217, "\u0120\u00eb\u0124\u00ac": 6218, "\u0120\u00eb\u00b3\u00b4\u00ed\u013a": 6219, "\u0120*": 6220, "\u00ec\u0142\u00b8\u00eb\u00b2\u0126\u00eb\u00a6\u00b0": 6221, "\u00a6\u00b4": 6222, "\u0120\u00ec\u013b\u00b8\u00eb\u00a1\u0143": 6223, "\u0120\u00ea\u00b0\u0122\u00eb\u0131\u0126": 6224, "\u0120\u00eb\u00a7\u012a\u00ec\u013c\u0136": 6225, "\u0120swi": 6226, "\u0120\u00eb\u00a7\u0132\u00ed\u0137\u013a\u00ec\u00a7\u0122": 6227, "\u0120stuck": 6228, "\u00a6\u0126": 6229, "beat": 6230, "bro": 6231, "\u00eb\u0133\u0132\u00eb\u0142\u00a4": 6232, "everyday": 6233, "\u0120\u00ec\u00b0\u012f": 6234, "\u0120choose": 6235, "\u00ea\u00b2\u0125\u00eb\u00a7\u012e": 6236, "\u0120\u00ec\u0131\u0141\u00ec\u0137\u0126": 6237, "sun": 6238, "\u012e\u00ec\u00bf\u0142": 6239, "\u00ec\u00b3\u00a4": 6240, "ern": 6241, "\u0120sil": 6242, "mme": 6243, "\u0120squ": 6244, "\u0120\u00ed\u0125\u0135": 6245, "\u00ea\u00b1\u00b0\u00eb\u00a6\u00ac\u00eb\u012c\u0136": 6246, "\u0120hip": 6247, "\u00bc\u0123": 6248, "cre": 6249, "\u00eb\u012d\u00a8\u00eb\u012d\u00a4": 6250, "vol": 6251, "\u0120\u00eb\u00a7\u0132\u00ed\u0137\u00b4\u00ec\u00a4\u013a": 6252, "\u00ec\u00aa": 6253, "\u00ec\u013c\u00b4\u00eb\u012f\u00b0": 6254, "\u00ec\u013a\u0122\u00ec\u0138\u00b4": 6255, "\u0120\u00eb\u00a7\u0132\u00ed\u0137\u013a\u00ea\u00b3\u0142": 6256, "\u00ed\u012d\u00b0": 6257, "\u00ec\u0128\u012e\u00ec\u00a4\u0133": 6258, "\u0120spr": 6259, "\u0120\u00ec\u012f": 6260, "\u0120\u00ec\u00a7\u0122\u00ec\u00b9\u013e": 6261, "\u0120angels": 6262, "\u0120\u00ec\u013a\u012a\u00ec\u0123\u013a": 6263, "ez": 6264, "\u00ec\u0140\u0132\u00ea\u00be\u00b8\u00eb\u00a7\u012e": 6265, "\u00ec\u013f\u00b8\u00ea\u00b0\u0122\u00ec\u013c\u0136": 6266, "\u00e7\u00a7\u0123": 6267, "\u0124\u00b7": 6268, "\u00ec\u012d\u013e\u00ec\u0137\u0126": 6269, "\u00eb\u0124\u00ae": 6270, "\u0120\u00eb\u0127\u00b8\u00eb\u0142\u00a5": 6271, "\u0120rhythm": 6272, "\u0120needed": 6273, "\u0120\u00ec\u0126\u00b8\u00ec\u0125\u0123\u00ec\u013f\u0122": 6274, "dri": 6275, "\u0120\u00eb\u0126\u012a\u00eb\u013f\u00bc": 6276, "\u0120gho": 6277, "\u0120circ": 6278, "\u00eb\u013c\u013f": 6279, "\u00b8\u00eb\u00a9\u00b0": 6280, "ux": 6281, "\u0120\u00ec\u013f\u00b4\u00ea\u00b2\u012e": 6282, "\u0120\u00ea\u00b2\u00bd\u00eb\u00b0\u00b0": 6283, "\u0120\u00ec\u0138\u00bc\u00ea\u00b5\u00b4\u00ec\u013f\u0126": 6284, "\u00eb\u0125\u012a": 6285, "\u0120grace": 6286, "\u00ec\u0126\u00af": 6287, "\u00e7\u00a9\u00ba": 6288, "\u0120\u00eb\u013c\u013e": 6289, "\u00ed\u0137\u00b4\u00ea\u00b0\u0122": 6290, "\u00ec\u013b\u00b8\u00eb\u00a1\u013e\u00ec\u013c\u00b4": 6291, "\u00e3\u0124\u012b\u00e3\u0123\u00aa\u00e3\u0123\u0126": 6292, "\u00ec\u0124\u0132": 6293, "\u0120\u00ec\u00b0\u00a2": 6294, "itch": 6295, "\u0120awake": 6296, "\u0120gri": 6297, "\u00ec\u0137\u0126\u00eb\u0140\u013a": 6298, "\u0120res": 6299, "\u00ec\u00b9\u00b4\u00eb\u0124\u013a": 6300, "\u0120\u00ec\u0125\u012a\u00eb\u00a1\u013e\u00ec\u013c\u00b4": 6301, "\u0120\u00eb\u00a7\u012e\u00eb\u0135\u0142": 6302, "\u0120block": 6303, "\u00eb\u012f\u0136\u00eb\u013f\u00bc\u00eb\u0131\u0126": 6304, "\u0120\u00ec\u00a7\u013e": 6305, "\u00ec\u013e\u0126\u00ed\u0137\u00b4": 6306, "\u0120desire": 6307, "\u0142\u00ec\u00bc\u0122": 6308, "\u0120\u00ed\u0139\u00a4\u00ec\u0138\u00b4": 6309, "\u0120\u00ea\u00b3\u0142\u00eb\u00a7\u012a\u00ec\u013d\u012e": 6310, "\u0120boot": 6311, "\u0122\u00ec\u0136\u00a8": 6312, "\u0120\u00ea\u00b3\u00b3\u00ec\u013e\u00bc\u00eb\u00a1\u013e": 6313, "\u0120mirror": 6314, "\u0120\u00ec\u013a\u012a\u00ec\u012a\u013a\u00eb\u012d\u013a": 6315, "\u00eb\u0127\u00b8\u00ec": 6316, "\u0120\u00ec\u0128\u012f\u00ec\u013f\u013a": 6317, "mar": 6318, "\u00eb\u00a7\u012a\u00ec\u013f\u012e\u00ec\u013f\u00b4": 6319, "yond": 6320, "\u00eb\u00b0\u0138": 6321, "\u0120\u00ec\u00a3\u00bc\u00ec\u013f\u00b8": 6322, "\u00e8\u0129\u00aa": 6323, "\u0120\u00eb\u013e\u00a8\u00ea\u00b1\u00b0\u00ec\u013c\u00b4": 6324, "\u0120favor": 6325, "\u0120\u00ea\u00b0\u0122\u00ec\u013c\u0136": 6326, "\u0140\u00ac": 6327, "\u0120\u00ec\u00ab\u0135": 6328, "\u0120\u00eb\u012d\u00a6": 6329, "ges": 6330, "\u0120\u00ec\u0140\u012a\u00eb\u012d\u012a": 6331, "\u0120\u00ec\u013d\u0125\u00ec\u013f\u0126": 6332, "\u00b8\u012e": 6333, "\u00ea\u00b7\u00b8\u00eb\u00a6\u00ac\u00ec\u013c\u00b4": 6334, "\u0120shall": 6335, "\u00ec\u0140\u0129": 6336, "\u0120\u00eb\u0137\u012e\u00eb\u00a7\u012a\u00eb\u012d\u00a4": 6337, "\u0120\u00ec\u00bf": 6338, "\u00eb\u0137\u012e\u00eb\u00a1\u0142": 6339, "\u0120\u00eb\u0124\u013a\u00ec\u0123\u013e": 6340, "uu": 6341, "\u0120ob": 6342, "\u0120ter": 6343, "\u00ec\u00b0\u00a8\u00ea\u00b0\u0122\u00ec\u013c\u00b4": 6344, "\u00ec\u0138\u00b4\u00ea\u00b0\u0122\u00eb\u012c\u0136": 6345, "\u0120\u00eb\u00b6\u0122\u00eb\u00a5\u00bc": 6346, "\u0120\u00ed\u0137\u00b4\u00ea\u00b0\u0122": 6347, "\u0120\u00ec\u0137\u012e\u00ec\u0137\u013a\u00ec\u0138\u00b4": 6348, "\u0120\u00eb\u0131\u0126\u00ec\u012d\u013e": 6349, "\u0120\u00ea\u00b3\u00b1": 6350, "\u0120rose": 6351, "\u0120\u00ec\u0124\u00ac\u00ec\u0139\u00b0": 6352, "lord": 6353, "\u0120ghost": 6354, "\u00ec\u00b0\u00b8\u00ec\u013f\u0126": 6355, "gre": 6356, "\u0120\u00ea\u00b0\u013b\u00ec\u013f\u0122\u00eb\u012f\u00b0": 6357, "\u00ed\u0125\u0122\u00eb\u012c\u0136": 6358, "\u00eb\u012a\u012a\u00ec\u0139\u0132": 6359, "\u00e4\u00b8\u0138": 6360, "ina": 6361, "\u0120runnin": 6362, "\u00eb\u012d\u00ac\u00ec\u00bd\u00a4\u00ed\u0137\u013e": 6363, "\u00b4\u00e3": 6364, "lish": 6365, "\u0120\u00ed\u0137\u013a\u00eb\u00a3\u00a8\u00eb\u00a5\u00bc": 6366, "\u0120\u00ec\u00a7\u0122\u00ec\u013c\u00b0": 6367, "\u0120\u00eb\u012a\u0126\u00ea\u00b5\u00ac\u00eb\u00b3\u00b4\u00eb\u012d\u00a4": 6368, "\u00ed\u0137\u0142\u00ec\u012a\u013a": 6369, "\u0120skies": 6370, "\u0120stick": 6371, "\u0120human": 6372, "\u00ec\u0137\u00bc\u00ec\u0137\u00bc": 6373, "\u0120\u00ec\u013f\u00b8\u00ec\u0139\u00b0": 6374, "\u0120freedom": 6375, "\u0120deal": 6376, "\u0120\u00ec\u0140\u0142\u00eb\u0135\u00a4": 6377, "\u0120\u00ec\u00b1\u0126\u00eb\u00a1\u013e": 6378, "\u0120uni": 6379, "\u00ac\u00b8": 6380, "\u00e3\u0123\u0124\u00e3\u0124\u012d": 6381, "\u0120\u00ec\u0140\u012a\u00eb\u012d\u00a4\u00ea\u00b3\u0142": 6382, "\u00ec\u013e\u00bc\u00ec\u012d\u0142": 6383, "\u0120\u00ed\u0123\u00ac\u00eb\u00a6\u00ac\u00ec\u012c\u00a4\u00eb\u00a7\u012a\u00ec\u012c\u00a4": 6384, "\u0120\u00ea\u00b1\u00b7\u00eb\u012c\u0136": 6385, "\u013e\u00ec\u00a7\u013f": 6386, "\u0123\u0136": 6387, "\u0120pur": 6388, "\u0120\u00ec\u0138\u00b8\u00eb\u012f\u0137": 6389, "\u0120\u00eb\u00a7\u012a\u00ec\u013f\u012e\u00eb\u0131\u0126": 6390, "\u0140\u013e": 6391, "\u0120\u00eb\u0134\u00a4\u00eb\u00a1\u013e": 6392, "\u0120cat": 6393, "\u0120wheel": 6394, "\u00ec\u013f\u00b4\u00eb\u00a9\u00b0": 6395, "\u0120wave": 6396, "mn": 6397, "\u00ed\u013d\u00a8": 6398, "\u00ec\u00a1\u00b0\u00ea\u00b8\u012a\u00eb\u00a7\u012e": 6399, "\u013c\u00b1": 6400, "\u0120\u00eb\u00b2\u0137": 6401, "\u0120almost": 6402, "\u00aa\u0127": 6403, "\u0120\u00ed\u013a\u00bc\u00ec\u0140\u0132\u00ec\u0126\u013e": 6404, "\u0120swe": 6405, "\u0120clean": 6406, "\u00ec\u0140\u0138\u00ec\u0137\u0126\u00ec\u013c\u0136": 6407, "\u00eb\u00af\u00b8\u00ec\u0137\u012a\u00ed\u0137\u00b4": 6408, "\u00eb\u012d\u012a\u00ec": 6409, "\u0120\u00ea\u00b6\u012e": 6410, "\u0120\u00ec\u013f\u00b4\u00eb\u00a4\u0126": 6411, "sent": 6412, "\u0120\u00ec\u0139\u0143\u00ec\u012d\u013e": 6413, "\u0120\u00ea\u00b0\u0122\u00ec\u0124\u00ac": 6414, "\u0120pus": 6415, "\u00eb\u00b6\u0137": 6416, "\u0120\u00ec\u013a\u013d\u00eb\u0124\u0142": 6417, "\u0120\u00ec\u0140\u012a\u00eb\u012d\u00a4\u00eb\u012c\u0136": 6418, "\u00ec\u0137\u0126\u00ed\u0136\u012a": 6419, "\u0120..": 6420, "\u0120\u00ec\u013f\u00bc\u00ec\u013f\u0126": 6421, "\u00ea\u00b9\u012e\u00ec\u00a7\u0122\u00eb\u0131\u0126": 6422, "\u012a\u00eb\u013f\u00bd": 6423, "\u0120\u00ec\u00a4\u0126\u00ea\u00b2\u012e": 6424, "\u0120\u00eb\u0124\u0142\u00ec\u0139\u0132": 6425, "\u0120thri": 6426, "\u00ec\u013a\u00b7": 6427, "\u0120\u00eb\u00a3\u00a8": 6428, "\u00e3\u0124\u00af": 6429, "\u0120\u00eb\u0136\u00b0\u00ec\u013e\u012a": 6430, "\u00ea\u00b7\u00b8\u00eb\u00a6\u00ac\u00ec\u013d\u012e": 6431, "\u0120joh": 6432, "\u0120anyway": 6433, "\u00ec\u0137\u0126\u00eb\u00a6\u00ac\u00eb\u0140\u0133": 6434, "\u00eb\u0131\u0126\u00eb\u00a1\u013e": 6435, "\u00eb\u0124\u00b4\u00eb\u012c\u0136": 6436, "\u0120\u00eb\u0127\u0126": 6437, "\u00eb\u00a7\u0132\u00ec\u013f\u0126": 6438, "hit": 6439, "\u0120\u00eb\u012d\u00ac\u00eb\u0142\u00a4\u00ea\u00b0\u0122": 6440, "phone": 6441, "\u0120\u00ed\u0137\u00a8": 6442, "\u00ec\u0124\u00ac\u00eb\u013f\u00bc": 6443, "ult": 6444, "ates": 6445, "\u00ed\u0137\u00a8\u00ec\u013f\u00b4": 6446, "\u00b9\u00eb\u00b3\u0126": 6447, "\u0120\u00ec\u013b\u00b8\u00eb\u00a9\u00b4": 6448, "\u0120\u00eb\u012d\u00ac\u00ec\u00bd\u00a4": 6449, "\u0120drown": 6450, "\u0120bell": 6451, "\u00ea\u00b2\u0142\u00ec\u0138\u00b4\u00ec\u013c\u0136": 6452, "\u0132\u00e3": 6453, "\u0120\u00eb\u0127\u00b8\u00ec\u013f\u0126": 6454, "\u0120\u00eb\u00af\u00b8\u00eb": 6455, "\u00ec\u012c\u00a4\u00eb\u0142\u012a": 6456, "\u012a\u00ec\u012a\u013a\u00eb\u00a1\u013f": 6457, "\u0140\u012c": 6458, "\u0120suck": 6459, "town": 6460, "\u00eb\u012d\u00a4\u00ec\u012d\u013e\u00eb\u012c\u0136": 6461, "\u0120\u00ec\u0128\u012e\u00ec\u012d\u013f": 6462, "\u00e5\u00af": 6463, "gga": 6464, "\u0120\u00ec\u012a\u00a8\u00ec\u013f\u0126": 6465, "\u0120\u00ec\u012c\u00ac\u00ed\u0136\u0126": 6466, "\u00ed\u0140\u012a\u00eb": 6467, "\u00ec\u0139\u00ac\u00eb\u00a6\u0126": 6468, "\u00eb\u00b4\u012b": 6469, "yy": 6470, "\u0120realize": 6471, "\u0120\u00eb\u012d\u00ae\u00ec\u013f\u0122": 6472, "\u0120rush": 6473, "\u0120\u00ea\u00bd\u012b": 6474, "\u00ec\u0140\u012a\u00eb\u0126\u00a4": 6475, "\u00e3\u0123\u0133\u00e3\u0123\u00a6": 6476, "\u0136\u00b1": 6477, "\u0120\u00eb\u00aa\u00a8\u00eb\u00a5\u00b4\u00ea\u00b2\u0142\u00ec\u0138\u00b4": 6478, "\u00eb\u00b8\u012e": 6479, "\u00eb\u00ac\u00b8\u00ec\u0139\u0132": 6480, "\u0120remix": 6481, "\u0120\u00ea\u00b4\u00b4\u00eb\u00a1\u013e": 6482, "\u00e4\u00ba\u012d": 6483, "\u0123\u00b5": 6484, "\u0120\u00ed\u0133\u013e\u00ed\u013a\u0126": 6485, "\u0120ge": 6486, "\u0120dry": 6487, "\u0120lovers": 6488, "\u0120\u00eb\u00b0\u013e\u00ea\u00b1\u00b8\u00ec\u013f\u012e": 6489, "\u0120\u00eb\u00a7\u0132\u00ec\u0137\u0126\u00ec\u00a4\u013a": 6490, "\u00ed\u0137\u013e\u00eb\u012d\u00a4\u00eb\u00a9\u00b4": 6491, "\u00eb\u0123\u0139": 6492, "\u00a8\u00ec\u012b\u00ac": 6493, "\u0120\u00ed\u0127\u0132\u00eb\u012f\u00b0": 6494, "\u0133\u00a5": 6495, "\u0120\u00ec\u00b0\u00b8\u00ec\u0137\u0126": 6496, "tl": 6497, "rain": 6498, "\u0127\u0126": 6499, "\u00ea\u00bd\u0125\u00ec\u013f\u00b4": 6500, "ilt": 6501, "\u00eb\u0136\u00a9": 6502, "\u00e6\u013a\u0130": 6503, "real": 6504, "thank": 6505, "\u0120\u00eb\u012d\u00a4\u00ec\u00a7\u0132": 6506, "\u0120\u00ec\u0142\u0133": 6507, "\u0120cal": 6508, "\u0120melo": 6509, "\u00ea\u00b8\u00b8\u00ec\u013f\u00b4": 6510, "\u0120\u00ec\u013a\u00a4\u00eb\u012c\u013a\u00ec\u013f\u0122": 6511, "\u00eb\u00a1\u0143\u00ea\u00b2\u012e": 6512, "\u0120slowly": 6513, "\u0120\u00ec\u0124\u00ac\u00ec\u013f\u00b4\u00eb\u00a1\u013e": 6514, "\u0120crowd": 6515, "ughter": 6516, "should": 6517, "\u0120\u00ec\u00a2\u0127\u00ec\u013f\u00bc": 6518, "\u0120mountain": 6519, "living": 6520, "\u012d\u00a5": 6521, "\u00ec\u013f\u0133": 6522, "\u00ea\u00b7\u00b8\u00eb\u0137\u0132": 6523, "dar": 6524, "\u0120\u00ec\u00a7\u0122\u00eb\u0124\u013a\u00eb\u00a9\u00b4": 6525, "\u0120\u00ea\u00b1\u00b8\u00ec\u0138\u00b4\u00ea\u00b0\u0122": 6526, "\u0120\u00ec\u0128\u012f\u00ec\u013e\u00bc\u00eb\u00a1\u013e": 6527, "\u0120\u00eb\u0124\u013a\u00eb\u012a": 6528, "\u0120\u00ec\u00b9\u013e": 6529, "\u00eb\u00b0\u00a4\u00ec\u013f\u00b4": 6530, "\u00ec\u013b\u00b8": 6531, "\u00eb\u012d\u00a4\u00eb\u0126\u00a4": 6532, "\u0120\u00ec\u00bc\u0122": 6533, "\u00e3\u0123\u00b5": 6534, "\u0120\u00ec\u0124\u00b4\u00ec\u0137\u0126\u00ea\u00b0\u0122\u00eb\u012c\u0136": 6535, "ging": 6536, "\u00ec\u013f\u00b4\u00eb\u012d\u012a": 6537, "\u0120hom": 6538, "\u00ed\u0138\u0129\u00ec\u0124\u00b4": 6539, "\u0120\u00ec\u0140\u012a\u00ec\u0138\u00b4\u00ec\u00a4\u013a": 6540, "\u00ed\u0128\u0142\u00eb\u00a6\u00ac": 6541, "\u00b8\u00eb\u00a5\u00b4": 6542, "find": 6543, "\u0120wat": 6544, "wish": 6545, "\u0120\u00ea\u00b1\u00b0\u00eb\u012d\u012a": 6546, "~~~": 6547, "\u00eb\u0124\u013a\u00ec\u00bf\u0142": 6548, "\u0120\u00ec\u0139\u0128\u00eb\u012d\u00a4\u00eb\u012c\u0136": 6549, "\u00ed\u013f\u0132\u00eb\u00a5\u00b4\u00eb\u012c\u0136": 6550, "\u0138\u012a": 6551, "\u00ec\u00a7\u0133\u00ec\u0139\u0132": 6552, "\u0137\u013e\u00ec\u0139\u0132": 6553, "\u00e7\u00b5": 6554, "\u0120disapp": 6555, "\u0120kinda": 6556, "\u0120sal": 6557, "huh": 6558, "\u00ea\u00b4\u013e\u00ec\u00b0\u00ae\u00ec\u0137\u0126": 6559, "sen": 6560, "\u0120emotion": 6561, "\u0120\u00eb\u00b0\u0141": 6562, "burn": 6563, "\u00ec\u013f\u00b4\u00eb\u012f\u013a": 6564, "\u0120\u00ec\u0137\u0140\u00ec\u013e\u00bc\u00eb\u00a1\u013e": 6565, "\u00ec\u013f\u00b4\u00ec\u00b8\u0142": 6566, "\u00e7\u0141": 6567, "\u0120--": 6568, "\u0120\u00eb\u0134\u00b7\u00eb\u00aa\u00a8\u00ec\u012c\u00b5": 6569, "\u0120\u00ec\u00b2\u00b4": 6570, "\u0120eng": 6571, "\u013b\u00eb": 6572, "\u0120chill": 6573, "\u00eb\u00b3\u00b4\u00eb\u00a9\u00b0": 6574, "\u0120\u00ed\u013a\u00bc": 6575, "\u0120letter": 6576, "\u0120\u00eb\u00af\u00bf\u00ec\u013f\u0126": 6577, "ony": 6578, "about": 6579, "\u0120\u00ec\u0137\u012a\u00ec\u0137\u0126\u00ec\u00a3\u00bc": 6580, "\u0120\u00eb\u00bf\u0132\u00ec\u013f\u00b4\u00ec\u0137\u00bc": 6581, "\u00ea\u00b9\u012c\u00ec\u013f\u0122": 6582, "\u0120ama": 6583, "\u0120\u00eb\u0138\u0142\u00eb\u0124\u00ac": 6584, "\u00ec\u012d\u013e\u00ec\u013f\u00b4": 6585, "\u00ec\u012d\u013e\u00ea\u00b0\u0126\u00ec\u013f\u0122": 6586, "\u00ec\u00a4\u0133\u00ec\u0139\u0132": 6587, "tention": 6588, "\u00eb\u00b9\u013b\u00ea\u00b8\u0122": 6589, "\u0120\u00eb\u00ac\u00b8\u00ec\u0142\u013e": 6590, "\u0120raise": 6591, "\u0120\u00ec\u0125\u013f\u00ea\u00b0\u0123\u00ec\u013f\u0126": 6592, "?\"": 6593, "\u00ec\u013a\u00b5\u00ec\u0128\u012e\u00ec\u0126\u013e": 6594, "\u00eb\u00a6\u00ac\u00eb\u012d\u00a4": 6595, "\u013d\u0126": 6596, "\u00ec\u0140\u00a5\u00ec\u013f\u00b4": 6597, "\u0120\u00eb\u00b3\u0126\u00ec\u013f\u00b4": 6598, "\u0120\u00eb\u0133\u013a\u00ec\u013f\u00b4\u00ec\u0126\u013e": 6599, "\u00eb\u012f\u0137": 6600, "\u0120\u00ea\u00bf\u012a\u00ea\u00be\u00b8": 6601, "\u0120thinkin": 6602, "\u0120rhyme": 6603, "\u0120\u00ec\u0142\u0122\u00eb\u0127\u0123": 6604, "neath": 6605, "\u0120sugar": 6606, "\u013a\u00eb\u012e\u0122\u00eb\u00a1\u013e": 6607, "\u0120cop": 6608,
[...]
