#version: 0.2
Ġ ì
Ġ ë
ì Ŀ
Ġ t
t h
ë Ĥ
o u
h e
i n
Ġ i
í ķ
Ġ ê
ì ķ
Ġ a
Ġ m
Ġ s
ì Ĺ
Ġ w
ë ĭ
a n
y o
y ou
ê °
ë §
o n
ì §
r e
ìĿ ´
Ġ you
Ġ b
ì ĸ
ë Ĭ
m e
Ġ í
Ġ l
e r
Ġt he
Ġ o
ì ŀ
Ġë Ĥ
i t
v e
n d
ê ³
ã ģ
ëĬ Ķ
Ŀ ´
Ġ d
ì ļ
Ġ h
Ġ c
t o
l l
Ġ f
ë ¦
ë Ħ
ë ı
ê ²
Ġ g
a t
in g
ë ŀ
ìĸ ´
ì§ Ģ
ì ĭ
s t
n g
ì Ĥ
ê° Ģ
e a
ìĹ Ĳ
íķ ĺ
ê ·
ì ł
ê³ ł
ìĿ Ħ
n o
ìķ Ħ
ì Ħ
ëĤ ĺ
o w
Ġ n
Ġt o
Ġì ķ
l i
o r
Ŀ ¼
ë¦ ¬
ëı Ħ
ì ĺ
ê ¸
ëĭ ¤
a r
Ġë §
¸ ë
l o
Ī ë
s e
e e
w a
Ġì ŀ
Ġt h
Ġm e
ë °
a l
i s
d o
l e
n e
ìĿ Ģ
ë ĵ
ë ª
ë ³
u r
k e
w h
ê² Į
b e
Ġì Ĥ
ìĿ ĺ
g o
íķ ´
ë Ŀ¼
e n
ë ©
Ġ p
Ġ r
ë ¥
Ġê ·
e t
m y
g h
a y
Ġi t
Ġê °
¬ ëŀ
ê ±
ë ¡
Ġë Ħ
u t
ì Ĩ
h o
u s
c a
h a
s o
íķ ľ
Ī ì
o t
Ġm y
e s
ìļ Ķ
Ġë ĭ
ĠëĤ ĺ
w e
ë į
Ġ on
Ġ in
ì ĥ
t i
h i
ķ ĺ
' t
ì £
v er
ĠëĤ ´
Ġì Ĺ
' s
Ġl o
ë¡ ľ
ìĦ ľ
an d
m a
ì Ī
ë ł
Ġb e
ì Ľ
Ġë ª
Ġ k
r i
¬ëŀ ĳ
Ġ he
ë§ Į
o m
ì ľ
Ġ no
Ġl i
Ġë °
gh t
a s
Ĥ ĺ
Ġ e
ã Ĥ
Ġa nd
Ġì Ŀ´
Ġ u
o f
l d
ì Ļ
b a
ë¥ ¼
f o
a i
ê¸ °
Į Ģ
Ġo f
c h
Ġ Ġ
ì Ĭ
c k
ë ¬
Ŀ ĺ
Ġìķ Ħ
u n
Ġì ĺ
ĸ ´
l a
ëĭ Ī
Ġyou r
ìĭ ľ
d e
ëĤ ´
s h
r o
ë ¶
ë ¹
ìķ ¼
w o
Ŀ Ħ
ê ¹
t e
§ Ģ
ì °
ë© ´
t a
Ŀ Ģ
Ġì ĭ
o o
y e
' m
Ġlo ve
ķ ľ
Ġw i
Ġ íķĺ
o h
b o
no w
ì ¹
Ġê ±
ĠìĤ ¬ëŀĳ
m i
Ġê· ¸
Ġth at
Ġë ³
o me
ë Ī
ëĵ ¤
Ġ (
ë ²
Ġê° Ģ
n a
ëĦ ¤
f e
ĠìĹ Ĩ
Ġìŀ Ī
n i
w i
g e
Ġì Ī
ë ĳ
Ġw e
s a
Ġb a
c e
k n
ìŀ Ĳ
s i
b u
ë ¯
ķ ´
ķ Ħ
ì ¤
Ĥ ´
ë Ł
ê µ
r y
u l
ì ²
Ġì ł
m o
. .
a m
i ght
ìĺ ¤
Ġf or
c o
b y
Ġê· ¸ë
Ġì ļ
Ġê ¸
Ġi s
Ġk now
Ġc an
ou t
Ġ j
d a
i r
u st
Ġì Ĩ
t r
Ġëĭ ¤
u p
ìĿ Į
ê¹ Į
e l
Ġë§ Ĳ
a ll
e d
ëł ¤
a d
Ġ re
Ġ y
Ġa ll
Ġg o
ë ħ
n t
th e
Ġw an
Ġëª ¨
a h
Ġê ³
Ġd o
Ġd on
ë ĸ
r a
Ġì £
ëŀ ĺ
ìľ ¼
d i
Ġì Ħ
â Ģ
k i
Ġê ²
ĺ ì
Ġu p
a ke
ë Ķ
° ë¦¬
g i
Ġë Ī
° Ģ
ìĭ ł
Ġë³ ´
ë§ Ī
Ġw h
Ġwi th
¤ ì
ĠìĪ ĺ
Ġì §Ģ
Ġì ĸ´
ì£ ¼
í ĸ
ê· ¸
ê· ¸ë
ķ Į
Ġli ke
ë Ĳ
· ¸
ĠëĤ ł
Ĺ Ĳ
Ġs t
ìł ľ
ë³ ´
í ŀ
ĠëĦ Ī
i f
Ġë ı
Ġì ĥ
Ġì£ ¼
ìĻ Ģ
ë ´
í ĺ
Ġs o
Ġt i
l y
Ģ Ļ
Ġë ¶
on e
âĢ Ļ
ì ¢
Ġ íķ
ìĥ ģ
í ĥ
he n
Ġì °
Īë ¬
ìĹ ¬
Ġê¸ °
Ġë° Ķ
' re
' r
Ġë ¹
Ġg ot
e ver
ê° Ħ
ëĤ ľ
¸ ì
ĭ ¤
ow n
Ġë§ Ī
Į ì
ëĬ ĺ
ou ld
Ġg et
p e
ë £
ar t
in d
Ġìķ Ĭ
v i
ëį °
ì ¶
f r
Ġj ust
Ģ ì
ê »
a v
ìĨ Į
ea h
ìĽ Į
f i
s u
' ll
' l
ee l
ìĿ ¼
í Ķ
Ġwh at
ë ķ
´ ì
Ġë ĵ
ê± °
ëį ĺ
Ġth is
Ġm o
Ġì Ļ
r u
Ġìĺ ¤
ìļ ´
on g
Ġë ¬
wa y
Ġh a
Ġs ee
b ut
Ġti me
Ġí ĸ
ë ģ
êµ ¬
Ġë ¯
Ġì ¢
ĺ ë
Ġo h
Ġ out
r ou
Ħ ì
ìĤ ¬ëŀĳ
i l
Ġë Ĳ
ìĿ ¸
Ĭ Ķ
n n
Ġë į
th ing
ë£ ¨
ëĳ Ĳ
Ġ íķľ
ë¦ °
ë¥ ´
Ġf eel
n s
a in
ëĦ Ī
Ġs h
Ġe ver
Ġba by
ĉ Ġ
s s
ĠëĤ ľ
ì§ Ħ
Ġw or
Ġê² ĥ
ea r
Ġë ĸ
ìļ °
i g
Ġì ľ
¼ ì
a k
Ġd own
íŀ Ī
ë© °
ì² ĺ
ģ Ħ
Ġ íķ´
f a
Ġë ²
ë¬ ´
p a
d y
ëĤ ł
Į ìķĦ
Ġê·¸ë ĮĢ
Ġì ĸ
ëĵ ł
Ġì Ľ
ìĹ Ī
ãģ Ħ
ìĤ ¬
¥ ¼
ł ì
o k
Ġno w
Ġìĭ ľ
Ġwan t
ê» ĺ
o l
Ġa l
ëĭ ĺ
Ġëª »
i v
th er
p l
ëª ¨
ķ ł
u se
ì ¡
¬ëŀ Į
ë ĺ
ë ¨
a w
íķ ł
Ġa re
Ġon e
ë Ĩ
Ĥ ľ
Ġê± °
i d
ìĦ ¸
ee p
Ġs ome
ì§Ģ ë§Į
i c
e p
d r
i m
i o
Ŀ ¸
í Ļ
Ġs ay
ìľ¼ ë¡ľ
Ġw as
ë§ Ĳ
n c
Ġë ĳ
Ġìķ Ī
a c
Ġë§ Į
t er
b l
ìĹĲ ìĦľ
ĠĠ ĠĠ
Ġê° Ļ
Ġë§Ī ìĿĮ
ìĨ į
c r
ê² ł
Ġw ay
ë ĮĢ
ë¦ Ħ
in e
ê¸ Ī
ëŁ ¼
Ġë ķĮ
í Į
Ġn ever
ir l
he re
ëŁ ¬
Ġl et
ee d
ê° ģ
Ġl a
e m
b r
ìĬ ¤
ìł ķ
Ġëĸ ł
í ħ
í Ĩ
ë¯ ¸
íĥ Ģ
Ġm ake
Ġìĭ ¶
Ģ ë
Ħ Ī
' ve
' v
Ļ ì
Ġìŀ Ĳ
Īë ¥¼
Ġwi ll
Ġì §
ë´ Ĳ
Ġê± ¸
Ġìľ Ħ
Ġëį Ķ
Ġc ome
Ġb o
Ġno t
Ġwan na
Ġìĥ Ŀ
¬ ì
Ġì¢ ĭ
Īë į
ìĪ ĺ
Ġë ©
ì¹ ĺ
¬ ë
í Ŀ
Ġy eah
ìĸ µ
a me
in k
ĠìĤ ¬
ĠìĤ ¬ëŀĮ
Ġd ay
Ġr o
Ġha ve
p i
ou r
í Ĥ
Īë¬ ´
ã ĥ
ĠìĤ ´
ë² Ħ
.. .
Ġba ck
¼ ë
ŀ ĺ
Ġh o
ãģ ª
ìł ¸
ĠìĹ ¬
Ġw hen
ca use
ģ ª
ãģ ¦
r om
e y
m u
ģ ¦
Ġn ight
ì²ĺ ëŁ¼
ĠìĨ į
¹ ìĭł
ë° Ķ
t u
b i
ĺ Ĳ
ê·¸ë ĮĢ
Ġhe art
ĠëĤĺ ë¥¼
ê³ ¼
ìĹ Ĩ
Ŀ Į
ĠìĦ ¸
ãģ ®
Ġa t
ĠëĤĺ ìĿĺ
Ġìļ °ë¦¬
ģ ®
Ġg irl
Ġg on
u m
ĠëĤ´ ê°Ģ
Ġn eed
Ġë ħ
ĠëĲ ĺ
Ġm an
ļ °
ã Ģ
ĳ ì
q u
Ġì ¶
ìĽ Ĳ
ee n
Īëį ĺ
´ ë
Ġì ¤
w hen
ë¶ Ģ
ê ¿
o i
ìĹĲ ê²Į
Ġever y
oo d
o p
Ġc h
ì¤ ĺ
Ķ ì
ĩ ê²Į
Ġt ake
ì§ ģ
e v
Ġëĵ ¤
íķĺ ëĬĶ
Ġthe re
a b
ĠìŀĪ ìĸ´
ķ ¨
Īë¬ ¼
Ġli fe
ìł Ģ
Ġt e
ìļ °ë¦¬
i e
ĠìĨ Į
Ġa n
i on
ĠìĹĨ ëĬĶ
Ġë Ĭ
ë Ŀ
ìĬ ´
p p
ê¸ ¸
ëħ ¸
ë³ µ
° ì
Ġë Ĩ
ĠëĦ Ĳ
Ġthe y
Ġa s
Ġìķ Į
Ġê³ ł
ĠëĤ ¨
¤ ë
Ġs he
d on
Ġf rom
Ġê ¿
ĠìĹĨ ìĸ´
íħ Į
r t
¡ ľ
Ġë§ ĺ
ê ´
ĠìĥĿ ê°ģ
ĭ Ī
Ġì ²
¨ ê»ĺ
Ġa way
Ġí Ŀ
Ġgon na
l u
íķĺ ê³ł
Ġì Ĭ
ãģ Ł
Ġr ight
ë¹ Ħ
Ĳ ì
ģ Ł
Ġg ood
Ġëĳ Ĳ
Ġë¶ Ģ
ìķ Ī
Ġì Ŀ¼
s p
Ġb ut
th at
Ġp l
Ġìŀ Ĭ
p r
e w
Ġë° ¤
ĥ ì
Ġë¯ ¸
Ġì ¹
³ Ĳ
Ġê ¹
t y
c i
Ĥ ł
Ġíķĺ ëĤĺ
ìļ ¸
ľ ì
ê± ¸
Ġë¬ ´
Ġi f
ëĤĺ ëĬĶ
ëĶ Ķ
ĠëĪ Ī
Ġc ould
Ġm a
Ħ ã
c l
í ģ
Ġë Ķ
f l
re am
° ëĿ¼
ìķ ĺ
íĨ ł
n l
ëĤ´ ê°Ģ
Ļ Ģ
ģ Ŀ
ìĬ µ
i ve
Ġhe r
Ġë ĺĲ
ar d
Ġë ¨
Ġmo re
t le
ìŀ Ī
ĠëĦ ¤
Ġc a
ìĥ Ŀ
ëŀ Ģ
Ġìĺ ģ
Ġí ĥ
rou nd
bo dy
Ġ v
ĠëĦ Īë¥¼
íĤ ¤
ì£ ł
ìł ł
ìŀ ¥
f u
Ġhe re
Ġë¹ Ħ
Ģ Ģ
b out
ãĢ Ģ
ing s
Ġìł ķ
ĠìĨ Ĳ
Ġëħ ¸
al k
íĸ Ī
Ġth ink
p o
Ġw on
ģ «
ãģ «
Ġë ´
Ġb een
at e
¸ ìłľ
µ í
ĠëĦ Īë¬´
ĭ ã
ĠëĤ´ ê²Į
ê² ¨
Ġíķ ł
Ġê¿ Ī
ģ ì
Ġê¸ ¸
Ġwor ld
ë¥ ¸
Ġs to
ur n
ª ã
½ Ķ
Ġìļ °
Ġëĭ¤ ìĭľ
¨ ì
ĠëĤĺ ëĬĶ
y es
Į ë
g r
Ġa g
ëŀ Į
ê¹Į ì§Ģ
Ġí ĺ
g a
ĠìŀĪ ëĬĶ
ĠìĽ ĥ
íķĺ ê²Į
Ġw ho
Ġíķ ¨ê»ĺ
ì° ¨
wh at
ë Ń
Ġf a
§ Į
Ġd e
ai d
§ Ī
Ġëı ĮìķĦ
ĠëĪ Īë¬¼
Ġte ll
Ġb y
ĠëĦĪ ìĿĺ
d s
Ġëĭ ¬
le t
¦ ¬
Ġê µ
i ll
ľ ë
y i
p u
ê ¾
ãĤ ĭ
Ġlo ok
ê ½
Ġìł Ħ
ê² ĥ
ve n
ĠìĦ¸ ìĥģ
ı Ħ
s he
ë ľ
Ġw a
ì¹ ´
Ġag ain
ou nd
d ay
y t
ìł Ħ
ëĭ¤ ë©´
ë Į
Ġa in
Ġì° ¾
ģ ¨
Ġa bout
Ġëĸł ëĤĺ
ìĹ Ķ
Ġh ow
an g
u g
ĵ ã
ī ë³µ
j ust
Ġg ive
Ħ í
y a
ĳ í
s l
an ce
i de
ì¤ Ħ
a p
- -
ĠìĦ ľ
íķĺ ì§Ģ
Ġê°Ģ ìĬ´
ëĭ¤ ê³ł
Ġê± ´
ëį Ķ
r s
ê° Ļ
í Ĺ
³ ł
ìĭ ¬
Ġìļ ¸
y eah
£ ã
Ġ '
ê± ´
Ġb re
u e
ê ¼
Ġìĭľ ê°Ħ
Ġìł Ģ
ãģ Ĺ
Ġì ¡
í Ľ
ëĭĪ ëĭ¤
Ġk eep
ģ Ĺ
íĻ Ķ
rou gh
it tle
ìŀ ĸ
Ġto o
Ġí Ĺ
ìĿ´ ëĿ¼
Ġëª¨ ëĵł
ëĬĶ ëį°
ìĭ ¤
Į ã
h u
Ġon ly
Ġê·¸ ë¦¬
s w
íĮ Į
Īì ĻĢ
Ġëĭ Ī
Ġ ĉ
Ġ qu
ģ ĭ
e c
Ġë§ İ
ë ¿
Ġê° Ĳ
o v
Ġì Ŀ¸
Ġì¢ĭ ìķĦ
ãĤ Ĥ
í Ħ
is s
ë¡ Ŀ
Ġl ea
Ġo ver
Ġd ream
ë ĥ
¿ ł
ti ll
er s
ìŀĸ ìķĦ
ë¦ ´
Ġm ind
o s
Ġìŀ ĺ
u ck
Ħ ë
Ġí ŀĺ
ìĿ´ ìłľ
ãģ ĭ
Ġëĭ ¹ìĭł
Ġ us
ì§ Ī
Ġìĭ¶ ìĸ´
Ġa m
ìĺ¤ ëĬĺ
ëĭ ¨
re d
re e
s c
Ġf all
Ġë² Ħ
ë¬ ¼
ë³ Ħ
Ġl ittle
u h
Ġëª¨ ìĬµ
ĠëĪ Ħ
Ġë°Ķ ëĿ¼
ãģ £
ìĿ´ ìķ¼
Ġe yes
Ġ our
ģ £
ì ¼
Ġb et
Ġc om
ëł ĩê²Į
Ġëª¨ ëĳĲ
way s
Ġ -
ëı Ļ
ëł Ī
ĠìķĬ ìķĦ
ever y
o d
Ĺ ¬
Ł ¬
Ġëħ¸ ëŀĺ
ìľ ł
ĠìĪ ľ
Ĺ ã
ê°Ģ ëĬĶ
v ing
í ı
Ġth rough
Ġê¸° ìĸµ
se d
ł ë
² Į
Ī ĺ
f or
Ġh and
ê° ľ
g u
Ġl ong
Ł ã
Ġt ry
Ġr un
Ġli ght
¼ ìŀĲ
µ ì
ì ī
the re
so me
Ġë ģĿ
ba by
ìĦ ł
ëª ħ
¿ ½
all y
l ow
ëĬ Ĳ
Ġa round
° ë
Ġw here
ãĤ ī
Ġc all
e nd
c ome
h y
an ge
nd er
Ġs ha
Ġw ould
ï ¿½
ï ¿
Ġo r
ë Ĵ
Ġf o
on ight
Īì Īĺ
Ġs till
ĠëĬ Ĳ
ë² Ī
Ġë ĮĢ
m m
ģ Į
r ow
ëĤĺ ìĿĺ
Ġíĸ īë³µ
ì ±
Ġìĸ ¼
ãĤ Į
ĠìĽ Ĳ
ee t
ìĸ ĳ
Ĭ ĺ
ãģ ¨
n ing
ë¦¬ ëĬĶ
Ġc o
ãģ Ĩ
ìĽ Ģ
t w
Ĥ ã
g et
ou gh
Ġë Ń
ģ Ĩ
ëŀ Ħ
Ġê¸° ëĭ¤
ìĤ ´
ëĭĪ ê¹Į
ì ĵ
se l
Ġë¯ ¿
ìĸ´ ìļĶ
ëŁ °
th is
Ġs u
ì§Ģ ëĬĶ
wi th
ë§ ¤
ri ght
ëŀ ĳ
t s
ķ ¼
ìĺ ¨
Ġìŀ ¡
Ġf ind
Ġh ome
Ġs p
w here
Ġc on
Ġl e
' d
Ġí Į
ëĵ ľ
Ġí Ķ
ìŀ ĳ
ê±° ìķ¼
c an
Ķ ë
b le
m s
Ġs aid
íĦ °
Ġê ½
Ġan y
ãģ ı
ëĵ¤ ìĿ´
ãĤ Ĵ
ģ ı
ë° ¤
ëĭ ¹ìĭł
ë¦¬ ê³ł
¬ íĶ
Ġê ´
ģ ¯
Ġë´ Ĳ
Ġí Ľ
Ġì¶ Ķ
li e
ĠìĤ¬ëŀĳ íķ´
Ġê³ ³
Ġal ways
Ġy a
Ġíĸ ¥
ëĭ¤ ìĭľ
ì¡ °
ĠìľĦ íķ´
ĠìĻ ľ
ľ êµ¬
Ġho ld
Ġì¡ °
ì Ķ
Ġwa it
ãģ §
ìĹĨ ìĿ´
Ġh ad
l s
Ġd id
w r
ģ §
b er
ãģ ¯
ìľ Ħ
ëĦ Ĳ
Ġwe re
Ġíķĺ ëĬĺ
Ġêµ ¬
ì ½
Ġm u
Ġí Ŀĺ
Ġì¤ Ħ
Ġh i
Ġìķ ŀ
Ġbo y
c u
Ġê°Ļ ìĿĢ
¸ë ¡ľ
êµ ´
Ġli ve
ĠìĿ´ ìłľ
sel f
si de
Ġ en
Ġìŀ ł
s k
ìĨĮ ë¦¬
Ġwh y
¬ ê
ëĤĺ ìļĶ
ĠëĦ Į
ëĤĺ ë¥¼
ŀ Ĳ
ë¬ ¸
the y
ì ¦
ãģ Į
ĠíĶ ¼
ĠìĤ´ ìķĦ
Ġd i
ë¶ Ħ
or us
Ł °
at ion
ë§ Ŀ
Ġt onight
ëĪ Ħ
e i
ìķĦ ë¬´
ģ ł
Ġí Ļ
Ġs tr
ĠĠĠĠ ĠĠĠĠ
ìĤ °
Ġpl ay
ìĥ Ī
ëĵ¤ ìĸ´
ëĿ¼ ëĿ¼
c t
fo re
¦ ã
ad y
ĠìķĦ íĶ
Ġëª¨ ë¥´
Ġë¬ ¼
ê¾ ¸
Ġthe m
ĠìĨį ìĹĲ
íĸ Īëįĺ
ĺ í
¨ ë
Ŀ ì
h ow
Ġt ru
one y
n k
Ġh is
Ġst ar
ëĦĪ ìĿĺ
Ġsto p
ë³´ ëĭ¤
ri end
it e
i k
ģ ĵ
Ħ Ĳ
ê° Ī
Ġbet ter
Ġof f
ea se
ĉ ĠĠ
ìĹ °
Ġs un
ĺ ¤
ou s
Ġs w
Ī ã
ŀ Ħ
Īë Ŀ¼
e x
ĵ ¤
s m
lie ve
at ch
Ġth an
ë©´ ìĦľ
Ġê±° ìķ¼
en t
ł ĩê²Į
ï¿½ ï¿½
te d
f t
½ ï
Ġë¹ Ľ
w n
Ġë© Ģ
Ġn ew
ë° ľ
ë¹ ł
Ġhe ar
ìĨĮ ìĦľ
Ġ 1
ë ķĮ
¸ìłľ ëĤĺ
Ġst ay
d u
Ġí Ĵ
ì§Ģ ë§Ī
Ĭ ì
ìĦ¸ ìĥģ
ti me
Ġê³ ģ
ìĺ ģ
Ġë³´ ê³ł
Ġìĺ¤ ëĬĺ
ê·¸ ëŀĺ
ĠìķĦ ëĭ
ëĪ Ī
lo ve
Ġì ±
ìĦ ±
is h
Ġìĸ´ ëĸ
Ġì§Ģ ê¸Ī
¸ë ł
Ġì°¾ ìķĦ
ìł ģ
he y
Ĳ ë
ch orus
º ¼
Ġc lo
c he
ĥ ¥
í Ĵ
Ġë¶ Ī
Ġg one
Ġìĥ ģ
Īì £
u i
ëĭ ¬
ļ Į
ãģ ł
Ġth ings
d er
Ġgot ta
Ġìŀ ħ
ëĲ ĺ
Ġe nd
r l
Ġbe lieve
Ġre ally
ãģ ĵ
Ġn a
Ġp re
Ġs k
Ġê°Ļ ìķĦ
a f
Ġs i
Ġsh ould
ľ ¼
Ġc ry
' '
Ġë Ĵ
Ġno thing
Ġë ľ
Ġmu ch
Ġí ı
Ġsh ow
ì§Ģ ê¸Ī
í İ
ìĿĦ ê¹Į
í ĳ
t ing
h h
li ke
n y
íķĺ ëĤĺ
ìĨį ìĹĲ
Ġw r
ãģ ¾
Ġm i
ëĭ¤ ëĬĶ
ê¸ ´
ãģª ãģĦ
Ġìĸ´ ëĶĶ
Ġê½ ĥ
it y
es s
ģ ¾
Ġì§Ģ ëĤĺ
ķ ì
Ġlea ve
Ġì£¼ ëĭĺ
ëĥ Ĳ
ëĦ Į
ëĤĺ ìĿ´
Ġhe ad
ä ¸
Ġë° Ľ
íĺ Ģ
Ĳ í
Ġê² Į
Ġbre ak
Ġë°Ķ ëŀĮ
Ġìłķ ë§Ĳ
ëĤ ¨
ë© Ķ
ĠìĪ ¨
ĠìĹĨ ìĿ´
¸ë į
ë²Ħ ë¦°
ì§ Ŀ
Ġh ard
ê· ¼
Ġin to
Ġp la
ìĦ¸ ìļĶ
ª ¨
Ġë¶ Īë
Ġal one
ke d
ëĿ¼ ê³ł
ì ´
Ġëı Ħ
Ġf riend
Ġb r
Ġhi gh
¬ í
Ġì ī
Ī í
Ġf i
Ġëª ©
Ħ Į
Ġí ģ
Ġth ing
Ġg u
ar k
Ġn ig
ear s
Ġ 2
ë§ ī
o b
ëĦ Īë¥¼
Ġì§ Ħ
ëĺ Ĳ
Ġthe n
Ġë° ĺ
Ġê ¼
ëĵ Ŀ
ĠìķĦ ëĭĪ
Ġt alk
u d
Ġw alk
ãĤ Ĭ
Ġìĺģ ìĽĲ
ou ght
Ľ ã
an t
§ Ħ
ëĭ µ
ëĮĢ ë¡ľ
ĠìĤ¬ëŀĳ ìĿĦ
Ġëĵ¤ ìĸ´
Īì ľ¼
Ġì° ¸
Ġëı ¼
ĠìķĦ ë¬´
ı ã
¥ í
Ġro ck
Ġd a
íĺ ¸
Ġs ing
Ġb it
ķ Ń
ê²ł ì§Ģ
Ĩ ã
ìĨ Ĳ
Ġí İ
Ġë³ Ģ
Ġs ong
Ġê° Ħ
ë¦Ħ ëĭ¤
Ġ ver
ĠìĪľ ê°Ħ
Ġs ou
Ġì ĵ
Ġt urn
ĠìĻ Ģ
Ġc ra
¤ í
ëĭ¤ ê°Ģ
ìĺ ¬
Ġì° ¨
ĠìĹ ´
ë¹ Ľ
ìĿ´ ìłł
Ġìł ľ
¸ ł
ëł ¸
íķ ¨
íĶ ¼
Īì ¹
ìł Ī
= =
Ġëª °ëĿ¼
ĠìĤ¬ëŀĳ ìĿ´
~ ~
ëı ĮìķĦ
ãģ ĳ
ĠëĶ °
Ġf uck
Ġevery thing
ìķĦ ìļĶ
p s
Ġu n
ģ ĳ
ì° ®
íķ´ ìļĶ
Ġë ¿
Ġíĥ Ģ
ł Ģ
fe at
Ġíĸ Ī
Ġre al
Ġì¶Ķ ìĸµ
z y
ì§ ĵ
Ġíķĺ ëĬĶ
ãģ į
Ġë§Į ëĤĺ
ì¤ ĳ
ĠìĨĮ ë¦¬
i se
ģ į
ì¹ ľ
Ġu nder
ë¨ ¸
ĠìĬ ¬íĶ
ëĦ Īë¬´
ì¶ Ķ
ì ³Ĳ
Ġsome thing
ìĽ Ķ
wh o
Ġh im
we ll
Ġ ea
Ġp a
ĠíĹ ¤
ê³ Ħ
ëª »
Ġíķĺ ë£¨
ìĹĪ ìĸ´
Ġca re
g l
Ġë³ Ħ
Ġf ree
you r
Ġì± Ħ
ļ ´
Ġë§ ¤
j o
ì ¿ł
ìĹ Īëįĺ
us ic
Ġìĭ «
Ġs ho
Ħ ¤
ëĿ¼ ëıĦ
st er
íķ ©
o c
Ġê³ Ħ
Ġë ķ
Ģ í
Ġìĺ ¬
Ĩ ì
ĠìĿ´ ëłĩê²Į
Ġì° ¬
Ġfa ce
Ġë³ ¼
Ġn ame
Ġc hi
Īì ¶
Ġ ã
ģ ľ
Ġgo ing
ãĤ Ī
ìĺ Ģ
ì ©
ìŀ ¡
ë¦¬ ëĿ¼
ãĤ ĵ
ĠëŃ Ĳ
Ġp art
ĳ ã
Ġëĳ ĺ
ë§Ī ìĿĮ
Ġb ro
Ġb la
Ġëı Ļ
ĠìĿ´ ë¦Ħ
Į í
go t
§ Ĳ
ëĵ¤ ìĿĢ
Ġch ange
ëĵ ¯
Ġë² Ī
Ġp ut
Ġë° ľ
Ġìĺ ¨
Ġìŀ ĳ
op le
Ĭ ã
ŀ ĳ
Ġìĸ¼ êµ´
Ġd ance
ģ Ī
Ġr ain
íķĺ ëĬĺ
ë°Ķ ëŀĮ
Ġc he
ľ ì°®
Ġst and
ta ke
° ê
ë§ Īë
êµ Ń
í Ĭ
ne d
Ġe x
ti on
Ġê° Ī
Ń ìĥģ
Ġëĭ¤ ê°Ģ
ì ħ
ê¸° ìĹĲ
Ġs c
Ġì¹ ľêµ¬
Ġíĺ ¼ìŀĲ
ê½ ĥ
Ġha pp
ĠìĤ ¶
ê¸° ë¥¼
wh y
íķ´ ëıĦ
į ì
Ġb ea
u ll
o se
Ġma de
å Ĳ
¤ ê
z e
Ġc l
Ġp e
Ġ vi
ĠìĹ¬ ìŀĲ
ì£¼ ëĭĺ
ģ ĺ
Ġìĭ ł
ī ã
į ã
ķ Ī
ì² ľ
ìĻ ľ
ħ Ģ
ëıĦ ë¡Ŀ
Ġê°Ģ ëĬĶ
ê° Ĳ
Ġë§ ŀ
ĠíĿĺ ëŁ¬
Ġfo re
ê°Ļ ìĿĢ
Ġhe y
ë¶Ģ íĦ°
¾ ã
ëª¨ ëĳĲ
Ġm ine
ê² Ĳ
Ķ í
ìľ¼ ë©´
oo l
ĠëĭĪ ê°Ģ
ĠìĦ ł
ĠëĨ ĵ
Ġba d
ì¹ ¨
te ll
ĠëĴ ¤
ĠëĶ °ëĿ¼
ãģ Ĥ
Ġm usic
Ġpla ce
ģ Ĥ
Ġt ra
ëĤ´ ê²Į
a ve
s y
íģ ¼
Ġíĥ ľ
Ġla st
¼ í
ł ã
Ġd ea
å ¤
a g
Ġin side
Ġa r
m p
m or
Ġsh it
le s
Ġì¢ Ģ
ĠíĿ Ĳ
ëĶ °
m ber
Ġbe fore
ĠëĦ ĺ
ìĸ´ ëĤĺ
Ģ ê
as s
i a
Ġp r
ĠìķĦ ì§ģ
ãģ Ī
Ġìķ Īë
ĠìĬ ¤
Ġfi re
Ġ yo
Ġí Ĩ
ĠíĿ Ķ
Ġìķ ĮìķĦ
į ¨
Ġf ly
ri st
Ġë Ŀ¼
Ġìĺ ĪìĪĺ
Ġfeel ing
Ġê³ģ ìĹĲ
ë° ©
oo h
¨ ã
ł ê
ìŀ Ĭ
ĠëĦ ĪìĻĢ
Ġb lu
« ã
Ġs ame
r d
le ss
ìķĦ ì§ģ
ìĸ´ ëıĦ
Ġle ft
ãģ£ ãģ¦
Ġa no
Ġthe se
¥ ì
Ļ ľ
Ĳ ê
Īë ¹
el y
ìĺ Ī
ì »
ge ther
íķĺ ì§Ģë§Į
Ġê¹ Ĭ
ëħ Ħ
ê²ł ìĸ´
Ġì² ĺ
ĠëĨ Ģ
Ġë° ©
ne ver
Ġëª ¸
Ŀ ã
Ġe ven
Ġc ar
Ġo ld
Ġê°Ģ ëĵĿ
íĺ ¼
ìĻ Ķ
ê² °
Ġsou l
me r
Ġwr ong
Ġp ain
ëĭĪ ê°Ģ
r n
Ġí ĳ
Ġm ay
ë° ±
Ġ "
ìĭ Ŀ
Ġsk y
Ġano ther
Ġt ri
ãģ ¤
ë ļ
k ing
v in
ë¥´ ëĬĶ
ìĿ´ ëĬĶ
® ã
Ġp ro
ģ ¤
Ġíķĺ ê³ł
ķ ã
ìĤ ¬ëŀĮ
h t
ãģ Ŀ
ëĦ ĪìĻĢ
ìĸ ¼
Ġth ought
u c
ê³ ³
Ġs l
u re
½ ì
ìĹĨ ëĬĶ
Ġh as
Ġfore ver
Ġmo ve
ì¼ ľ
į ¼
Ġs ide
Ġtru e
i ck
ë¶ Ī
ĠìķĬ ëĬĶ
or d
ìĸ´ ëĸ
íĸ ¥
ìĭľ ê°Ħ
ĠëĲ ł
Ġme an
Ġm oney
Ġìķ ½
Ġê¹ ¨
Ġwith out
Ġd ie
Ġst re
Ġëı Į
ìĪ ł
ħ ì
ìĪ ¨
Ġm iss
Ġìĸ ĺ
ll ow
Ġst art
Ġìĥ Ī
Ġo ther
Ġë¹ ł
ti l
Ġê·¸ë Ł°
Ġhand s
© ´
êµ¬ ëĤĺ
Ġìķ ł
Ġpe ople
Į Ī
Ġlo st
ìĦ ¤
Ġb l
ìŀ Ķ
Ġë°ĶëĿ¼ ë³´
» ê²Į
ì ½Ķ
Ġë§Ĳ íķ´
Ġo wn
¸ ê
Ġëª °
-- --
me mber
Ġì£ ½
Ġf ar
Ġì ĿĮ
ëģ ¼
£ ¨
Ġëĭ¤ ë¥¸
ê¿ Ī
ĠëĤ¨ ìŀĲ
Ġnig ga
Ġmy self
r r
ê°Ģ ìĬ´
íķĺ ë£¨
Ġëĵ ¯
Ġh ur
Ġ q
ĠìĿ´ ë³Ħ
Ġgo d
Ġs mi
ë »
Ġë§ĪìĿĮ ìĿĦ
Ġìĭ¶ ìĿĢ
Ġbe at
Ġbo dy
íķĺ ë©°
Ġê·¸ ëŀĺ
ou ch
um p
Ħ ìļĶ
íķĺ ìĹ¬
ĵ ł
li ght
Ġë¨ ¹
ë¦Ħëĭ¤ ìļ´
Ġë¨ ¸
Ġe l
Ĺ Ī
ìł Ĳ
Ġg re
Ġto gether
Ġê±¸ ìĸ´
Ġë¿ Ĳ
Ĥ ¤
į Ķ
ëı ¼
ì¤ Ģ
ë° °
Ġc ha
ëĪ Īë¬¼
ĠìĿ´ ìłł
Ġt wo
li ve
Ġì§ ĳ
ì§Ģ ëıĦ
êµ °
Ġs e
Ġw ish
th en
Ġm or
Ġë¯¸ ìĨĮ
Ġro ll
ì§Ģ ê³ł
ìĿ´ ëłĩê²Į
Ġen ough
Ġìĭľ ìŀĳ
Ġl on
Ġë© Īì¶
ë§Į ìĿĦ
ĠìĨĲ ìĿĦ
ëĵ¤ ìĿĦ
ê» ´
Ġë§İ ìĿĢ
° Ķ
l p
Ġê·¸ë łĩê²Į
Ġë³´ ìĹ¬
Ġk iss
Ġ .
ëĤĺ ëĤĺ
Ġëĸ ¨
Ġf un
Ħ ê
ģ ķ
Ġcra zy
Ġr i
ëĦ¤ ìļĶ
£ ¼
ĠìĹ °
íĸ ī
ìŀĪ ëĬĶ
ë³ ¼
ê¸ Ģ
Ġw hi
ĠìĻ Ķ
ëª¨ ëĵł
ĠíĮ Į
ĠëĨ Ĵ
st and
ĠëĦ¤ ê°Ģ
ne w
ìļ ©
ê°Ļ ìĿ´
Ġu h
ìķ ħ
ģ ã
ë§ Īì
Ġb ig
ì§ ĳ
Ġë¶Īë Ł¬
Ġqu e
Ġì ¦
n u
l ing
Ġíķ´ ëıĦ
ĠìĿ¸ ìĥĿ
ĠëĲĺ ìĸ´
ëģ Ŀ
ëĤ ¬
c om
íĽ Ħ
Ġday s
ĠëĪĪ ìĿĦ
Ġìĥ Īë
Ġo oh
u b
Ħ ľ
ë§Ī ëĭ¤
Ġê· Ģ
if ul
a u
Ġê° ķ
Ġëĭ ´
Ġê± ·
Ġa h
ìķ ½
ë§ İ
ë¦ ¼
ìĭ ¶
Ġê´ ľì°®
ëĸ ł
Ġê°Ļ ìĿ´
Ġì¢ĭ ìĿĢ
Ġë³´ ëĤ´
Ġd r
re s
ma s
an c
Ġbea ut
ìķ ł
Ġëĵ ľ
ä º
ke n
Ġìľ ł
ë¿ Ĳ
si on
ĠìĤ¬ëŀĳ íķľ
Ġf ight
íĿ ¬
ìŀ ł
ëĤĺ ëıĦ
í ĭ
ãģ ķ
Īì£ ł
Ġìķŀ ìĹĲ
íķĺ ë©´
© ì
ìĹ ĩ
ìŀ Ħ
ne ss
Ġëĭ ¨
íĹ ¤
Ġëľ ¨
Ġd es
ĠëĦĪ ëĬĶ
Ġíķ ĦìļĶ
ìĸ ¸ìłľëĤĺ
Ġal right
ì§ ľ
ê º¼
ĠìŀĪ ìĿĦ
Ġì Ŀĺ
ëĦ¤ ê°Ģ
Ġm at
Ġ x
ĠìĹ¬ ê¸°
gi ve
Ġch rist
ĠëĬ ĺ
Ġd ark
in s
st e
ìĿ´ ëŀĢ
ĠìĤ °
b ye
g irl
Ġp o
ĠíķĺëĤĺ ëĭĺ
w or
ëĭ ¹
Ġê¸¸ ìĿĦ
Ġw ind
Ġìŀ ¥
Ġdon e
ĠìķĦëĭ Į
ìĹĪ ì§Ģ
ìĸ´ ìł¸
ir st
ĠëķĮ ë¬¸
Ħ ë§Ī
ìĿ´ ì§Ģ
st en
Ġëĭ¬ ëł¤
us h
ì§Ģ ë§ī
í Ī
ì¢ ĭ
ķ í
Ġíķľ ë²Ī
ķ ë
Ġd is
ī ì
ëĦĪ ëĬĶ
íĨ µ
ĠëĤł ìķĦ
ĭ ĺ
Ġr a
Ġsw eet
ë Ľ
Ġw ar
Ġbe st
Ġcom ing
ĠëĬĲ ëĤ
Ġa ng
ĭ ľ
Ġp er
j a
¼ Ģ
ìĽ ĥ
Ġsl eep
ĠëĤĺ ëıĦ
Ħ ¸
íķ© ëĭĪëĭ¤
Ġìŀ ĥ
Ġë©Ģ ë¦¬
ĭ ¬
e h
lo ok
Ġê·¸ë ĥ¥
¸ í
or n
ëı Į
Ġd ri
Ġwon der
ìĺ¤ ëĬĶ
Ġa f
Ġì ½Ķ
Ħí ļĮ
İ ì
Ġíķĺ ì§Ģ
Ġg ame
Ġìł ģ
t in
ìŀ ĺ
¤ ã
Ġ &
Ġbre a
ìĹĲ ëĬĶ
Īì¹ ĺ
¶ Ģ
Ġìŀĳ ìĿĢ
´ ê
ê² ½
s ing
ëŀĦ ëĿ¼
³ ì
ĠëĦĪ ìĹĲê²Į
Ġblu e
ĠìĪĺ ê°Ģ
Ġb urn
Ġë¨ ¼
Ġt ouch
° í
Ġí ħ
ĠìĦ ±
at er
ëĬĶ ì§Ģ
ìĺģ ìĽĲ
Ġh ot
º ã
ê° ķ
Ġthe ir
ê°Ģ ìļĶ
ì° ¸
ìĹĲ ëıĦ
c y
ĠìĻ ¸ë¡ľ
lu b
Ġho pe
o y
Ġhe ll
p er
Ġë¶Ģ ë¥´
ê³ µ
ĠìĤ¬ ëĿ¼
Ġpl ease
Ġm ight
Īë ĮĢ
¸ëį °
Ġì°¬ ìĸĳ
ģ í
Ġdo or
Ġìĭ ¬
ìĸ´ ìĦľ
ë° ĺ
Ġk ill
Ġ ye
íķĺ ìĭł
¨ ê
Ġsmi le
ĠìķĦ íĮĮ
Ġc ame
Ġf ound
Ġì² ľ
ìķ Į
§ Ŀ
Ġdream s
Ġb lo
Ġë§Ĳ ìĿĦ
ìĽ ł
Ġwor k
ĠìŀĲ ê¾¸
ĠìķĮ ê³ł
ì ¿
no t
ĠìĿ´ ìĥģ
ìĸ ¸
Ġê± °ë¦¬
Ġê¿Ī ìĿĦ
Ġíķ Ńìĥģ
Ġw atch
Ġs ound
Ġë§ĺ ìĿĦ
ĠìķĬ ìĿĦ
ģ Ļ
Ġclo se
Ġco ld
ĠëĪĦ êµ¬
íĥ ľ
Ġre member
ãĤ ģ
ê·¸ ë¦¬
ìļ° ë¦°
a a
Ġt r
Īë¹ Ľ
Ġí Ĥ¤
s n
± ìłķ
m an
ì¼ Ģ
Ġbr ing
v a
¹ ì
Ġgo es
Ŀ í
ëĲ ľ
ë§¤ ìĿ¼
Ġwait ing
ãģ Ļ
Ķ ©
Ķ Ķ
ĠìĦ ¤
Ġìĸ ¸ìłľëĤĺ
Ĥ ¨
.. ..
mo re
Ġê¼ Ń
Ġlon ely
ìĪ ľ
ë³´ ê³ł
Ġwor ds
Ġbe g
Ġh it
ak ing
ìĸ´ ì§Ģ
Ġre ady
Ġm ust
Ġg r
íķ´ ìĦľ
ê´ ĳ
Ġê·¸ë¦¬ ìĽĮ
ì¹ ł
ĠëĪĪë¬¼ ìĿ´
· ¨
ìķĦ ì£¼
ëª ©
ê± °ë¦¬
ê´ Ģ
¥ ¸
ĠíĴ Ī
fr om
Ġf lo
Ġr ide
ĠíĽ Ħ
Ġcome s
ëĿ ½
ĺ ģ
ì£¼ ìĿĺ
ìľ¼ ë©°
ï ¼
Ġsome one
Ġs te
Ġë°Ķ ë³´
Ġíİ ¸
i es
ģ ©
a re
ma ke
Ġyou ng
ãģ ©
n ce
íŀ ĺ
ìĨ ¡
ìŀ ħ
Ġë° °
ê²ĥ ëıĦ
a ven
Ġê¸° ì
se s
ìĥ ī
Ġì ´
Ġto ld
Ġli e
ë§ ĺ
ê°Ģ ê³ł
ìĿ´ìłľ ëĬĶ
Ġpart y
ĠìķĦ ìĿ´
Ġì¹ ĺ
Ġë§ ī
¸ °
Ġhapp y
Ġì£¼ ìĿĺ
ai r
de d
ĠëĤĺ ìĻĢ
ê¹ ¨
Ġë§Ĳ ê³ł
an s
Ġhe lp
s ay
Ġbeaut iful
t ro
Ġíģ ¬
ä »
ĠìĺģìĽĲ íŀĪ
Ġstre et
ìķ Ĭ
Ġìĸĺ ê¸°
m ay
ê·¸ë Ł°
Ġmat ter
ê·¸ë łĩê²Į
½ ¤
Ġu sed
Ġì »
ìĭľ ëĦ¤
Ġchrist mas
ĠìķĪ ìĹĲ
Ġca use
Ġs ur
Ġë Ľ
Ġê³ µ
ĠìŀĪ ëĭ¤ë©´
ëĨ ĵ
íķ ¨ê»ĺ
Ġtime s
ëŀ Ĳ
Ġì¤ Ģ
ĠìĤ¬ëŀĳ ìĿĢ
ìĸ´ ëĶĶ
Ġk new
æ ľ
f f
Ġp ar
Ġdo es
Ġìļ° ë¦°
Ġmor ning
Ġd eep
íķĺ ëĦ¤
Ġìī ¬
t t
u z
Ġmo on
ħ ķ
ì² ´
p en
ìĭľ ê³ł
j u
Ġë§İ ìĿ´
ë§Ī ëĤĺ
Ġì¤ ĳ
Ġ z
° Ħ
ł Ī
ĠìĦľ ë¡ľ
ë¯ ¼
Ġlo se
ìķ ŀ
Ġì§Ģ ì¼ľ
Ġdid n
ĠìľĦ ë¡ľ
ì¤ĺ ìļĶ
ĭ ì
Ġs pe
ìĸ Ģ
ëł ¥
ìķĺ ìĸ´
ĠëĤ´ ëł¤
§ ģ
Ġë° Ŀ
f eel
Ġm ar
Ġê°ĢìĬ´ ìĹĲ
ëĳ ĺ
Ġ â
ĸ ìĹĲ
ĠìŀĬ ìĸ´
íĬ ¸
v o
Ġs ea
åĲ Ľ
Ġì ĿĢ
Ġwe ll
Ġc ou
Ġf irst
Ġíı ī
ľ ê
j e
Ġlook ing
Ġman y
Ġë¶ Ļ
Ġìķ ¼
ĉĠĠ Ġ
he r
ìĸ´ ì§Ħ
ìĦ Ŀ
¯ ã
Ġw ings
ìĺ¤ëĬĺ ëıĦ
f ul
Ġbla ck
Ġì¦ Ĳ
ìł ¸ë
ĠëĤ¨ ìķĦ
om an
Ġìĵ °
h r
Ġfriend s
pe at
fu ck
ea k
ì¢ ħ
e o
as h
ë§Į ìĿĺ
Ġs or
íĸĪ ìĸ´
ĩ ê
Ġëª» íķ´
time s
ëħ Ģ
ĠëĤĺ ìĹĲê²Į
e g
Ġê²ĥ ìĿ´
Ġë¬ »
ķ ©
ìĸ´ ëĬĲ
ĠëĽ °
ë¡ ł
ãģĹ ãģ¦
æ Ĺ
Ġìķ½ ìĨį
ì© Į
Ġs low
½ ê²Į
ìłķ ë§Ĳ
¤ ìĿĦ
ìĿ´ ëŁ°
ê°Ģ ìĹĲ
Ĭ ¤
ĠìĿ´ ëŁ°
ĠìĤ¬ ìĿ´
³ ¼
t en
ãĤ ı
ëĳ ł
every body
Ġyour self
! !
ìĿ´ ëĤĺ
ëĵ¤ ìĿĺ
p le
Ġìĺģ íĺ¼
ìĸ ¸ìłľ
ìĭ ¸
Ġ 3
ll y
Ġf ine
Ġë§¤ ìĿ¼
Ġc ho
ìĿ ¸ëį°
ĠĠ Ġ
Ġba be
Ġì£ Ħ
ł ¤
Ġang el
ì Į
¡ ì
íı ¬
¨ í
Ġel se
Ġno body
0 0
è ¦
ìħ ¨
Ī Ī
Ġìļ ©
ì¤Ħ ê²Į
== ==
ê³ł ìĦľ
ë§İ ìĿĢ
Ġt own
Ġìĭ« ìĸ´
ë³ Ģ
ìĿ´ ê³ł
k eep
ê· Ģ
Ġfor get
Ġa c
Ġ æ
ĠëķĮë¬¸ ìĹĲ
ĥ ã
! )
íģ ¬
Ġê·¸ëĮĢ ë¥¼
Ġs et
ĠëĪ Īë¹Ľ
Ġfall ing
Ġstr ong
ë´Ĳ ëıĦ
Ġìĺ Īì
Ġê·¸ë ħĢ
Ĺ Ĩ
Ġe m
ìĥ Īë
Ġchi ld
yo ne
³ ´
ìĬ ¨
Ġëĵ £
ë§Į íģ¼
ï¿½ï¿½ ï¿½ï¿½
Ġê²ĥ ìĿĦ
ë§Į ìĿ´
Ġsu re
± ì
ĠëĬĲ ê»´
¥ ã
ìķĪ íķ´
Ģ ã
ì¶ °
ìŀ ¬
ĭ ¹
¯ ¤
Ġê·¸ë ĮĪ
ë³ ¸
¬ì ½¤
ì ¸ł
t c
Ġë´ Ħ
ìĨ Ķ
ê±° ìļ´
Ġth ose
y b
ì į
Ġì²ĺ ìĿĮ
ĠìŀĪ ìĿĦê¹Į
me nt
Ġgirl s
Ġf low
Ġì Ŀ
k a
ì ³
ãģĭ ãĤī
ĺ Ī
Ġknow s
ê°Ģ ì§Ģ
Ġs ec
íĺ ¼ìŀĲ
ëľ »
Ġë§Ĳ ìķĦìļĶ
Īì£ ¼
Ġunder stand
Į ìĸ´
Ġëĭ ¹
re ak
n f
ĠëĤ´ ìĿ¼
p h
Ġn i
° ľ
Ľ Į
ëł Īë
Ġo pen
ai l
Ġì¹ ´
Ġë¹ ¨
ìŀ İ
ì£¼ ëĬĶ
ê² ģ
as on
¡ ±
Ġ å
Ġìŀ Īìľ¼
Ġë¶ Ħ
ëģ Ķ
íĺ ľ
ĠìĤ¬ëŀĳ íķĺ
Ġëĭ ĺ
Ġhe aven
ĠìľĦ ìĹĲ
ì° ½
ĠëĲ ľ
ìĤ¬ëŀĳ íķ´
ë¯ ¸ë
Ġre a
Ġt u
Ġro ad
g g
Ġë¨¸ ë¦¬
ĠíĻ Ķ
ë¦¬ ì§Ģ
ãģ ĺ
Ġëķ ħ
ļ Ķ
Ġë¬´ ìĹĩ
ou se
Ġë© ĭ
Ġbit ch
íĸ īë³µ
Ġw in
ĠíĽ ĦíļĮ
Ġsee n
th in
ĠìķĦ ë¦Ħëĭ¤ìļ´
Ġíŀĺ ëĵ¤
Ġëį °
Ġìĥģ ì²ĺ
Ġl ine
Ġë³´ ë©´
Ġlo ver
ve s
ê ¶
ĠìĹ Ĳ
Ġë°Ķ ëĭ¤
Ġê¸° ë¶Ħ
t ty
Ġt re
ä ½
Ġs in
ëŀ ¬
ìŀĪ ìĸ´
Ġë°Ķ ë¡ľ
r k
ĠíĨ ł
ë° Ľ
ë²Ħ ëł¤
se e
Ġg ra
ver se
may be
Ġ ear
Ġê º¼
Ġê ¾
ìĦľ ë¡ľ
Ġíģ °
Ġs up
ê° ĳ
¸ë ¬
Ġì¤ ĺ
Ġr ound
t urn
ĠìĿ´ ìľł
æ Ħ
¹ ìĭľ
Ġo k
Ġìĭ ¤
Ġê¸°ëĭ¤ ëł¤
ĭ ¨
Ġwho le
ĠìĽĥ ìĿĮ
Ġê¸° ëıĦ
ê·¸ë ĥ¥
ëł ¹
Ġìŀ Ķ
Ġt a
© ã
âĢ ¦
Ġc ity
ë° Ģ
ĠìĤ¬ ëĬĶ
Ġw oman
Ġpr ay
ëĤĺ ë´Ĳ
h ind
Ġì» ¤
Ġget ting
ĠëĲ Ĳ
Ġê°Ģ ê³ł
Ġea sy
¼ ê
Ġê³Ħ ìĨį
ģ °
s ha
pl ease
ľ í
Ġëª° ëŀĲ
Ġa live
Ġìĺ Ĩ
Ģ ¦
Ġa ir
ĠìłĦ ë¶Ģ
Ġaf ter
u ght
ome nt
e f
ĠìŀĪìĸ´ ìļĶ
ìķĦ ì¤ĺ
Ġìļ¸ ê³ł
Ġl ot
ho ld
Ġìĸ´ ëĬĲ
ĠìĬ¬íĶ Ķ
ìĭľ ëĬĶ
ìĺ ĪìĪĺ
ìĥĿ ê°ģ
. )
Ġk ind
ê·¸ë Ł¬
Ġch ance
Ġwhi le
ĺ ĳ
§ ã
ĠìĦ¸ ìĽĶ
Ġh ate
æĹ ¥
ĠìķĦíĶ Ħ
Ġë§ Īë
ì ı
Ġëª© ìĨĮë¦¬
r m
Ġì Ķ
ìķĦ ìķĦ
ê¼ ¬
Ġì¡° ê¸Ī
ê¸° ê°Ģ
ìŀĲ ê°Ģ
Ġmake s
Ġto day
p art
Ġëª» íķľ
2 0
Ġt ears
p t
Ġre ason
Ġd ar
ê¸° ëıĦ
Ġm oment
Ġê·¸ë ķĮ
ëł¤ ê³ł
Ġsha ke
Ġ ke
ìļ ±
ĠìĹĨ ëĦ¤
ĠìĤ¬ëŀĮ ìĿ´
ë²Ħ ì§Ģ
Ġli ving
ck s
ì° ¬
Ġit s
ìĹĪ ëĦ¤
ĺ ê
& #
Ġl ow
Ġë ŀĦ
Ġë³ ¸
ëĤ ¼
Ġìķ ī
Ġm ou
ì¹ĺ ëĬĶ
° ã
Ġc r
ro ss
Ġar ms
Ġy es
n it
Ġìĺ Ī
ĠìķĦ ì¹¨
Ġdea d
Ġë§Ĳ ìĿ´
ãģ ¡
Ġìĸ´ëĸ ¤
ìĿ´ëĿ¼ ëıĦ
Ġí ŀ
Ġê·¸ ë§Į
ì ·
ë© Ģ
Ġí ĻĢ
Ġsome body
ìĬ ¬
Ġtru th
² ½
Ġê±° ì§ĵ
ģ ¡
ê¸ Īì
ê³ ¤
Ġl ady
Ġl ate
Ġon ce
Ġê¹ Į
ĳ Ĳ
Ġmo ther
ë¨ ¹
Ġìĸ´ëĸ »ê²Į
Ġf r
Ġíı ¬
ë¦¬ ê°Ģ
on d
ĠìķĦíĶ Ķ
© í
Ġb ye
ìĤ¬ëŀĳ ìĿĢ
Ġì° ½
Į Ħ
Ġgood bye
Ġs ave
ìŀĲ ê¾¸
ļ ã
Ġê± ±ìłķ
Ġrun ning
ĩ ìĤ´
Ġìł ĸ
ĠìĪ ł
Ġli sten
ĸ ì
ģ ¿
ê¸° ëĬĶ
Ġíĳ ľ
® ì
³ ã
Ġs um
Ġm on
ĠíĿ ¬
Ġl ear
Ġs it
Ġê¸°ì ģ¨
ł ľ
ì ģľ
ãģ ¿
Ġs ta
an e
ì¡° ê¸Ī
* *
Ġbe hind
d d
ļ ¸
Ġstar s
o e
go od
ëĭ¤ ë¥¸
ĠëĪĦ ê°Ģ
Ġb low
¸ëł ¤
Ġs a
Ĺ Ħ
ìĬ ¬íĶ
ìĤ¬ëŀĳ ìĿ´
ëŀ ľ
Ġê·¸ëĮĢ ë¡ľ
å Ī
Ġì§Ģ ìĽĮ
ëĿ¼ ë©´
p ut
Ġf ool
ë ½
Ġw all
Ġd ro
Ġ es
íı ī
ëĿ¼ ëĬĶ
ĠìŀĪ ê²Į
ĉĠ ĉĠĠ
ìĪ Ļ
c tion
wor ld
Ġhur t
Ġ 4
Ġì ·¨
Ġany thing
e ll
¸ Ī
Ġevery body
ĠìŀĬ ì§Ģ
Ġp ri
am n
an k
l t
Ġbe d
ãģ£ ãģŁ
Ġì² Ļ
ħ ¸
Ġbro ken
Ġìļ ´
¸ë Ŀ¼
Ġê¸° ëĮĢ
Ġë© Ķ
r f
íİ ¸
Ġìĸ ¸ìłľ
Ġì¢ ħ
Ġhe ard
wi ll
ª ½
Ġëı Ī
¡ ã
íĹ Ī
ê¸° ë§Į
ãģ Ľ
ĺ ã
ê¸° ëĭ¤
Ġb ir
íķĺ ëĭĪ
ĠìĨĮ ì¤ĳ
Ġlight s
ģ Ľ
Ġê² ¨
Ġman i
Ġë§Ī ì§Ģë§ī
¯ ¸
Ġg l
Ľ ì
Ġë§ĪìĿĮ ìĿ´
Ġëĸł ëĤľ
ģ Ĭ
ĠíĮ Ķ
ĠìŀĲ ë¦¬
Ń ì
ì£ ½
ĠìĤ¬ëŀĳ íķĺëĬĶ
ìĤ¬ëŀĳ íķľ
ìĿ´ ë©´
Ġg round
ĠëĦ¤ ê²Į
p re
mor row
ê¸° ìĸµ
ê º
Ġf in
ìķĦ ìĿ´
Ġi m
ut e
ĠìķĪ ëı¼
Ġë¯¸ ìĽĮ
ì¹ ľêµ¬
¥ ´
pp ed
Ġl ord
Ġìŀħ ìĪł
Ĵ ã
ħ Ķ
ĠëĦ Īë
ê° Ķ
ë° ķ
ìĿ´ ë³Ħ
ĠíĿĶ ëĵ¤
ĠëĪĪ ìĿ´
Ġto ok
ê¿ Ģ
íĻ ©
l ong
Ġflo or
ĠìĨį ìĹĲìĦľ
Ġìĭľê°Ħ ìĿ´
ì²ĺ ìĿĮ
be cause
ì¶ ĺ
Ġs aw
ìķĦ ëıĦ
Ġì¶ ķ
z i
Ġìŀ¡ ê³ł
ĠëĳĲ ëł¤
Ġp rom
ìłĦ íŀĪ
¸ëł ¨
ë ±
Ġë ĺĳ
ë´Ĳ ìļĶ
ê²ł ëĦ¤
ìĸ´ ëĿ¼
Ĥ ¬
ĠìŀĬ ìĿĦ
íĶ Ī
± ã
Ġro om
ni ght
y s
· ¼
ĠìĤ¬ëŀĳ ìĿĺ
ìĸ¸ ìłł
ìĭ Ń
ê·¸ë ķĮ
v u
w on
ĠĠ Ġĉ
ĠëĳĲ ê³ł
Ġwh ite
1 0
ëĳ ¥
s r
Ġë¬ ¸
Ġìĺģ ê´ĳ
Ġas k
ëĦĪ ìĹĲê²Į
Ġr u
Ġìĸ´ ë¦°
Ġ ve
íĶ Ħ
on s
ëĸł ëĤĺ
ĠìŀĲ ìĭł
u a
è¦ ĭ
Ġp as
t ry
Ġê¼ ¬
íĺ Ħ
Ġsh ine
ĠìĿ´ ìķ¼
ı Ļ
ìķĺ ëįĺ
Ġg row
Ġy ears
Ġc ri
ex t
Ġs ad
ë£ ©
Ġmani ac
le d
Ġm er
Ġêµ¬ ë¦Ħ
Ġti ll
ĠìķĪë Ĳ
Ġì Į
ìķĦ ë¦¬
Ġì¶ ¤ìĿĦ
Ġb right
Ġgo ld
Ġfeel s
Ġn ext
g as
ĠìķĬ ìĿĢ
Ġc ool
ìĹ ´
Ġíĸ¥ íķ´
re peat
ìĿ´ ìĹ¬
che s
Ġìŀ ¬
ãģ® å
ì¹´ ëĿ¼
ĠëĬĲëĤ Į
e st
Ġpre tty
Ġcon tro
ëĸ ¼
c ha
ë¦ ¿
Ġdr ink
ĠíĻĢ ë¡ľ
Ġh ouse
Ġh ide
Ġíĺ ¸
it s
Ġìļ Ķ
Ġtry ing
Ġíħ Į
Ġfo llow
ãģ£ ãģ¨
ĠìĥĿê°ģ íķ´
e b
Ġë° ±
ì µ
ĠëĦĪ ë§Į
íķł ê²Į
Ġb ra
íķĺëĤĺ ëĭĺ
Ġl ay
Ī ê
Ġsum mer
m b
ĠìĤ ¼
Ġm in
Ġìļ°ë¦¬ ìĿĺ
every thing
Ġê·¸ ëĤł
ĠëĤĺ ëĿ¼
¸ë ¥¸
ëĭ ´
c es
on ly
ì° Į
ê³ ģ
© °
Ġal ong
Ġf ai
ëĤĺ ëĿ¼
Ġw oo
ê³ ¡
ì² Ń
Ġmaniac lub
ĠëıĮìķĦ ìĻĢ
Ġw o
r ms
ĠìĤ¬ëŀĮ ëĵ¤
Ġd anc
Ĺ Ķ
ta in
? )
s er
wh i
¸ì ³Ĳ
ow er
Ġë ļ
Ġb oo
Ġê°Ģ ì§Ģ
æ ĺ
ê°Ħ ëĭ¤
ŀ Į
Ġì² Ń
ëł ¨
ì§Ģ ëĤĺ
Ġb u
Ġf eet
ê²ł ì§Ģë§Į
ê²ł ì£ł
ìĤ¬ëŀĳ ìĿĦ
Ġê² °
pp in
³ Ħ
ĠìľĦ íķľ
ìķ¼ ì§Ģ
Ġste p
ĠìĿ´ ë¯¸
re n
â Ķ
Ġre d
Ġsor ry
Ġh u
Ġê²ĥ ëıĦ
ëĭ ¥
ĠìķĦíĶ Ī
Ġto p
Ġíĸ Īëįĺ
íĨł ë¡Ŀ
Ġwan ted
Ġìĺ¬ ëĿ¼
ĠìķĦ ëĥĲ
Ġf la
cy world
Ġd ou
Ġê¹Ĭ ìĿĢ
Ġlo ving
an y
Ġt ur
Ġk id
ĠìĹĨ ìĿĦ
Ġw ater
ì¡ Į
no thing
ìĶ Ģ
Īë ¶Ģ
Ġw ake
² ã
ê±¸ ìĿĮ
Ġp h
j i
ìĿ¸ ê°Ģ
re t
ìī ¬
ëħ¸ ëŀĺ
ê·¸ëŀĺ ëıĦ
ig n
ì£¼ ê³ł
ĠĠĠĠĠĠĠĠ ĠĠĠĠĠĠĠĠ
Ġc re
v us
Ġl ou
Ġgu ess
ãģ °
Ġk ing
Ġëĭ ¿
fe re
ll s
ìĺ¤ ìĺ¤
Ġwi ld
ìľ¼ ëĭĪ
Ġ ...
n v
Ġê ¶
rms dy
rmsdy d
Ġli es
ê·¸ëĮĢ ê°Ģ
vus rmsdyd
d own
ëĿ¼ ë¦¬
Ġcou nt
êµ° ê°Ģ
Ġìŀ Ħ
Ġg ave
Ġì§Ģ ëĤľ
Ġcontro l
Ġp ull
ëĪĪ ìĿĦ
Ļ ã
ìĺģìĽĲ íŀĪ
íĮ Ķ
y ing
---- ----
íŀ Į
Ġìłľ ë°ľ
ĠìķĦ ëŀĺ
ìķĦ ìĦľ
ĠìĬ¬íĶ Ī
ì ¸
Ġsh in
ìļ° ìļ°
Ġë§ Īì£¼
Ġre st
ĠìĿĮ ìķħ
ĠëĸłëĤĺ ê°Ģ
Ġëĭ¤ê°Ģ ìĻĢ
ëı ħ
ìĹĨ ìĸ´
ł Ħ
Ġê³³ ìĹĲ
Ġver y
ìĹ Ħë§Ī
² ĺ
ŀ ł
ä» Ĭ
Ġr hy
ìķĦì§ģ ëıĦ
ĠìĤ¬ëŀĳ íĸĪ
Ġd if
ëł Ĳ
ĠëĦĺ ìĸ´
Ġê·¸ëĮĢ ê°Ģ
Ġë¨ ¸ë¬
Ġm is
Ġê¸°ëĭ¤ ë¦¬
¢ ã
Ġìĺ¤ëĬĺ ëıĦ
fe ct
± í
Ġthink ing
' ,
ĠìĿĢ íĺľ
ĵ ì
êº¼ ìķ¼
ëľ ¨
at ed
Ġì§ ĵ
ê·¸ë ħĢ
Ġa d
Ġê° ľ
å ¿
Ġëĵ¤ ëł¤
ì¹ĺ ê³ł
Ġmay be
Ġìĭ Ń
ĠëĦĪë¬´ ëĤĺ
Ġë² Ĺ
ł Ĳ
ĠíĹ Ī
ëĤ´ ìĿ¼
Ġe ye
ĠìĻ ķ
qu e
ìĶ ¨
Ġme mor
ì§Ģ ì§Ģ
i p
ê·¸ ìłĢ
Ġí Ħ
ë¯ ¿
êµ Ĳ
¡ Ń
r un
å ĩ
ĠìĽĥ ìĸ´
e ven
ë²Ħ ëł¸
ģ ¼
äº º
ba ck
Ġë§Į íģ¼
Ġëķ Ĳ
ãģŁ ãģĦ
ëĭ Īë
æ ī
Ġë°Ķ ëŀĺ
Ġë§ĺ ìĹĲ
Ġf ear
Ġa ss
to r
ģ ļ
¤ì ¶
íĥĢ ìĿ´
íķ Ńìĥģ
²ĺ ëŁ¼
Ġnig gas
ëŁ¬ ìĽĮ
ìĿ¸ ì§Ģ
íĪ ¬
Ġm eet
Ġë²Ħ ë¦°
ea ce
ĠëĤĺ ê°Ģ
ìĤ Ń
Ġë§ĺ ìĿ´
Ġto morrow
ìĸ´ëĸ »ê²Į
Ġg un
d ge
Ġê´ľì°® ìķĦ
ëĭ¹ìĭł ìĿĢ
Ġë§Į ëĤł
ë§Īë ĶĶ
Ġíķĺ ìĨĮìĦľ
gi c
Ġr ing
íķĺ ë¦¬
Ġìĭ ¸
Ġd ra
ĠëĲĺ ëĬĶ
Ġë³´ ë©°
Ġëª ĩ
ĠìĦ¸ìĥģ ìĹĲ
Ġë°¤ ìĿ´
ëĪĦ êµ¬
Ġth ough
ãģ ļ
Ġj e
Ġë »
Ġp op
ì º
į í
un k
l k
Ġt ight
Ġë§Į ëĵ¤ìĸ´
Ã ©
ëŃ Ĳ
fr aid
Ġíĸ¥ íķľ
ä¸ Ģ
ĠëĬ ¦
Ġtri ed
u gh
Ġê°Ģ ê¹Į
ëŁ¬ ìļ´
ë³´ ë©´
Ġí Ĭ
ĠìłĦ ìĹĲ
h m
Ġíĸ ī
Ġs en
- .
Ġëĭ¹ìĭł ìĿĦ
í ļĮ
ç Ķ
g on
° Ī
Ġea ch
ī í
ĠíĨ µ
² Ħ
Ģ Ŀ
ëĬ ¥
Ġcould n
Ġs li
ë¹Ħ ê°Ģ
Ġìł ĪëĮĢ
Ġblo od
u nder
ëĤ ¸
ìĹĲ ê²Ĳ
ĠìĿ¼ ìĸ´ëĤĺ
ìĿ¼ ê¹Į
Ġì ½
o a
bu m
Ġê·¸ ë¦
Ġì£¼ ê³ł
ìĭľê°Ħ ìĿ´
ca ll
ĠìĤ´ ê³ł
ãĥ ³
ŀ ¥
re ady
Ġëĵ ±
an o
ch ing
Ġìĺ Īë
¿ ã
d ow
ĠëĤ¨ ê²¨
Ġa part
ëĶ ±
Ġê²ĥ ìĿĢ
Ġs ex
ë¨¸ ë¦¬
Ġw ent
c on
ĠìķĪë ħķ
Ġlove d
ĠìłĦ íĻĶ
Ġwor d
ìķ Īë
Ĺ °
§ ¤
Ġë§Ĳ ëıĦ
Ġëª» íķł
Ġany more
ìĹĪ ëĭ¤
ħ ¨
¸ë ©´
Ġl and
Ġun til
ĠíĿĲ ë¥´
Ġë° ķ
íķĺ ëįĺ
ëĪĦ ê°Ģ
ìĸ´ ì§ĢëĬĶ
ê°Ģ ìļ´
Ġm ad
ëª¨ ìĬµ
æ Ī
Ġdif fere
Ġë§Ĳ ìĶĢ
Ġt rou
ë» Ĳ
Ġpa st
ang er
´ í
Ġê·¸ë¦¬ ìĽĢ
Ġf ull
some times
c ked
ĠíĴ Ģ
ì² Ļ
Ġp ay
bo ve
n in
ëĵ ±
æ Ń
Ġê° Ķ
l ea
ar y
ìĸ´ëĸ ¤
Ġ =
ãģĦ ãģ¦
è ¨
ë¨ ¼
ë¹ Ļ
Ġw it
¸ë ĵ
cu z
Ġìŀ¡ ìķĦ
en ce
¡ °
Ġê°ĢìĬ´ ìĿ´
Ġd u
Ġëĭ ®
¤ì ³Ĳ
Ġëĳĺ ìĿ´
Ġd re
Ġgo in
¡ Į
ìĺ¬ ëĿ¼
Ġm ir
vi l
Ġê² ½
Ġboy s
ë ¸
Ġë° Ģ
ĠëĨĴ ìĿ´
ì§Ģ ìķĬ
do m
ëłĲ ë£¨
a z
ãĤ ĥ
ãĤĪ ãģĨ
ëģ Ħ
ëı Ī
Ġìĺ¤ ì§ģ
Ġë²Ħ ëł¤
Ġm id
Ġëħ ¹
ĠìĦ¤ ëłĪ
Ġìĸ¼ ë§ĪëĤĺ
¬ëŀ ĺ
¬í į¼
Ġn e
ģ ìĿ´
ë¡ Ń
íķľ ë²Ī
Ġb ur
Ġìł Ĳ
Ġj ump
Ġëĭ¬ ëĿ¼
ìĸ´ ë²Ħë¦°
Ġprom ise
Ġì£¼ ë¥¼
ìķ¼ ë§Į
ĠìŀĪ ìŀĸìķĦ
§ ī
no ck
Ġê²ĥ ë§Į
ìĻ ¸ë¡ľ
ë§Ī ìłĢ
bo y
ìĿ´ëĿ¼ ê³ł
ê¸¸ ìĿĦ
Ġë³´ ìĿ´
ëĶ ľ
ëĶ °ëĿ¼
Ġê·¸ ìłĢ
ĠìĤ¬ëŀĳ íķł
æ °
ëĴ ¤
Ġë§ĪìĿĮ ìĹĲ
ĥ ķ
Ġdo ing
ì§ Ĳ
Ġsto ry
ëł µ
ëŀĦ ëŀĦ
oo oo
ģ Ń
st ill
íĴ į
Ġh oney
Ġê³ł ë°±
Ġìĭ¬ ìŀ¥
ëŀĺ ìļĶ
Ġf ill
åĩ º
ë² ł
g s
sh ine
Ġë¯¿ ìĸ´
Ġëª¨ìĬµ ìĿ´
ĉ ĉ
¼ ľ
ke t
ãģ Ń
Ġh ang
¥ Ĳ
ĠìĮ ĵ
½ ã
Ġ [
ê¼ Ń
Ġê´ ´
Ġìĸ´ ëĳł
1 9
ĠìĽĲ íķ´
ê» ı
ai ght
ĺ ¨
ìŀ¡ ê³ł
Ġìĸ ¸
Ķ ¨
ê¸Īì Ķ©
Ġë´Ĳ ëıĦ
Ġë³´ ëĬĶ
ĠìŀĪ ëĦ¤
ł ĩ
ĠíĥĢ ê³ł
íĹ ĺ
íĿ Ķ
ĠíĻ ĺ
ìĹ¬ ê¸°
ìĿ´ ëĭ¤
ìļ°ë¦¬ ê°Ģ
me s
ë¦¬ ëĦ¤
ìŀĲ ë¦¬
ĠìĹ Ħë§Ī
Ġri ver
Ġì§Ģ ì³Ĳ
ìŀĳ ìĿĢ
Ĳ ëį°
he ad
ìļ°ë¦¬ ìĿĺ
Ġë² ł
Ġìĸ´ ê¹¨
ea l
Ġfa st
Ġa fraid
Ġê° ĸ
Ġsee ms
Ġb ar
Ģ Į
Ġì¡ ´
ì¶Ķ ìĸµ
Ġê·¸ëĮĢ ìĿĺ
Ġë§ Ŀ
ìķĪ ìĹĲ
wa it
oi ce
pp ing
he d
ëŁ ½
ê·¸ëĮĢ ë¥¼
Ġb orn
Ġso on
Ġs at
ë³´ ìŀĲ
ĠëĤ´ ê²Ĳ
ê°ľ ë¥¼
Ġìļ ķ
m on
Ġìĺ ·
Ġs on
Ġíĸīë³µ íķ´
ĠìĹĨìĸ´ ìļĶ
ĠìĺĪì ģľ
Ġy ear
ë´ Ħ
Ġtrou ble
Ń ã
ê¸° ë¡ľ
Ġëª» íķĺê³ł
ĭ ł
di d
Ġíĸ ĩìĤ´
ha ve
ê¹Į ìļĶ
Ġth ree
½ í
¸ëį ĺ
ìĿ¸ ê±¸
ĠìķĬ ê³ł
æ Ļ
Ġë² Į
Ġê±°ì§ĵ ë§Ĳ
Ġë¨¼ ìłĢ
ì¡° ì°¨
Ġìĸ´ëĸ ¡
ł í
Ġp ie
ĠëĬĲ ëģ¼
Ġp ass
íĺ¸ ìĻĢ
Ġp eace
ĠíĦ °
Ġt wi
Ġì ³Ĳ
ìľĦ ìĹĲ
whi le
Ġa bove
ĠëĪĪ ìĹĲ
¿ Ĳ
ĠíĴĪ ìĹĲ
ìł¸ë ²Ħ
ë³´ ëĬĶ
k s
Ġma ma
ê²ł ëĭĪ
Ġn um
ĠìķĦëĭĪ ìķ¼
z o
ìĭľ íħĮ
Ġë§Į ëĤľ
ê¸° ê³ł
Ġí ĭ
Ġë§Į ëĵ¤
ĠìķĬ ê²Į
ĠìķĪ ê³ł
è ª
th ink
Ġ âĢ
ot ion
Ġbrea th
Ġë³ µ
Ġs hi
Ġíĺ Ħ
Ġ ĉĠ
ìķĦ ë¦Ħëĭ¤ìļ´
ëĵľ ëĬĶ
Ġc ut
Ķ ê
ëĨ Ģ
ìĺ¤ëĬĺ ìĿĢ
Ġ ç
Ġf el
ëıĦ ëĭ¤
Ġget s
ĸ ¸
y m
ĠìŀĪ ìĹĪ
: ]
íķĺ ëĭ¤
ìĺĪ ìļĶ
Ġk n
ĠìķĮ ìķĺ
¬ì½¤ íķľ
ìĭľ ëĭĪ
w ould
p la
ë¦¬ ë©´
êµ¬ ë¦Ħ
Ġíŀĺ ìĿ´
ë¨¸ ëĭĪ
ĠìĥĿ ëªħ
Ġp ic
s to
Ġb ot
Ġme t
ìķĦ ì¹¨
íĺ ķ
ãģĦ ãģ¤
ìĤ¬ëŀĳ ìĿĺ
ìķĦë¬´ ëıĦ
ì§ ¸
ll a
ì§Ģ ë¥¼
at ing
ĠìĽĥ ê³ł
ëĵ¯ ìĿ´
íķĺ ìĸĢ
r g
Ġqu i
li fe
sh ow
Īë ĵ¤
ìĿ´ ê°Ģ
Ġë¬´ ìĬ¨
ëĭ¹ìĭł ìĿ´
f all
ìĨį ìĹĲìĦľ
l in
ìĸ´ ì©Į
Ġwor ry
ĠìķĦì§ģ ëıĦ
al e
ìļ° ê³ł
â Ļ
ĠìĦ¸ìĥģ ìĿĦ
Ġd ad
ĥ Ī
ãģł ãģĳ
Ġìĺ Ľ
Ġbl ind
st a
ìĦ¸ ìĽĶ
Ġë©Īì¶ °
ëłĲë£¨ ìķ¼
Ġper fect
Ġd ir
Ġdoes n
Ġsu ch
ê·¸ëĮĢ ëĬĶ
Ġb us
Ġsc ream
Ġs mo
Ġd amn
in t
Ġëį ĺ
íĿ Ĳ
m r
Ġyour s
Ġë§ĪìĿĮ ìĿĢ
ìħ¨ ëĦ¤
Ķ ã
Ġla ugh
Ġf ac
ëįĶ ëĿ¼
Ġc ol
b reak
ëĬĶ ëĭ¤
¸ë ĵ¤
ë°Ķ ë³´
ãĥ ¼
ĠìŀĪ ì§Ģ
k in
ĵ ¸
ĠìĿ´ íķ´
ê°Ģ ëĦ¤
Į ê
ĠìĿ´ìłľ ëĬĶ
Ġí ľ
Ġë¶ Ģì
æĦ Ľ
Ġê°Ĳ ìĤ¬
Ġfel t
Ģ ë¡ľ
Ġê°Ħ ëĭ¤
Ġíķĺ ì§Ģë§Į
ange l
Ġp ower
Ġm ill
ĠìĻ ¸
ãģ§ ãĤĤ
Ġëľ »
Īëį °
Ġëª¨ë¥´ ëĬĶ
ë¦Ħ ëĭµ
Ġë¹ Ī
» í
k y
te nd
Ġë ¦¬
Ġê²¨ ìļ¸
ĠìĺĨ ìĹĲ
wa ke
Ġ 5
Ġê³ł íĸ¥
ì¢ Ģ
Ġbe ing
Ġh air
Ġê°Ģ ìł¸
Ġìļ¸ ìĸ´
¸ ã
Ġd ru
Ġì±Ħ ìĽĮ
Ġmi st
Ġëª¨ë¥´ ê²Į
x i
Ł ìķĦ
y le
tu re
ê°Ģ ë©´
ĳ ë
to o
ĠìķĪ ìķĦ
Ġth row
ìĹĲ ìļĶ
ê·¸ëĮĢ ìĿĺ
Ġtr ust
Ġh ig
Ġbe cause
Ġëĭ¹ìĭł ìĿĺ
Ġhapp en
ee s
Ł ´
ëĤĺ ìĹĲê²Į
ë¡ ±
ë´ ¤
ìĿ´ ë¯¸
ë©Ģ ë¦¬
ģ ë
Ġa ns
ãĤ ¤
Ġl uck
ra p
ìĸ´ ìłľ
in ess
Ġme n
µ ìĪĻ
ìķĦ ë¹ł
b it
å ı
ìĺ¤ ì§ģ
¿ ì
ĠëĲĺ ê³ł
ìĿ¸ ìĥĿ
ĠìĨį ìĤŃ
æ ĥ
n er
w an
d es
ĠìĿ´ ëĮĢë¡ľ
Ġì¶ ¤ì¶
ìłľ ë°ľ
Ġche ck
é Ģ
Ġì µ
ëĦĪ ëıĦ
ë§ ŀ
ë§Į ìĿĢ
Ġtake s
l w
ë© į
Ġìļ°ë¦¬ ê°Ģ
ìĤ´ ìķĦ
Ŀ ë
ìĭ¶ ìĸ´
ìĪĺ ê°Ģ
on t
al al
Ġs pa
Ġë¶Ī ìĸ´
ĠëŃ Ķ
Ġë© į
ç ļ
Ġsp eak
ĠíĴ į
ĠëķĮ ê¹Įì§Ģ
st ar
Ġê·¸ ëŀ¬
Ġcl ou
s in
Ġê·¸ë ł¤
ê³³ ìĹĲ
Ġc atch
¦ °
ê²Į ìļĶ
Ġv oice
Ġs now
Ġm aking
ìļ°ë¦¬ ëĬĶ
Ġë¨¸ë¬ ¼
ìĻĶ ëįĺ
Ġì ı
l and
¿ µ
Ġear th
ĠëŃ ĺ
ëĵ¤ ê³¼
Ġê¸°ìĸµ íķ´
íĺ ¹ìĭľ
ëĨĵ ê³ł
or t
1 2
ĠëĶ° ëľ»
Ġë¯ ¸ëł¨
Ġê±¸ ìĿĮ
íķ´ ìł¸
ĠëįĶ ìļ±
Ġwor th
Ġì£¼ ê»ĺ
ĠìĿ¸ ëıĦ
ëĺ ĳ
t onight
Īì¹ ´
Ġwant s
ãģĵ ãģ®
ëª ¸
ai se
Īìľ¼ ë¡ľ
¶ ì
l b
ĠìŀĪ ëĤĺìļĶ
Ġ :
° ķ
ìĹ Īì£ł
ci al
Įì į¨
Ġburn ing
on es
ķ Ļ
Ġt ea
ê³ģ ìĹĲ
Ġë ±
Ġwould n
ĠëĦĪ ëıĦ
Ġëĭ¹ìĭł ìĿ´
Ġph one
Ġp i
ĠìķĦ ë¦Ħëĭ¤
su re
Ġbe long
ãĤ Ħ
Ġê¸ ´
ĠìĤ¬ëŀĳíķ´ ìļĶ
some thing
Ġpl an
í Ŀĺ
ìľ¼ ë¦¬
ĠìĹ Ń
Ġs er
ë¹ ¨
al ways
Ġê°Ĳ ìĭ¸
be fore
Ġup on
¡ľ ìļ´
ãĤĵ ãģª
íķĺì§Ģ ë§Ī
ãĤĮ ãģ¦
ãģĦ ãģŁ
íķĺ ê¸°
ê¹ Ĭ
Ġëĭ µ
Ġê·¸ë Ł¬
ĠëĤ¨ ìĿĢ
Ġsee m
Ġa ct
Ġëħ¸ëŀĺ ë¥¼
ad io
ê°Ģ ëģĶ
Ġdanc ing
° ¸
g in
ĠìĤ¬ëŀĳ ìĹĲ
Ġë°ĺ ì§Ŀ
ĩ ã
Ġheart s
Ġê°Ģ ìŀĲ
í ľ
Ġsho t
ë¦° ëĭ¤
me d
å ĥķ
ĠìŀĬ íĺĢ
Ġcall ing
Ġëĭ¹ìĭł ìĿĢ
Ġdri ve
ĠìĿ´ìķ¼ ê¸°
Ġdro p
° ¤
ëĳ Ķ
Ġë°¤ ìĿĦ
ìĪľ ê°Ħ
Ġbrea the
Ġë§Ĳ ìĿĢ
ëĭ¹ìĭł ìĿĺ
ħ í
Ġf l
Ġdea th
st r
Ġë²Ħ ë¦¬ê³ł
¹ ã
íĳ ľ
ìķĦ ëĭĪ
ä½ ķ
Ġans w
Ġli ps
ë° ĸìĹĲ
Ġì§Ħ ì§ľ
Ġë§ Īì
Ġdiffere nt
Ġc la
íĮ Ĳ
ĠëĤł ìĿ´
Ġìµ ľ
ë¦¬ ìĬ¤
k o
ll o
íķ Ļ
Ġíķľ ë§ĪëĶĶ
Ġíĳľ ìłķ
Ġni ce
ìĨĲ ìĿĦ
ĠìĿ´ ë£¨
ĸ ¼
Ġh uh
r v
Ġc li
Ġë§ ¡
ê²ģ ê²Į
ê·¸ë ĮĪ
es us
c ould
Ġho p
Ġtalk ing
ĠìķĦ ë¹ł
ĠìķĦ ë²Ħì§Ģ
ĠìķĬ ìķĺ
ĠìŀĪëĬĶ ëį°
ëĵ ¬
¸ Ģ
Ġbro ther
ë§Ī ì§Ģë§ī
ê·¸ ë¦¬ê³ł
Ġti red
¸ì ĵ¸
ê´ ľì°®
ĠìĤ¬ëŀĳ ìķĦ
Ġsk in
Ġf ell
ìľ¼ ëł¤
Ġë´ ¤
Ġê·¸ ê²Į
Ġsha dow
ĠíĮĮ ëıĦ
gon na
ĠìĨ Ķ
st ay
ut ure
Īì ²ĺëŁ¼
ê²ĥ ìĿ´
é Ľ
Ġj o
Ġsi le
ê¹ Ĳ
Ġd oo
ìķĦë¬´ ë¦¬
íĭ Ģ
ĠìĬ ¬íį¼
ĠìķĦ ì£¼
ãĥ ©
c hi
Ġbo th
ìĤ ¼
Ġìŀĺ ëª»
Ġma gic
i z
pp y
Ġê¾ ¸
Ġíķĺ ì§Ģë§Ī
ëł ´
Ġíķĺ ìĸĢ
Ġê´ Ģ
ì¢ĭ ìķĦ
ĠìķĪëĲ ĺ
Ġê³ ¼
Ġcl ear
al bum
Ġc e
Ġë¹Ħ ê°Ģ
Ġsay s
Ġìĺ¤ ëĬĶ
Ġfai th
Ġu se
ĠëĽ° ìĸ´
ëĵł ì§Ģ
ë°Ķ ëĿ¼
Ġê·¸ë¦¬ ê³ł
Ġê¸¸ ìĿ´
ìķŀ ìĹĲ
ĠìľĦíķ´ ìĦľ
íķĺ ëĿ¼
ëĤĺ ê²Į
the se
Ġìĸ´ ì©Į
ìĿ´ ìĥģ
Ġë¯¸ ëŀĺ
Ġëª¸ ìĿĦ
Ġn ear
Ġh our
Ġg iv
got ta
ì£¼ëĭĺ ìĿĺ
Ġë¹ Ĺ
ëĭ ·
Ġa pp
g y
ĠìĹ¬ ë¦Ħ
Ġë§Ĳ íķł
Ġnight s
ĠìĻ Ħ
íĤ ¬
ìĭľ ëĭ¤
ìľ Ī
ëıĻ ìķĪ
Ġíĺ ķ
Ġë§ Ľ
al f
Ġê²ĥ ì²ĺëŁ¼
Ġspe nd
f ly
Īë Ł¬
Ġsin ce
Ġc lub
ĠìŀĪ ê³ł
Ġb ang
ìĹĪ ëĬĶëį°
Ġì¤Ģ ë¹Ħ
é ĸ
g er
ĠìĿ¼ ìĿ´
ķ ŀ
Ġlove s
ea th
Ġì¶ ©
Ġde st
ĠìĦł ë¬¼
Ġë²Ħ ëł¸
Ġlear n
¹ Ľ
ì¤Ħ ëŀĺ
Ġê±¸ ê¹Į
Ġb ri
ìĤ¬ëŀĳ íķĺëĬĶ
ħ ã
ìĸ¸ìłł ê°Ģ
m in
Ŀ ½
ĠìĽĲ íķĺëĬĶ
ãĤĵ ãģł
b la
ro ck
çļ Ħ
ê¹ Ģ
wo o
Ġwalk ing
ì «
Ġh ar
Ġì¶ķ ë³µ
Ġì į¨
Ġh oo
İ ã
w een
Ġìļ´ ëªħ
ĩ ì
Ġì² «
Ġíĥľ ìĸĳ
ķ Ĳ
Ġw ee
Ĭ ¬
Ġdar ling
ri c
Ġk nock
Ġë ŀ
ĉ ĠĠĠĠ
th ough
Ġs ca
íĸĪ ì§Ģ
Ġbet ween
==== ====
Ġë©Īì¶ Ķ
ĠìķĦë¬´ ê²ĥëıĦ
ĸ ĳ
° ĳ
Ġwind ow
an a
Ġbo om
Ġe mp
ĩ ¼
ëĵ¤ ëıĦ
ëĤ¨ ìŀĲ
Ī ¬
ĠìŀĪìĸ´ ëıĦ
ãĤĮ ãĤĭ
Ġr ap
Ġstar ted
Ġê¿Ī ìĿ´
Ġë°¤ ìĹĲ
pl ay
Ġë§ º
Ġë¯¸ ìķĪíķ´
Ġë° ĸìĹĲ
Ġhig her
ĠìķĬìķĦ ëıĦ
Ġë¯¿ ìĿĮ
Ġêµ¬ ìĽĲ
ê±° ëĿ¼
Ġj a
ìĽł ëįĺ
k now
ĠëĤĺ ë§Į
ì© Ķ
¦ Ī
Ġfeel in
ĠìĨĮì¤ĳ íķľ
Ġl u
Ġ et
ĠìĽ Į
ĠìŀĬ ê³ł
íķ´ ìķ¼
ĠìĹĨëĬĶ ëį°
Ġìļ© ìĦľ
Ġìĺ¤ ëŀĺ
ê·¸ëĮĢ ìĻĢ
Ġg en
ł ķ
Ġf uture
ĠìĥĿê°ģ ìĿ´
ĠëĮĢ ë¡ľ
Ġbeg in
Ġw ea
Ġk ick
ĠëĬ ¥
ĠëĤĺ ë¬´
ìĿ´ëĿ¼ ë©´
ìĪĺ ë¡Ŀ
ëĳĲ ê·¼
Ġ ?
Ġstand ing
Ġa y
ê·¸ ê²Į
Ġsup er
ìĸ´ ëĤľ
Ġp ick
Ġìĸ ĳ
Ġë ģĮ
Ġíĳ ¸ë¥¸
e u
Ġë§İ ìķĦ
Ġê°Ģ ë©´
d le
ĠìĽĥ ëĬĶ
Ġëĳ ¥
Ġs ki
Ġë°Ľ ìķĦ
Ġr ise
w atch
å ¾
å ħ
ìłĦ ìĹĲ
ìĺ Īì
ĠëıĮìķĦ ìĦľ
ì° ©
Ł ¼
ģ İ
or s
Ġìĸ »
an ta
Ġë§ Īì¹ĺ
Ġ ï¿½ï¿½ï¿½ï¿½
Ġê·¸ëĮĢ ëĬĶ
ĠìŀĪìľ¼ ë©´
ab le
ëĤĺ ìĻĢ
æĻ Ĥ
Ġëª¨ìĬµ ìĿĦ
is ion
íķ´ ì¤ĺ
ë§Īì Ĭ¤
Ġê°Ģê¹Į ìĿ´
Ġw he
ãĤ į
with out
ãģĦ ãĤĭ
ŀ Ī
Ġë¯¿ ê³ł
Ġíĸ¥ ê¸°
ëĿ¼ëĿ¼ ëĿ¼
ëĤĺ ë¬´
ĠëĴ ·
ĠìĹĨ ì§Ģë§Į
ì± Ħ
Ġr id
Ġstr aight
Ġì£¼ëĭĺ ìĿĺ
ìķĪë ħķ
ìķĦ ê°Ģ
Ġì§Ģ ëĤ´
ĠìĤ¬ëŀĳ íķĺê³ł
Ġal ready
íķľ ëĭ¤
Ġê·¸ëĮĢ ìĹ¬
¶ Ī
st ed
Ġe h
Ģ ĺ
ãĤ ¹
Ġh um
ì¢ĭ ìĿĢ
Ġok ay
· ã
ĥ Ĳ
Ġm ic
Ġlo vin
è¨ Ģ
Ġíĸīë³µ íķľ
Ġd ear
ìķ Ĺ
at s
ĠìĹĨ ëĭ¤
b t
to m
no body
ĠëĪĪë¬¼ ìĿĦ
ì°¨ íĶ¼
ãĤĮ ãģŁ
ĠëĳĲëł¤ ìĽĮ
ëĬĲ ëĥĲ
Ġìķī ìķĦ
Ľ ë
Ġìŀł ìĭľ
Ġíŀĺ ëĵ¤ìĸ´
¡ í
Ġê±´ ì§Ģ
ìĹ¬ ìŀĲ
Ġë¹¨ ë¦¬
ĠìĹĨ ê³ł
ĠìĹĨ ì§Ģ
ĠìĤ´ìķĦ ê°Ģ
ĠìŀĲ ìľł
Ġhold ing
al s
ãģĿ ãģĨ
ì ¥
ãģª ãĤī
íĴ Ģ
Ġìķŀ ìĹĲìĦľ
Ġfa de
¼ Ń
Ġrea ch
Ġc ur
ê±° ìĽĮ
ŀ Ģ
Ġì° ©
Ġìĭ¶ìĸ´ ìļĶ
Ġme ant
ì£¼ ìĦ¸ìļĶ
Ġdream ing
ĠëĦĪ íĿ¬
Ġsay ing
Ġì§Ģ íĤ¤
Ġlea d
Ġd en
Ġs im
d ream
Ġst yle
Ġkn ees
Ġ è
Ġëĵ£ ê³ł
th rough
ĠìĦ¸ìĥģ ìĿ´
ĠìĤ¬ëĿ¼ ìł¸
Ġìĭľ ìłĪ
ãģĹ ãģŁ
Ġb ou
Ġcom in
ê·¼ ëį°
Ġíķľ ìĪ¨
ì° ¾
¹ Ħ
ë¦¬ ëĭĪ
Ġìĭľê°Ħ ìĿĦ
Ġt ear
ì¢ħ ìĿ¼
ìķĦë¬´ ê²ĥëıĦ
¤ Ħ
ë§ Īì¹ĺ
Ġmill ion
co s
íķ´ ì§Ħ
å ®
ĠëĨ Ī
ë§Īì ĽĮ
ĠìĪĺ ëıĦ
Ġlive s
c ho
Ġë©ĭ ì§Ħ
Ġê³ł ë¯¼
Ġno thin
ĠíĹ¤ ë§¤
Ġë ½
Ġmo st
Ġsi ck
ĉ ĠĠĠĠĠĠĠĠ
che d
Ġìī ½ê²Į
Ġre g
ĠíĸĪ ìĸ´
Ġë¿ Į
ë© Īì¶
ëĤ´ ê²Ĳ
Ġë°ĶëŀĮ ìĿ´
Ġs ight
ł ì§Ģ
li sten
c lo
ĠëĶ ±
ëķ ħ
íĻ ľ
ëĪĪ ìĿ´
ìĹ Ń
ìĸ¼ ë§ĪëĤĺ
Ġgre en
³ ¤
° Ĳ
me n
Ĺ ê²Į
st ic
ãĢ į
ãģª ãģŁ
Ġdad dy
ãģĹ ãģĦ
ģ ê
Ġëª ħ
Ġê·¸ëĮĢ ìĻĢ
Ġever yone
íķĺ ë¦¬ëĿ¼
Ġë§Į ëĤ¬
ĠìķĦëĭ ĪëĿ¼
Ġì£¼ ëĬĶ
Ġgre at
Ġwar m
Ġs ti
Ġstreet s
ĠìŀĪ ëĭ¤
ãĢ Į
ĠëĬĲëĤ Ħ
Ġver sion
Ġê³ ¨
Ġmou th
ãģĤ ãģªãģŁ
´ Ī
wan na
Ġcom p
ì§Ģ ëĤľ
ê·¸ëŀĺ ìĦľ
ĠëķĮ ë©´
Ġfuck in
Ġìĺ¤ ë©´
¬ëŀ ĮìķĦ
ëĭ¹ìĭł ìĿĦ
ë¡ľ ëĬĶ
ì² ł
Ġë³´ ëĭ¤
ì ¯¤
ĠìĨĮ ë§Ŀ
Ġê¹ Ģ
Ġt aking
Ġba ll
ãģ Ĭ
ĠíķĺëĬĺ ìĿĦ
Ġìŀ Īëįĺ
ê¹Į ë´Ĳ
ĠëĤ´ ë§ĺ
æī ĭ
ë¡ľ ëĭ¤
ìĻ ķ
» ã
Ġê°Ģ ìŀ¥
Ġíķĺ ë©´
Ġget tin
d l
ê·¸ ë§Į
un til
Ġì¶¤ì¶ Ķ
ìĸ´ ëĳĲ
ĠìŀĪ ëĤĺ
ë¥´ ë¥´
ĠìĹ¬ ìĿ¸
Ġì²Ń ì¶ĺ
ĠìĥĿê°ģ ëĤĺ
Ġevery day
Ġìļ°ë¦¬ ëĬĶ
ë°ĶëŀĮ ìĿ´
ëĳ ¬
? ?
ê»ĺ ìĦľ
ë£¨ ë£¨
łì į¨
Ġëĭ ¬ëŀĺ
Ġway s
» Ĳ
Ġ /
Ġs ign
Ġsing ing
ĠíĺĦ ìĭ¤
Ġ ~
ëĸ ¨
pe ct
Ġrea li
ĠìķĮ ê²Į
li c
ãģĵ ãģ¨
Ġë³´ ìĿ´ì§Ģ
ì£ Ħ
be t
í ļ
ĠíĿĲ ë¥´ëĬĶ
Ġcry ing
ĠíĿ¬ ë§Ŀ
íķĺ íķĺ
Ġclo ser
ation s
ëĦĪë¬´ ëĤĺ
Ġf our
íĤ¤ ë¯¸
Ġëĸł ëĤł
ĠëĮĢ ëĭµ
Ġì°¬ ìĨ¡
Ġìļ ¸ëł¤
in es
ĠìĭŃ ìŀĲê°Ģ
Ġcar ry
ê³ ¨
Ġìĭ Ŀ
Ġmin ute
Ġíķĺ ëĦ¤
Ġh or
1 1
ster day
Â ´
Ġìļ° ëĬĶ
ĠìķĦ ëĬĶ
ĠìĥĿê°ģ ìĹĲ
¬ ĳ
Ġfr ont
o g
ĠìĥĪë ²½
Ġg ro
ä¸ Ń
Ġìĸ´ëĶĶ ë¡ľ
Ġë§ ´
Ġb out
Ġw ear
ak in
Ġê² ¬
) ,
Ġtra in
Īë ©´
Ĥ °
ë§ Ľ
ard s
Ġë ĥ
Ģ į
ĠìĹĨ ìŀĸìķĦ
Ġlou d
Ķ Ĥ
ëª ĩ
Ġdon t
ëĶ ĺ
âĶ Ĥ
ĠìĹĨìĸ´ ëıĦ
ìĹ ħ
Ġê·¸ë¦¬ ìļ´
ìĭ¬ ìĿĦ
mi x
Ġì «
Ġc ru
å¤ ¢
ëŁ ½ê²Į
ĠëĤĺ ìĿ´
ê³ °
Ġë¨¹ ê³ł
Ġëĵ¤ ê³ł
ĠìĶ »
ķ ½
Ġhell o
Ġê¿ Ģ
ìĿĮ ìĿĦ
ìłķ íķľ
re a
t v
Ġknow n
Ġsho ot
Ġl ess
ìĺ µ
Ġì£¼ ìĭł
° °
ĠìĿĺ ë¯¸
er o
ĠìĹ¬ íĺ¸ìĻĢ
Ġê°Ħ ì§ģ
ll ing
Ġon es
Ġ 9
Ġmou n
Ġlook in
ê¸ ĭ
ĠëĳĲ ê·¼
Ġê°Ģ ì§Ħ
Ġf ing
ìĬµ ëĭĪëĭ¤
ê² ©
mo st
Ġp ush
ĠìĤ¬ëŀĮ ìĿĦ
Ġì§Ħ ìĭ¤
p ri
Ġwas n
ëħ ģ
ìĭľ ë©°
Ġspa ce
ëĦ ĺ
ì» ¤
å ¥
se t
o ver
ëĵ¤ ê³ł
ìĿ´ ì£ł
Ġre ad
Ġcan not
Ġbla me
Ġìłľ ìĿ¼
Ġ )
Ġâ Ļ
Ġd aw
Ġê·¸ë¦ ¼ìŀĲ
ĠìĤ¬ëŀĳ íĸĪëįĺ
ìĸ´ ëĳł
Ġíķ´ ìļĶ
go d
ous and
h n
Ġëį° ëł¤
or y
m it
° ģ
© į
Ġkeep s
ç Ľ
Ġy et
Ġcon f
Ġì²ĺ ëŁ¼
ê² ¼
Ġë¹Ħ ì¶Ķ
s it
Ġëį ®
ìłģ ìĿ¸
wa lk
Ġs ma
ĳ ìĿĢ
ĠíĻ ķ
Ġëª¨ ìĹ¬
Ġout side
ĠìĻ¸ë¡ľ ìĽĢ
Ġíŀĺ ëĵł
Ġìŀ Īì£ł
ê°Ģ ëıĦ
Ġtur ned
ì Ł
æĪ ĳ
ĠëĨĢ ëĿ¼
ê·¸ë ĮĦ
íĥ Ŀ
ê¿ Ķ
Ġë¹ł ìł¸
Ġíķ´ ìķ¼
Ġëª¨ ë¥¸
ë² Į
Ġë´Ĳ ìļĶ
ì ģĺ
Ġd em
ĠìĿ¸ ìĤ¬
ĠìłĲ ìłĲ
ë² Ķ
Ġj u
Ġt en
Ġca ught
ìļ° ëĬĶ
ìĸ´ëĬĲ ìĥĪ
§ ľ
ìĿ´ ëĮĢë¡ľ
ë¦¬ ë¦¬
ë³ ĳ
ľ ã
Ġcall ed
st ing
Ĺ ´
Ġë§Ĳ ìķĦ
Ġìļ° ë¦´
Ġmer ry
¸ë ¡Ń
Ġsca red
½ ê
ì ¯
Ġpro ble
wa s
ĠëģĿ ê¹Įì§Ģ
ìŀĲ ê³ł
Ġta ste
Ġê² Ģ
ĠíĿ ©
ĠëĤ´ê²Į ë¡ľ
Ġ ,
íĥ Ħ
Ġme ss
z a
Ġmiss ing
Ġë¹ ¼
Ġìĸ¸ ìłł
¼ ã
Ķì ½Ķ
ì§Ģ ìļĶ
ĠëĤ Ļ
ī ìĿĢ
i b
Ġë¯¸ ìķĪ
ĠëıĮìķĦ ìĺ¤
ãĤĤ ãģĨ
ë°Ķ ë¡ľ
ĠìĹĨ ëįĺ
Ġê¸° ë»Ĳ
Ġê°Ĳ ìłķ
Ġdo g
ë¡ľ ìļ´
ea d
Ġnum ber
ëĳĺ ìĿ´
r or
ëĤĺ íĥĢ
ìĿ´ ê²Į
r c
Ġj oy
ëĲĺ ëĬĶ
ë¥´ ê³ł
Ġh alf
ë¦¬ ë¥¼
ëĮĢ ì²´
ìĿ´ëĿ¼ ëĬĶ
ìĤ¬ ìĭ¤
ĠìĤ ¬ëŀĮìķĦ
Ġìĸ´ ëł¤
Ġë°Ŀ ìĿĢ
Ġê³ł ê°ľ
© ë
Ġc row
íħĮ ìĿ´
ĠìĤ¶ ìĿĦ
Īë ¡ľ
Ġsome times
ĠìĦ ¬
ĠíĿĶ ëĵ¤ìĸ´
ê³Ħ ìĨį
çĶ Ł
Ġê· ¼
¼ì ³Ĳ
Ġtra ck
ë¦ İ
Ń ī
¡ ł
he s
ìĹ ¼
f riend
ãĤ Ń
sw eet
Ġë³ ĳ
ĠìĹ´ ìĸ´
sha ke
ĠìķĦ ê°Ģ
Ġê°ĢìĬ´ ìĿĦ
ëĪĪë¬¼ ìĿ´
ìłĢ ê¸°
Ġê¹Ĭ ìĿ´
ìķĦ ë²Ħì§Ģ
è ¿
ìŀĲ ê¸°
Ġëĸł ìĺ¤
Ġr adio
ë§ ¨
Ġo ce
Ġbir th
Ġfa mi
Ġth ousand
ho ol
Ġneed s
ĠëĤ´ ë¦¬ëĬĶ
Ġë¬´ ëĦĪ
ĠëĮĢ ìĭł
Ġansw er
ëıĦ ëĬĶ
ì¦ Ĳ
ĺë ĮĢ
Ġshin ing
ë º
ìķĺ ëĦ¤
ëĤĺ ê°Ģ
Ġf re
Ġë¶Ģì ¡±
Ġy ea
Ġë¹Ľ ëĤĺëĬĶ
Ġb ui
Ĭ ±
ĠìķĬìķĦ ìļĶ
Ġì¢ĭìķĦ ìļĶ
ĠìķĦ ë¦¬
Ġgu y
§ ĳ
ĠëĦ ĵ
br ing
~~ ~~
ì¹ ´ì
ìĦ¸ìĥģ ìĹĲ
ãģĪ ãģ¦
ë²Ħ ë¦´
Ġê° ĳ
ìĽĮ ìĦľ
ëĲĺ ìĸ´
t alk
Ġchild ren
Ġë¹Ľ ìĿ´
ìĦ ¸ë
Ġ 6
Ġs ear
Ġg la
f in
Ġë³Ģ íķ´
some body
Ġmo ving
Ġbui ld
ìĹ ½
Ġ er
Ġíı¬ ê¸°
£ ê³ł
Ġbro ke
i re
Ġì£¼ ìĦ¸ìļĶ
Ġmist ake
ëĦĪ ë§Į
Ġv o
ar s
ë¦¬ ë©°
ke y
ë² ½
ĠìķĦ ê¸°
Ġdi st
ìľĦ ë¡ľ
Ġdi am
Ġd ig
íĴ Ī
² ľ
Ġu nd
ĠíķĺëĤĺëĭĺ ìĿĺ
Ĥ ¼
ģ ²
ĠìķĦ ë¦Ħëĭµ
ì²ľ íŀĪ
Ġë¬¼ ìĸ´
sto p
ìĬ¤ ëŁ°
ãģ® ç
t wo
ĠìĽ Ģ
ìĹ ĺ
Ġemp ty
ê°Ģ ëĿ½
d j
ģ ¸
ad ise
Ġi ll
Ġmi x
Ġc ross
Ġgiv ing
² °
Ġsw ear
ãģª ãģı
Ġìķ ħ
Ġi ce
ë²Ħ ë¦¬ê³ł
ll e
ĠëıĮ ëł¤
Ġëª» íķĺëĬĶ
ha ppy
Ġë³´ ìĿ´ëĬĶ
ĠìĨĲ ìĹĲ
Ġb en
ë§Į íŀĪ
íħĮ ëĭĪ
ëł ĩ
Ġê³ §
ëĨ Ĵ
¸ëį ķ
ĠëıĻ ìķĪ
ĠëıĮìķĦ ê°Ģ
Ģ ģ
ì¤ į
Ġp our
ì¤ ¬
ãĤĴ æ
Ġì§ §
Ġê·¸ë łĩ
ê± ±ìłķ
Ġdark ness
ĠìĿ´ ë¦¬
ĠìķĦë¬´ ëıĦ
Ġsun shine
Ġë¹ Į
Ġëª° ëŀĺ
Ġê¶ ģ
le an
ĠëĪĦ êµ°ê°Ģ
ëĮĢ ëıĦ
Ġt ree
ì¡ ´
íĥ ģ
Ġ >
some one
is on
ìĬ¬íĶ Ī
Â ł
Ġkid s
ì¶ ľ
íĻ ĺ
íİ ĺ
ìĿ´ ê±´
Ġf reak
ĠìĬ ¤ì³Ĳ
pe ople
Ġë°ĶëĿ¼ ë´Ĳ
Ġê°Ģ ëĦ¤
Ġblu es
Ġw al
Ġlea ving
Ġê°Ģ ëł¤
Ġíģ¬ ê²Į
ë¬´ ìĹĩ
ë¬´ ìĬ¨
Ġwho a
ìĺ ¥
p ro
ìĿ´ ë¦¬
Ġpre tend
Ġch ar
Ġg ang
m ing
ri ed
ëĲ Ĳ
ë© ĭ
tr a
ë¦¬ìĬ¤ ë§ĪìĬ¤
Ġme s
Ġst u
Ġdou bt
é ¡
ĠëĬ¥ ëł¥
ĠìĺĪë »Ĳ
å ĳ
Ġìĥģ ê´Ģ
Īëį Ķ
å¿ ĥ
Ġi ma
ëĭ ĪëĿ¼
b ea
ĠìĤ¶ ìĿĺ
íķĺ ìŀĲ
Ġë¹Ħ ì¶°
fore ver
Ġplay ing
ãģĺ ãĤĥ
µ ë
ĠëĲĲ ìĸ´
Ġdes er
ê±° ëĵł
Ġê°ĢëĵĿ íķľ
ano ther
Ġìĭľ ìĦł
ĠìĪĺ ëĬĶ
ë³¼ ê¹Į
ãĥ Ī
ìĬ ¹
Ġë ģĬ
ĠìĿ µìĪĻ
ĠëĴ¤ ìĹĲ
Ġìĸ´ ìłľ
íķ¨ ìĿĦ
¸ ´
ãĢ ģ
Ġre c
Ġìĥģ ìĥģ
Ġsur vi
ë¥´ ê²Į
Ġìĸ´ ìĦľ
in y
Ġìĥ ī
Ġspe cial
ìŀł ìĭľ
z ing
Ġë¹Ľ ìĿĦ
Ġchange d
Ŀ ê
Ġt w
al a
Ġìŀł ìĿ´
Ġb at
ì¶ ©
ì§Ģ ê°Ģ
Ġwh is
gi e
ìĺ¤ ëĭĪ
Ġëĭ¤ ìĿĮ
Ġf li
èª °
íĽ ĦíļĮ
pe ned
° ¨
Ġëª¨ëĵł ê±¸
Ġìļ¸ ì§Ģ
Ġ 8
å ľ
o ked
Ġë§ĺ ìĿĢ
Ġnow here
¸ëł ¥
Ġ ;
Ġsec ond
ê°ĢìĬ´ ìĿ´
Ġìĭ¶ìĿĢ ëį°
Ġbu y
ci ous
Ġìĸ´ëĶĶ ìĹĲ
ĠìĤ¬ëŀĮ ìĿĢ
Ġbe come
Ġsc hool
b s
c ar
ve l
ĠìĤ¬ëŀĳíķľ ëĭ¤
Ġë¹Ľ ëĤĺ
Ġìł Ĭ
Ġdo in
he llo
íĺ ¹
i ce
c er
Ġb ull
ìĤ¬ëŀĳ íķ´ìļĶ
ê±° ì§ĵ
ĠìľĦ íķĺìĹ¬
íĿĺ ëŁ¬
ĠëĨĵ ê³ł
re ad
Ġque st
Ġs end
ìľ¼ ëĭĪê¹Į
Ġch ang
Ġì¡´ ìŀ¬
ìĸ´ ë¦°
Ġsha re
a pp
Ļ í
ìĹ° íŀĪ
ìĸ´ ê°Ģ
ìĸ´ ì§Ī
Ġë° ĳ
Ġsmo ke
ìĶ ©
Ġëĭ¬ ë¹Ľ
ìĸ¼ êµ´
ëħ ¸ëĿ¼
n b
Ġis n
ãģ« ãģª
Ġh all
Ġê±´ ëĦĪ
Ġsp in
Ģë ½
ĠìłĦ íķ´
Ġs el
ê¸ ī
ĠëĤĺ ë§ĮìĿĺ
l come
Ġf av
ve d
ĠìĤ¬ ì§Ħ
ìĦ¸ìĥģ ìĿ´
it ion
Ġë§Ĳ ìķ¼
Ġsho es
ê»ĺ ìļĶ
ê²° êµŃ
ãĥ «
Ġëŀ ©
ļ ľ
ĠìĻ¸ë¡ľ ìļ´
ĠëģĿ ìĿ´
Īë¹ Ħ
i ous
Ġëĭ´ ìķĦ
Ġfin ally
Ġìĵ ¸ìĵ¸
Ġë¶Īë ¹Ľ
th es
Ġt em
ë³¸ ëĭ¤
k iss
ëĳĲ ê³ł
ë°ĺ ì§Ŀ
ĠìĤ¬ëŀĳ ìľ¼ë¡ľ
ĠìŀĪ ì§Ģë§Į
Ġdir ty
Ĩ Į
ĠìĪ ²
ãģ Ĵ
ĠìķĦíĶĦ ê²Į
¼ ī
Ġë§ ĪëĿ¼
ì§Ģê¸Ī ìĿĢ
Ġwa ste
d ance
ĠíķĺëĬĺ ìĹĲ
ª »
Ġqu een
ģ Ĵ
ĠìĽĢ ì§ģ
ĠìķĦ ìī¬
ver s
å¤ §
Ļ íķ©
íķĺ ìĨĮìĦľ
ti c
ëĭ¬ ëł¤
ë¦¬ ê²Į
íķĺ ë©´ìĦľ
Ġc and
Ġê°Ģ ìĿĦ
Ġt y
Ġêµ ³
9 9
ìĹĪ ëĤĺ
Ġë¹ Ļ
Ġthan k
íĥ ķ
Ġê·¸ë ĮĦ
ìĸ´ì©Į ë©´
Ġë°ĺ ë³µ
Ġë©Ģ ìĸ´ìł¸
Ġoce an
ìĨį ìĿĺ
s aid
ho ok
Ġìĸ´ ëķĮ
p in
Ġê±° ê¸°
ĠëĤ ®
d en
Ġíķ ©
s on
ëĤĺ ë§Į
íĥ Ģì
íĮ ¨
Ġb and
© º
ìĿ´ ë¦Ħ
ê² ¬
ë§ ĪëĿ¼
ãģ ¸
ìĺ¤ëĬĺ ë°¤
ì°¨ ëĿ¼ë¦¬
íħ Ĳëį°
ìĪĺ ë§İìĿĢ
Ġb ill
Ġb i
h d
ëĭ¤ ìĺ¤
ìŀħ ëĭĪëĭ¤
Ġc or
Ġj esus
Ġtalk in
ĠëĨĴ ìĿĢ
ŀ ã
Ġst ri
Ġh at
ĠëķĮ ëıĦ
Ġe at
ëĿ¼ëĿ¼ ëĿ¼ëĿ¼
ä¸ į
Ġdo ll
ĥ ģ
Ġìłĸ ìĸ´
ìļ ¸ë
ëĪĦ êµ°ê°Ģ
b ra
ĠëĤ ¯
Ġsec ret
Ġë§ŀ ì¶°
Ġfuck ing
Ġë¯¸ ì¹ĺ
Ġs la
av ing
ĠìĺģìĽĲ íķľ
ĠíĻ ©
Ġëª¨ë¥´ ê³ł
ëª °
Ġin s
Ġp or
ìĵ °
ë§Ĳ ê³ł
ìĤ¬ ëĬĶ
ì¶ ķ
Ġmemor ies
Ġíķł ëłĲë£¨ìķ¼
ê¸° ìĹĶ
st ep
ìĿ´ ëĦ¤
Ġac ross
ĠíķĦìļĶ íķ´
Ġìĵ° ëŁ¬
Ġë§Į ëĤ¨
Ġë¶Ļ ìŀ¡
b ow
pla in
¦ Ŀ
ĠìĿ´ ëŁ¬
Ġë°ĶëĿ¼ë³´ ë©°
Ġê°Ģ ìķ¼
ge d
¥ ë
Ġmemor y
Ġìī ´
Ġf le
Ġevery where
Ġíľ ĺ
íģ °
Ġì² ł
íķĺ ì£ł
ĠìĿ´ë¦Ħ ìĿĦ
ìĹ¬ ìļ´
m ind
ĠëģĿ ëĤĺ
Ġê³Ħ ìłĪ
ìĭľ íĥĢ
ê·¸ ëĤł
° ĺ
ìŀĬ ìĸ´
ì Ń
re member
ìķĦ ë§Ī
Ġnigga z
Īë ³´
Ġtell ing
Ġbreak ing
ëĭ¤ ì¼Ģ
ë° ¥
ì£¼ ë¥¼
ìļ© íŀĪ
ë¶ Ļ
ëĿ¼ ìĿ´
ï ½
Ġpar adise
ro ll
ĠìĤ¬ ìĭ¤
ĠëķĮ ìĹĲ
Ġì º
who a
ëłĪë £¨
b ig
Ġa u
ìĥģ ì²ĺ
Ã ł
Ġbra in
ëį ©
ĠìķĪ ìĹĲìĦľ
ë¬¸ ìĿĦ
ant as
ëĤĺ ëĭĪ
Ġíĭ Ģ
ing le
Ġê°ĸ ê³ł
Ġí Ī¬
Ġm om
ìĸ´ ì°¨íĶ¼
ìĬ¬íĶ Ķ
± Ħ
ĥ ë
ì½ ©
Ġsing le
ë¦ ½
Ĭ ¨
look ing
Ġsi x
oo oh
ê¹Įì§Ģ ëĤĺ
ãģ »
ì² «
łì ¿ł
ì´ Ī
Ġfa ther
Ġsex y
ł ´
ce ne
Ġbl eed
on ce
ĠìķĦëĭ Īë©´
ë° Ń
ëıĮìķĦ ìĦľ
ĠëĤł ëĵ¤
Ġsong s
Ġê½ĥ ìŀİ
Ġ é
ãĤĮ ãģªãģĦ
ar a
ĠìĤ¬ëŀĳ ëıĦ
Ġì§ Ŀ
Ġí į¼
Ġbit ches
ë³´ ëĭĪ
ê·¸ë¦¬ ìĽĢ
ç ¬ĳ
Ġwi de
Ġtry in
di c
Ġain t
ãģĦ ãģĦ
ĠìĤ¬ëŀĳ íķ©ëĭĪëĭ¤
æ Ŀ
ëĦ¤ ê²Į
ĠìĨ ¡
ģ »
Ġë¬´ ë¦İ
Ġsh out
Ġë º
ãĤģ ãģ¦
ëŀĦ ëŀĦëĿ¼
ëł ģ
Ġlove ly
ĸ µ
ĠìĬ ¹
ì§Ģ ë©´
ë©° ìĭľ
Ġí Ħ¸
i i
ëŀĺ ëıĦ
Ġde vil
w he
Ġwin ter
Ġìŀĥ ìĿĢ
Ġa head
íĿĶ ëĵ¤
m c
Ġk is
± °
av y
ìĽĮ ëıĦ
ëĲ ł
ë¥¸ ëĭ¤
Ġre ma
ì¦ Ī
¸ëĵ Ŀ
. "
ĠìĽĥ ìľ¼ë©°
to ry
Ġc orn
Ġh ill
Ġpic ture
ľ íŀĪ
¨ì ī
b ri
a st
ëĶ° ëľ»
ìł ĪëĮĢ
Ġìŀ¥ ëĤľ
ĠìĤ¬ëŀĳíķľ ëĭ¤ê³ł
Ġst one
Ġhe at
s ho
Ġwhat ever
ìĤ¬ëŀĳ ìĹĲ
Ġlo sing
ëĭĺ ìĿ´
Ġp os
ĠëĪĦêµ¬ ëıĦ
c ra
Ġb om
ì¹´ ìĿ´
Ġd um
ri es
ĠìĿĺ ì§Ģ
ë°Ķ ëĭ¤
ê½ ģ
Ġp ap
Ġê°Ģ ëģĶ
ëĮĢ ëĬĶ
Ġê¸°ëĭ¤ ë¦´
ç Ħ
Ġtry na
Ġì¡° ê¸ĪìĶ©
ĠëĤĺ ëĤĺëĤĺ
ħ ĭ
ä¸ Ĭ
Ġquest ion
íĻ Ģë¡ľ
ê²¨ ì§Ħ
ë ¤Ħ
Ġmi les
ëĬ ¦
ĠíĿĶ ìłģ
ìļĶ íķľ
Ġmother fuck
å¤ ľ
ĠëģĿ ìĹĲ
Ġëª¨ ë¥¼
Ġe le
Ġëª¨ëĳĲ ê°Ģ
g ra
Ġagain st
ĠìķĪ ê²¨
an do
ä ¿
ĠëĸłëĤĺ ê°Ħ
è ĥ
è ĩ
ìłĲ ìłĲ
ì§Ģ ê²Į
ĠìŀĲê¾¸ ë§Į
ir c
ì§Ģ ëĦ¤
Ġlook s
ê·¸ëĮĢ ìĹ¬
Ġs wa
Ġê³ģ ìĹĲìĦľ
ck ing
Ġë°ĶëĿ¼ë³´ ëĬĶ
Ġëı ħ
Ġíŀ Ī
Ġw eak
Ġëĵ¯ ìĿ´
Ġfeel ings
æĥ ³
Ġra ther
th m
Ġsome where
Ġg a
ë¥ ĺ
ĳ ¸
ļ ©
sin ce
ĠìĦ¸ ê³Ħ
ĠìŀĪëĬĶ ì§Ģ
Ĭ Ĳ
ëĵ¤ ìķĦ
¢ Ģ
l on
Ġë² Įìį¨
Ġre peat
2 4
Ġsel f
Ġs of
íĮĮ ëŀĢ
Ġye sterday
ìĹĪ ì§Ģë§Į
bet ter
íĥĢ ë¦¬
ëļ ľ
ĠìĹ¬ ìłĦíŀĪ
in to
ìĺĪì ģľ
ë°© ìļ¸
Ġìĸ´ ëĳĲ
ë¯¸ ìķĪ
Ġë²Ħ ë¦´
ìĭ¬ ìĿ´
Ġturn ing
Ġhu ng
Ġw ow
ãĥ ª
ce d
ëĤ´ ê³ł
Ġì·¨ íķ´
i gh
ìĨį ìĿĦ
Ġsp ir
ĠëĤĺ ëĪĦ
Ġìĭľê°Ħ ìĿĢ
Ġwall s
æ ĢĿ
ìĿĦ ëķĮ
¨ ¸
at i
Ġì§ Ī
Ġsile nce
Ġs y
ìĻ Ħ
ìĹ¬ ìłĦíŀĪ
İ Į
ä ¼
Ġk in
ë§ Īëį°
ê¿Ī ìĿĦ
Ġan yone
ì¡ ±
ĠëĦĪ ë§ĮìĿĦ
Ġhe al
Ġn at
it ar
Ġë¯ ¸ì³Ĳ
íķł ê¹Į
Ġëħ¸ ëŀ
Ġmid dle
ìĿ´ ìļĶ
ï¼ Ł
ëħ ¸ë
Ġêµ ´
Ġê°Ģ ë¡ľ
ãĤ Ĩ
Ġì¹ ¨
Ġs and
Ī Ħ
ìŀĬ ìĿĦ
Ġëĭ ¬ì½¤íķľ
da d
¾ ì
íķĺ ê¸¸
Ġë° ĸ
ĠëĤĺ íĥĢ
Ġê½ĥ ìĿ´
Ġìł Ī
ê· ¹
ê² Ģ
Ġp en
Ġf ie
ãģĪ ãĤĭ
Ġfami ly
a way
Ġstr ange
Ġbr and
íĥĢ ìĭľ
di es
Ġë ¡ľ
Ġclou ds
Ń Ĳ
Ġê³ł íĨµ
Ġê±· ê³ł
Ġê·¸ë Ł´
Ŀ µ
Ġìĺģ íĻĶ
ì£¼ ëįĺ
Ġê°Ĳ ê³ł
Ġíŀĺ ìĿĦ
Ġì§ĳ ìĹĲ
å ¼
, ,
Ġ 7
Ġê±° ë£©
è ¡Į
ê²ĥ ìĿĢ
Ġre f
Ġd ying
íĮĮ ëıĦ
åĪ Ĩ
ë¹ Ī
Ġëĸł ìĺ¬
Ġí ļĮ
Ġìĭ¶ ëĭ¤
up id
æ Į
Ġmean s
Ġgla d
Ġdaw n
Ġf oo
ĠìĹ¬ íĸī
z ed
Ġsa fe
ãĢĢ ãĢĢ
Ġsto rm
on ds
¸ ¸
ëķ Ĳ
Ġìĭ¶ ì§Ģ
Ġri ch
Ġclo thes
íĿ °
po sed
Ġpo int
ê²¨ ìļ¸
Ġl y
Ġsen se
g t
ëĤ´ ëł¤
Ġhur ts
ĠìķĦê°Ģ ìĶ¨
Ġhe ro
å º
Ġìµľ ê³ł
ï¼ ģ
ãģ ²
ëįĶ ëĭĪ
Ġíıī íĻĶ
ĠëĤł ê°ľ
íħĮ ë£¨
ëĭ Ĳ
l ittle
Ġê³ł ìļ´
ê·¸ ê±´
¯ ì
ìĺ¤ ëŀĺ
íķ Ń
ê²ĥ ìĿĦ
ģ Ĳ
¹ í
b b
Ġin st
Ġlong er
use d
íķľ íħĮ
o ve
¡ Ŀ
ë² ¼
Ġíķĺë£¨ ê°Ģ
Ġa me
Ġì³Ĳ ëĭ¤
Ġë°Ľ ê³ł
ê²ł ëĭ¤
Ġsha me
of f
Ģ ľ
Ġê²° êµŃ
ãģ ³
° ©
af ter
st y
¼ Ł
Ġi mp
Ġìĸ´ ì©Ķ
ĠëĲĺ ë©´
is ing
Ġn ee
do es
Ġso ld
¶ ã
ĠâĻ ª
n h
bea ut
ĠëĨĵ ì§Ģ
Ġs cene
ģ ³
Ġë° ¥
Ġê·¸ ê±´
ĠìĦ± ëł¹
Ġê·¸ëĮĢ ìĹĲê²Į
ë©´ìĦľ ëıĦ
ëĭ¤ ëŀĢ
ëª¨ ìĿ´
Ġbot tle
ê³ ±
ìĭľ ë¦¬
ĠìŀĪ ëıĦë¡Ŀ
ìķ ī
Ġwatch ing
æ ³
t re
Ġì¶Ķìĸµ ìĿ´
Ġì¶ ľ
s q
Ġh id
éĸ ĵ
âĢ Ŀ
å ¹
Ġìĸ´ëĸ¡ íķ´
ìĤ¬ ìĿ´
Ġm r
Ġha p
ç ľ
-------- --------
ķ ĳ
Ġíĥľ ìĸ´ëĤľ
Ġl ad
d ing
ë² Īì
ëıĻ ìŀĲ
Ġch orus
¬ëŀ Ģ
ê¶ ģ
Ġë§Ŀ ìĦ¤
Ġsh ut
Ġê·¸ë ĵ¤
Ġho ly
ĠìĻ ¸ì³Ĳ
lea ve
ĺì ³Ĳ
ãģ¾ ãģ§
íķĺ ëł¤
ìŀ ĥ
Ġê² ģ
ãģĿ ãĤĮ
Ġn ah
Ġke y
ê±° ëĭĪ
ë¿Ĳ ìĿ¸
ĠìķĦ ë§Ī
Ġìłķ ìĭł
what ever
íŀ Ĳ
Īë¶Ģ ìĭł
ãģĻ ãģ
wait ing
ê°Ļ ìķĦ
Ġtre at
ãĥ ĥ
et s
¶ Ħ
ìĥĪë ²½
ìĥ ¤
Ġ1 0
Ġbirth day
ĠëĮĢ íķľ
ĠëıĮìķĦ ìĺ¬
Ġë°ĶëŀĮ ìĹĲ
± ħ
ìĬ¤ íķľ
ìĹ Ħ
Ġyo rk
ìĺ¤ ë©´
us ion
íĻ į
ĠìĦľ ìĦľ
oo o
Ġê¸°ëĭ¤ ë¦¬ëĬĶ
ë© ĺ
ë°ĶëŀĮ ìĹĲ
ĠìķĮ ì§Ģ
Ġw ine
ãģª ãĤĵ
hh hh
Ġbou nce
ìĹĪ ê³ł
ëª¨ëĳĲ ê°Ģ
Ġg im
Ĵ ì
ãĤĪãģĨ ãģ«
ĠìĹĨ ëĭ¤ê³ł
Ġìĸ´ ì°Į
ì§ Īë
ëł¤ ìļĶ
Ġê¶ģ ê¸Ī
Ġwal ked
ì§Ģ ê°ľ
ëŁ ´
Ġë³´ ëĤ¸
ĠìĿ´ ê±´
ìķ ĮìķĦ
ri can
qu i
ë² ķ
ê±´ ì§Ģ
ë§Īë ¥¸
ì£¼ ì§Ģ
ĠìĹĨ ê²Į
ĠìĨĮ ìļ©
Ġíķ´ ì¤ĺ
Ġìĺ ¤ì
y u
Ġíķľ ìŀĶ
Ġli vin
Ġf antas
Ġíİ ´
in st
bla ck
æ µ
Ġì ¸ł
Ġd anger
Ġìĺ¤ ì§Ģ
íĳ ¸ë¥¸
hi p
Ġìĸ´ëĶĶ ìĦľ
Ġluck y
b ly
Ġf ake
ê¿Ģ ê¿Ģ
it a
he ar
ĠìĪĺ ë§İìĿĢ
Ġsim ple
ê¹ Ķ
Ġthought s
Ġf ive
ê±° ëĤĺ
Ġqu ick
Ġpie ce
Ġs ug
íı Ń
Ġfun ny
Ġì°¾ ìĿĦ
ë§Į ëĤĺ
Ġê³³ ìĹĲìĦľ
ĠëĤĺ ìĦľ
Ġë§Ĳ ë¡ľ
Ġwr ite
ľ ë¡ľ
ĠíķĺëĤĺ ë§Į
ut ion
Ġê³³ ìĿĦ
pe nd
Ġë§ ¹
Ġm as
Ġlo oked
Ġê¸¸ ìĹĲ
Ġsome thin
ĠìĦł íĥĿ
Ġì§Ģ ìļ¸
ë§ĪìĿĮ ìĿĦ
Ġb es
Ġê±° ëĿ¼ê³ł
ĸ ã
ìŀĬ ì§Ģ
op en
ĠëĶ°ëľ» íķľ
ë¯¸ë ħ¸
Ġì± ħ
Ī ł
Ġc uz
Ġìļ°ë¦¬ ë¥¼
f ree
ìķĺ ì§Ģ
Īìľ¼ ë©´
ìĭ¶ ìĿĢ
Ġë¶Ģ ë¥´ëĬĶ
ìļ ķ
ĠìĻĢ ìĦľ
ë³´ ì¿ł
Ġì§ Ĳ
ìĸ Ĺê²Į
ho p
ĠìŀĲë¦¬ ìĹĲ
ìĤ¬ëŀĳ ìĿ´ëŀĢ
Ġë³´ ëĤ¼
Ġì ¥Ĳ
nd ay
Ġwith in
ìĿĮ ìķħ
Ġf ig
ìĤ ¶
Ġsp ot
Ġêº¼ ëĤ´
Ġl aw
Ġp an
Ġt v
ê°ĢìĬ´ ìĹĲ
³ µ
ĠíĿ °
ì¡° ê¸ĪìĶ©
æ ĸ
Ġwonder ful
2 5
ìļĶ ìĿ¼
m mer
ĠìķĦë¦Ħëĭ¤ ìĽĮ
le br
ë¦¬ ëįĺ
ìĸĳ ìĿ´
ro p
Ġì£¼ ìĨĮìĦľ
Ġë¹Ħ ë°Ģ
Ġíİ ¼ì³Ĳ
Ġpri de
h is
í į¼
ë§İ ìĿ´
ca pe
Ġ !
ers on
Ġsma ll
Ġíıī ìĥĿ
Ġbe lls
Ġë³´ ëĭĪ
ĠëĤ ¬
Ġë³´ íĺ
Ġ *
ìł¸ë²Ħ ë¦°
¦ ´
ĠìĻ ¸ë¡Ń
Ġê°Ģ ëıĦ
Ġë§Ī ìļĶ
Ġs wi
Ġë§Ĳ íķĺì§Ģ
Ġst uck
¦ Ħ
be at
b ro
ëĳĲ ëł¤
every day
Ġì° į
Ġcho ose
ê²ĥ ë§Į
Ġìı ŁìķĦ
s un
Įì ¿ł
ì³ ¤
er n
Ġs il
m me
Ġs qu
Ġíĥ ĵ
ê±°ë¦¬ ëĬĶ
Ġhi p
¼ ģ
c re
ëĭ¨ ëĭ¤
v ol
Ġë§Ĳíķ´ ì¤ĺ
ì ª
ìļ´ ëį°
ìĺĢ ìĸ´
Ġë§Ĳ íķĺê³ł
íĭ °
ìĨĮ ì¤ĳ
Ġs pr
Ġì į
Ġì§Ģ ì¹ľ
Ġangel s
ĠìĺĪì ģĺ
e z
ìŀĲê¾¸ ë§Į
ìĿ¸ ê°ĢìļĶ
ç §ģ
Ĥ ·
ìĭľ ìķĦ
ëĤ ®
Ġëħ ¸ëł¥
Ġrhy thm
Ġnee ded
ĠìĦ¸ìĥģ ìĿĢ
d ri
ĠëĦ ĪëĿ¼
Ġg ho
Ġc irc
ëļ Ŀ
¸ë ©°
u x
ĠìĿ´ ê²Į
Ġê²½ ë°°
Ġìĸ¼êµ´ ìĿĦ
ëĥ Ī
Ġgra ce
ìĦ ¯
ç ©º
Ġëļ ľ
íķ´ ê°Ģ
ìĻ¸ë¡ľ ìļ´
ãĤī ãģªãģĦ
ìĤ Ĳ
Ġì° ¢
it ch
Ġa wake
Ġg ri
ìķĦ ëŀĺ
Ġre s
ì¹´ ëĤĺ
ĠìĥĪë ¡ľìļ´
Ġë§Į ëĵł
Ġblo ck
ëįĶ ëĿ¼ëıĦ
Ġì§ ľ
ìľĦ íķ´
Ġdes ire
łì ¼Ģ
ĠíĹ¤ ìĸ´
Ġê³ł ë§ĪìĽĮ
Ġbo ot
Ģì Ķ¨
Ġê³³ ìľ¼ë¡ľ
Ġmir ror
ĠìĺĪìĪĺ ëĭĺ
ëħ ¸ì
ĠìĨį ìĿĺ
m ar
ë§ĪìĿĮ ìĿ´
yo nd
ë° ĸ
Ġì£¼ ìĿ¸
èĩ ª
Ġëľ¨ ê±°ìļ´
Ġfav or
Ġê°Ģ ìļĶ
ŀ ¬
Ġì« ĵ
Ġëĭ ¦
g es
ĠìŀĪ ëĭĪ
ĠìĽĥ ìĿĦ
¸ Į
ê·¸ë¦¬ ìļ´
Ġsha ll
ìŀ ĩ
ĠëķĮ ë§Īëĭ¤
Ġì ¿
ëķĮ ë¡ł
ĠëĤĺ ìģľ
u u
Ġo b
Ġt er
ì°¨ ê°Ģìļ´
ìĸ´ ê°ĢëĬĶ
Ġë¶Ģ ë¥¼
Ġíķ´ ê°Ģ
ĠìķĮ ìķĺìĸ´
ĠëıĦ ìĭľ
Ġê³ ±
Ġro se
ĠìĤ¬ ìĹ°
l ord
Ġgho st
ì°¸ ìĿĦ
g re
Ġê°ĻìĿĢ ëį°
íĥĢ ëĬĶ
ëĪĪ ìĹĲ
ä¸ ĸ
in a
Ġrun nin
ëĭ ¬ì½¤íķľ
´ ã
li sh
Ġíķĺë£¨ ë¥¼
Ġì§Ģ ìļ°
ĠëĪĦêµ¬ ë³´ëĭ¤
íķł ìĪĺ
Ġski es
Ġsti ck
Ġhum an
ìķ¼ ìķ¼
ĠìĿ¸ ìĹ°
Ġfree dom
Ġdea l
Ġìŀł ëĵ¤
Ġì±Ħ ë¡ľ
Ġu ni
¬ ¸
ãģĤ ãĤĭ
ĠìŀĪ ëĭ¤ê³ł
ìľ¼ ìĭł
Ġíģ¬ ë¦¬ìĬ¤ë§ĪìĬ¤
Ġê±· ëĬĶ
ľ ì§Ŀ
ģ Ķ
Ġp ur
Ġìĸ ¸ëįķ
Ġë§ĪìĿĮ ëıĦ
ŀ ľ
ĠëĴ¤ ë¡ľ
Ġc at
Ġwhe el
ìĿ´ ë©°
Ġwa ve
m n
íĽ ¨
ì¡°ê¸Ī ë§Į
ļ ±
Ġë² ķ
Ġal most
ª ħ
Ġíĺ¼ìŀĲ ìĦľ
Ġs we
Ġc lean
ìŀĸìķĦ ìļĶ
ë¯¸ ìķĪíķ´
ëĭ Īì
Ġê¶ Į
ĠìĿ´ ë¤Ħ
se nt
ĠìĹŃ ìĭľ
Ġê°Ģ ìĤ¬
Ġp us
ë¶ ķ
ĠìĺĽ ëĤł
ĠìŀĪ ëĭ¤ëĬĶ
ìķĦ íĶĪ
Ġ ..
ĠìĿ¼ ìĿĦ
ê¹Įì§Ģ ëıĦ
Īë Ŀ½
Ġì¤Ħ ê²Į
ĠëĤł ìĹĲ
Ġth ri
ìĺ ·
Ġë £¨
ãĤ ¯
ĠëĶ° ìľĪ
ê·¸ë¦¬ ìĽĮ
Ġj oh
Ġany way
ìķĦë¦¬ ëŀĳ
ëıĦ ë¡ľ
ëĤ´ ëĬĶ
Ġëħ Ħ
ë§Ĳ ìĿĦ
h it
Ġëĭ¬ëł¤ ê°Ģ
ph one
Ġíķ ¨
ìĤ¬ ëĿ¼
ul t
at es
íķ¨ ìĿ´
¹ ë³Ħ
ĠìĻ ¸ë©´
Ġëĭ ¬ì½¤
Ġdr own
Ġbe ll
ê²ł ìĸ´ìļĶ
Ĳ ã
Ġëħ¸ ìĿĦ
Ġë¯ ¸ë
ìĬ¤ ëłĪ
ĪìĪĺ ë¡Ŀ
ŀ Ĭ
Ġs uck
to wn
ëĭ¤ìĭľ ëĬĶ
ĠìĨĮ ìĭĿ
å ¯
g ga
ĠìĪ¨ ìĿĦ
ĠìĬ¬íĶ Ħ
íŀ Īë
ìĹ¬ ë¦Ħ
ë´ ī
y y
Ġreali ze
Ġëĭ® ìĿĢ
Ġr ush
Ġê½ ī
ìŀĪ ëĦ¤
ãģĳ ãģ¦
Ķ ±
Ġëª¨ë¥´ ê²łìĸ´
ë¸ Į
ë¬¸ ìĹĲ
Ġre mix
Ġê´´ ë¡ľ
äº ĭ
ģ µ
Ġíĳľ íĺĦ
Ġg e
Ġd ry
Ġlover s
Ġë°ľ ê±¸ìĿĮ
Ġë§Ĳ ìķĦì¤ĺ
íķľ ëĭ¤ë©´
ëģ Ĺ
¨ìī ¬
Ġíħ Ĳëį°
ĳ ¥
Ġì°¸ ìķĦ
t l
ra in
ħ Ħ
ê½ĥ ìĿ´
il t
ëĶ ©
æĺ İ
re al
th ank
Ġëĭ¤ ì§Ĳ
Ġìł ĳ
Ġc al
Ġme lo
ê¸¸ ìĿ´
Ġìĺ¤ëĬĺ ìĿĢ
ë¡Ń ê²Į
Ġslow ly
ĠìĤ¬ìĿ´ ë¡ľ
Ġcrow d
ught er
sh ould
Ġì¢ħ ìĿ¼
Ġmoun tain
li ving
ĭ ¥
ìĿ ĳ
ê·¸ë ķĲ
d ar
Ġì§ĢëĤĺ ë©´
Ġê±¸ìĸ´ ê°Ģ
ĠìĨį ìľ¼ë¡ľ
ĠëĤĺ ëĪ
Ġì¹ ľ
ë°¤ ìĿ´
ìĻ ¸
ëĭ¤ ëĦ¤
Ġì ¼Ģ
ãģ µ
ĠìĤ´ìķĦ ê°ĢëĬĶ
g ing
ìĿ´ ëĭĪ
Ġh om
íĸ ĩìĤ´
ĠìŀĪìĸ´ ì¤ĺ
íĨł ë¦¬
¸ë ¥´
f ind
Ġw at
w ish
Ġê±° ëĭĪ
~~ ~
ëĤĺ ì¿ł
ĠìĹĨ ëĭ¤ëĬĶ
íĿĲ ë¥´ëĬĶ
ĸ Ī
ì§ĳ ìĹĲ
ķľ ìĹĲ
ç µ
Ġdis app
Ġkin da
Ġs al
hu h
ê´ľì°® ìķĦ
se n
Ġem otion
Ġë° Ł
b urn
ìĿ´ ëįĺ
Ġìķŀ ìľ¼ë¡ľ
ìĿ´ ì¸ł
ç Ł
Ġ --
ĠëĴ· ëª¨ìĬµ
Ġì² ´
Ġe ng
Ļ ë
Ġchi ll
ë³´ ë©°
Ġíĺ ¼
Ġlet ter
Ġë¯¿ ìĿĦ
on y
ab out
ĠìķĪ ìķĦì£¼
Ġë¿Ĳ ìĿ´ìķ¼
ê¹Ĭ ìĿĢ
Ġa ma
Ġëĸł ëĤ¬
ìĭľ ìĿ´
ìĭľê°Ħ ìĿĢ
ì¤ĳ ìĹĲ
ten tion
ë¹Ļ ê¸Ģ
Ġë¬ ¸ìłľ
Ġr aise
ĠìĥĿê°ģ ìĿĦ
? "
ìĺµ ìĨĮìĦľ
ë¦¬ ëĭ¤
Ľ Ħ
ìŀ¥ ìĿ´
Ġë³Ħ ìĿ´
ĠëĳĺìĿ´ ìĦľ
ëį ķ
Ġê¿Ī ê¾¸
Ġthink in
Ġrhy me
ĠìłĢ ëħģ
n eath
Ġsug ar
ĺëĮĢ ë¡ľ
Ġc op
Ł ģìĿ´
Ġì ¿ł
ĠëĤĺ ë©´
Ń ê
Ġe st
íĤ ¤ì
ìĹĲ ë£¨
ëıĮìķĦ ìĻĢ
ëĤ Ļ
l ay
ì¹ĺ ì§Ģ
ëĵ¤ ë¡ľ
ë¯ ¸ëł¨
dd en
é Ļ
rou ght
a ge
ĠìĹĨìĸ´ ìĦľ
ìĸ´ ëĤł
Ġë» Ķ
ëłĩ ì§Ģ
Ġëĭ¤ íķ´
Ġlo ose
íķĺëĬĺ ìĹĲ
ķ ħ
ĠëĪĪ ëıĻìŀĲ
Ġë²Ħ ë¦¬
ìłķ ìĿĦ
Ġì¤ĳ ìĹĲ
åĲ Ī
ãĤ Ģ
beaut iful
ê³ł íĸ¥
c us
Ġë°Ķ ë
íķĺëĤĺëĭĺ ìĿĺ
Ġê´ ĳ
ne s
Ġfall in
Ġê·¸ ê³³
z z
Ķì½Ķ ë¡ľ
Ġ Ã
Ġgl ass
ĠìĹĨ ìĹĪëįĺ
Ġa b
Ġa go
ë³´ ìĹ¬
ë³´ ì§Ģ
Ġwe st
Ġsof t
Ġcorn er
Ġd j
Ġì²ľ êµŃ
ê¸° ì§Ģ
Ġma ch
ìĺ¨ ëĭ¤
Ġë¯¸ ì¹ľ
¡Ń ê²Į
Ġìĭľê°Ħ ëĵ¤
ëĤ Į
Ġë°¤ ìĿĢ
Ġê¸°ìĸµ ìĿ´
ĠíĹ¤ ìĸ´ì§Ģ
ĠëŀĦ ëĿ¼
ìĭ ¹
Ġê° ĩ
ĠìĽĲ ë§Ŀ
w l
Ġfor got
ìŀĲ ìĭł
ìĻĢ ìĦľ
ĠìķĦëĭĮ ëį°
Ġë¬¼ ê²°
Ġë§ŀ ì¶Ķ
Ġt ou
Ġcha in
Ġex c
ì£¼ ë©´
ìĺ¤ ëŀľ
Ġê·¸ ìĿĺ
do o
ĠìķĪ ìķĦì¤ĺ
ê°Ģ ìĿĦ
Ġëĸł ìĺ¬ëĿ¼
æ° Ĺ
ĠëĤĺ ìķĦ
Ġlear ned
Ġd ust
¹ ł
§ ĺ
ìĽĢ ìĿ´
Ġë§Ĳ ìĹĨìĿ´
ëį° ëª¨
ëģĿ ê¹Įì§Ģ
l r
Ġëĺĳ ê°ĻìĿĢ
Ġm ur
s ong
s up
Ġdre ss
¦ Īì
ìŀ¥ ìĿĦ
ì¦ ĺ
ç ķĮ
Ġìĸ´ ëĶĺ
Ġì§Ģ ê³ł
Ġì¡° ê°ģ
ĠíĽĦ ìĹĲ
ª ĩ
c ou
Ġìĸ´ëĬĲ ìĥĪ
Ġì° Į
ãĤĤ ãģ®
Ġc ash
ë£ °
Ġsurvi ve
Ġë³Ģ ì¹ĺ
¬ ¼
Ġëĳĺ ëŁ¬
he art
Ġp ill
ìĨ¡ ìĿ´
ĠìŀĲ ëĿ¼
Ġë©Īì¶ ľ
Ġf e
Ġsw ee
Ġl es
Ġhu nd
Ġfla me
ĠëĶ Ķ
Ġëħ¸ëŀĺ ê°Ģ
ome n
Ġìĺ¤ ëŀľ
ĠìĿ´ ê²¨
ìĿ´ ë£¨
p ar
ĠìŀĪìľ¼ ëĭĪ
ê·¸ ëĦ¤
ãģĭ ãģª
ĠìĿ´ë³Ħ ìĿĦ
ng th
try ing
Ġë³´ìĹ¬ ì¤ĺ
Ġëª¨ ìŀĲ
Ġpap er
Ġco ll
ìķ½ ìĨį
rou d
c c
Ġmo vi
íħĮ ëª¨
Ġëĭ «
ìķĮ ê³ł
ic es
er y
Ġìī ½
d amn
ĠëĤł ìĿĦ
Ġbot tom
at ely
Ġwr it
¢ ¨
ĠëĤ´ ìĤ¬ëŀĳ
ë¹Ľ ìĿ´
' )
íĤ ¨
Ġwor king
ìĹ ī
Ġb ow
n j
Ġgro ove
Ġmid night
Ġrain bow
ìķĦ íĶ
½ ë
µ ã
ĠíĿ ¥
Ġê´ľì°® ìķĦìļĶ
Ġde c
ìľ¼ ë©´ìĦľ
ĠíĤ¤ ë¯¸
Ġsw ing
² ģ
ĠìĻ¸ë¡ľ ìĽĮ
ľë¡ľ ëĶĶ
Ġë¯ ¸ì
ì£¼ ìĺ¤
ho t
c tor
ìĥĪë ¡ľìļ´
Ġì²ľ ìĤ¬
Ġì°¾ ê³ł
ĠëŃĲ ê°Ģ
ĠíĹ ĺ
ĠìĪ Ļ
ĠìĹĨ ìĹĪìĸ´
Ġli l
Ġì°¨ ê°Ģìļ´
Ġli f
le nt
íķĺ ìĦ¸
Ġê¼¬ ë§Ī
Ġëª» íĸĪ
íģ ´
d eep
Ġëª°ëĿ¼ ìļĶ
ë¹ł ë¹ł
ı Ī
Ġíķĺ ëĭĪ
ëĦ ĪëĿ¼
Ġê°Ģ ëĿ¼
Ġpl ea
Ġho le
Ġc u
Ġfor give
Ġì°¾ ëĬĶ
å °
ĠíķĺëĬĶ ì§Ģ
ìĺ Ľ
Ġcan t
íĳ ¸
r ing
ĠìĪ¨ ê²°
ëŀ į
Ġë°ĶëĿ¼ ë³¼
Ġhe avy
ĭ °
Ġbr own
ne y
0 1
ĠìĨĮ ìĽĲ
ck in
mo ve
Ġf ew
g n
ãģ® é
íķĺ ëĭĪê¹Į
ĠëĶ ¸
Ã ¡
w ant
Ġbir d
íĨ łì
u nd
íı °
Ġê·¸ ë¦¼
Ġhe ld
Ġout ta
Ġr om
ëĥĲ ê³ł
x t
Ġgim me
ĠìĦľ ìļ¸
c ti
ĠìĨį ìĿĦ
ëłĪ íĥĢ
Ġë¶Ħ ëªħ
ëĭ¤ ìĭł
Ġíķĺ ë©°
g round
b een
Ġsup posed
ot e
ìĦ¸ìĥģ ìĿĢ
ë°ĺ ë³µ
Ġr an
ro om
Ġëª¨ìĬµ ìĿĢ
ĠìŀĪ ìĹĪìĸ´
Ġëª¨ìĬµ ìĹĲ
ê¸° ë¶Ħ
ë¥ ´ì
çĽ ®
íķľ ëį°
Ġv ision
Ġëĭ¬ ìķĦ
Ġê°Ĳ ì¶Ķ
Ġh ood
Ġj ob
ìĦ¸ìĥģ ìĿĦ
m oney
ëľ¨ ê±°ìļ´
ìĺĢ ëįĺ
Ġte nder
Ġre turn
Ġë¯¸ìĨĮ ë¥¼
Ġì½ ©
Ġgl ory
c al
ãĤį ãģĨ
ĠìĹ° ëĿ½
Ġcri ed
Ġbeaut y
Ġl ying
ìŀĪ ê²Į
ë§ ģ
ë§Ī ë¦¬
h s
ê¸¸ ìĹĲ
Ġê¸° íļĮ
hi gh
Ġdi ed
ë§Ĳ ëıĦ
Ġíĸīë³µ ìĿĦ
Ġsor row
ìĽĮ ì§Ħ
l ine
un t
Ġìĸ´ ìĥī
Ġì¢ĭìķĦ íķĺëĬĶ
bri dge
3 0
ãĤĵ ãģ§
ë¬¼ ìĿ´
Ġê·¸ëŀĺ ëıĦ
Ġsleep ing
§ ¸
Ġb ust
ãĤ ¢
Ġë¹ Ħì
i st
ë²Ħëł¸ ìĸ´
ìļĶ ì¦ĺ
Ġm c
âĢ ĺ
si st
Ġty pe
ëĭ Į
å ±
Ġë³´ ì§Ģ
ĠíĿĲë¥´ ê³ł
ĵ ¯
ëħĦ ìĿ´
Ġvi ew
ìķĦ ì§Ģ
ê·¸ë łĩ
Ġê¸°ëĭ¤ ë¦¬ê³ł
ĉĠ ĉĠ
Ġfight ing
ê² ¹
ĠëĪĪë¬¼ ë¡ľ
Ġë§Ĳ ëĿ¼
de st
ìĹĲ íĹ¤
ëł ¸ëįĺ
Ġìĺ¤ ë¹ł
Ġë°© íĻ©
Ġíķľë²Ī ë§Į
Ġstrong er
Ġhap pened
ìĺ Ĩ
Ġshadow s
íĤ¤ ìĺ¤
Ġì£¼ëĭĺ ìĿĦ
ì§Ģê¸Ī ëıĦ
Ġsome day
ĠëĳĲ ëłµ
Ġê°Ģ ìļ´ëį°
ìķĦ ê¸°
Ġê »
ìĭ «
Ġë§Ĳ ìĿ´ìķ¼
Ġìĸ¼êµ´ ìĿ´
Ġìłĸ ìĿĢ
Ķì Ķ©
ħ ëĭĪëĭ¤
i x
b orn
Ġwo ah
Ġw is
Ġb less
ìħ Ķ
ĠëĤł ëł¤
ac t
Ġsu b
ĠìĿ´ ìĬ¬
ê·¸ë Ł´
Ġë¬» ìĸ´
Ġì¢ĭ ê²łìĸ´
Ġë§ĮëĤĺ ê³ł
Ġh y
ãģį ãģ£ãģ¨
Ġê±°ë¦¬ ë¥¼
íķĺ ìĭľ
ìķ¼ íķ´
Ġëĭ¤ìĭľ ëĬĶ
Ĥ Ĵ
w s
Ġì´ Ī
Ġëĭ¿ ìĿĦ
ir d
ê¼¬ ë§Ī
ea ch
Ġdi ck
ìĦ± ëł¹
é ģł
w ind
Ġíķł ê¹Į
ìĺĪìĪĺ ëĭĺ
ìķĦ íĶĦ
feel ing
Ġê¸ Ī
Ġbes ide
ìĿ´ íķ´
Ġëĵ¤ìĸ´ ê°Ģ
ba d
ĠëĦĵ ìĿĢ
Ġplay ed
ä ¹
ì ·¨
w ard
ĠëĦ ĺì³Ĳ
Ġê¸¸ ìĿĢ
Ġtwi ce
Ġend s
Ġgu itar
Ġst upid
ì°¬ ìĸĳ
Ġëĭ¤ ìĭł
ìĤ¬ëŀĳíķľ ëĭ¤
Ġmoon light
ī į
ĠíħĮ ëĭĪê¹Į
è ī
Ĩ Ĳ
ãģĳ ãĤĭ
Ġfo ot
ĠìĹĨ ì£ł
Ġproble m
~ )
ħ ë
ĠëķĮ ê°Ģ
Ġëĭµ ëĭµ
ìĸ ĺ
Ġë¬¸ ìĿĦ
Ġìĸ¸ìłł ê°Ģ
ĠìĨĮë¦¬ ì³Ĳ
ä½ ł
ĠíĮĮ ëŀĢ
Ġìŀ¬ ë¯¸
ëŀ ´
Ġê°ĻìķĦ ìĦľ
ìĤ´ ìĿ´
Ġê³ģ ìĿĦ
íŀĪ ëĬĶ
Ġst ea
c ry
Ł ģ
ĠìķĬ ìķĺìĸ´
Ġd iv
² ķ
Ġwhi ch
fi ed
Ġvi be
Ġp ark
Ġgame s
re ts
Ġru les
è ¶
res sed
Ġë± ī
Ġtre es
ë°¤ ìĹĲ
ë¦ ĩ
Ġspir it
Ġp um
Ġt ee
wa l
Ġnew s
ĠìĨĶ ì§ģ
Ġes cape
Ġê°Ģ ì§Ģê³ł
Ġë² ½
Ġëķħ ìĹĲ
ì ĩ¼
Ġsome how
ĠíĶ¼ ìĸ´
Ġleave s
ë¹ Ĺ
åº ¦
Ġso lo
ì¡ Įìĸ´
y ea
ĠëĤłìķĦ ê°Ģ
Ġgold en
ìķĦë¬´ ëŁ°
ĠìķĦë¦¬ ëŀĳ
ĠìĹ ĺ
Ġê°Ģ ìĭľ
Ġì²ľ ì²ľíŀĪ
ä¸ĸ çķĮ
ìĸ´ ìĸ´
Ġsat is
Ġany body
ìĭŃ ìŀĲê°Ģ
ĵ °
Ġì»¤ íĶ¼
Ġì¦ Ŀ
ëĤł ìĿ´
p or
¨ ¼
ple te
¥ ê
Ġë´Ħ ìĿ´
ìĿ´ ëŁ¬
Ġgr and
ĠíĤ¤ ìĬ¤
ëĭĪë ª¨
ìĦ¤ ëłĪ
Ġl ines
Ġì¶Ķìĸµ ìĿĦ
ĠìĨĮ ëħĢ
e k
Ġì°¬ìĸĳ íķ´
íıī ìĥĿ
ī ê²Į
Ġìĸ´ ë¨¸ëĭĪ
Ġë¨¸ ë¦¿
íķ Ħ
ç ´
© Ķ
Ġìŀĥ ìĸ´
ëģ ĶìĶ©
ìķĦ ëĤĺíĥĢ
é £
ĠìĶ ¨
la st
Ġf ate
ĠìķĦëĭ Ĳ
ìĨį ìľ¼ë¡ľ
ë¬ µ
ìĺģìĽĲ íķľ
ê·¸ëĮĢ ë¡ľ
Ġì¢ĭìķĦ íķ´
Ġe vil
Ġdr unk
ë§Ĳ ìĿ´
Ġëª°ëŀĲ ìĸ´
ìŀ Īëįĺ
Ġc oo
ä ¾
ve nt
Ġce lebr
ĠíħĮ ëĭĪ
ĠìĤ¶ ìĹĲ
Ġíģ¬ ìĭł
Ġìĺ¬ ëł¤
Ġfavor ite
ëĵ¤ ìĹĲê²Į
Ġë§ĪìĿĮ ìľ¼ë¡ľ
Ġtur ns
clo se
Ġĉ ĠĠĠ
th row
ëĨ Ī
Ġcol or
Ġwea ther
Ġn on
sl ow
Ġsur pri
th an
ĠìĪ¨ ê²¨
Ġf ra
Ġë§ĺ ìĨįìĹĲ
Ġëħ¸ëŀ ł
Ġdou ble
ì§Ħ ì§ľ
Ġì§Ģ ëĬĶ
Ġb ass
ëŀ «
ĠìĿ´ ê¸°
Ġm akin
Ġhund red
Ġca p
ê·¸ë Ł¼
ĠìķĮ ìŀĸìķĦ
Ġf ad
ëĦĪ ê°Ģ
j ump
in o
ĠìķĬ ëĦ¤
ĠëıĦ ë§Ŀ
íŀĺ ëĵ¤
Ġìŀĺ íķ´
Ġë°Ģ ìĸ´
Ġë§Īë ĶĶ
Ġe dge
Ġs ig
ìĨĶ ì§ģ
Ġsu nday
Ġqui et
Ġke pt
Ġì ħĭ
ì° į
.... ....
ëł¤ ëĤĺ
æ Ĥ
ëł¸ ìĸ´
ìĽĥ ìĿĮ
i ed
ìł ĢìĶ¨
ìĿ ¸ëĵ¤
Ġw omen
íĿ ¥
Ġclo ck
Ġhour s
Ġë© ľë¡ľëĶĶ
ìľ¼ ìĨĮìĦľ
ê°ĳ ê²Į
ê±° ìļ¸
Ġìĭľìŀĳ íķ´
w ty
Ã Ń
é¡ Ķ
è µ
Ġpri ce
ãĤ ĩ
ĠìłĢ ê¸°
ĠëĤĺ ë¹Ħ
Ġê¿ Īëĵ¤
Ġf ro
Ġfly ing
Ġìĭ¶ ì§Ģë§Į
Ġpla ces
ì§ĢëĤĺ ê°Ħ
some where
1 5
ĠíĹ ĪëĿ½
Ġc our
ìļ¸ ê³ł
Ļ ê
ìĺ¤ ëĦ¤
ëĦĪ íĿ¬
th a
ëį ¤
è ĳ
Ġê· ĵ
Ġê½ĥ ìĿĦ
h oney
Ġp oc
ĭ ´
Ġg low
ëĶ ª
Ġê°Ħ ìłĪ
ì ª½
ĠìĤ´ìķĦ ê°Ī
Ġsay in
Ġp roud
mm m
Ġëª¨ëĵł ê²Į
ì½Ķ íĨł
Ġlad ies
ë²Ħ ë¦¬
ãģĹ ãģı
4 0
ãģļ ãģ£ãģ¨
ĠëıĮìķĦ ê°Ī
ê°Ģ ëĵĿ
Ġëĵ ł
Ġë¬´ ìĸ¼
Ġcla p
un ch
ĩ Į
Ġqu ite
ê·¸ëŁ¬ ëĤĺ
Ġë ł
ĠëķĮ ëĬĶ
c ent
Ġìķ łìį¨
ëģ Į
Ġf it
Ġì¡°ê¸Ī ë§Į
ĠëģĮ ìĸ´
ĠíĿ¬ ë¯¸
Ġdre ame
Ġp eep
Ġhard er
Ġíĺ ¹ìĭľ
Ġê±° ëĿ¼
Ġfre sh
t on
ëĶ°ëľ» íķľ
Ĭ µ
Ġstu ff
ãģ« æ
Ġë³Ģ íķĺì§Ģ
Ġì´ ĪëĿ¼
ìłĦ íĻĶ
ĠâĢ ĺ
ãģĿ ãģ®
Ġíķł ìĪĺ
ĠëĿ¼ ëĿ¼ëĿ¼
some day
Ġê±° ìļ¸
fall ing
Ġëįĺ ìł¸
ãĥ ī
Ġĉ ĠĠ
ì¹ Ļ
ĠëĤĺ ëŀĢ
Ġex plain
Ġe ne
ĠëĲĺ ì§Ģ
Ġbat tle
ke s
ĠëĨĢ ìķĦ
Ġins ane
çŁ ¥
åĪ ĩ
re ss
Ġba g
Ġê°Ģ ì§Ģë§Ī
ĠìĪ¨ ìĿ´
hh h
Ġíķĺ ìĹ¬
ê°Ģ ë¡ľ
Ġde ci
ìĽĢ ìĹĲ
Ġìĭ¶ìĸ´ ìĦľ
Ġìĭł ê²½
Ġê³µ ê°Ħ
¦ ì
Ġt ong
¾ Į
ìĿ´ íħĮ
ìĻĶ ìĸ´
´ Ĳ
2 1
Ġfun ky
Ġfantas y
ãĤ ·
Ġì¦Ĳ ê²¨
ìĸ´ëĳĲ ìļ´
ł ¸
ëķĮ ë¡ľëĬĶ
å ½
Īë¶Ģ íĦ°
c ket
Ġf air
ëĤĺ ë¹Ħ
Ġê° ľêµ¬
íķł ëłĲë£¨ìķ¼
ëħ Ĳ
Ġstre ngth
ëŁ ī
sh it
Ġë ĿĦ
å ĭ
Ġf at
Ġê°ĻìķĦ ìļĶ
Ġhang ing
ìĺ¤ ë¥´ëĬĶ
lo st
Ġstart s
he lp
ba bly
h and
Ġëª¸ ìĿ´
ĠìŀĲ ê¸°
Ġë°Ģ ëł¤
Ġë¬´ìĹĩ ìĿĦ
Ġì£¼ëĭĺ ê»ĺ
Ġh aving
ëł Īì
Ġkill ing
go ing
ìľĦ ë¥¼
Ġcount ry
g ine
Ġë¦¬ ëĵ¬
§ ĵ
ĠëĿ¼ ëĿ¼
ìŀĲ ëĬĶ
ì£¼ ê°Ģ
Ġì¢ĭ ëĭ¤
ĠëĸłëĤĺ ì§Ģ
æĦ Ł
Ġì°¾ìķĦ ìĻĢ
íħ ħ
Ġìĭ« ìĿĢ
Ġst ate
Ġbe yond
Ġe d
Ĳ ľ
ĠìĹ ī
ĠìĪ¨ ìĸ´
Ġë³Ģ íķ¨
he aven
ri se
ni gga
ìĦ± ìĿ´
ì ĩ
Ġì¶© ë¶Ħ
Ġíķĺ ëĬĶëį°
Ġê²¬ ëĶľ
ê¸° ì
1 8
Ġìĭ ¹
Ġëĸł ëĤĺëĬĶ
Ġbo x
ri ca
Ġb ones
Ġs me
Ġíķľ ëĭ¤
ĠëĪĪë¬¼ ëıĦ
ur day
Ġë°ĶëĿ¼ ëĬĶ
Ġfie ld
Ġì ¼ľ
ìĹĪ ìĸ´ìļĶ
Ġë³´íĺ Ī
Ġë³´ê³ł ìĭ¶
ķ Ĭ
Ġco ver
Ġì£Ħ ë¥¼
Ġíķ Ń
ĠìĤ¬ëŀĳìĿ´ ëŀĢ
íĶ Į
Ġgive n
ãĤ ³
Ġë§ ĳìĿĢ
ou l
Ġìĺ· ìĿĦ
Ġho es
Ġmo vin
Ġti l
m usic
ĠëŀĦ ëŀĦëĿ¼
ĠìĿ´ë¦Ħ ìĿĢ
Ġso l
ìł¸ ëıĦ
Ġtake n
Ġhave n
ê°Ģ ë¥¼
Ġth ang
ë³´ ëĤ´
Ġs m
in ed
Ĥ ¯
æ ·
Ġre l
ì¹ĺ ë©°
½ ìĿ´
Ġíŀĺëĵ¤ ê²Į
Ġi d
ì¹ ¸
el u
ëĤł ìķĦ
Ġtri p
¸ë ¥¼
ĠíĿĺ ëł¤
Ġmelo dy
u al
Ġì£¼ ìĹ¬
ĠëĴ¤ ëıĮìķĦ
ì§Ī ê¹Į
ê·¸ë ĵ¤
ãģ« ãģ¯
ë¯¸ ìĨĮ
Ġìŀ¡ ìĿĦ
Ġë§Ĳ íķĺëĬĶ
ëĨ Ķ
ĠìĿ´ ë¥´
ì ĳ
Ġê°ĢìĬ´ ìĿĢ
Ġpie ces
ever yone
er ing
Ġê º
ĠìĺģìĽĲ íĨłë¡Ŀ
ĠëĤ¨ ê¸°ê³ł
Ġê¹Į ì§Ģ
æĿ ¥
Ġca st
Ġê·Ģ íķľ
Ġb or
Ġst eal
si ble
ãģ® ä¸Ń
j ah
ìŀĬ íĺĢ
co l
Ġfi x
Ġíĥľ ìĸ´ëĤĺ
Ġëĸ ¼
Ġc ro
Ġqu it
Ġë§¤ ëł¥
ë² Įìį¨
Ġê¸° ìłģ
² Ī
Ġreg ret
Ń í
oh h
2 2
ì§Ħ ëĭ¤
ëŀ ¨
er a
ìĽĢ ìĿĦ
ec t
uc ked
Ġs po
Ġdest iny
r on
ìĦ ¼
Ġë» Ĺ
ħ¨ ëĦ¤
ìĿ´ íĥĢ
ĠíĮ ¨
ĠìĽĥ ê²Į
ĠëĪ Īë
ìĺ¤ ì§Ģ
wo ah
ìŀĪ ìĿĦ
äº Į
ĠìķĮìķĦ ìļĶ
ĠëģĿ ëĤ´
ni e
Ġp erson
ì¢ Į
ëĭ ĪìĻĢ
you ng
one st
ìĤ¬ëŀĳ íĸĪëįĺ
ìĿ´ ë¥¼
ìķĪ ê³ł
ste red
Ġë¶Ģ ëģĦ
Ġëħ¹ ìķĦ
Ġs le
ĠìĿ¼ ìĥģ
Ġcra ck
ä¿ ¡
che r
i an
Ġdiam ond
Ġìĺ¤ ìĭľ
ê´ ´
ĠìĦ¸ìĥģ ìĹĲìĦľ
ìĤ¬ëŀĳ íĸĪ
ģ ¹
Ġë§Īì ħĶ
ta ins
Ġë¶Ģ ìĦľ
ìĬ ¤ì
æ° £
Ġëª¨ ìķĦ
Ġê¿Ī ìĿĢ
Ġíĸīë³µ íķĺê²Į
Ġ1 9
ìĦľ ìļ¸
ëª °ëĿ¼
Ġb rought
ì°¨ ê²Į
ëĤĺ ë¦¬
ë°¤ ìĥĪ
ĠíķĺëĬĺ ìĿ´
ëĤĺëĤĺ ëĤĺëĤĺ
ĠìķĦ ëĵ¤
í Ģ
Ġin ter
ĠìĹ Ħ
Ġcli mb
ìķ łìį¨
we lcome
sl eep
ma ma
Ġf ri
ħ Ī
Ġìĵ °ë¦¬
Ġë³´ ê²Į
ìłĦ ë¶Ģ
ĠìĤ Ĳ
ĠìķĦë¬´ ë¦¬
Ġpo or
Ġë°¤ ëıĦ
ìĸ´ëĸ ¡
ëĵľ ëł¤
ë ī
ĠìĪ ¨ìī¬
ì½Ķ ëħ¸
Ġë§¹ ìĦ¸
Ġê²ĥ ëĵ¤
ĠëĦĪ ê°Ģ
i me
ĠìĤ´ ì§Ŀ
Ġê°Ĳ ìķĦ
ĠëĦ £
å¥ ½
ìĸ´ëĶĶ ìĦľ
Ġlea st
ģ ¶
our s
íħ Įì¿ł
Ķ °
Ħí ļ
ĠíĮ Ĳ
ĠìĦ¸ìĥģ ìĿĺ
íħĮ ëĭĪê¹Į
ĠìŀĬ ìľ¼
Ġi g
ãĤ «
Ġfac es
n eed
Ġ ur
bl ing
Ġstr anger
Ġë§¡ ê²¨
Ġê³¼ ê±°
ì§Ģ ëĿ¼ëıĦ
Ġë°© ìļ¸
pp er
che ck
a ded
Ġìļķ ìĭ¬
for get
run ning
ë£ Į
ìĿ´ ìĬ¤
ha d
íķĺëĬĺ ìĿĦ
ĠìĿ´ ê³³
ë¹ ¡
Ġja ck
ĥ Ŀ
Ġfing er
Ġê±° ì§Ģ
ê²¨ ìļ´
Ġê´´ ë¡Ń
Ġë°Ķë³´ ì²ĺëŁ¼
Ġê·¸ë¦ ½
Ġroll ing
Ġs ent
ī ë
Ġn one
ãģĵ ãģĨ
Ġì§ĢëĤĺ ê³ł
Ġroll in
Ġany where
Ġê³³ ìĿ´
ì§Ģ ì¹ľ
¡° ì°¨
ê°Ģ ìŀĲ
ëģ Ī
Ġìĭ¬ìŀ¥ ìĿ´
íĿ¬ ë§Ŀ
ĠìĥĿê°ģ íķĺë©´
Ġdri ving
ë§Į ìľ¼ë¡ľ
Ġê³Ħ ìĭł
ëŃ ĩ
Ġu na
ìĿ¸ ìĿ´
ë¦ ī
ĵ ľ
Ġpa th
ĠìĿ¼ ëıĦ
Ġf eed
ê°ĢëģĶ ìĿĢ
Ġbom b
ëĦ Īë
com ing
ĠìĦľë¡ľ ë¥¼
Ġwee k
Ġmer cy
di e
ëĭ¤ ìĿĮ
ķ Ģ
ìĺģ íĻĶ
gi mme
Ġse ven
ìĽĲ íķľ
d is
ìĸ´ ë¨¸
Ġs ac
ì¯ Ķ
ãĤ ¿
Ĺ ĩ
Ġne ck
Ġfac t
¿ Ģ
Ġë³Ħ ìĿĦ
Ġthri ll
Ġrom ance
Ġrec ord
ìłĦ íķľ
1 6
ìĺģ ê´ĳ
ĠìŀĲ ëŀĳ
Ġìŀħ ê³ł
Ġìŀ¥ ë¯¸
ê¾ ¼
Ġre mind
Ń ĺ
ê±°ì§ĵ ë§Ĳ
Ġwhis per
ëĭ «
Ġë°Ķë³´ ìķ¼
íķł ëķĮ
ëıĮ ìĿ´
Ġn u
ì£¼ ê¸¸
Ġfall s
ëĤĺ ì§Ģ
ê°Ģ ìķ¼
Ġë°Ľ ìĿĢ
Ġë¬ ¶
ĠìĤ¶ ìĿ´
Ġb on
ìĸ´ ì§Ģê³ł
======== ========
ìķĦíĶ Ķ
Ġë°ĶëĿ¼ë³´ ê³ł
sa ge
ì°¾ ìķĦ
Ġì§ĢëĤĺ ê°Ħ
ĠìĪľê°Ħ ìĿĦ
x y
Ġì¡° ì°¨
ric s
jo y
ãģ¾ ãģ¾
ìļ´ ëªħ
Ġden y
ìĦ¸ìĽĶ ìĿ´
fa ce
li ce
Ġpre s
íķĺ ìĦ¸ìļĶ
Ġh ust
k u
ain t
ìĬ¤ ëıĦ
Ġl ater
Ġc up
ĠìĻĢ ëıĦ
Ġê¸°ë¶Ħ ìĿ´
ë µ
Ġíķĺ ëįĺ
le y
Ġpro ve
ìĦľ ìķ¼
ìĭľ ìŀĳ
ëłĪ ëĤĺìĿ´
ëĭ¤ ëĭĪ
Ġì¤ĺ ìļĶ
fi re
Ġmove s
Ģë½ Ģ
ãģªãĤĵ ãģ¦
ĠëĤ´ëł¤ ìĻĢ
Ġì§ĢëĤĺ ê°Ģ
Ġë¬´ ëĮĢ
ì¹ĺ ë©´
w w
ĠìŀĬ ìĿĢ
ĠëĤ´ ë§ĪìĿĮ
Ġsound s
Ģ »
ìĬ¤ ë¡ľ
whe never
Ġì§Ģê¸Ī ìĿĢ
ê²ł ìĨĮ
bl ue
¸ì ¸ł
ĠëĤ´ ë°Ģ
Ġam or
ľë ļľ
ìĵ ±
am p
é ¢¨
¸ į
wal king
Ġex p
ĠìĹ´ ê³ł
ĠëĤ¨ê²¨ ì§Ħ
Ġë³Ħ ë¹Ľ
Ġëĸ¨ ëł¤
Ġp u
Ġli ft
Ġt all
ĠìĪľê°Ħ ìĿ´
ìĦ Ń
ĠíĸĪ ì§Ģ
Ġmy ster
so l
! "
Ġì¶ °
en ty
Ġê³ł ê°ľë¥¼
Ġ2 0
Ġìŀł ê¹Ĳ
ĠìĹ´ ë§¤
ì¤Ħ ê»ĺ
æľ ª
ãģ İ
Ġíŀ Ļíķ©
ìĿ µ
¬ ã
ni a
Ġíķ Ļ
Ġwi fe
Ġf ame
ë¶ ĪëŁ¬
ĵ ±
g en
ëŀĦ ëĿ¼ëĿ¼
Ġìŀł ëĵł
Ġëľ ¬
Ġì¢ĭìķĦ ìĦľ
Ġfig ure
th ose
ë§Į ìķ½
ìĤ¬ ê°Ģ
ì£¼ ìĨĮìĦľ
Ġmir ac
ì§ĢìķĬ ìķĦ
ì© ľ
ê²¨ ìĽĮ
Ġê° ģ
th y
Ħ ł
Ġmach ine
Ġìĵ ¸
Ġb ound
ìķĦ ë£¨
² ¨
re st
ĠëįĶ ëĬĶ
ëĮĢ íķľ
ìĿ¼ ìĸ´ëĤĺ
Ġê±· ëįĺ
íķĺë£¨ ê°Ģ
5 0
sel ves
d anc
Ġëĭ¬ ìĿ´
Ġê³ ¡
ìĸ´ ìķ¼
Ġê²Ģ ìĿĢ
ĠìĤ¬ëŀĮ ëĵ¤ìĿ´
íĨł ìĺ¤
ì¶ ¤
ìłķ ìĭł
Ġsi ster
Ġsc re
Ġì§Ģê¸Ī ëıĦ
Ġìĺ¬ëĿ¼ ê°Ģ
ìĻ łì§Ģ
c ted
ĠëıĮ ê³ł
Ġcare s
ê±¸ ê¹Į
ĠíĬ ¹ë³Ħ
Ġì§§ ìĿĢ
ma de
Ġë¶Ī ìķĪ
ĠìĻĢ ìļĶ
Ġfing ers
íĺĦ ìĭ¤
Ĥ ¹
he t
Ġì°¾ìķĦ ìĦľ
Ġíķĺ ìĭľëĦ¤
ëĥ ĩ
ìĿ¼ ìĿ´
Ġsil ver
ĠìĺĪ ìłĦ
Ġin no
Ġj ud
ê±° ëĿ¼ê³ł
ãģĻ ãĤĭ
Ġbre e
ī ê
good bye
Ġdis co
ë¬ »
ìŀ¥ ëĤľ
d in
ìĺĪ ìłĦ
ĠëĲĺ ëıĮ
Ġë¹ł ì§Ħ
Ġma ster
½ ģ
ĠìĹĲ íĹ¤
ĠìĻ łì§Ģ
ìĿ´ ìĻĢ
Ġbus iness
Ġë¯¸ìĨĮ ê°Ģ
Ġê·¸ ëĬĺ
ĠëĤł ìĿĺ
ëĿ¼ ìĦľ
ãĥ Ł
ĠëĶ ´
Ġsp it
ĠìĥĪë ģ¼
Ġìŀ İ
íĻ ķ
ìĺ¤ ê³ł
1 4
Ġë ģ¼
Ġca se
l m
ĠìķĦ ê»´
Ġë°Ķ ëĭ·
ìĿ´ìłľ ìķ¼
Ġhapp iness
Ġëķ ¡
¼ Ī
p op
i sed
ĠëĶ° ë¥´
ë¶ ģ
Ġsp eed
su mmer
Ġë¯¿ ëĬĶ
Ġcr ash
ma king
at ic
at in
ĠëĪ Īìľ¼ë¡ľ
Ġë¶Ģ ëĬĶ
èī ²
çĦ ¡
íķĺ ìŀĸìķĦ
Ġëĭ¤ê°Ģ ê°Ģ
Ġê±° ìĺĪìļĶ
Ġìĺ¤ëĬĺ ë°¤
å Ľ
l v
Ġv a
åĲĽ ãģ®
wor k
ëª¨ ëħ¸
Ġê°Ģìł¸ ê°Ģ
Ġíĥ Ħ
ĠìľĦ ìĹĲìĦľ
te red
ĠìŀĪ ê²łì§Ģ
ì°¨ ì°¨
ëĤ ¯
íķĺ ìĭľëĦ¤
Ġë¹Ħ ì¹ľ
ë°Ķ ëĭ¥
Ġì£½ ìĿĦ
Ġs ink
ãĥ ¬
Ġìļ Ķì
Ġra ce
Ġìĭľê°Ħ ìĹĲ
thing s
r b
´ì ¡°
Ġb ear
¯ Ķ
ĠìĹ¬ê¸° ìĦľ
Ġë³´ëĤ´ ê³ł
Ġsp ark
ìĭ¬ íŀĪ
Ġëª» íĸĪëįĺ
elu jah
g le
Ġê°Ģ ìĦľ
Ġdeser ve
Ġë§Ĳ íĪ¬
ŀ ì
Ġë³´ ë©´ìĦľ
Ġspr ing
ĠìĥĪë ¡Ńê²Į
ĠìĿ¼ ìĿĢ
Ġdi re
tu res
ĠëŃĲ ëĿ¼
ìĤ¬ëŀĳ ëıĦ
ëĦ ¨
Ġì§Ħ ìłķ
Ġë¬´ ìĦľ
Ġê·¸ëŀĺ ìĦľ
th ought
m iss
Ġp aid
re nder
Ġìŀĥ ìĸ´ë²Ħë¦°
be d
íĸĪ ëĬĶëį°
ìĸ´ëĶĶ ë¡ľ
Ļ ìĿĢ
ìĥĪ ê°Ģ
Ġìĸ´ ë¦¬
bo om
íĸīë³µ íķľ
ca me
Ġëĵ¯ íķľ
Ġìĸ´ ëĶľ
ĠìĦ¸ìĽĶ ìĿ´
Ġê°Ģ ë§ĮíŀĪ
t ouch
ĠìĨĲ ìĿ´
Ġë§ ¨
ì§ ł
it ed
ì´ Ŀ
Ġë§Ĳ ìŀĲ
ãģ² ãģ¨
ul y
ìķ Ķ
Ġë¶Ļ ìŀ¡ê³ł
ì£¼ ìĹ¬
Ġbut ter
ãģ ¶
al right
Ġë³´ ì¿ł
Ġì°© ê°ģ
Ġíĸ¥ ê¸°ê°Ģ
ĠìĹĨ ëĤĺìļĶ
Ġëª» ëĤľ
Ġë¬´ìĹĩ ìĿ´
į ë
Ġwas h
ãģ© ãģĨ
Ġì¹ľêµ¬ ëĵ¤
ĠëĦĪë¬´ ëıĦ
ĠíĬ ¸
Ġìĸ´ ë¥¸
ĠëĬĲ ê¼
Ġëª¨ëĳĲ ëĭ¤
bit ch
Ġëĭ´ ë°°
ì²Ń ì¶ĺ
ch rist
Ġs na
Ġreal ity
ë§Ĳ ìĹĨìĿ´
ck y
ìĪĺ ì¤į
Ġboo k
ê±´ ë§Į
Ġìĺģíĺ¼ ìĿĦ
ëģ¼ ë¦¬
u v
Ġle an
ãģł ãģ£ãģ¦
ìĤ¬ ëĤĺìĿ´
fo llow
ëįĶ ëĬĶ
ëĤ¬ ìĸ´
Ġìłķë§Ĳ ë¡ľ
Ġca li
Ġlet s
Ġw et
ĠìķĦíĮĮ ëıĦ
Ġëľ¨ ë©´
Ġì ¿µ
ĠìĬ¤ íĥĢ
íĺ¼ìŀĲ ìĦľ
Ġíĥ Ŀ
Ġë§ĮëĤĺ ìĦľ
Ġpro bably
Ġìľł íĺ¹
ĠëĨĢëĿ¼ ìļ´
ëĪĪë¬¼ ìĿĦ
Ġp et
ë§Į ìĹĲ
Ġpas sion
ĠëĦĪë¬´ ëĤĺëıĦ
ĠëĤ´ ë¦¬
ë¡ Ģ
ëģĿ ìĿ´
ur y
te st
ĺ ¸
h l
ĠëĪĪë¬¼ ìĿĢ
Ġn ei
Ġë¹ł ìł¸ë
Ġìĺ¨ ëĭ¤
ĠìĨĲ ìŀ¡ê³ł
ê¸¸ ëŀĺ
2 00
Ġend less
íĦ ´
ê¹Į ë§Į
¿ Ī
ĠìĹĨ ìĿ¸
Ġcha se
Ġ ou
Ġë§ĪìĿĮ ìĿĺ
ĠëĪĦ ìĽĮ
ĠëĪ Īì¹ĺ
ĠìĬ¹ ë¦¬
ì¹ĺ ëĦ¤
ĠìķĬ ìľ¼ë¦¬
Ġno ise
ê°Ģ ë§ĮíŀĪ
Ġì§ ģ
ìµ ľ
sa ve
c le
l f
Ġdo pe
Ġb ump
ê°ĳ ëĭĪëĭ¤
» ¤
ĠìŀĪìĸ´ ìĦľ
Ġpray er
Ġno r
ê·¸ ìĿĺ
ëŃ Ķ
ĠëĸłëĤĺ ê³ł
Ġt ough
ìĹĪ ëĭ¤ê³ł
Ġth under
Ġbeat s
Ġas ked
ĠëĤ´ ê³ģìĹĲ
ìĿ¼ ìĦ¸
cra zy
Ġm il
aa aa
Ġëĸ¨ ìĸ´ìł¸
Ł Ī
ìĦ± ìĿĦ
pu ll
feel s
ľ ¨
ĠìĹĨ ìľ¼ë©´
Ġsta re
ho pe
Ġíĸī ëıĻ
ĠìĤ¬ëŀĳ ë°Ľ
Ġwe ight
íĨł íĤ¤
ìĺ¤ ë¹ł
ĠëĤł ê¹Įì§Ģ
ĠìĬ¤ ë©°
ĠëıĮ ìĿ´
Ġï¿½ï¿½ï¿½ï¿½ ï¿½ï¿½
» ì
ĠìĻĶ ëĭ¤
Ġgr own
ĠëĪĦ êµ´
çĶŁ ãģį
Ġíı Ń
Ġgra ve
ĠëĲĺ ìĭł
Ġoh h
ê¸°ì ģ¨
ãģ« ãĤĤ
ĠìŀĲìĭł ìĿĦ
Ġì¦Ĳ ê±°
Ġë§Ī ë¦¬
ĠíķĺëĤĺ ëıĦ
ãĥ ŀ
Ġë³´ ëĦ¤
Ġte st
Ġëħ¸ëŀĺ íķ´
ĠëĦĪ ëŀĢ
Ġê¹ ľ
Ġpar a
Ġë§Ī ëĭ¤
ll i
Ġdum b
Ġíķ ĳ
ĠìĹ¬ ê¸°ìĹĲ
Ġì¤ ¬
Ġìŀħ ë§ŀ
ĠíķĺëĤĺ ìļĶ
Ġë§ĪìĿĮ ìĨįìĹĲ
ìĸ´ ë¦¬
Ġìŀ¡ ìĿĢ
Ġj am
ĠëĮĢ ì²´
Ġê°ķ ë¬¼
ìĬ¤ íĥĢ
ĠìĪĺ ë§Į
s or
ê°Ģ ë´Ĳ
Ġë°Ķ ê¿Ķ
Ġcom for
Ġìĸĺ ê¸¸
ĠëĪĪë¬¼ ë§Į
ëª» íķ´
Ġsh ort
ĠíĦ¸ ìĸ´
Ġf ucked
ãĥ Ń
Ġru le
ê¸°ëĭ¤ ëł¤
did n
Ġn er
ìĿ µìĪĻ
ìĺ ¹
u o
ìĬ¤ ëŁ½ê²Į
li day
Ġf ears
Ĭ ¸
Ġê°ĢìĬ´ ìĨįìĹĲ
ê·¸ëĮĢ ìĹĲê²Į
b lo
ãģĺãĤĥ ãģªãģĦ
Ġê¸°ìĸµ ìĿĦ
s ur
Ġë¨¸ë¬¼ ëŁ¬
Ġsh y
Ġtong ue
Ġb ee
Ġea si
ìĿ´ ë¡ľ
ê¹ ĥ
ê±° ëł¤
Ġsou th
ìķĦ íĮĮ
ĠìĹĨ ëĭ¤ë©´
Ġc er
Ġêµ °
ì į¨
ìĹ¼ ìĹĨìĿ´
ì§Ģ ê¸°
ĠìĿ´ë³Ħ ìĿ´
ĠëĤ´ ë¦¬ê³ł
Ĺ ë
ĠëĦĪë ¿Ĳ
ê±° ì£ł
ĠìĻĦ ë²½
Ġêµ¬ ì£¼
íķĺ ì§Ħ
Ġsear ching
Ġhur ry
ce pt
ľì ¦Ŀ
ëĦĪ ë§ĮìĿĦ
Ġë³¼ ìĪĺ
ëĭ ¿
at ure
Ġsp ent
Ġo ooh
Ġdist ance
Ġê¸°ìĸµ ëĵ¤
ch t
íķł ê±°ìķ¼
ĠìĦł ëªħ
Ġë¬´ ì§Ģê°ľ
Ġê·¸ëĮĢ ë§Į
f y
Ġê¿Ī ìĹĲ
Ġìļ´ ëĭ¤
Ġê¸°ëĭ¤ ë¦¼
Ġì¢ĭ ìĿĦ
Ġj ingle
ìķĦ ë¦Ħëĭµ
ti st
Ġíķĺ ë©´ìĦľ
Ġìļ° ìĤ°
Ġbe li
ìī ½ê²Į
r h
ëŃ ĺ
êµ ³
ŀ ¡
ìĿ´ ìĺ¤
ëĨĵ ìĿĢ
ìłĢ ë¦¬
ëĲĺ ê³ł
Ġfl ash
ë³´ ëĭ¨
íĿ¬ ë¯¸
Ġíķ´ ì¤Ħ
ëĽ °
w ar
Ġë§ Įì
dden ly
f irst
Ġbree ze
íĢ ´
ëł Ģ
Ġë§Ī ìĦ¸ìļĶ
ëĸ ¡
Īìľ¼ ëĭĪ
ĠíĻ į
ë¥´ì ³Ĳ
Ġê°ĢëĵĿ íŀĪ
ĠëĦĪë ¡ľ
Ġlu v
ģ ŀ
Ġrock in
ĠëĤĺ ê·¸ëĦ¤
ëĭĺ ìĿĺ
ê¹ ¡
fi ll
co re
Ġì»¤ ìł¸
Ġì¡° ìļ©íŀĪ
ë°Ķë³´ ì²ĺëŁ¼
Ġì¹ĺ ê³ł
é ģİ
ìķ½ íķľ
ĠíĶ¼ ëĬĶ
å į
w ow
Ġê¸°ëĭ¤ ëł¸
Ġsit ting
ĠíĹ Ľ
ĠëĤĻ ìĹ½
be lieve
ĠìŀĪ ìĹĪì§Ģ
íķ´ ë´Ĳ
Ġshould er
ãģĤ ãģ®
Ġëª¨ìĬµ ìľ¼ë¡ľ
ìĻĢ ëıĦ
ĠìķĪ ê°ľ
Ġìŀł ìĿĦ
ëĤĺëĬĶ ìķ¼
ëª ½
ìĽł ìĸ´
ë§ Īì£¼
Ġp ump
ãģ¾ ãģł
Ġse ll
Ġë¹Ħ ìĽĮ
Ġpa ck
ĠìĿ ĳ
Ġê¹¨ ëģĹ
ë¬¼ ìĸ´
èĳ ī
å ħ¨
ĠíķĺëĤĺ ë¡ľ
Ġye llow
ê° ĸ
Ġë°Ķ ëŀ¬
Ġmovi e
Ġfun k
Ġë² Ħí
Ġas king
Ġflow ers
ì§Ģ ìĽĮ
p ic
Ġda re
ìĤ° ìĹĲ
ëĪĪë¬¼ ë¡ľ
ê²Ģ ìĿĢ
åĲĽ ãģĮ
ë§Ī íĨł
> >
íĻ Ģ
Ġnum b
ãģªãģĦ ãģ§
Ġres pect
Ġm ood
Ġíİ¸ ì§Ģ
ìķĦì§ģ ìĿĢ
Ġfill ed
ìĬ¤ ëŁ¬ìĽĮ
ĠëĤł ìĹĶ
°ì ½Ķ
Ġcom plete
¨ ë²Ķ
mi c
ho o
Ġpr in
ê³ł ê°ľ
re ma
Ġë¶Ģ ëĶª
Ġcre w
c la
ĠëĦĪ ìķ¼
Ġgen tle
b oo
Ġsold i
ë¥´ ì§Ģ
ìĽ ģ
Ġbit ter
å īį
cou nt
Ġêµ Ĳ
Ġba re
Ġk it
Ġëľ¨ ê³ł
ë²Īì ¯¤
ìŀĲ ìľł
ëĤ´ ë§ĺ
gu ess
pre tty
íŀĺ ëĵł
Ġë³´ ëĿ¼
Ġspe ll
íķľ ëĭ¤ê³ł
Ŀ ĳ
Ã ¨
Ġu m
Ġs ail
Ġbe nd
Ġìĸ´ëĳĲ ìļ´
ãĤĮ ãģ°
Ã ¤
Ġì½Ķ íĨł
Ġì¹ ł
Ġcar s
Ġlive d
Ġsea s
Ġpl ans
ë° Ŀ
v ous
Ġsta ge
ĠìľĦ ë¥¼
Ġa do
åľ ¨
Ġíķĺ ê²Į
mo s
ĵ ë
ì¤Ģ ëĭ¤ë©´
ate st
Ġìĺ¤ ê³ł
ìŀĲ êµŃ
ãģ£ãģ¦ ãĤĭ
1 3
Ġì£¼ ì§Ģ
ë² ħ
to p
ë§Ī ìĹĲ
won der
Ġíĭ °
ĠëĲł ê¹Į
Ġcou ple
ìĨĮì¤ĳ íķľ
ìĿ´ ëĭĪê¹Į
g ni
for nia
a o
æ ¬
Ġíķĺë£¨ ëıĦ
ª ©
Ġì°¨ ëĿ¼ë¦¬
ãĤ ¸
ìĿ¸ ëĭ¤
ĠìĻĶ ìĸ´
ĠìĨĲ ê°ĢëĿ½
Ġìŀĥ ê³ł
Ġê¸ Ģ
Ġdoll ar
ĠìŀĲìĭł ìĿ´
íĥ Ī
ĠìĮĵ ìĹ¬
Ġwa sted
Ĥ ¸
Ĥ ®
Ġbreak s
Ġë§ĮëĤĺ ë©´
Ġm otion
Ġm ain
ìĪĺ ë¥¼
Ġë¶Ģ íĥģ
Ġr um
to gether
Ġë³´ ìĿ¼
Ġì±Ħ ìļ°
Ġì°¾ ì§Ģ
Ġë°¤ ìĥĪ
° ¬
Ġbeat ing
ê°Ģ ê¹Į
ìĸ´ ì©Ķ
et y
Ġsear ch
< <
í ī
1 7
Ġfin al
b ang
ĠìĤ´ ìķĺ
Ġswe at
Ġhand le
wo od
Ġd ep
ãģĭ ãģ£ãģŁ
ãģ¾ ãģŁ
Ġìĭ¶ ìĹĪìĸ´
Ġi l
Ġdar lin
Ġmistake s
Ġcha ins
Ġeven ing
è ©
Īì Ĭµ
Ġíķ´ ìĦľ
u de
2 7
Ġìĭľ ê³Ħ
ìĪĺ ëĬĶ
Ġíĺķ ìłľ
Ġì§Ħ ìĭ¬
ê±° ì§Ģ
at ter
Ġet ern
èĥ ¸
s anta
ĠëĶ°ëĿ¼ ìĦľ
Ġsli p
Ġë²Ħëł¸ ìĸ´
Ġro of
ĠìĤ¬ëŀĮ ëıĦ
ìĨĲ ìĹĲ
Ġë łĪ
Ġu nc
in ing
Ġplay in
ìĨį ìĹĶ
ìĤ¬ëŀĳíķľ ëĭ¤ê³ł
ĠëĶ°ëĿ¼ ê°Ģ
Ġë³´ ìŀĲ
íĸ Īì£ł
Ã ³
Ġa ge
ìĪ¨ ìĿĦ
Ġdeep er
Ġì¦Ĳ ê±°ìļ´
Ġíħ ħ
Ħ ±
Ġwa ves
ki ll
ìĭľê°Ħ ìĿĦ
ìĪ ²
ì§Ħ ìĭ¤
ãģ© ãģĵ
... )
ëŀ ı
ëĴ¤ ëıĮìķĦ
Ġno ti
Ġcru el
ĠëĤĺ ìķ¼
Ġdiam onds
Ġcho ice
íĥĢ ê³ł
ëĨĢ ìĿ´
Ġì¹ľêµ¬ ìķ¼
ëĴ ·
Ġ> >
¸ë °Ķ
am b
Ġth ug
ëł¤ íķľ
h ang
ĩ ë
Ġbu ilt
ĠìĨĲ ê¸¸
í į
so on
a e
ìŀĦ ìĿĦ
ëħ¸ ìĿĦ
ì§Ŀ ì§Ŀ
è ¡
Ġhis tory
ëĭµ ê²Į
ëĤľ ëĭ¤
Ġcri me
ĠëĤľ ëĭ¤
Ġpus sy
ng e
ĠëıĦ ìĻĢ
Ġkis sed
Ġig no
ë¯¸ ì¹ĺ
Ġìĸ´ì©Į ë©´
Ġì´ Īì
ìķĪ ê°ľ
ë¬ ¸ëĵĿ
å¿ ĺ
Ġëķ Ģ
Ġë± ĥ
ìŀ¥ ìĹĲ
Ġn ine
Ġde ce
j esus
Ĥ Ļ
ĠíķĺëĤĺ ìĿĺ
Ġbegin ning
ke nd
Ġëĭ¬ ë¦¬
è ·
Ġth r
Ġbir ds
ê¶ Į
l eep
Ń ë
Ġbr ings
å ·
ëĭ¬ ë¹Ľ
girl s
ĠìķĦ ìłĢìĶ¨
Ġt an
Ġth a
Ġcha m
Ġk ni
ai ls
ĠíĿĺëŁ¬ ê°Ģ
ãģĺ ãģ¦
Ġìĸ¼êµ´ ë¡ľ
Ġíĸ ĩ
Ġê³¨ ëª©
ë³´ ìĦ¸ìļĶ
Ĺ ëĤł
Ġë µ
Ġclou d
Ġì§Ģ íĤ¬
Ġë¹¨ ê°Ħ
think ing
Ġìĺ¨ íĨµ
ĠíĽ ¨
Ġìĸ´ ìĿ´
íķĺëĬĺ ìĿĺ
Ġbea ch
ĠëĤĺ ì²ĺëŁ¼
ĠìĤ¶ ìĿĢ
ìł ĳ
ëĬĲ ëģ¼
ëĤĺ ì¹´
ëĳ ĳ
ĠíĸĪ ì§Ģë§Į
ëĭ ¬ì½¤
ë§¤ ê¸°
g ne
íķĺ ìĺĢ
Ġsme ll
v al
ĠìĨĲ ìľ¼ë¡ľ
ë¹ µ
¹ ë
Ġëĵ¤ ìĿĦ
Ġìĸ´ ë¨¸
¹ ľ
ĠëıĻ ëĦ¤
z en
Ġlo ck
ìĿĮ ìĿ´
Ġê°Ģ ì§Ī
Ġsile nt
ì§Ģ ë¡ľ
ãģĹ ãģ¾
Ġê´Ģ ìĭ¬
ìĬ¤ ëŁ¬ìļ´
ëĬĲ ê»´
i ma
Ġëĵ¤ ìĿ´
Ġbeg un
ìĻĢ ëĿ¼
Ġìľ ¼
po s
ĠëĤĺ ìĹĲê²Ĳ
st ers
st art
ģ ¥
ĠìĿ¼ ìľ¼
Ġf u
ãģĽ ãģ¦
ĠìŀĪìĿĦ ê²Į
Ġë§Ĳ íĸĪ
ĠìłĬ ìĿĢ
Ġj our
Ġ1 2
Ġchang ing
part y
Ġëª© ìĿ´
ìĪ¨ ìĿ´
ëĶ ´
po se
Ġì£¼ ìłĢ
Ġë© ´
Ġte le
t ri
stand ing
Ġìļ°ë¦¬ ëĵ¤ìĿĺ
Ġh onest
Ġben eath
ìľł ë©Ķ
ìľ Ļ
Ġëª© ìŀĲ
Ġmean ing
Ġgra b
ãģĳ ãģ©
ãģĪ ãģŁ
Ġg if
Ġdisapp ear
ĉ ĠĠĠĠĠĠĠĠĠĠĠĠĠĠĠĠ
ìĭ¬ íķľ
ëĭ¤ ë³´ë©´
Ġcla us
ĠìĿ¸ìĥĿ ìĿĦ
Ġro b
Ġe ight
Ġë² Īì
ìĹ¬ íĺ¸ìĻĢ
Ġì§ĢëĤĺ ëıĦ
åĲ ĳ
Ġì¶ķ íķĺ
Ġìĸ´ ìļ¸
ìĸ¸ìłł ê°ĢëĬĶ
ĠíĿĺ ë¦¬
Ġmar y
ģ ¬
Ġë²Ī ë§Į
Ġg lo
Ġë¶Ģ ëª¨
!! !
Ġin v
ê±° ë£©
li es
Īì¹ ¨
ho me
Ġìĸ µ
ëĿ¼ ë§Ī
ake d
Ġd at
íķ´ ì§ĢëĬĶ
Ġo o
Ġgre atest
ìĺ¤ ë¦¬
ë§ ĪìĻĢ
g ar
Ġë¶Ģ ëĵľ
Ġë²Ĺ ìĸ´ëĤĺ
Ġìĭľ ëł¨
é ģĵ
Ġê¸ ¸ë¡ľ
Ġëĵľ ë¦¬
ê³ł ë§ĪìĽĮ
Ġv ir
ĠëĤł ëĵ¤ìĿ´
ìĨĮë¦¬ ê°Ģ
ëįĶ ìĿ´ìĥģ
ê±° ê¸°
Ġche st
ãģĵ ãģĵ
in side
ĠìĤ´ ê²Į
ìķĦ ëħ¸
ĠíĿĺ ë¦°
Ġê¸° ìļ¸
Ġpl us
² ł
ãĥ ģ
Ġìŀ¡ ì§Ģ
Ġgirl friend
re r
ëĶ ¸
ĠìĤ¬ ëĤĺìĿ´
Ġê³± ê²Į
Ġbo ss
ãĥ ¡
Ġre p
ìĥ Īì
Ĥ Ĥ
ĠíĻ ľì§Ŀ
Ġìŀħ ìĿĦ
in ter
Ġcand y
íķĺëĬĺ ìĿ´
ëĤ´ìĿ¼ ìĿĢ
let s
ëĪĦ êµ¬ëĤĺ
s sed
Ġëĺĳ ê°Ļ
íĥĢ ê¹Į
Ġê³³ ìĿĢ
Ġëª¨ ëŀĺ
Ġvo ices
ì ¨
Ġê±°ë¦¬ ìĹĲ
ĥ ī
ĠëĨĴ ìĹ¬
th ree
æŃ ¢
Ġê·¸ë ķĲ
Ġëª°ëĿ¼ ëıĦ
´ë ķĮ
Ġë§Ĳ ìĹĲ
Ġse at
ìŀĪ ì§Ģ
Ġë¶Ģë¥´ ê³ł
ê°Ģ ì§Ħ
Ġmind s
ê¹ ľ
è¨Ģ èĳī
eal ous
ë©Īì¶ °
ãģĦãģ¤ ãĤĤ
Ġì£¼ìĿ¸ ê³µ
ìŀł ê¹Ĳ
ìĤ¬ ìĹĲ
ëħ¸ ëĭĪ
or a
Ġgun s
Ġa ni
¹ Ļ
w u
Ġëľ¨ ê²ģê²Į
.. ...
ĠíĶ¼ ê³ł
ĠëĸłëĤĺ ê°ĢëĬĶ
Ġsto le
Ġshould n
ot s
any thing
ĠëĬĲëĤĮ ìĿ´
ëıĦ ëĮĢì²´
ê·¸ëŁ¬ ëĭĪ
ĠìŀĪ ìĹĪëįĺ
Ġhigh way
Ġìĵ ´
ê·¸ íĨłë¡Ŀ
íķĺ ëĤĺìļĶ
Ġl it
ĠìĹĨ ìľ¼ëĭĪ
Ġìĭ¶ ìĿĦ
ìĭľ ì¿ł
ê°Ī ê²Į
åħ ī
Ī Ń
Ġìĺ¤ ëĿ¼
Ġat ta
ìĬ ¤ì³Ĳ
Ġëį°ëł¤ ê°Ģ
Ġgre y
ëłĪ íħĮ
r p
ĠìĨįìĤŃ ìĹ¬
dar ling
Ġëĵ¤ìĸ´ ìĻĢ
ĠìŀĲ ëĬĶ
ĠëįĶ ìĿ´ìĥģ
æ Ģ
Ġb one
Ġìĸ´ ëłµ
Ġr ising
Ġat tention
ê·¸ ëĬĶ
Ġreason s
ç «
· Ģ
Ġê°Ļ ìķł
Ġê°Ļ ëįĺ
Ġscream ing
Ġë¯¿ ì§Ģ
ìĤ¬ëŀĳ íķĺê³ł
Ġìĸ¸ìłľ ê¹Įì§ĢëĤĺ
Ġcall s
à ¸
ìĸ¸ìłľ ê¹Įì§Ģ
ëĤĺ ë§ĮìĿĺ
ë² Ĺ
ĠëĤ´ìĿ¼ ìĿĦ
b re
Ļ ¸
ĠìķĬìĿĦ ê²Į
ëĵ¯ íķľ
âĢ ľ
íĹ¤ ìĿ´
ì£¼ ê»ĺ
æĸ ¹
ãģ¡ ãĤĥ
Ġíķ¨ê»ĺ ëĿ¼ë©´
Ġë ķľìĹĲ
íķĻ êµĲ
æ ķ
ĠìĺĪë °°
Ġê³ģ ìľ¼ë¡ľ
ìĺ Īë
ë½ Ģ
Ġac tion
íŀĪ ê³ł
¬ë İĮ
ri de
ãĥ Ĳ
et ime
ĠëĶ° ìľĦ
ĠìķĬ ëıĦë¡Ŀ
Ġd ee
Ġcre ep
Ġre ve
ë°¤ ìĿĦ
ãģĪ ãģªãģĦ
z h
c ut
Ġb ought
lo ving
Ġë§Ī ìĿ´
Ġas leep
ĠëŃĶ ê°Ģ
ê³ §
Ġsp read
ê²ł ëĭ¤ê³ł
ãģªãģı ãģ¦
Ġsou ls
ëĭ¤ ë¦¬
ê¸Īì ²ĺëŁ¼
ìł ¯
ĠíķĦìļĶ íķľ
ĠìĿ¸ íķ´
pa re
ir ty
d rop
Ġìķī ìķĦìĦľ
Ġv al
ë¹Ħ ë¥¼
Ġbri dge
Ġì°© íķľ
Ġëĸłìĺ¤ ë¥´ëĬĶ
Ġë§ī íĺĢ
ti es
lo t
ĠìłĢ ë¦¬
ç Ļ
Ġë§Įì ¡±
ĠëĤĺ ëĤĺ
ë¨¹ ê³ł
g ue
Ġê¿Ī ê¾
ĪìĬµ ëĭĪëĭ¤
Ġê·Ģ ìĹ¬ìļ´
Ġgu ys
ba ll
Ġë¶Ī ìĿĦ
Ġë°Ķ ëŀĦ
ê·¸ëħĢ ëĬĶ
ëıĦ ëĿ¼
ëª° ëŀĺ
ĠëĤ¯ ìĦ¤
ĠìłĦ íĺĢ
Ġìľ ¡
Ġwor st
Ġpr aise
Ġother s
Ġear ly
ìĤ´ ë©°ìĭľ
ëŀ Įì
Ġv ol
Ġproble ms
ä¾ Ĩ
make s
ĠëĨ Ķ
ìĪĺ ëıĦ
Ġì ¸
ìĥĿ ëªħ
ë¯¸ ìĽĮ
ĠìĹ İ
íĸ ĩ
íĥĢì ¿ł
ct ric
ìĿ´ ìĬ¬
ìĿ´ ì§Ģë§Į
rom ise
ê³Ħ ìłĪ
Ġì¤Ħ ëŀĺ
ĠëĸłëĤĺ ìļĶ
íĮ ł
ìļ°ë¦¬ ë¥¼
m is
ĠëĤ´ ë²Ħëł¤
Ġê¹¨ ëĭ¬
° ĸ
íĹ¤ ìĸ´ì§Ģ
Ġì§ĳ ìĿĦ
Ġê·¸ëħĢ ë¥¼
ard en
ëł ĺ
Ġê°ľêµ¬ ë¦¬
ĠìĤ´ ë©°ìĭľ
Ġbo p
ìĤ¬ íĥķ
¸ Ķ
nn y
ëĤ¨ ìĿĢ
ãĤĨ ãģı
ëĤĺ ìĹĲê²Ĳ
Ľ Ĳ
Ĺ Ń
ìĭľ ê²Į
Ġa li
Ġê¸°ì ģĺ
ĠëĪĦ êµ°
Ġê°Ĳ ìľ¼ë©´
Ġbus y
ìł¸ ìļĶ
Ġgrow ing
ë©Īì¶ Ķ
½ ľ
p ed
off ee
Ġama zing
Ĺ ì
e ì
ĠìĪĺ ì¤į
æĺİ æĹ¥
ĠíĴį ê²½
ĠìĥĿê°ģ íķĺëĬĶ
ìĹĪ ëĬĶì§Ģ
Ġea st
Ġsur render
ĠëĤĺ ëŀĳ
Ġí ĭĪ
Ġëĭ¤ ë¦¬
ìĵ ¸ìĵ¸
be l
ĠìķĦíĶ Į
gg er
Ġì£¼ ìĭľ
Ġsat urday
Ġmes sage
ìĹĪ ìĿĦ
n m
ĠìĥĪ ê²¨
ĠëĺĲ ëĭ¤ìĭľ
Ġw ood
ìł ĸ
Ġíİ¸ íŀĪ
Ġëĥ Ħ
Ġpoc ket
ì± ħ
¦ ĺ
Ġìļ° ì£¼
Ġë¬ ¸ëĵĿ
Ġwalk in
Ġê³ł ìĸĳìĿ´
ëįĶ ìļ±
mo ther
íľ ĺ
t Ã
ĠìĥĿ ìĿ¼
Ġë°Ŀ íĺĢ
Ġëª¸ ì§ĵ
ëĪĦêµ¬ ëıĦ
ë¸ Ķ
ag ain
Ġë² ħ
ì¡° ìļ©íŀĪ
Ĳ ĺ
ĠíĿĺëŁ¬ ê°ĢëĬĶ
µì ¿µ
êµ¬ ë¦¬
Īë ķĮ
Ġì½Ķ ëħ¸
m Ã
het to
Ġëĵľ ëĬĶ
Ġver se
Ġgive s
Ġë§Ĳ ëĵ¤
r is
Ġë¶ īìĿĢ
vi d
ãģ ¬
Ġo oo
Ġfall en
Ġf am
the m
´ Ħ
Ġc as
ìļ° ë¦´
Ġgr ind
êµ¬ ìļĶ
ãģĦ ãģŁãģĦ
se em
ĠíĨµ íķ´
anc es
ĠìĿ´ ëŁ´
Ģ ĭ
ìĿ´ íĬ¸
ìķĦ ëĿ¼
to day
dr ink
© ê
« ì
ë§Į íķľ
Ġbig ger
ìĸ¸ìłľ ê¹Įì§ĢëĤĺ
ìĦ¸ìĥģ ìĿĺ
ëĤ´ ë¦¬ëĬĶ
Ġíĸīë³µ íĸĪ
Ġsu ff
ìķĦìķĦ ìķĦ
Īë³´ ëĭ¤
Ġpre cious
å Ĩ
íķłê²Į ìļĶ
Ġdanger ous
ëª¨ëĳĲ ëĭ¤
Ġd el
ĠëģĿ ëĤľ
å Ń
danc ing
ĠëĤ´ ë¦°
Ġjoh n
Ġw and
Ġíķĺ ìĸĹê²Į
Ġê¸°ëĭ¤ ë¦°
Ġì£¼ ê°Ģ
Ġë§Ĳ íķĺ
ê± ·
ê·Ģ ìĹ¬ìļ´
Ĳí ļĮ
Ġë ģĦ
íķľ ìŀĶ
ĠìķĦë¦Ħëĭµ ê²Į
Ġíķ Ħ
Ġíķ Ģ
Ġë°Ķ ê¿Ģ
Ġsurpri se
Ġs ep
Ġê¶ģê¸Ī íķ´
ĠìĨĮë¦¬ ìĹĲ
íķł ëŀĺ
ìĹĲ íħĮ
Ġend ing
ê°Ģ ëĿ¼
Ġf ur
æĥ³ ãģĦ
ĠìľĦ íĹĺ
ãģ Ĳ
ìĿ´ë³Ħ ìĿĺ
ĠíĹ¤ ìĸ´ìł¸
ê°Ĳ ìĤ¬
é ĥ
Īë ¡Ŀ
ãģ© ãĤĵãģª
Ġmyster y
ìļĶ ë¦¬
Ġë°Ķ ëŀ¨
Ġsle igh
Ġlo cked
Ġho liday
ì²ľ ì²ľíŀĪ
) ;
ĠëĪĪë¹Ľ ìĿ´
ĠìĤ¬ëŀĳ íķĺì§Ģ
ìĿ´ ìľł
ĠìķĮ ëł¤
m al
Ġê·¸ëħĢ ê°Ģ
æ ±
ĠëĲĺ ê²Į
ta ble
Ġëº ı
ĠëŀĦ ëĿ¼ëĿ¼
Ġmis sed
íĤ ·
o z
tr ue
Ġold er
ê³ł ëıĦ
every time
ĠìĨĮë¦¬ ê°Ģ
Ġwon t
ë§Ĳ ìķĦìļĶ
in tro
íķ¨ ìĹĲ
Ġf an
Ġbrea thing
§ ĭ
æī Ģ
f ar
ì¡´ ìĭ¬
ê°Ģ ìĹĲìĦľ
ĠìļĶì ¦ĺ
Ġê²¬ ëĶĶ
Ġr ow
ĠíĽ¨ íĽ¨
Ġth re
Ġkeep ing
ìĦł ìĿĦ
èĩª åĪĨ
Ġdru m
· ë
Ġvi e
ìĹ° íķľ
ëŀĮì ¥Ĳ
ĠíķĺëĤĺ ê°Ģ
ĠëĤĺíĥĢ ëĤĺ
ê·¸ëŁ° ëį°
¸ëł Ī
Ġê·Ģ ë¥¼
ìľ¼ ëŁ¬
Ġwait in
Ġlaugh ing
ê¼¬ ë¬¼
Ġboo gie
ãĥ ķ
Ġìļ© ê¸°
ìłĦ íķ´
ìĭł ëĭ¤
Ġë²Ĺ ìĸ´
Ġê°Ģ ë¥´ì³Ĳ
ëĳ¥ ìĭ¤
ãĤĪ ãĤĬ
Ġë§ĺ ëıĦ
ë¶Ħ ëªħ
wh ite
p et
ĠìĽĲ íķľ
Ġ1 00
ĠìĿ´ ê³³ìĹĲ
ĠìĨĮë¦¬ ë¥¼
Ġp ati
ëĤ «
ĠëĤĺëĪ ł
íķĺë£¨ íķĺë£¨
Ġì°¨ ê°Ģ
Ġì¦Ĳ ê±°ìĽĮ
Ġëĭĺ ìĿ´
s mo
Ġì°¸ ìĿĦ
Ġ ä
íĽĦ ëł´
Ġinst ead
ê³¼ ëĬĶ
ĠìĹĨ ê²łì§Ģ
ĠìķĮ ë©´ìĦľëıĦ
b ar
ł ģ
ĠìĦ± ê³µ
Ġì»¤ ëĭ¤ëŀĢ
ĠìĽĥìĿĮ ìĿ´
íŀ Ļíķ©
è¦ĭ ãģ¤
Ġê±° ì¹ľ
Ġd ev
Ġre co
Ġê´ľì°® ìĿĢ
Ġt al
Ġíķľ ìĹĨìĿ´
íĸĪ ëĦ¤
ìĿ´ ê¸°
ë§Īë £¨
as hi
Ġtea ch
Ġpres sure
è ®
¹ Ī
ëŃĲ ê°Ģ
Ħíļ į
Ġë¹ Įìĸ´
Ġë©Īì¶Ķ ì§Ģ
ìĿĺ ë¯¸
Ġë¹ łì
ĠìķĦë¬´ ëŁ°
ĠëĦĪë ¨¸
ëĪ Īë¶Ģìĭł
ç ī
t m
Ġìĭł ëĤĺê²Į
ì° °
¯ í
Ġu nk
ëĭĺ ìĿĢ
ë³Ħ ìĿ´
Ġf ol
ãģł ãģĭãĤī
Ġfri day
Ġbo at
ĉĉ ĉĉ
Ġë§Ĳíķ´ ë´Ĳ
ĠëĤł ê°ľë¥¼
íĻ ī
Ġì¢ĭ ìķĺ
ì´ ī
Ġë§ ĺëĮĢë¡ľ
Ġtea m
Ġkis ses
ìĥĪë ĵ¤
ê¹ Ŀ
æĢĿ ãģĦ
Ġìķ½ìĨį íķ´
Ġê·¸ ê²ĥ
Ġco ast
s li
ĺ ¥
Ġìĵ° ê³ł
Ġrid ing
ìŀĲ ìĿĺ
ëª¨ëĵł ê±¸
o ld
ë©Ķ íħĮ
we re
Ġì¢ĭ ê²łëĦ¤
ĩ ł
ge st
Ġê·¸ ìĤ¬ëŀĮ
ĠìłĪëĮĢ ë¡ľ
ĠëıĮìķĦ ê°ĢëĬĶ
Ġmirac le
Ġcol ors
æĮ ģ
Ġwee kend
Ġë¨¹ ìĸ´
ĠìĹ ¼
Ġë°ľ ìĿĦ
ĠìĽĲ íķĺëĦ¤
å¾ ħ
ë°ľ ìĿĦ
Ġb ank
ë³´ ëĦ¤
ê°Ģ ìŀ¥
ch ange
ìļ° ìĽĮ
Ġto es
Ġê±°ë£© íķľ
ìĺ¤ ë¥´
ê½ĥ ìŀİ
ĳ ê
Ģë½ Ģë½Ģ
ĠìĤ¬ëŀĮ ëĵ¤ìĿĢ
Ġcelebr ate
äºĮ äºº
Ġlif etime
å¥½ ãģį
ound s
Ġë§Į ëĵľëĬĶ
ë¯ ¸ì
Ġz one
Ġíĸīë³µ íķĺ
Ġ2 00
ì½ ĺ
ĠëĺĲ íķľ
Ġdra w
å İ
ĠìĤ¬ìĿ´ ìĹĲ
Ġíģ ´
è Ĭ±
st ick
Ġly rics
ë¶ Ģì
Ġflow er
ë§Ĳ ë¡ľ
x x
íĭ ±
ë¹¨ ê°Ħ
ha ha
Ġbe low
ë¯¸ë ¥¼
³´ ëĭ¤
ĠëĶ° ìĬ¤íķľ
Ġboot y
ë¦½ ëĭĪëĭ¤
ãģŁ ãģł
ĠìĨĲ ì§ĵ
ĠëŃĶ ì§Ģ
Ġl as
ĠìĨį ìĹĶ
mi ght
Ġê·¸ë ¥¼
Ġd y
ê°Ģ ëģĶìĶ©
n on
íķĺ ìħ¨ëĦ¤
ëĤĺìĿ´ ëį°
Ĩ ł
ĠíĶ¼ ìĸ´ëĤĺ
ìĿĮ ìĹĲ
æ³ £
ľ ł
ëķ ¡
ĠìĦ ŀ
ë§Ĳ íķ´
u f
ĠíķĺëĤĺ ë¿ĲìĿ¸
Ġë¶Ģ ìĤ°
ç ·
um ble
Ġëľ» ëĮĢë¡ľ
ê¸ Īë¶ĢíĦ°
ĠìķĪëĲĺ ëĬĶ
Ġë³Ģ ëªħ
Ġg ee
ĠìĦ ¸ë
sing ing
p our
Ġwe lcome
k er
ent ly
Ġëĳ¥ ê¸Ģ
Ġëª» íķĺê²Į
t een
b on
Ġcal m
Ġê¸°ì ģľ
Ġknow ing
Ġdir t
ëĶ Ķì
ë¶Ģ ë¥´
3 6
Ġìĺ¤ ìĺ¤
Ġê·¸ ê³³ìĹĲ
ĠíĻķ ìĭ¤
ĠëĪĪ ìĿĢ
ĠìĿ¸ìĥĿ ìĿĢ
Ġê³ł ëıħ
Ġê°ĩ íĺĢ
ìľ¼ ëĤĺ
ãĥ Ĭ
ãģ® ãģ«
ĠìĹ¬ìŀĲ ê°Ģ
Ġye h
Ġë°Ķ ì³Ĳ
ìĹĪ ëĭĪ
æ º
íĮ ľ
ìĦ ¬
§ ì
ĠìĪł ìŀĶ
Ġë§Ĳ íķ´ëıĦ
ìļ° ëĭĪ
m ble
d ra
Ġì± Ļ
-- -
ìĦł ê°Ģ
d g
c atch
Ġìķŀ ìĿĦ
íķ ĳ
ëĭ¬ ëĿ¼
Ġê¸°ëĮĢ ìĸ´
é Ŀ
Ġíķ´ ë´ĲëıĦ
so lo
Ġp ho
ľ Ħ
Ġìļ° ìļ¸
ï¼ ī
Ġì¡° ìĭ¬
Ġë©į íķĺëĭĪ
Ġê¹ Ķ
Ġê·¸ ê±¸
ĠĠĠĠ Ġ
ìķŀ ìľ¼ë¡ľ
o le
8 0
ĠëŃĲ ìķ¼
ëŀ« ëıĻìķĪ
ìĦľë¡ľ ê°Ģ
Ġëļ Ŀ
Ġo l
ìĿ¸ìĥĿ ìĿĢ
Ġì¢ ģ
ìļ°ë¦¬ ëĵ¤ìĿĺ
éĽ ¢
bl ow
ìĿ¼ íķľ
la x
Ġíķľ ëĭ¤ë©´
ĠìĿ´ìłľ ìķ¼
Ġwait ed
ëħ ¹
Ġê¹Ĭ ìĸ´
ëª¨ëĵł ê²Į
ë§ ĳìĿĢ
ĠíĸĪ ëĬĶëį°
Ġì¢ħ ìĿ´
ëĤľ íŀĪ
h ard
ĠìĿ¸ìĥĿ ìĿĺ
Ġë©Ģ ìĸ´ì§Ģ
c s
ëĮ Ħ
ãģ® ãģ¯
Ġë² Įìĸ´
Ġp ure
Ġdeci de
ë©ĭ ì§Ħ
ĠëĤł ëıĦ
Ġhop ing
Ġwr ote
Ġchang es
íķľë²Ī ë§Į
ê°Ģ ì§Ģë§Ī
Ġê°Ģ ë¦¬
íħ Ķ
ì£¼ëĭĺ ìĿ´
s mi
Ġado re
Ġíıī ìķĪ
Ġëª° ìķĦ
ì¤Ħê²Į ìļĶ
ëĳĺìĿ´ ìĦľ
ëį §
sor ry
b rea
ë¯¿ ìĿĮ
Ġëĸ¨ ìĸ´ì§Ģ
p ush
Ġíķ´ ë´Ĳ
ke ts
Ġíĳ ¸ë¥´
ë§Ī ë§Ī
Ġìļ ¸ë©´
Ġfa ult
light s
ĠëĪ Īë¶Ģìĭł
ur ch
ĠìķĦ ë£¨
Ġìī¬ ìĸ´
Ġìłķ ëıĦ
Ġsig ns
Ġmoun tains
íŀĪ íĨł
Ġspin ning
ä»Ĭ æĹ¥
or ds
ëħ¸ì ½Ķ
íķĺë£¨ ì¢ħìĿ¼
n z
Ġë¶ Īì
ëĤł ìĿĺ
Ġë¯¸ì ³¤
Ġc ow
Ġë©Ģ ìĸ´
ëĭ Īì¹´
ë³´ ëł¤
Ġëķħ ìĿĦ
Ġëĭ¤ ìłķ
ìĿ´ ë²Ī
ëĤĺ ë³´ëĭ¤
ê°ĢìĬ´ ìĿĦ
æ Ľ
Ġì°¸ ê³ł
ìĽ ħ
Ġë¹Ħì ¼ľ
le ft
Ġíĸīë³µ íķł
Ġs n
Ġk o
Ġh on
ë¹¨ ë¦¬
ĠíĥĢ ëĬĶ
Ġpr ot
Ġd et
Ġìĥģì²ĺ ë¥¼
ĠëĤ¨ ê¸´
Ġê°Ģ ì¡±
f ight
ê¹ į
Ġì§ ĪëŁ¬
Ġa rt
ë°Ķ ìĿ´
vol ution
Ġsto od
ĠìĤ ¼ì
Ġëĭ® ìķĦ
ì¡°ê¸Ī ìĿĢ
ë¶Ģ ëĵľ
ĠìĪľê°Ħ ìĹĲ
ĠëĸłëĤĺ ê°Ķ
rema stered
ĠëĨ Īëĵ¤
Ġv an
ìŀĲ ë¥¼
Ġë³¼ ê¹Į
Ġê·¸ëħĢ ëĬĶ
it ude
Ġë°Ķë ĢĮ
ëĬ¦ ìĿĢ
Ġlo s
íĸĪ ì§Ģë§Į
ìļ ¸ëł¤
ã ħ
ĠìķĦíĶĶ ìĿĦ
ĠëķĮ ë¡ł
ĠìĹ´ ìłķ
Ġc i
¹ ´
Īë ĥĲ
Ķ ´
Ġcall in
íķľ ê±¸ìĿĮ
k nock
Ġëª» íĸĪìĸ´
Ġche r
Ġê·¸ë¦¬ ë©°
ìļ¸ ì§Ģ
å £
Ġsec rets
Ġin di
ëĤ´ê²Į ë¡ľ
ãģĦãģ¤ ãģĭ
ä¼ ļ
ĠëĬĲëģ¼ ê³ł
Ġt on
Ġc os
ìĿ´ ëħ¸
ha s
Ġê°Ģ ëĬĶëį°
Ġfoo ls
Ġthat s
Ġb ite
ur al
Ġh un
ëĥ ¥
ĠìĤ´ìķĦ ìļĶ
¸ë ¶Ģ
Ġë°Ľ ìķĦì£¼
Ġê¸°ëıĦ íķ´
Ġê±° ëĭĲ
ì¶ ¤ìĿĦ
§ £
Ġìķł ë¥¼
ì¤ Į
Ġë ī
Ġê·ĵ ê°ĢìĹĲ
mo on
Ġe v
Ġhappen s
ì§Ģ ì³Ĳ
íĨ ¡
ãģ ¥
ĠëĤ´ ë¦¬ë©´
Ġt au
íĺ Ķ
ì²ľ ìĤ¬
ĠíĻĺ ìĥģ
ìĽĥ ëĬĶ
Ġì´ Ŀ
Ġhead s
ĠìĿ¸ ìłķ
Ġì°¾ìķĦ ìĺ¨
Ġë§ŀ ìķĦ
ìķĪ ëı¼
© Ī
Ġuni verse
se nd
Ġëĵ¤ëł¤ ìĺ¤ëĬĶ
Ġíķĺ ì£ł
ìĿ¸ ìĿĺ
u ation
Ġëĥ ī
Ġìŀħ ìĿĢ
ĠëĬ¦ ìĿĢ
ê° ĵ
Ġìĸ´ ì§Ģ
Ġë§Īë ²ķ
Ġt akin
ĠìĹĨëĬĶ ê±¸
Ġene my
íķ´ ì§Ī
ĠìķĦ ëĭĺ
Ġm mm
Ġcl ass
ê° ¤
Ġjud ge
Ġgen er
Ġb ru
ìļ° ìĹ°íŀĪ
ê°Ģ ìĤ¬
el s
Ġíķľ ìĤ¬ëŀĮ
Ġpain t
b or
Ġíķľ ê±¸ìĿĮ
Ġëĵ¤ìĸ´ ë´Ĳ
Ġshin es
ê´ ľíŀĪ
Ġpas sed
Ġhid ing
g un
ì£¼ëĭĺ ìĿĦ
ìķĬ ìķĦ
ìĤ¬ëŀĳ ìķĦ
Ġì° ¬ëŀĢ
ì§ ±
ri fi
_ _
ëĤĺ ê³ł
ãģĿ ãĤĵãģª
Ġsee ing
Ġhor se
ê¿ į
Ġs anta
ì¹ Ń
Ġì¢ħ ìĨĮë¦¬
ë§ Ļ
Ġëª©ìĨĮë¦¬ ê°Ģ
s hi
ment al
ìľ¼ ëĿ¼
Ġdar ke
§ Ľ
ĠíĿĺëŁ¬ ëıĦ
ĠëıĮìķĦ ìĺ¨
Ġr ough
íĥ ĵ
ì£¼ëĭĺ ìĿĢ
Ġref le
ìĽĥ ìľ¼ë©°
ìĭľ ëĤĺìļĶ
l er
ìĿ´ ë§Ī
) .
Ġto r
Ķ Į
Ġd an
Ġdri ft
Ġchi ck
ĥ ê
ĠìĤ¬ëŀĮ ìĿĺ
Ġì£¼ ë§Į
Ġt ow
Ġs am
t ur
Ġbra ve
¨ ¹
Ġê¼ ´
Ġcom m
ì¹ĺ ê°Ģ
Ġh ug
ìŀħ ìĪł
ìĹĪ ëĤĺë´Ĳ
fl ow
Ġs pi
ëĤĺ ê¸´
Ġg arden
Ġgu ide
ìĹĲìĦľ ëıĦ
ìŀĥ ìĸ´ë²Ħë¦°
ì§ ĪëŁ¬
Ń Ķ
å °ĳ
Ġsave d
f er
Ġis land
en s
Ġg i
Ġcr own
ìłĢ ëħģ
Ġì¹´ íİĺ
Ġì¹ ¼
Ġë°ĶëĿ¼ ë§Į
Ġë§Į ëĤĺëĬĶ
Ġcri es
ĠíĴĢ ìĸ´
ĠìĿ´ ëģĦ
Ġê²° íĺ¼
ìĬ¤ ëĿ¼
p ing
ĠëĤĺ ìĺ¤
wor ds
ar i
ĠëĬĲê»´ ë´Ĳ
ĠíĶ¼ ë¡ľ
ëĪĦêµ¬ ë³´ëĭ¤
ë¯¸ ì¹ľ
f our
Ġëľ °
Ġë§´ ëıĮ
ĉĠĠĠĠĠĠĠĠ ĠĠĠ
Ġíķ¨ê»ĺ íķľ
Ġëĵľ ë¦´
Ġfa ster
ëĨĴ ìĿ´
Ġdanc in
ë°Ľ ìĿĢ
ëĶ° ìĬ¤íķľ
æ Ĭ±
¸ë¬ ¼
ĠìĬ µ
Ġexp lo
ï¼ Ī
str aight
ìķĦ ëĭĮ
Ġê¹¨ ìĽĮ
ëĤĺ ë£¨
na h
Ġno se
ìĸ¸ìłł ê°Ħ
Ġmis ery
íĥĢ ëĿ¼
¸ë Ł¬
Ġëļ «
Ġbur ns
¸ëĵ ľ
ìĭľ ëĿ¼
ìĦľë¡ľ ë¥¼
ĠíĦ° ì§Ī
Ġbea st
Ġtwi st
Ġtau ght
Ġbrother s
wa re
Ġwor se
ìĤ´ ëŀĳ
Ġë¯¸ ì¹ł
Ġìļ° ìľł
æŃ Į
ĠìĿ¼ ìĸ´ìĦľ
ê¸° ëĮĢ
ê¸ ¸ë¡ľ
Ġìŀĺ ëıĦ
ĠìķĪ ìĿĺ
Ġêµ Ń
k l
ìĿ´ íĤ¤
ëģĿ ìĹĨìĿ´
Ġtu ne
Ġde f
ë£ ¬
Ġìĥ ĺ
Ġë¶Īë ©´
Ġë¹Ļ ë¹Ļ
Ġë°ĺì§Ŀ ìĿ´ëĬĶ
Ġf ever
ì§ ķ
ëŁ Ń
Ġëª°ëŀĲ ëįĺ
íķľ ìĹĨìĿ´
Ġê²ĥ ëĵ¤ìĿ´
Ġn ation
Ġ ease
t al
lon ely
æľ Ģ
pla ce
ĠíķĺëĬĺ ìĿĺ
ĠìĥĪë ¡ľ
ĠíĶ¼ ê³¤
ë° ĳ
Ġê·¸ë¦¬ ìĬ¤ëıĦ
íĮĮ ëŀĮ
æĺ ¯
ĠíĶ Ħ
ê¸° ë©°
è ¼
r ay
ĠëĤ¯ ìĦł
ëĭ¤ ë¦¬ê°Ģ
è Ģ
Ġìĥ ¤
Ġpro du
é ĩ
Ġë¶Ģ ë¥¸ëĭ¤
Ġsea son
Ġc ell
ëĭ¤ê°Ģ ëıĦ
Ġtee th
Ġdo ctor
Ġdra g
ìĦ¸ìĥģ ìĹĲìĦľ
ĠìķĬ ì§Ģë§Į
Ġti de
Ġfla mes
Ġê°ĢëĵĿ íķ´
ì§Ģ ì¼ľ
ãģĵ ãĤĵãģª
ĠíĹĺ íķľ
ëĭĪë ©´
ë¦¬ ìĺ¤
p es
Ġer a
Ġc ig
Ġb le
ãģĦ ãģı
Ġex pect
ëª¸ ìĿĦ
ĠìķĦìĿ´ ëĶĶ
ìŀ¡ ìķĦ
ãģĳ ãģŁ
¹ ê
Ġ2 4
¸ëĵ ¯
ìĿ´ ëŀĺ
ëĪĦ ëĤĺ
ãģĹ ãĤĩ
tu ne
ĠìĤ´ìķĦ ëıĦ
ĠëĪĪë¬¼ ìĹĲ
Ġê¸°ìģ¨ ìĿ´
ëĦ ĵ
cla p
Ġëĵ¤ ë¦¬ëĬĶ
Ġë³Ģ íķľ
ëĭ¤ ëĵ¤
ĠìĽĲ ëŀĺ
Ġëĭ¤ ìĬ¤
ìĤ¬ëŀĳíķľ ëĭ¨
Ġë¬´ ìĸ¸
Ġc offee
ìł Ĭ
ëŀĦëŀĦ ëŀĦëĿ¼
Ġê·¸ ê°Ģ
Ġwhere ver
ĠìĿ¼ ìĸ´
Ġë°Ķ ëĭ¥
Ġê·¸ëŀ¬ ìĸ´
ĠâĢ ľ
ĠëģĿ ìĿĦ
ìģĺ ê²Į
e j
Ġcr ush
ìĭľ íĤ¤
gg y
Ġr ub
g one
Ġë°Ŀ ìķĦ
Ġtrouble s
Ġsa vi
Ġdoor s
ëĭ¹ìĭł ê³¼
h ur
Ġlet ting
Ġê² ¬ëİĮ
Ĥ Į
Ġpass ing
ê³ł ë¯¼
ĠëģĿ ìĹĲìĦľ
ë² ¨
ëĭ¤ ë¡ľ
ëª¨ ë¥´
get ting
ê·¸ëħĢ ê°Ģ
ê±° ì¹ľ
Ġë§İìĿĢ ëį°
Ġë¬¼ ëĵ¤ìĸ´
Ġê°Ģë¡ľ ëĵ±
ìľ¼ ëł¤ê³ł
ìķĺ ì£ł
ìķĦë¬´ ëłĩì§Ģ
ìĤ¬ëŀĮ ëĵ¤ìĿĢ
ëķĮ ë¬¸ìĹĲ
n q
Ġclo sed
ìĭ ±
ĠìĤ¬ëĿ¼ ì§Ħ
Ġë¯¸ìĨĮ ë¡ľ
ìķĦì¹¨ ìĹĲ
ëĬĶ ê²Į
ê¹Ģ ìĹĨìĿ´
ĠëĨĵ ìķĦ
Ġë§Ĳ íķ´ìļĶ
Ġë¶ ģ
Ġë¬´ìĹĩ ëıĦ
Ġê°ĳ ëĭĪëĭ¤
Ġlisten ing
it ies
Ġyou th
ë²ł íħĮ
ho ly
ìĭľ ê³Ħ
ment s
ĠëĤĺ ìĻĶ
Ġen ter
ĠìķĪëı¼ ìļĶ
Ġë§Īë ¥´
Ġf ail
ë¿ Į
ê¸° ìłĦìĹĲ
ĠìĪľ ìłķ
ĠëĤł ìĿĢ
ë¥ µ
Ŀ ł
Ġtw enty
ĠìĤ¬ëŀĳíķĺ ëĭĪê¹Į
ĠëĦĪìĻĢ ìĿĺ
Ġë°¤ ìĿĺ
į ĺ
ìľ łì¿ł
ìķ Ļ
ì¹ĺ ê²Į
ëĲĲ ìĸ´
Ġìķ Īì
Ġs an
Ġë§Ī ìĭľê³ł
ĠìĿ´ë³Ħ ìĿĺ
ìķĪ ìĹĲìĦľ
fe ction
Ġë§ĺ ìľ¼ë¡ľ
ĠìĿ´ ëŀĺ
Ġar ri
ì¤Ģ ë¹Ħ
¿ ĥ
ĠëĤ´ìĿ¼ ìĿ´
ëĭ¬ ìĿ´
ìķĦ ìī¬
Ġë°© ë²ķ
ë¦¬ ì¹´
Ġëĭĺ ìķĦ
Ġë³´ê³ł ìĭ¶ìĸ´
Ġsmi ling
hold ing
** **
Ġìĺ¤ íĽĦ
ë³´ ìĿ´ì§Ģ
sup er
il ing
Ġpa ge
Ġn aked
ìķĦ ë¦Ħëĭ¤
ëŀį ëĭĪëĭ¤
Ġt able
Ġlike s
ãģ Ķ
ĠìĹ° ìĿ¸
Ġê°Ĳ ìķĦëıĦ
į °
æĺ Ł
la dy
Ġli ar
ìĹĨ ëĦ¤
Ġl aid
ë¦¬ ìĹĲ
ĠëĬĲê¼ Ī
Ġj ealous
Ġima gine
âĶ Į
â ĶĶ
íĹĪ ëĤĺ
ìĤ¬ëŀĳ íķ©ëĭĪëĭ¤
Ġti e
ëĵ¤ ìĹĲ
ĠëĤłìķĦ ëĿ¼
Ġë§ ĳ
Ġëĸ¨ ìĸ´ì§ĢëĬĶ
Ġmo i
Ġk no
ëłĪ ìĿ´
ëĭ Ń
ĠìĿ¸ ê°Ħ
Ġëĸ¨ ë¦¬ëĬĶ
³ §
ëĤ´ ì§Ģ
ëªħ íķľ
watch ing
mm ing
Ġwonder ing
ĠìŀħìĪł ìĹĲ
ĠìĶ» ìĸ´
Ġêº ¾
ĠìĿ´ìĥģ ìĿĢ
2 3
Ġíķĺ ë¦¬ëĿ¼
Ġëª» íķĺ
ı Į
Ġpo ison
~ !
ĠìĻĶ ëįĺ
ë§ £
ì²ĺìĿĮ ë¶ĢíĦ°
for m
ìĹ Īìľ¼ë©´
é¡ ĺ
Ġë¶Īë łĢ
Ġstr ug
ãģŁ ãĤģ
ve red
Ġre ac
Ġfor ce
ìĸ´ì©Į ëĭ¤
ìĭľ ìĺ¤
ì¡° ìĭ¬
ë¥ ¸ë
Ġíķĺë£¨ ëĬĶ
ìĿ¼ ëŀľ
Ĥ Ń
Ġhung ry
Ġëħ¸ëŀĺ íķĺëĬĶ
ìĨĶì§ģ íŀĪ
ľë ĥĲ
Ĺ ĺ
» ë
ëĶ° ìľĪ
z u
ì¦Ĳ ê²ģê²Į
Ġíı¬ ê·¼
Ġìĭ« ìĸ´ìļĶ
íķ ĦìļĶ
Ŀ °
Ġë°± ìĦ±
Ġnei gh
Ġco st
íķľ ì°¸ìĿĦ
ur s
ang ers
st em
Ġìķ¼ ìĨį
Ġëµ Ī
Ġli ed
Ġsur round
Ġr ag
ìļ°ë¦¬ ëĵ¤ìĿĢ
ëĵľ ìĭľ
ink le
ìŀĪ ìĸ´ìļĶ
ãĤĤ ãģ£ãģ¨
Ġíķľ ëĭ¤ê³ł
ç ¾
Ġìĸĺ ê¸°ë¥¼
Ġìĥ Īì
Ġshi p
Ġmi a
Ġi ch
ħ ħ
ĠëĤ´ ìĸ´
Ġkni fe
ĠíĸĩìĤ´ ìĿ´
ĠìĬ¬íĶĶ ìĿ´
Ġar m
Ġê±´ ê°ĢìļĶ
co ld
Ġd ans
Ġen er
ç ¶
Ġëª» íķ´ëıĦ
ĠìĤ¬ ë¡ľ
Ġs pl
ê±° ìĺĪìļĶ
ĠìĦľ íĪ
ë¿ ¡
ë¶Ī ìĿ´
li z
Ġsi gh
Ġê±´ ëĦ¤
å¤ ©
c hen
Ġhit s
Ġê½ ģ
Ġê³ Ħíļį
ì§ §
ê¿Ī ìĿ´
ëħ¸ ìĻĢ
ĠëĤ´ìĿ¼ ëıĦ
Ġê¿Ī ê¿Ķ
ëĤł ë§Īëĭ¤
ĠëĤĺ ìķĦê°Ģ
Ġêº¼ ìł¸
é ł
ìĸ´ ì©ľ
Ġsh or
Ġde li
íķĺ ìĭľê³ł
ĠìĿ´ìľł ë¡ľ
ãĢ Ĥ
Ĥ «
ĠëĿ¼ ëĿ¼ëĿ¼ëĿ¼
Ġv oc
a ah
Ġê¿Ģ ê¿Ģê¿Ģ
ĵ í
Ġheart beat
Ġcer tain
æľ ¬
ê¾ ¹
Ġë§Ī ìĿĦ
Ġfield s
ãĥ £
Ġìļ° ìļ°ìļ°
Ġì§Ģ ìĸ´
íĦ ¸
ë§ĪìĿĮ ìĿĢ
ĠìĥĿê°ģ ë§Į
Ġë°ĶëŀĮ ìĿĦ
Ġpr ison
Ġg hetto
æ İ
it ic
Ġì¶Ķìĸµ ìĹĲ
ĠìķĦ ìķĦ
s at
Ġê°Ģ ë²Ħë¦°
Ġnat ure
Ġf light
ìļ° ë©°
Ġ {
ëļ ±
ĠìķĪ ê¸°
Ġê¾¸ ëĬĶ
ľ ìĤ¬íĥķ
Ľ Ķ
Ġìĸ´ íĹĪ
Ġd er
ìŀĲë¦¬ ìĹĲ
vi ce
ĠëĸłëĤĺ ìķ¼
Ġl ately
ìĺĨ ìĹĲ
Ġìļ ¸ëįĺ
Ġtra ve
Ġb um
ë¯¸ ìĦł
ê·¸ëĮĢ ë§Į
f air
ĠíķŃ êµ¬
Ġê·¸ëħĢ ìĿĺ
Ĺ í
ìĺ¤ëĬĺ ìĿ´
ìĤ¬ìĭ¤ ìĿĢ
ãģª ãģĮ
Ġsun ny
ì°¨ ê°Ģ
ĠëģĿ ëĤł
wr it
ĠìĿ µ
Ġë ĸ´
ê¸° ì²ĺëŁ¼
ĠìŀĲ ê³ł
Ġê°Ģ ìĭł
Ġfle sh
v ation
» ĳ
Ģ ²
nt al
ìĪ Ń
where ver
ĠìĿĮ ìĦ±
ĠìĤ´ìķĦ ìĺ¨
ìĬ ¬íį¼
it o
Īë °Ķ
ê·¸ ê³³
Ġíķĺ ìŀĲ
íı¬ ê¸°
ìĽĮ ìļĶ
Ģ Ĥ
ĠìķĮ ì§Ģë§Į
ĠìķĦ ëĿ¼ë¦¬
ç ķ
Ġê° ĪìĪĺë¡Ŀ
ai m
Ġíŀĺ ê»ı
ĠìķĦ ë©ĺ
Ġshow s
Ġìļ©ìĦľ íķ´
ê·¸ ê°Ģ
íĮ ¡
sh ut
Ġí Ĥ
Ġ ears
ĠìĿ ¸ë
Ġì¤Ħ ìĿĦ
Ġplea sure
ou ble
ĠëĬĲê»´ ìł¸
Ġame rican
ĠìĤ¬ëŀĳë°Ľ ê¸°
Ġhear ta
Ġbull et
ãģĹãģ¦ ãĤĭ
p tion
ĠëĨ į
to morrow
ìĺ¤ ëª¨ìĿ´
ãĥ Ĩ
Ġc ream
Ġm ark
Ĥ ĭ
Ġê°Ļ ì§Ģ
Ġê·¼ ìĭ¬
ëĤĺëĤĺ ëĤĺ
Ġê·¼ ëį°
Ġho lly
ëĭ¤ ìļ´
ĠìĥĿê°ģ ìĿĢ
v oc
ĠìĿ´ë¦Ħ ìľ¼ë¡ľ
å¾ Į
Ġb as
Ġìį ©
Ġë°Ķëĭ¤ ë¡ľ
anc y
Ġë¹Ļ ê¸Ģ
ĠìĥĿ ê²¼
Ġswa llow
Ġë°Ľ ìĿĦ
m t
f lo
ĠìĥĪë ĵ¤
ĠëĸłëĤĺ ë²Ħë¦°
íĻĶ ë¥¼
é£ Ľ
ĠìĽ Ķ
Ġcry in
Ġl one
å Ĭ
Ġìī¬ ê³ł
ì² ¨
ë´ ħëĭĪëĭ¤
mer ry
Ġëĭ¤ ëħĢ
ìĨĶ ìĨĶ
ro y
Ġw ra
Ġour selves
ìĦľ ë²Ħ
fi ve
Ġíķ© ëĭĪëĭ¤
ìħ ĺ
ëĬĲ ëĤĮ
æľ ī
¹ ¡
ìĺģ íĺ¼
ë¬¼ ìĿĦ
on ed
ìĺĪ ìĺĪ
ëıĻ ëıĻ
Ġke ys
ì° Ķ
ë³Ģ ë¯¸ìĦł
Ġíĥľ ìĽĮ
Ġì ıĻ
ĠëĤĺ ë¡ľ
p ly
ĠìĹĺ ìĦľë²Ħ
ëŀĢ ëĭ¤
ĠìĤ¼ íĤ¤
ê¸° ê¹Įì§Ģ
ĠìĹĨ ëĭ¨
ĠëĤ «
ĠìŀĬìĸ´ ìķ¼
ĠìķĪëĲ ľ
Ġê±° ì£ł
Ġcha sing
ë³Ģë¯¸ìĦł ìĤ¬ëŀĳíķ´
ë£ »
é «
ëĺĲ ëĭ¤ìĭľ
2 6
Ġë¯¸ëŀĺ ë¥¼
ìĿ¼ëŀľ ìĭľìķĦ
ìķī ìķĦ
Ġmur der
Ġame rica
íķĺ ëĭ¤ê³ł
ìĭ ¼
ĠëĳĲê·¼ ëĳĲê·¼
Ġë°Ŀ ê²Į
æ ¶Ī
Ġp im
y n
íĿ ©
ìĨĮ ëħ¸
ë¶Ģ ëĬĶ
ë´¤ ìĸ´
ê°Ģ ìĺ¤
ãĥ Ģ
pi e
sa me
ĠìŀĪ ê¸°ìĹĲ
Ġf il
ĭ í
ĠìĿĺ ìĭ¬
Ġvi da
Ġìī¬ ëĬĶ
Ġë¶Ģë¥´ ë©°
Ġëĭ¤ ê°ĻìĿ´
Ġë¿Į ë¦¬
Ġë¬» ê³ł
ëŀĦëĿ¼ ëŀĦëĿ¼
Ġëľ¨ ê±°ìĽĮ
Ġl ane
ĠëĶ°ëĿ¼ ìĻĢ
Ġìľł ë¦¬
Ġb uck
ìŀĪ ê³ł
· ì
° ĸìĹĲ
di o
Ġìķ½ íķľ
ë§Ŀ ìĦ¤
¶ ķ
alal a
Ġíķĺ ìĭľ
Ġb an
ì¿ µ
ç« ĭ
ë§Ī ìĿ´
íĤ¤ ë¯¸ëħ¸
ìĥģ ìĥģ
ti e
Ġd am
Ġansw ers
ìĭĿ ìĿĦ
© ëĭĪëĭ¤
Ġem bra
ê± ¸ë¡ľ
se c
ëĸł ëĤľ
Ġìĸ´ëĶĶ ëĵł
Ġì¡ ¸
ìĸ´ ë¶Ļ
ê°Ģ ìĭľ
ĠìķĦëĭĪëĿ¼ ê³ł
Ġsha wty
ë³ į
æĦ ı
Ġë´¤ ìĸ´
ìŀĪ ëĭ¤
Ġwo ke
Ġcour se
Ġ 0
âĢ ²
Ġëł Īë
ì£¼ ê»ĺìĦľ
Ġë¯ ¼
Ġprom ised
ëĤĺ ë©´
ye d
c ing
ëģĿ ëĤ´
su ch
Ġth ru
Ġa po
íķĺ ìĸĹê²Į
ìķĺ ëĭ¤
Įì ©į
ĠìĮĵ ìĿ¸
h f
Ġto rn
° ±
Ġë¯¿ ìĸ´ìļĶ
Ġp ow
Ġdire ction
ĠëĤ¨ìŀĲ ê°Ģ
Ġëĭ¹ ëĭ¹
Ġë¹Ħ íĸī
ìĦ ¸ì¸ł
ëħĦ ìĿĦ
æµ ģ
Ġíĸ¥ ê¸°ë¡ľ
Ġê¿Ī ìĨįìĹĲ
è ¾
Ġìŀ¡ ìķĦì¤ĺ
Ġë¶Ī ê½ĥ
æ Ĭ
Ġë§Ĳ ëĿ¼ê³ł
ë¶Ī ìĿĦ
ĠĠĠĠ ĠĠ
Ġë¶ĪëŁ¬ ìļĶ
ĠìĤ¬ëŀĳ ìĿ´ìķ¼
Ġcali fornia
ì¢ħ ìĿ´
Ġwhi p
Ġjo in
Ġdiffere nce
ìĥĿ ëĭĺ
ì£¼ ëĦ¤
ëŀ ĮìķĦ
Ġs us
Ġf ish
ĠìĨĲ ë
Ġì§Ģ êµ¬
ë©´ ìĿĢ
to ld
ìľ ¡
Ġìļ ¸ëł
ĠëŃĲ ëŀĺëıĦ
ĭì ŁģìĿ´
ĠìķĦíĮĮ ìĦľ
Ġë¹Ħ ë¥¼
tw een
Ġëĭ¤ ëĭĪ
ãģł ãĤįãģĨ
ta king
seem s
Ġê± ¸ëł¤
ì§Ģ ìĹĲ
ë£¨ ìļĶ
ĠìĨĲë ¼ī
ìĺ¤ ë¥¸
ë¿Ĳ ìĿ´ìķ¼
ur a
ho od
ĠìŀĪìľ¼ ëĭĪê¹Į
ĠìĹĨ ìĿĦê¹Į
ëĤĺ ìĦľ
Ġst eel
íķĺìĹ¬ ëĿ¼
Ġr at
ĠëĽ° ëĬĶ
ìĹĪ ëĭ¤ë©´
ĠìĹ¬ê¸° ê¹Įì§Ģ
Ġì£Ħ ìĿ¸
Ġj er
Ġf ea
ìº ĩ
åĲĽ ãģ¨
¼ë ķĮ
Ġstea dy
Ġset tle
ev ing
ĠëĤ Ń
Ġshould ers
Ġsho ts
e le
Ġìĺģíĺ¼ ìĿ´
Ġë²Ī ì§¸
Ġfle x
é Ł
Ġê´ ľíŀĪ
ou stic
Ġw eed
ìĽĮ ìĽĮ
ĠíĿĲ ëł¤
ë¯¸ ê°Ģ
Ġp ol
oo th
ĠíĿĶëĵ¤ ë¦¬ëĬĶ
Ġíķĺ ìĭł
Ġê±¸ ìĸ´ìļĶ
c or
Ġì¥Ĳ ê³ł
ĠëĦ¤ ë¡ľ
Ġv ain
Ġro ses
Ġcomfor t
ë£ ¡
æĥ ħ
sh out
Ĥ ³
Ġëĭ ¬ëŀ
Ġëª¨ëĵł ê²ĥ
Ġsto re
íĤ¤ ëĭĪ
ê¸° ìłģ
Ġì¼Ģ ë¡ľ
Ġr is
Ġê·¸ëĮĢ ë§ĮìĿĦ
Ġforgot ten
b ou
Ġê°ķ íķľ
Ġrock s
ë¨¼ ìłĢ
Ħì Łģ
íķ´ ì§Ģ
ê°Ĳ ìĿ´
é Ĥ
Ġstre ss
ë§Ĳ ìĿĢ
ìĨĮ ëĿ¼
Ġë¬¼ ëĵł
ëĮĢ ìļĶ
Ġsu it
ìļ° ì§Ģ
Ġíķł ê²Į
Ġëħ ¼
¸ë ª¨
i al
Ġì§Ģ ì³¤
Ġth in
ëĵľ ëĦ¤
Ġal bum
íĮ ħ
Ġre sist
Ġad mit
íĪ Ń
ìĻĢ íĥĢìĭľ
Ī ¨
Ġmotherfuck er
ãģĭ ãĤĬ
j ingle
ĠëĤ ¼
Ġë¬¼ ê³ł
Ġje ans
ĠìĿ´ ì¸ł
Ġëĭ¨ ì§Ģ
ģì ħĶ
Ġpic tures
ìĭľ ìłĪ
Ł ì
ĠëĳĲëłµ ì§Ģ
Ġë©Ģë¦¬ ìĦľ
Ġê°ĳ ìŀĲê¸°
Ġdru g
ìĤ¬ëŀĳíķľ ëĭ¤ëĬĶ
Ġli mit
ì³Ĳ ëıĦ
Ġë¬¼ ëĵ¤
ĠìĿ´ë³Ħ ìĿĢ
Ġì¡° ê·¸ë§Į
ìĺ¤ìĺ¤ ìĺ¤
ë¬ ´ì
ê·¸ëħĢ ìĿĺ
ĠìľĦë¡ľ íķ´
ĠìķĦëĭĲ ê¹Į
ĠìĬ¬íĶĶ ìĿĦ
Ġë´ ī
ìĬ¤ì ½Ķ
l ter
Ġrhy mes
ìĪĺ ìĹĨëĬĶ
ëħ¸ëŀĺ ë¥¼
ë¯¼ êµŃ
v ate
Ġrema in
ŀ ħ
ĠëĶ° ìĬ¤
ìĸ¸ìłľ ëĿ¼ëıĦ
ĠìĿ´ ëģĮ
Ġìļ° ìĹ°íŀĪ
Ġfad ing
Ġp al
Ġdis gu
ëıĦ ëıĦ
Ġë¬» ì§Ģ
Ġë¬´ ìĭľ
Ġli st
Ġíľ ´
Ġnoti ce
íĥľ ìĸĳ
Ġpromise s
Ġmom ma
ne xt
Ġì¶ ĺ
ì£¼ ìĭł
ê» Ħ
íķł ì§Ģ
ìŁ Ī
ìĸ´ ëĶľ
Ġë³´ëĤ´ ëĬĶ
Ġti ck
ãģª ãĤĭ
íŀĺ ìĿ´
ëĭ¨ ì§Ģ
ĠíĹ Īë¬´
Ġê·¸ë¦¬ìĽĮ ìĦľ
ëĬĶ ê°Ģ
ca ught
ĠíĿĶ íķľ
ĠìĤ´ ìŀĲ
ìĽĢ ëıĦ
ãĤģ ãĤĭ
Ġf if
Ġëĭ¤ ëĵ¤
Ġsc ars
ëı¼ ì§Ģ
¦Īì ¼Ģ
y r
ĠìķĦìī¬ ìĽĮ
º¼ ìķ¼
v y
Ġsli de
Ġsho re
Ġsh ar
ëł¤ ëıĦ
ĠìĤ¬ëŀĳ íķĺê²Į
Ġìķ Ķ
Ġë¿Ĳ ìķ¼
Ġswi m
ĠìĦľ ìŀĪëĬĶ
be tween
Ġê°ĲìĤ¬ íķ´
Ġmoment s
Ġg ain
Ġbeg ins
ìĿ´ ìĹĲ
ãĥ ĳ
ë¶Ģ ëĶĶ
Ġíĺ¼ìŀĲ ê°Ģ
Ġb ub
ëłĪë °Ķ
de l
¿ í
ma is
ĠìķĮ ë©´ìĦľ
Ġë§Ī ìłĢ
un a
ł´ æīĢ
Ġwrit ten
Ġr ings
ëĤł ìĹĲ
) )
Ġb al
å¤ ī
´ì¡° ê±´
ĠëģĿ ìĹĨìĿ´
Ġë £
ìĥĪë ģ¼
§ ¨
fuck in
c li
ai rs
ãģŁ ãĤĬ
ĠìĿ´ ê²ĥ
Ġle g
Ġë§ĮëĤ¬ ëįĺ
Ġê°Ģ ë²¼
ĠìĿ´ìľł ê°Ģ
ĠĠĠĠĠĠĠĠĠĠĠĠĠĠĠĠ ĠĠĠĠĠĠĠĠĠĠĠĠĠĠĠĠ
Ġì²ĺ ëħĢ
ĠëĴ¤ ìĹĲìĦľ
Ġbur ned
a li
Ġsy stem
ĠìłĪ ë§Ŀ
ĠìŀĲ ìĭĿ
wi ld
Ġíĸīë³µ íĸĪëįĺ
ĠìķĬ ìĿĦê¹Į
Ġcon vers
íĥĢ ìĹĲ
ìĽĥ ê³ł
· ê
sp ir
ķ Ĺ
mi e
mi d
Ġëĭ ¥
Ġh am
ĠìķĦ ëĵĿ
Ġê³ ¤
Ġatta ck
ill y
ha ll
ĠìķĦ ê¹Į
Ġìĵ¸ìĵ¸ íķľ
Ġê°Ĳ ì¶°
ëģĿ ìĹĨëĬĶ
don t
İ Ħ
ĠìŀĬíĺĢ ìł¸
ĠëĤł ìĶ¨
Ġë§Įëĵ¤ ê³ł
íķľ ë§ĪëĶĶ
ê·¸ëŀĺ ìļĶ
ba be
Ġìĺ¤ëĬĺ ìĿ´
ìĤ¬ ë¥¼
ë¡ ¤
pi ck
Ĳ ì§Ģ
Ġì¡°ê¸Ī ìĿĢ
Ġëª¸ ìĹĲ
ìĦ °
Ġë³´ ëĥĪ
ru mental
ĠìĿ ½
bi e
ĺì Ķ©
ëł Īì¹´
ëĳĺ ëŁ¬
Ġmatter s
ãģ ¼
íķĺ ëĿ¼ê³ł
ìĸ´ ì°Į
ë§£ ê²Į
he ll
Ġìļ°ë¦¬ ìĹĲê²Į
ìĤ¬ëŀĳ íķł
Ġst ream
Ġë²Ħ ìĬ¤
ìłķë§Ĳ ë¡ľ
ëĳ ¡
i ca
Ġsee s
Ġrun s
ìĭľ ìĤ¬
ŀ Ķ
Ġëº ¨
Ġë¹Ĺ ë¬¼
Ġstart ing
Ġc ake
ì£½ ìĿĦ
ëĸ¨ ë¦¬ëĬĶ
ëĭµ ëĭµ
ëĤĺ ì²ĺëŁ¼
ì¹´ì ¼Ģ
ì§ ĸ
ëĵ¤ ë§Į
Ġëª» íķ´ìĦľ
Ġs ch
ìľ¼ ë¡ł
ĠëĤ´ ë¦¬ëĦ¤
Ġn ut
Ġë§º íŀĮ
Ġb ud
Ġsee med
Ġë¶Ģë¥´ ëĦ¤
Ġcon ne
ì§Ģ ë£¨
åİ »
pos sible
Ġë°ĳ ìĹĲ
Ġê·¸ë Ł¼
Ġl ing
Ġëª©ìĨĮë¦¬ ë¡ľ
Ġwonder land
Ġsto pped
a ster
Ġì§ĳ ìľ¼ë¡ľ
ìĹĨ ëįĺ
ä» ĺ
ĠíķĦìļĶ ìĹĨìĸ´
bo ys
ĠìķĪ ê³łìĦľ
look in
Ľ ¨
ĠìĿ´ ëĬĶ
Ġpar is
Ġed it
ãģı ãģ¦
et te
Ľ íĨł
ĠëĬĲëĤ Ģ
all ey
ãĥ ı
si ve
ĠìĹĨìĿ´ ëıĦ
Ġìĸ´ ì°¨íĶ¼
Ġgr ass
Ġve ins
ãģ«ãģª ãĤĭ
st re
ĠíĹ¤ ìĿ´
Ġìĸ¼êµ´ ìĹĲ
ĠëıĦ ëĬĶ
ĠëĤł ëĵ¤ìĿĦ
Ġdiv ine
Ġb les
ìĬ¤ íĬ¸
Ġcl own
ĠìĨĮ ëħĦ
Ġì¡ ±
pp ers
Ġëį ľ
Ġbeg ging
ĠìĿ´ ìĪľê°Ħ
Ġv is
ëĦĪìĻĢ ìĿĺ
re ally
a ch
ĠëĬĺ ìĸ´
Ġblo o
Ġíķĺ ëł¤
ĠìĥĿê°ģ íķĺê³ł
Ġê·Ģ ìĹĲ
ãĤĴ è¦ĭ
Į į
Ġìĺ ¥
Ġwa sting
ìŀł ìĿ´
in ation
Ġste ps
ĩ ´
Ġë³´ ìķĦëıĦ
ps y
ìĸ´ ê¹¨
ì¶ ¤ì¶
ĠìĤ¬ëŀĳ ìĿ¸
Ġë°ĺ ê²¨
Ġid ea
ìĨĮ íķľ
ëŀ Ĺê²Į
Ġkiss ing
ng le
Ġbeg an
ìļ© ìĦľ
act ly
Ġë°ĶëĿ¼ë³´ ë©´
Ġdeser t
ê³ł ë°±
» ¿
¡ ìĿĢ
íĸĪ ìĸ´ìļĶ
ĠëŃĶ ëį°
ar ound
Ġì·¨ íķľ
Ġrain y
ãģĽ ãĤĭ
Ġsc ar
ĭ µ
Ġê° Ĵ
Ġch urch
Ġë§Īë ĥ¥
Ġsw itch
ë°© ìĹĲ
Ħì º
Ġì¹ľêµ¬ ê°Ģ
Ġëħ¹ ìĹ¬
ìķĦ ëĭĪë©´
ëĭ¤ ê°ĻìĿ´
fu lly
Į ëŁ¬
Ġìĸ´ëĳł ìĿ´
Ġima gin
it al
Ġêµ ĲíļĮ
Ġëĭ´ ê³ł
ĠìĦ¤ëłĪ ìŀĦ
Ġë³´ê³ł íĮĮ
ãģĵ ãĤĮ
r adio
Ġgif t
Ġblow s
ìĺ¤ëĬĺ ëĶ°ëĿ¼
fi c
ĠìĽĲ íķĺê³ł
ìŀ¡ ìĿĢ
æľ ĥ
to ok
Ġíķ´ ë´ĲìļĶ
Ġhe sit
ë¦¬ ìĿĺ
ãģĹ ãģķ
ĠìĦľ ëŁ¬ìĽĮ
Ġë§Ĳ íĸĪì§Ģ
Ġgrow s
Ġ ought
² ¬
no r
chi ld
Ġw re
ĠìĦľ ìĦ±
ë¹Ħ íĭĢ
Ġpl ane
Ġìĸ Ħ
ĠëĳĲ ë²Ī
ìľ ¨
ĠìĹ¬ ê¸´
ĠíĿĲë¥´ ëĦ¤
å Ħ
Ġt at
ê¸¸ ìĿĢ
æĮģ ãģ¡
Ġmight y
Ġf ood
ĠìĿĢíĺľ ë¡ľ
Ķ ¬
Ġg as
íŀĪë ł¤
ìĤ¬ëŀĮ ìĿ´
e ld
Ġê³µ ê¸°
Ġd in
ì´ ĪëĿ¼
el iness
Ī ĳ
Ġsee k
ĠëĤ¨ìķĦ ìĦľ
ìĻ ¸ë¡Ń
ĠìŀĲ ëħĢ
ĠìķĪ ìĿĦ
ì¦ Ŀ
ëĭ ¬ëŀĺ
Ġdi me
Īë °©
ëĵ £
łë ķĮ
Ġë¶Ģ íĦ°
Ġê¿Ī ëıĦ
ëŃĩ ìŀİ
ëģĿ ìĹĲ
ãģļ ãģ«
ut es
Ġíķĺ ê¸°
Ġìł ģìħĶ
Ġì ª½
íĨłì ¸ł
ìĸ´ ë¨¸ëĭĪ
ë¨¹ ìĿĦ
ãģ¾ ãĤĭ
Ġë§ŀ ëĬĶ
ĠìĹ¬ ëŁ¬
ĠëĤĺ ë³´ëĭ¤
pr ay
Ġcand le
ĠìĤ´ ë¦¬
Ġê½ ¤
ìľ¼ ìĵ±
ĠìķĦì¹¨ ìĿ´
Ġunder neath
Ġm ea
ê¹Ĭ ìĿ´
ĠâĢ »
ìĺģìĽĲ íĨłë¡Ŀ
ĠëĤ´ìĿ¼ ìĿĢ
íĻĶ ê°Ģ
d ear
ìĹ¬ ê¸´
Ġj oe
Ġa w
res sion
Ġë¬´ ê±°ìļ´
Ġd om
Ġì¶ ¥
ãĤģ ãģŁ
ĠìŀĬ ìľ¼ëł¤
v or
ĠĠĠĠ ĠĠĠ
ĠëıĮìķĦ ìĺ¤ëĬĶ
Ġë§ĮëĤĺ ëŁ¬
Ġë¶Ģì ħĶ
Ġlou der
Ġë¹Ľ ìľ¼ë¡ľ
Ġë¹Ħ íĭĢ
Ġë°ĶëŀĮ ì²ĺëŁ¼
Ġr ac
ë¯¸ ëĭ¤
Ġkill ed
Ġgr ay
ìī ½
Ħ Ľ
Ġp at
Ġeng ine
ë§ĪìłĢ ëıĦ
Ġtra p
Ġs ai
æľ Ī
ĠëıĻ íĸī
ë¶Ģ íĦ´
Ġë³´ ì¢Į
Ġle gs
u k
i ze
ĠìŀħìĪł ìĿ´
Ġë¿Ĳ ìĿ¸ëį°
Ġë³´ ê¸°
Ġill usion
Ġfol ks
ëį ľ
Ġëħ¸ëŀĺ ë¡ľ
p romise
an ts
Ġy ah
Ġdrink ing
ai re
Ġê±¸ ê³ł
Ġener gy
Ġact ing
ë¦¬ ìķĦ
Ġì£¼ ìĺ¤
Ġê¹ ¡
Ġc am
ì¤Ħ ê¸°
ĠìĥĿ íĻľ
ìĥĪ ìķ¼
Ġs ang
ìĺ¤ ìĿ´
ëŀ ©
ç Ĳ
Ġtr uly
ì¤Ħ ê¹Į
ëĳĲëł¤ ìĽĮ
ê¸°ìĸµ íķ´
ok ay
Ġdru gs
ìĿ ¸ë
uz z
gi ving
Ġë¨¸ë¬ ´
ĠëĪĪ ìĹĶ
does n
Ġìŀĺ ëĤľ
Ġd ressed
ë´Ħ ìĿ´
pre ss
ĠìķĦ íĮł
ĠëĲł ê±°ìķ¼
Ġl ang
m ust
¡ Įìĸ´
Ġti ed
ìĸ´ ìĥī
Ġë°ĶëĿ¼ë³´ ë©´ìĦľ
ëĭ¬ ëĿ¼ê³ł
ë¹ ¼
Ġëĵ¤ ë¦¬
Ġwi se
ìĸ´ ë´Ĳ
ìĤ° ëĤĺ
ê·Ģ íķľ
æĤ ²
Ġtra vel
ìĿ¸ê°Ģ ë´Ĳ
ìĭ¤ íķĺìĭł
4 5
Ġtri ck
Ġpho to
Ġp ot
ìł¯ ë°¤
ìĤ´ ì§Ŀ
ê¸° ë¦¬
Ġë³¸ ëĭ¤
Ġê°Ī ê²Į
Ġvi c
ëĵ¤ ì²ĺëŁ¼
ëĳĲ ë²Ī
íķ¨ ìĿĢ
Īì Ĭ¤
ĠìĹĨ ëĦ¤ìļĶ
ê°Ģ ìĦľ
ëķĮ ëĬĶ
ĠìĤ´ ë¦¬ëĿ¼
Ġë½ Ģë½Ģë½Ģ
ëĤĺ ë¨¼
êµ¬ ìĦĿ
ìłķ ìĿ´
ìĬ ·
dic ted
ĠìķĦë¬´ ëłĩì§Ģ
ĠëĬĲëģ¼ ëĬĶ
Ġfoo lish
Ġbles sed
ìŀĪ ìŀĸìķĦ
åĳ ½
ëĲĺ ì§Ģ
ìłľ ê°Ģ
Ĳ ģ
ĠíĨł ë§ĪíĨł
ĠìķĮ ê¹Į
íĥĢ ì¹ĺ
Ĩ Ķ
ĠìĬµ ê´Ģ
Ġë§Ĳ ë§Į
Ġê°Ģ ë¥´
ìĿ´ ìĿ´
ë´¤ ìŀĲ
Ġìĥģ íĻ©
Ġëħ¸ëŀĺ ëĬĶ
Ġìĥī ê¹Ķ
Ġì£¼ëĭĺ ë§Į
ĠìķĬìĿĦ ëŀĺ
ìĿ¼ ëıĦ
ìĦľë¡ľ ìĿĺ
um b
± ë
Ġtell s
Ġser ious
ìŀ¡ ìĿĦ
¬ ´
y al
ľ Ļ
Ġìĭľìŀĳ ëĲľ
ĠìŀħìĪł ìĿĦ
ë°Ľ ìķĦ
lu e
ĠìĶ ¹
Ġì¤ĳ ìļĶ
Ġë§Ī ìĭľ
Ġê±· ëĭ¤
ëł Į
ëģ Ĭ
ĠìŀĶ ìĿĦ
ëĤ¨ ìķĦ
w ater
ĠíĽ ĹëĤł
Ġìľł ë©Ķ
Ġëı¼ ìļĶ
Ġblow ing
ìĺĢ ì§Ģ
ãģķ ãģĪ
ãģ ¹
Ġl amb
Ġhot el
ìľ¼ ë¦¬ëĿ¼
ìľ Ĺ
ĠìĽĲ íķ©ëĭĪëĭ¤
åĲĽ ãģ¯
Ġëĵ£ ì§Ģ
Ġdarke st
éĢ ¢
ĠìĨį ìĿ´
mi es
į ê
ĠìķĬ ìľ¼ë©´
Ġbleed ing
Ġìĭ¤ ìĪĺ
Ġê°Ģ ëĤĺ
ĠíĤ ¤ì
Ġë¶Īìĸ´ ìĻĢ
ì½ Ķì½Ķë¡ľ
ëĶ °ë¦¬
ë¯¿ ìĿĦ
ç ¥
Ħìº Ħ
Ġìŀĳ ìķĦ
Ġpop pin
ë¬´ìĹĩ ìĿ´
Ġê±¸ ìĿĦ
ê³ł ìļ´
³ ¡
Ĵ ¤
Ġë¬´ ê²Į
we l
ìĹĪ ëĤĺìļĶ
ëĤĺ ìģľ
ê±¸ ìĸ´
ki e
Ġp ac
Ġë¶Ħ ìľĦ
li ar
Ġëħ Ģ
Ġshi rt
íĬ ¼
2 8
Ġëĵ¤ ë¦¬ì§Ģ
Ġsoldi er
v ity
' .
Ġbuild ing
now n
Ġê¹¨ ìĸ´ëĤĺ
åľ °
Ġê¿ ĩ
Ġê² ª
Ġì¶ ¤
Ġë©Īì¶ ĺ
Ġê²Į ìŀĦ
Ġm al
bro ken
ĠìķĬ ëįĺ
Ġho e
Ã º
as ure
ģ ĸ
Ġìī¬ ìļ´
Ġconf used
è¡Į ãģı
Ġìļ¸ ìĸ´ëıĦ
Ġìĭľ íĹĺ
Ġë§ĮëĤĺ ê²Į
Ġfli p
Ġdi es
m ary
Ġcomp any
Ġa i
Ġíķĳ ê³Ħ
ĠëıĦ ëĮĢì²´
Ġmon day
ëĮĢ ë¥¼
ëĤľ íķľ
th s
ëĺĳ ê°ĻìĿĢ
gg as
Ġli p
Ġa ye
ìĿ´ ëıĦ
Ġgu ar
ê°ĳ ìŀĲê¸°
Ġê° ĪëĿ¼
ll er
Ġë¶Ģë¥´ ìŀĲ
Ġstay ed
Ġìłľ ëĮĢë¡ľ
Ġëĭ¹ìĭł ê³¼
ëĶ° ëĶ°
j oh
Ġëĭ¤ ë¥´
ë¯¸ ìļ´
b ir
ë¬´ ì§Ģ
Ġìĺ¨ ì¢ħìĿ¼
Ġexc use
and y
Ġc ent
ê°Ģê¹Į ìĿ´
Ġë¹łìł¸ë ĵ¤
Ġwant ing
Ġche ap
ë§Į ëĤł
ĠìķĦ ëĤĺíĥĢ
Ġì°¾ìķĦ ìĻĶ
ë¥ ¸ì
Ġë¹Ħì¶Ķ ëĬĶ
è Ĳ
ê°Ħ ìłĪ
ìĤ¬ ì§Ħ
ãģį ãģĹ
ãģ» ãģ©
Ġc ard
ìĦĿ ìĿĢ
Ġdra ma
íķĺ ëĭ¨
ë¶Ģ ëģĦ
ĠìĻ ¼
Ġw ol
Ġreco gni
ëĨĴ ìĿĢ
ë³´ ì§Ģë§Į
ĠìĹĨ ëĤĺ
Ġd ot
Ġì°½ ê°ĢìĹĲ
Ġwish ing
ë¹Ľ ëĤĺëĬĶ
ĠìłĦíĻĶ ë¥¼
Ġêº¼ ìķ¼
ul ar
Ġgiv in
è¦ ģ
Ķì ³Ĳ
Ġì£¼ ìĭľëĦ¤
ãĥ Ĺ
Ġìļ© ê¸°ë¥¼
æ ı
- )
Ġsac rifi
Ġqui ero
íĺ¸ íĺ¸
me mor
ħ ĺ
¸ì ¡
´ ī
ì¹ĺ ê¸°
c ess
ãĤŃ ãĥŁ
c en
Ġu ns
c ri
ĠìĤ¬ëŀĮ ê³¼
éĽ ¨
ëĭ¤ íķľ
ê·¸ëĮĢ ëıĦ
ê·¸ ê²ĥ
ì»¤ ëĭ¤ëŀĢ
ar r
Ġë¶Ģì¡± íķľ
¤í Ĭ
o ho
an i
ëŃĶ ê°Ģ
Ġë Ł
ter s
Ġì¹¨ ë¬µ
åĲĽ ãģ«
ĠìķĪëĲ ł
Ġì° °
Ġv ac
Ġp ra
ëĭ· íħĮ
ë§Ĳ ëĿ¼
ĠìĤ¬ëŀĳíķľ ëĭ¨
Ġë°Ľ ëĬĶ
Ġë§ī ìĿĦ
Ġìĸ´ëł¤ ìļ´
ë¯¸ ëŀĺ
Ġë ģĪ
è© ±
åĲ Į
Ġíİ ĺ
Ġv u
Ġp ink
ìĨĲ ê°ĢëĿ½
ëĥĩ ë¬¼
Ġìļ¸ ë¦¬ëĬĶ
Ġì§ĵ ëĬĶ
Ġla ughter
Ġg ut
ĠëĦĪ ìĹĲ
íĿ ¡
ê½ĥ ìĿĦ
ëıħ íķľ
Ġëĭĺ ìĿĢ
Ġr ay
Ġhom ie
íķĺ ìĤ¬
ĠìĤ¬ëŀĳ ìĿ´ëĿ¼
Ġì§Ģ ìļ°ê³ł
Ġl ust
ê°Ī ê¹Į
art er
Ġìĺ¤ ë¥´
ĠëĿ¼ ê³ł
æľ Ľ
ìĹ¬ ìĽĮ
Ġì¦Ĳ ê²ģê²Į
ê³ł ê°ľë¥¼
ah h
ĠëĳĲëł¤ ìĽĢ
ĠëĤ´ êº¼
Ġkill er
Ġle vel
Ġ ï
ìļ° ëĦ¤
9 7
Ġu ne
ĠìķĦ ëģ¼
çµ Ĥ
ĠìĿ¸ë ĶĶ
ë³¼ ê²Į
ĠìĪł ìĹĲ
Ġëľ¨ ëĬĶ
Ġb ay
ĠìĽĥ ëįĺ
Ġsure ly
st al
Ġsatis fied
Ġë°ľ ìŀĲêµŃ
ìĿ´ ë¹Ħ
Ġê·Ģ ì°®
Ġcig are
ì¶¤ì¶ Ķ
ĠëĳĲ ëĵľ
s ear
ìļ° ë©´
ë¬´ ëĦĪ
e q
ĠìĤ¬ ëª¨
ìĸ´ëĶĶ ìĹĲ
Ġì¢ĭ ê³ł
ĠíĻĶ ê°Ģ
Ġcl as
ë§ Īë¥¼
ãģĻãģ Ĳ
ĠëĤĺ ìļĶ
Ġë°Ķë Ģ
Ġë¬´ëĦĪ ìł¸
¤ ëŀĳ
su e
¿Ĳ ìĿ¸
tr ust
Ġì§ĢëĤľ ëĤł
ì¹´ì ¿ł
ç ¹
ac oustic
Ġdisgu ise
Ġë¬ ´ë
ëĸłëĤĺ ê°Ħ
ë©Ģë¦¬ ìĦľ
' ?
Ġë³´ ìķĺ
Ġf al
íķł ê»ĺ
ìĨĮë¦¬ ìĹĲ
ëł¨ ëĭ¤
u ally
ĠëıĮìķĦìĻĢ ì¤ĺ
ëĤĺ ëħ¸
ĠìĹĨìĿ´ ëĬĶ
Ġê¼¬ ë¬¼
Ġê³ łì
Ġdreame d
Ġsit uation
ëĦĪ ëŀĢ
Ġìķł ìĽĲ
Ġìĭľê°Ħ ëĵ¤ìĿ´
ĠëĴ¤ ë¥¼
ë³¼ ëŀĺ
b ird
Ġìĸ´ê¹¨ ë¥¼
Ġwalk s
ì§ ¹
Ġê°Ī ëŀĺ
ä¸ ĭ
¹ ĺ
Ġê±¸ìĸ´ ê°ĢëĬĶ
Ġê°Ī ê¹Į
íĺ¸ ëıĦ
íħ Ĳ
åĥķ ãĤī
ĠëĤ¨ ìķĺ
Ġmove d
Ġd ate
Ġnight ma
¼ì Ķ¨
¬ë ķĮ
Ġtou ched
v is
Ġìĺ Ģ
Ġchi c
ë¹Ħ ìĹĲ
ãĤ ¦
ìĹĪ ìŀĸìķĦ
ëª» íķł
ĠìĿ´ ëĤ´
ìĭ¬ ìľ¼ë¡ľ
ë½Ģ ë¡±
ea king
ìķĦëĭĪ ìķ¼
Ġshow ed
Ġrain ing
ëĤ Ħ
ĠìĿ´ ê¸¸
Ġhappen ing
Ġë© İ
ìķĦì¹¨ ìĿ´
dd ing
ëĳĲê·¼ ëĳĲê·¼
ĠíĻĺ íķľ
ë³´ëĭ¤ ëıĦ
Ġë±ī ìĸ´
Ġwar ning
Ġl em
¶ Ļ
Ġë¯¸ì¹ĺ ê²Į
Ġquestion s
Ġb li
íĥĢ ê²Į
ĠëĤ´ê°Ģ ìĬ´
Ġê³ł ìĥĿ
Ġche e
íķĺ ìĭľëĬĶ
ê°Ģ ë¦¬
f la
ìĹĲ ìĹĲ
oh hh
ĠëĤĺ íĮĶ
Ġe f
Ġtell in
ê³¼ ëıĦ
¸ì ½Ķ
ĠìĦľë¡ľ ê°Ģ
Ġëª© ìĨĮ
Ġíĺ ¹
Ġs ings
ê°Ĳ ìĿĦ
Ġê¸°ìĸµ ìĹĲ
ìĹ ĪëįĶ
ra ge
Ġê·¸ëłĩ ì§Ģ
Ġìĭ £ê³ł
Ġì§ ľì¦Ŀ
p ain
av in
ĠëĤ¨ìķĦ ìŀĪëĬĶ
Ġë°© ìĭĿ
ëĦĪ ëŀĳ
ë¡ľ ì§Ģ
ĠìĤ¼ì ¼ľ
Ġì°¨ ê°ĳê²Į
n ers
Ġìĸ´ë¦° ìĸĳ
Ġì°¬ìĸĳ íķ©ëĭĪëĭ¤
Ġc y
ìĹĲ ìĦł
Ġwhe never
íķ© ìĭľëĭ¤
ëĤĮ ìĹĨìĿ´
ĠìĻĦ ìłĦ
Ġë©Ģ ìĸ´ì§ĢëĬĶ
Ġlo ad
ĠëĮĢ íķ´
Ġê¸° ìķ½
íĨµ íĨµ
ëįĶ ëĥĲ
» Ĭ
ai sed
Ġìłķ ëĵł
ëĦĪë¬´ ëĤĺëıĦ
ãĤ µ
ìĹ¬ê¸° ìĦľ
Ġë§Ī ìĺ¤
ì°© íķľ
Ġìł ¸
Ġtri ppin
Ġm am
Ġbre ad
ĠìķĦëĿ¼ë¦¬ ìļĶ
as k
Ġfa ded
ìĿ¼ ìĿĦ
ë° Į
b ur
ĭ ¸
Ġê°ĦìłĪ íŀĪ
Ġtru ck
Ġmis sion
Ġcha ir
è Ī
ge nd
ëĭ¤ ìĿ´
ne l
s hip
pa gne
ĠìķĦì¹¨ ìĹĲ
Ġì²« ìĤ¬ëŀĳ
ìĹ¬ ëĿ¼
ni ggas
ers to
Ġbi en
ìĹĲ ëĤĺìĿ´
Ġìĸ¼ ë£©
id es
bi es
Ġstar ing
ê¸° ìķ¼
ëĭ¤ ëĭ¤
ŀ İ
ĠìĨįìĤŃ ìŀĦ
ë¶Ī ìķĪ
åĩº ãģĻ
ĠìŀĪ ëĦ¤ìļĶ
Ġsad ness
ãģ¿ ãģŁãģĦ
Ġëĳĺ ë§ĮìĿĺ
wh is
Ġd ing
Ġìĥģê´Ģ ìĹĨìĸ´
ëį° ëıĦ
ĠìĦ¸ ìĽĮ
Ġê±°ê¸° ìĦľ
ãĥ ł
burn ing
Ġíİ´ ê³ł
Ġpull ed
Ġna vi
è ģŀ
hand s
call ing
Ġíķĺ ìĭľê³ł
ĠìĻķ ìĿ´
Ġsun light
Ġim ma
f un
ĠìĽĢì§ģ ìĹ¬
Ġìĭľê°Ħ ëıĦ
Ġì§ĳ ìĸ´
Ġì£½ ìĸ´
ĠëıĪ ìĿĦ
è¿ Ķ
Ġëĭ¤ ëŀĮì¥Ĳ
ĠìĬ¤ ìĬ¤ë¡ľ
ĠìĬ ¤ì
Ġmor nin
ìĬ¤ íĦ°
ìĤ° ìĿĦ
êµ¬ ëł¤
Ġbo b
ey es
Ġì½ §
Ġì§ĢëĤĺ ê°ĢëĬĶ
ĠëĬĲê»´ ì§ĢëĬĶ
Ġë»Ķ íķľ
Ġ-- -
Ġìłķ ìĿĦ
Ġm ac
ĠëıĻ ìĥĿ
ìĸ´ ëĳĶ
Ġíĸīë³µ ìĿ´
ĠìĿ¸ íĺķ
íĹĺ íķľ
å §ĭ
Ġë¹Ħ ëĬĶ
Ġíķł ì§Ģ
ĠìŀĲ ì£¼
Ġìĺ¤ ëĦ¤
ĠìĦ Ŀ
ĠëıĮìķĦ ë´Ĳ
Ġê°Ģ ì¹ĺ
íħĮìĿ´ ë£¨
ëª ¬
Ġì±ħ ìŀĦ
Ġti cket
Ġwheel s
ìĹĪ ìĨĮ
ë¶Ī ìĸ´
ê³° ìĿĢ
å°ĳ ãģĹ
Ġêµ¬ ìĦĿ
Ġíŀĺ ì°¨ê²Į
ĠìĬ¬íĶ ¼
Ġëĵ£ ëĬĶ
Ġvi cti
Ġa im
Ġí ĪŃ
Ġhill s
Ġha un
Ġevery time
åĭ ķ
å Ĥ·
¸ Ĭ
Ġê¹¨ ìĸ´
Ġg oo
íķ¨ ìľ¼ë¡ľ
ãģ® æ
Ġt out
Ġd ah
fa st
ĠëĦĺ ì¹ĺëĬĶ
Ġwat ched
Ġsto ries
p y
al though
Ġìĭ¶ ëĭ¤ë©´
Ġs cr
Ġna sty
Ġjour ney
ãģªãģĮ ãĤī
Ġìķł íĥľ
Ġbo ther
Ġp ound
ëĺĳ ëĺĳ
ë¬´ìĹĩ ìĿĦ
è £
Ĩ ¡
ĠìĹ¬ìŀĲ ëĬĶ
ĠìĪľ ìĪĺ
Ġju ngle
ãĤ £
Ġc en
ëĪ Īì¹ĺ
Ĩ µ
ìĸ¸ìłľ ì¯¤
ê²° ìĹĲ
èª° ãģĭ
ĠìĬ ¬
ìĬ¤ ëŁ½
ĠëĤł ë§Īëĭ¤
ëĭ ¬íĶ
ĠíķĺëĬĺ ë¡ľ
íŀĺ ëĵ¤ìĸ´
ë³´ ëĿ¼
ê³ł ìļĶíķľ
Ġê·¸ëķĮ ë¡ľ
ìł¸ë Ŀ¼
ìĸ´ ëĶĺ
² «
c ci
Ġíķĺ ëĭ¤
Ġë¬¼ ìĿĦ
Ġë³´ ëįĺ
Ġmon ster
ĠìĿ´ ë§Ī
Ġëĭ¿ ëĬĶ
ìķĦë§Ī ëıĦ
Ġe cho
Ġda ughter
Ġíķĺë£¨ íķĺë£¨
Ġê³ł ë§Ī
ìļ´ ëĭ¤
åĥķ ãģ¯
Ĺ ħ
ë± ħ
every where
Ġr ad
ìĻĢ ìļĶ
bo ard
Ġinno cent
Ġheart break
Ġmi le
Ġmet al
ìĹĪ ìĿĦê¹Į
a ck
Ġë²ł íĳ¸
Ġplan et
im ma
ĠìķĪ íķ´
ĠìŀĲ ì¡´ìĭ¬
Ġìľł ìĿ¼íķľ
Ġs illy
Ġhop es
ĉĠĠĠĠ Ġ
ëª¨ ìļ°
ľë ļ
Ġsha king
ìŀĪ ëĬĶëį°
ĠìĤ¬ëŀĳ ìĬ¤ëŁ°
Ġì§ Ļ
ĠëŃĲ ëĿ¼ê³ł
Ġê½ģ ê½ģ
Ġele ctric
ëª© ìĿĦ
Ġgl or
Ġì§Ģ ë£¨
ĠëĤĺê°Ģ ìŀĲ
ëĬĶ ê±¸
we d
li l
Ġíŀĺ ëĤ´
ĠíĶ¼ íķ´
Ġre lax
ìĭľ ìĽĲíķľ
ãģ ľ
Ġë§ŀ ìľ¼ë©°
Ġlot s
ĠíĹ¤ ë©Ķ
Ġìĥģì²ĺ ê°Ģ
ĠëĤĺ ëĤł
Ġcra wl
Ġìº Ĳ
Ġbelieve d
ë² Ļ
Īë¬ ¸
Ġëĭ¹ìĭł ê»ĺ
Ġmad ness
íĽĦ íĥĢë¦¬
ë¥ĺ ê´Ģ
¡ ë
Ġëĭ¤ê°Ģ ìĺ¨
ĠëĤ´ê²Į ìĦľ
Ġv alley
Ġëĭ¤ ë¥¼
if y
Ġdo gs
ëĶĶ ìĺ¤
co ver
Ġê°Ħ ì§Ģ
Ġme l
il ty
Ġìĸ´ë¥¸ ìĿ´
Ġmar ry
ãģ ĸ
Ġcirc le
íħ ¨
tr ac
Ġìĭ¶ìĸ´ ëıĦ
ëª¸ ìĿ´
i ther
9 8
Ġunder ground
ëĮĢ ëĭµ
ĠíĻĺ íķĺê²Į
íĺ¹ìĭľ ëĤĺ
ìĽģ ê²Į
ëĤĺìĿ´ ëĭ¤
car ry
ĠíĿ© ìĸ´ìł¸
Ġf ashi
ìĿ´ìłľ ìĻĢ
ay e
Ġìĺ¤ ìĭł
Ġhold s
ëĤĻ ìĹ½
ë¯ Ģë¡ľ
Ġì§Ģ ìĥĪ
Ġj ail
Ľ ł
Ġìĸ¸ìłľ ê¹Įì§Ģ
Ġì² ¨
ı Ń
Ġplay s
Ġon to
Ġge or
g an
Ġëĭ´ ê¸´
ĠëĦĪ ìĺĢ
Ġê¹ ĥ
è¼ Ŀ
re f
ĠìĺĪìĪĺ ë¥¼
Ġì¶Ķìĸµ ìĿĢ
man y
Ġg li
re nt
Ġë¶ĪëŁ¬ ëıĦ
ëĭ¤ëĬĶ ê±¸
Ġìĸ´ëĶĺ ê°Ģ
Ġìĭ¶ìĸ´ ëĿ¼
ĠìĬ¬íĶĦ ê²Į
ĠëĤĺëĤĺëĤĺ ëĤĺ
ë§ ¹
½ ©
ì¤ĺ ìĦľ
st ant
Ġì¹ ´ì
ì§Ģê¸Ī ê¹Įì§Ģ
ì ¾
¦ ¼
co z
ĠìĤ´ ì§Ģ
ìĭ¬ ìŀ¥ìĿ´
ĠìķĪë ³´
Ġìĭ ±
ëª¨ ë¥´ëĬĶ
Ġì§ĢëĤĺ ê°Ģë©´
Ġunk nown
Ġs ir
ìĹĲ ëĭ¤
ame s
Ġìĭ¶ ëĭ¤ê³ł
åĳ ³
Ġhard ly
go ld
ĠìĦ °
ĠìĥĿê°ģ ëıĦ
ĠëĪĪë¹Ľ ìľ¼ë¡ľ
Ġë¹łì ¡Į
Ġê³ °
¨ ¸ë¡ľ
Ġë° ĺì
ëĵ¤ ëł¤
ëĬ¥ íķĺìĭł
d ers
ĠëĦ £ê³ł
Ġw rist
Ġex actly
è¡ Ĺ
p no
Ġd ough
¸ łì¼Ģ
.... ..
ì§Īë ķĮ
Ġëĭ¦ ìķĦ
Ġë§Ĳ íķłê²Į
åĲĽ ãĤĴ
Ġfam ous
Ġen joy
æīĭ ãĤĴ
Ġëį ķ
Ġbo dies
ëĨĢ ëĿ¼
ye sterday
Ġë°Ķ ë¹ł
Ġmi ster
ëĮ Ī
è º
ĠëĨĢ ìĿ´
ĠëĤĺ ìĺ¤ëĬĶ
Ġo pp
ĠìĺĪìĪĺ ìĿĺ
ëĮ ķ
ë©į ë©į
al one
Ġíķł ëŀĺ
Ġì¶¤ì¶Ķ ìŀĲ
Ġëĭ¬ëł¤ ê°Ī
ãģŁ ãģ¡
Ġ ven
ìĸ´ ë¦´
ëĪĦ êµ°
ĠëĸłëĤĺ ë©´
ìĸĺ ê¸°
ãģ§ ãģį
talk ing
Ġê´Ģ ê³Ħ
ìĿ´ìķ¼ ìĿ´ìķ¼
Ġìŀł ê²¨
Ġdes per
ìĸ ¸ëįķ
ëĤ´ ë§ĪìĿĮ
s ea
ĠëĸłëĤĺ ê°Ī
ì¼Ģ ëıĦ
ë¶ īìĿĢ
ãĤī ãģĦ
Ġìĺ ³
ĠëĲĺ ë¦¬ëĿ¼
ĠëĤĺ ìĺĢ
ëıĻ ê¸Ģ
ë¹ Į
Ġë¿Į ëł¤
Ġë°Ķëĭ¤ ë¥¼
Ġgang sta
íķĺ ê¸°ë¥¼
gr am
Ġì¢ Į
ìļ°ìļ° ìļ°ìļ°
dad dy
Ġu g
° ë§¤
st as
Ġëª» ìŀĬìĸ´
Ġlon don
Ġdem ons
ersto od
ĠìķĦëŀĺ ë¡ľ
Ġë¬» íĺĢ
Ġj et
Ġc ure
ìļ© íķľ
ë¹Ľ ìĿĦ
Ġo pened
ãģ¾ ãģ§ãĤĤ
ĠìķĪ íĥĢê¹Į
Ġb er
ë§Ī ìĿĦ
ê·¸ëŁ¬ ëĭĪê¹Į
ãģŁ ãģĹ
Ħì ¿ł
Ġstr angers
ìļĶ ì¿ł
ìķĪ ìķĦ
ìĥ Į
could n
ìĽĲ íķĺëĬĶ
ìĽĲ ìĹĲ
íĸĪ ëĭ¤
ì¦Ĳ ê±°ìļ´
½ Ģ
ĠëĤ¨ ìĿ´
ìļ° ìľł
in de
Ġno te
Ġbright er
ëĤł ë¦¬ëĬĶ
Ġê°Ģ ëįĺ
ëł Īë¹Ħ
ĠíĮ Įí
ĠëĤ ³
ãĥ ¢
Īí Ī¬
ĠëĤĺëŀĢ íŀĪ
íĸ¥ ê¸°
ĠìŀĪìŀĸìķĦ ìļĶ
ĠìĤ¬ëŀĳ ê³¼
ĠëĪĪ ìķŀìĹĲ
Ġti p
Ġhoo k
ber ry
Ġp unk
íĴĪ ìĹĲ
¨ì Ķ¬
ĠìĤ¬ëŀĮ ìĹĲê²Į
ĠâĻ ¬
Ġë½ Ģ
Ġm atch
Ġp sy
Ġh ay
z zy
Ġëĭ¹ ìŀ¥
ë°ĶëŀĮ ìĿĦ
Ġstop s
ĭ Ń
íĤ¤ë¯¸ ê°Ģ
ļ ¤
Ġcra w
íĸĪ ìĹĪëįĺ
é ģĶ
Īí į¼
Ġìķ½ìĨį ìĿĦ
Ġsla ve
Ġ Ãł
ìĽ Įì
ë³´ ìĿ´
is hed
ãģĭ ãģªãģĦ
ĠëħĢ ìĦĿ
Ġembra ce
pi re
ĠíĹ¤ìĸ´ ì¡Į
ĠìĹĨ ê¸°ìĹĲ
Ġëĭ¹ ê·¼
ĠëĤĺ ë§ĮìĿĦ
ĠëĤ¨ìŀĲ ëĬĶ
Ġë ¸Ķ
Ġcon s
æ Ĩ
sc ream
Ġê³ µí
íĨł ëģ¼
ê±°ë¦¬ ìĹĲ
ĠëıĪ ìĿ´
7 9
Ġ1 8
Ġfor ward
Ġìĸ´ê¹¨ ìĹĲ
ĠëĤ´ê²Į ëĬĶ
Ġw eep
íķľ ìĪ¨
ë³Ģ íķĺì§Ģ
g her
Ġtre asure
wh oo
ĠìĤ¬ëŀĳíķ´ ìĦľ
Ġë§ŀ ìĿ´
Ġwear ing
ìĥģ ìĿĦ
ëĨ ¨
ĠíĿĲ ë¥¸ëĭ¤
ĠìĨ ľìĤ¬íĥķ
ĠëĬ Ļ
ë§Ĳ íķĺì§Ģ
ä½ķ ãĤĤ
Ġhur ting
ë£¨ ë§Į
on a
Ġetern ity
Ġboy friend
ëħ¸ íĤ¤ìĺ¤
Ġì° Ķ
Ġì§ĵ ê³ł
ĠëĤ´ ê³ģ
ë¬´ ì§Ģê°ľ
se ven
ĠìĹ¬íĸī ìĿĦ
Ġëĸ¨ ìĸ´
Ġë¹Ħ ìĽĥ
Ġëĸłìĺ¬ ëł¤
Ġë°Ľ ìľ¼
Ġigno re
Ġex ist
ç º
00 0
Ġìłķ ëıĦë¡ľ
Ġìŀħë§ŀ ì¶¤
ĠìĽĲ íķ´ìļĶ
Ġëľ» ìĿĦ
Ġëª¨ìĬµ ëıĦ
ë°Ķ ëĭĪ
( *
Ġë§Į ëĵľ
ì¡° ê°ģ
ĠìĨ¡ ìĿ´
Ġdream in
i ch
Ġì«ĵ ìķĦ
st s
ĠëĤ´ë§ĺ ìĿĦ
Ġë Į
ìĸ´ìł¸ ëıĦ
ĠìłĦë¶Ģ ë¥¼
Ġst ation
ar tist
Ġgre w
ìĭľ ìĹĲ
å¤ ±
gi a
ĠìĻĶ ëĦ¤
ĠìĹĨ ëıĦëĭ¤
Ġë°ĶëĿ¼ ê³ł
Ġli qu
Ġlea vin
Ġhearta che
íģ¬ ê²Į
Ġì§ľ ë¦¿
ĠëĨĵ ìĿĢ
Ġì°½ ì¡°
ĠëĤ´ ëª¨ìĬµ
Ġë§İ ê³ł
Ġêµ¬ ìĦ¸
Ġd it
ëĳĲ ë¦¬
ëĭĺ ìĿĦ
é ļ
Ġëĸ¨ ìĸ´ì§Ħ
Ġpo lice
ëĤ´ ìĸ´
Ġs ue
Ġë¨¸ë¦¬ ë¥¼
ãĤ ª
ĠìķĦì¹¨ ìĿĦ
Ġëª© ìĪ¨
Ġì¶Ķìĸµ ëĵ¤
Ġì ĩ¼
Ġê±° ìĹĲìļĶ
ëĤ´ ìĤ¬ëŀĳ
· Ħ
ĠëģĿ ìĿĢ
Ġë©ĭ ëĮĢë¡ľ
Ġëĭ¤ê°Ģ ìĺ¤ëĬĶ
ìĿ´ ê²ĥìĿ´
ìı ŁìķĦ
ëĭ¤ ë§Į
ê» į
Ġra ge
Ġmin utes
ìĿ´ ê³³
ĠìķĬ ê²łìĸ´
ĠëĲĺ ìĹĪëĦ¤
Ġê¿Ī ìĨįìĹĲìĦľ
ê±¸ ìļĶ
éĸ ĭ
¼ ĵ
p ass
ĠìķĦëĭ Īì£ł
ë¹Ħ ëĬĶ
ë³į ê²Į
ĠëĦĪ ëŀĳ
Ġ1 6
íıī íĻĶ
si e
Ġíķł ê±°ìķ¼
y l
Ġê¸° íĥĢ
at tered
Ġhall elujah
íķĺ ìĿ´
d n
Ġìĺ¤ ë¥¸
ĠëŃĲ íķ´
Ġba se
ì¿ Ħ
ëĶĶ ìķ¼
¢ °
sho ot
se x
Ġë§¤ ëĭ¬
ìĦľ ëĬĶ
ìľ¼ë¡ľ ëıĦ
ë ĩ
Ġìļ¸ ë¦¬
Ġwork in
Ġìĭ¤ íĮ¨
Ġì ª
Ġthink s
12 5
Ġë°ĶëĿ¼ ë³´ëĭ¤
ê°Ģ ë©°
ĠìĽ ¬
ĠëŃĲ ëĵł
çĶŁãģį ãģ¦
¸ë Ĳľ
Ġì¹ Ń
Ġì Ń
Ġy i
ķ ê
Ġê°Ģ ìĦ¸ìļĶ
Ġo w
Ġi r
i ld
ĠëĦ ·
è¶ ³
ĠìŀĶ ìĿ¸
Ġëª¨ë¥´ ì§Ģë§Į
ç Ī
day s
Ġì§Ģì¼ľ ì¤Ħ
Ġrel ease
Ġre volution
ĠíĶ¼ìĸ´ ëĤĺëĬĶ
ĠìķĦìĿ´ ì²ĺëŁ¼
Ġìļ¸ ê²Į
Ġìĺ¤ ëª¨ìĿ´
ĠìĹĨ ìĹĪì§Ģ
ë²Ħ ë¦¬ë©´
Ġëĭ¤ ìĦ¯
Ġê¿Ī ìĿĺ
Ġm us
íķĺ ê²łì§Ģ
ìĪĺ ìĹĨ
ë°Ľ ëĬĶ
ĠìŀĪì§Ģ ìļĶ
Ġìļ ¸ë©°
Ġìĺ¤ ìĭ¤
Ġë ŀĺ
° Ľ
k r
Ġholly wood
ë¶ Īë
Ġê¹Į ë§Į
Ġa nc
ìĥ ĺ
ëıĮìķĦ ê°Ī
h ouse
Ġd ive
Ġì°¾ìķĦ ìĺ¤
Ġëĭ¨ ìĸ´
Ġth ro
Ġtele phone
Ġìķł ê¸°
Ġì ¯¤
Ġof ten
ëħ¸ ìļĶ
Ġjo ke
ic ide
ĠìĽ Įìĸ´
ë§ ĳ
se nce
ìĦľ ìĦľ
ĠëıĮ ë¦¬
ĠëĤĺ ìĹĲ
Ġhust le
íĤ¤ ìĭľ
de o
Ġìļ¸ëł¤ ëĿ¼
Ġdru ms
Ġcom o
ì¹ĺ íĤ¤
ë©Īì¶ ľ
ĠëĦĺìĸ´ ê°Ħëĭ¤
ìŀł ëĵ¤
ìĿ´ ê²ĥ
Ĺ ī
Ġf ed
Ġìī½ ì§Ģ
ê¹Į ì§Ħ
Ġê±¸ ë¦°
ìĬ¤ëĿ¼ ìĹĺ
Ġsu ddenly
ê·¸ëķĮ ëĬĶ
ĠìĦľë¡ľ ìĿĺ
Ġê¸°ìĸµ ìĿĢ
Ġkit chen
Ġìķ łì
Ġì¡° ëªħ
Ġk a
Ġ1 1
ĠìĿĮìķħ ìĿĦ
ĠìĿ´ ìĬ¤ëĿ¼ìĹĺ
ĠìĽ Ģì
Ġê·¸ ë¦°
ëĥ ł
ĠìĨ Ł
Ġëĭ¹ìĭł ë§ĮìĿĦ
Ġour s
ì§ĢìķĬ ëĬĶ
Ġê°Ģ ê¸°
ĠìĤ¬ëĿ¼ ì§Ģê³ł
Ġwi cked
Ġsit tin
Ġnor th
ìł¸ ê°ĢëĬĶ
ë¹ °
ê¿Ī ìĹĲ
½ Ķì
ìĹ¬ ìģľ
Ġëª¨ë¥´ ì§Ģ
Ġê±° ëŀĢ
íģ¬ ë¦¬ìĬ¤ë§ĪìĬ¤
Īë¶Ģ ìĭľê²Į
ãĢĢãĢĢ ãĢĢãĢĢ
± ´
ĠìĥĿê°ģ ëĤĺëĬĶ
Ġëı ĭ
Ġê½ĥ íĶ¼
in i
Ĺ Ľ
íŀĺ ìĿĦ
Ġíĸ¥ íķĺìĹ¬
Ġë° ī
Ġsun rise
ìķĦ ëĵĿ
Ġl ed
íķĺëĬĶ ì§Ģ
Ġìĺ¤ì ħ¨ëĦ¤
ë¶Ģ ëŀĳ
Ġrid in
Ġë¬´ìĦľ ìĽĮ
Ġê²¨ìļ¸ ìĿ´
Ġim possible
ì§Ģ ë©°
Ġìŀ¡ ìķĦì£¼
ì¢ ģ
ëĬ¥ ëł¥
Ġlon eliness
ë° Ł
t z
lie f
Ġìĺ¤ëĬĺ ìĿĦ
Ġall ow
ìŀĲ ê°ĢìĹĲ
n r
me et
Ġre li
ìĸ¸ìłľ ë¶ĢíĦ°
ëĮĢ ê°Ģ
Ġdrown ing
ë¥ ¸ëĵ¤
Ġíİ¸ ìķĪ
Ġìĺ¤ íķ´
ĠëĪĦ êµ¬ëĤĺ
Ġani mal
ìļ ¸ë©´
ħĶ ìĦľ
íĮĲ ìĹĲ
Ġëĸłìĺ¤ ë¥´
é ģ
ãģ¨ ãģį
ëıĦ ë¦¬
ëħ ķ
j or
Ġê¿Ī ìĹĲìĦľ
Ġmon key
Ġìŀĳ ìĹħ
ĠìĪĺ ë°ĸìĹĲ
ĠëĸłëĤĺ ì§Ģë§Ī
ĠëıĦ ìļ°
íĸĪ ê³ł
ìĿ´ ëŁ´
Ġíŀĺëĵ¤ìĸ´ ëıĦ
Ġì¢ĭ ìĿĦê¹Į
Ġë¨¼ ì§Ģ
íİ ´
± Ļ
re l
Ġwind s
ëł¤ ëĬĶ
a q
ĠíĨł ëģ¼
ìħĶ ìĦľ
ĠìķĦíĶĶ ìĿ´
Ġr ot
ë¡ľ ê°Ģ
ê¸°ëĭ¤ ë¦¬ëĬĶ
Ġë¶Ģë¥´ ë©´
Ġë°Ķ ìģľ
Ġhold in
íĹ Ľ
ë¥´ë¥´ ë¥´
èµ °
å¤ ı
Ġì£¼ ìĭľê³ł
Ġì¢ Ĩ
Ġë¬¼ ëŁ¬
Ġê±´ ëį°
ìķ¼ íĺ¸
ëĭ Ŀ
ĠìĿ´ ìģľ
Ġì´ Ľ
Ġëĸ¨ ë¦¼
Ġê¹¨ ëĭ«
Ġp ear
blo od
Ġm ot
Ġdo gg
íĨł ìĻĢ
ĠìĿĢíĺľ ë¥¼
Ġë¹¼ ìķĹ
Ġê³ł ëĤľ
Ġpr of
Ġbro ad
ë¦ ´ëķĮ
writ ten
or ig
ĠìŀĲ ìĹ°
is n
no on
mon y
---------------- ----------------
ĠíĹ¤ ìĸ´ì§Ħ
Ġì±Ħ ìļ¸
Ġê·¸ ë§Ĳ
Ġbutter fly
ëĤĺ ëŀĢ
³ ¨
ìĬ Ī
ĠìĪ¨ ìĨĮë¦¬
Ġì°¬ìĸĳ íķĺë¦¬
Ġswa g
Ġfor tune
Ġat t
åĽ ŀ
,, ,
ĥ ³
Ġp hi
íĸī ìĹ¬
o x
Ġê¿ Īì²ĺëŁ¼
Ġë¶Ģ ëĭ´
sha wty
Ġê² °ì½Ķ
íĥĢ ë©Ķ
ãģĻãģ ¹
ĠìĹ° ê¸°
å ŃĲ
ì»¤ íĶ¼
Ġì£½ ìĸ´ëıĦ
Ġë©Ķ ìķĦë¦¬
Ġp in
Ġor der
Ġch ances
ìŀĪ ëĤĺ
ë³´ê³ł ìĭ¶
ìĹ¬ íĸī
Ġì¶¤ì¶Ķ ëĬĶ
Ġli m
Ġthe e
â ĺ
si ck
Ġpla in
ìĹ¬ ìĦľ
Ġpan ts
ìķĬ ëĬĶ
mm mm
ĠíĻķ ìĿ¸
ìĿ´ ìĦ¸ìĥģ
Ġshoot ing
ë» Ķ
ê½ĥ ì²ĺëŁ¼
è¿ ·
ãĤĤ ãģĹ
ĠìĽĥìĿĮ ìĿĦ
Ġìĭ« ëĭ¤
Ġê¸°ëĭ¤ë¦¬ ëįĺ
Ġn in
ìłķ íķĺê²Į
ãĥ ĩ
ĠìķĮ ê¸°
Ġì ¥
Ġad dicted
ëĲĺ ë©´
d ark
ak er
ĠìĤ¬ëĿ¼ ì§Ī
Ġë¹¼ ê³ł
ìĿ´ ìĹĪìĸ´
ì§ĳ ìĸ´
ëĦĪë¬´ ëıĦ
ë©Ķ ë§Īë¥¸
æ ļ
¦ ī
d ro
b c
Ġwindow s
ther n
íģ¬ ë¦¼
ê¸Ģ íĶĪ
pre sent
ĠìĹ ħ
ìķĦ ëĥĲ
Ġìĸ¼ ë§Ī
ĠëĲľ ëĭ¤ë©´
ĠëĨĢ ê³ł
l or
ĠìĿ´íķ´ íķ´
ĠìķĦì§ģ ìĿĢ
ìķŀ ìĹĲìĦľ
Ġêµ´ ëŁ¬
Ġx i
whi ch
ĠìĿ¼ ëĵ¤ìĿ´
Ġìĺ¬ ê¹Į
ĠìķĦ ìķĦìķĦ
Ġbare ly
ver y
t te
4 7
3 2
Ġíķľ ë²Īì¯¤
Ġê¸°íļĮ ë¥¼
ì¡°ì°¨ ëıĦ
es sion
Ġëĵľ ë¦¬ë¦¬
ĠëĤĺ ìĺ¨
Ġking dom
Ġconvers ation
ìķĦ ìķ¼
ë§¤ìĿ¼ ë§¤ìĿ¼
0 2
Ġíķ´ ì¤ĺìļĶ
Ġfor m
ìłķ ìĿĺ
ëĶĶì ¯¤
ĠíĿ ī
Ġbottle s
ë³Ģ íķ¨
ê¹Į ì§ĵ
j ec
Ġëª¸ ë§¤
Ġê¹Ĭ ê²Į
Ġê°Ģ ìķ¼ì§Ģ
ìĤ¬ëŀĳ ìľ¼ë¡ľ
íĸĪ ìĹĪì§Ģ
íĤ¤ ê°Ģ
mi st
ĠìķĦ ëł¨
Ġê» ´
so m
Ġë ¦
Ġheaven ly
Ġbe er
ëħ ¼
in al
fo ld
Ġug ly
ç ħ
ĠìĻĢ íĥĢìĭľ
ĠìĥĿê°ģ íķĺë©°
Ġë°Ķ ê¾¸
ë¯¸ ëĬĶ
ĠíĮĶ ìĹĲ
ĠìĿ´ íĽĦ
Ġëĵ¯ íķ´
Ġsun set
Ġb ug
íķĺëĬĶ ëį°
Ġíķ´ ì¤Ħê²Į
ĠìķĦë²Ħì§Ģ ìĿĺ
Ġgener ation
Ġcomp lic
Ġc ad
ê° ĪìĪĺ
nd o
Ġë¨¹ ìĿĦ
ëĭ¤ ì¹´ëĿ¼
ê° Ĵ
¼ì ª½
Ġì§Ħ ë¦¬
Ġë°Ľ ìķĦì¤ĺ
Ġ3 0
íıī ìĦł
ì§Ģ êµ¬
ĠìĤ¬ëŀĳíĸĪ ëĬĶëį°
lu de
li vin
ìĿ¼ ê³±
ìĿ´ë³Ħ ìĿ´
ê· ľ
Ġìĭł ê¸°
Ġpill ow
Ġc ards
s Ã
Ġìļ¸ ìĿĮ
Ġìļ°ë¦¬ ëĵ¤
íĻĶ ëł¤íķľ
ĠìķĦíĶĦ ê³ł
Ġë¿Ĳ ìĿ¸
Ġë¹ µ
Ġë³µ ìŀ¡
Ġth y
Ġ& #
ìĸ´ ëł¤
ãĥ ĸ
¤ ĳ
ĠëģĿ ìĹĨëĬĶ
Ġto i
t ears
Ġíķ´ ì¤Ģ
Ġwi re
ê°Ģ ëįĺ
ê° Ľ
Ġì¢ĭ êµ¬ëĤĺ
Ġrema ins
Ġbla h
ê¸° ë»Ĳ
ãģĦ ãģ¾
Ġìĭ¶ ëįĺ
Ġê¸ ī
ìĿĢ íĺľ
ë°Ŀ ìĿĢ
ĠìŀĪëĬĶ ê±¸
ĠìĹĨ ê²łì§Ģë§Į
Ġê½ Ĥ
h or
Ġìŀ ĩ
Ġëį °ë¦¬
ĠëĤĺ ëĭĪ
Ġê°ķ íķĺê²Į
ìł¸ ìĦľ
ìĿ´ìłľ ë¶ĢíĦ°
ìĺ¤ íĨł
ì§Ħ ìłķ
Ġë°Ķëĭ¤ ìĹĲ
Ġh ush
Ġba m
ëį° ìĿ´
ĠìĻķ ìŀĲ
Ġì£¼ ìĻĢ
íķĺ ìĹ¼ìĹĨìĿ´
ìĿ¸ ê°Ħ
the red
łë »ĳ
ĠìĦ ¹ìĭľ
ìĺ¨ íĨµ
ëĦĺ ìĸ´
smi le
ck er
c ence
ĠìķĮìķĺ ëĬĶëį°
Ġsoft ly
ìĹĲê²Į ëıĦ
ì§Ģ ìļ¸
ëĳ¥ ê¸Ģ
Ġri p
Ġho lla
Ġcom plain
Ġp is
íķ´ ì§Ģê³ł
Ġì§ ĪíĪ¬
Ġëĵ¤ìĸ´ ëıĦ
Ġë¶ ī
Ġê²ĥ ìĿ´ëĿ¼
Ġin f
íķĺëĤĺ ë´Ĳ
Ġì ĳ¥
Ġê°Ģê¹Į ìĽĮ
Ġìļ° ìĹ°
ìĹ¬ ëıĦ
ìĦł íķľ
ë²Ħëł¸ ëĦ¤
Ġê¶Į ìĦ¸
Ġpre sent
Ġcom mon
ĠëĦĪìĹĲê²Į ë¡ľ
Ġê²ĥ ëĵ¤ìĿĦ
Ġê°Ģ ê±°ëĿ¼
Ġgro ov
ëĤľ íħĮ
s pend
p he
Ġê°Ģ ê²Į
Ġplay er
Ġlight ning
ìĻĢ ìĦ¸
ëĭµ ëĭĪëĭ¤
Ġìŀł ëĵ¤ìĸ´
ĠìķĦëĭĪ ì§Ģë§Į
ĠëĨĢ ëŁ¬
Ġìĸ´ëł¤ ìĽĮ
Ġëĸ ¡
Ġë³Ħ ëªħ
Ġê¿Īê¾¸ ëĬĶ
Ġsha de
íķĺ ëŁ¬
íģ Ĳ
ìĭľ ëĤĺ
ëĭ¨ íķľ
íĿ¬ë¯¸ íķľ
Ġtwi sted
½ ĥ
Ħì ¼Ģ
ĠíķĻ êµĲ
Ġìĸ´ ë¦´
ĠìĬ¤ ì¹ĺëĬĶ
Ġr ic
ëľ ¬
ìĨĮ ìļ°
ì²ľ êµŃ
ì° ¬ëŀĢ
æ° ¸
Ġl ull
talk in
ĠìķĪìķĦ ì¤Ħ
Ġz ero
Ġless on
ëıĮ ê³ł
Ġdi ce
Ġê° ĪëĮĢ
ìĸ´ëĳł ìĿ´
Ġìŀ¡ ê³łìĦľ
ea sy
íĤ¤ ëª¨
ĠìĿ´ ë£°
Ġmic ro
ãĤı ãĤĬ
ĠìłĢ íĿ¬
ëĤĺìĿ´ ìļĶ
ìŀĬ ê³ł
ce ive
Ġë´Ĳ ë´Ĳ
ìĤ¬ëŀĮ ëĵ¤
s oul
ĥ ©
Ġê³ĦìłĪ ìĿ´
ìĭł ëĤĺê²Į
ç ĿĢ
Ġë ¸Į
Ġsm ooth
ì¶ķ ë³µ
Ġë§Ĳ ëĵ¤ìĿ´
Ġê¿ Ķ
ë¿Ĳ ìķ¼
ri e
dri ve
Ġëľ¨ ê±°
Ġd ai
ê²¹ ê²Į
Ġì¦Ŀ ê±°
Ġì£¼ëĭĺ ìĿ´
äº Ĩ
Ġì½ Ķì½Ķë¡ľ
Ġblo om
ãĥ İ
ãģłãģĳ ãģ©
p ers
lo gi
do s
ĠìĦ¤ ëªħ
Ġë²Ħ ë¦¬ì§Ģ
ìĿ´ë³Ħ ìĿĢ
ê·¸ ëŀ¬
ëĤł ìĿĢ
ĥ »
ĠìĿ´ìľł ëĬĶ
ĠìķĬ ì£ł
¸ ìĨĲ
ĠìĹ° ìķł
Ġê¸° ë¦Ħ
ìłģ ìĿ´
ë²Ħ ë¦¬ëĬĶ
bou nce
Ġê·¸ë ħĪ
ìĻĢ ìĿ´
ìĹĦë§Ī ê°Ģ
st ru
ci a
Ġì²ĺìĿĮ ë¶ĢíĦ°
Ġsuper star
ĠìķĬ ì§Ģ
Ġre sc
Ġho llow
christ mas
ĠìĿµìĪĻ íķľ
Ġê°ĢëģĶ ìĿĢ
Ġshe lter
bo th
ĠìķĦíĮĮ ìļĶ
ì£¼ ìĻĢ
łì ¸ł
Ġr aw
t wi
Ġí ļ
ĠìĤ´ ëŀĳ
ga z
Ġì±Ļ ê²¨
ìĺ¤ ì¿ł
Ĥ Ħ
Ġê°Ģ ë¦¬ëĿ¼
Ġs way
íķĺ ìĭľëĭĪ
ãĥ »
Ġíķľ ê°Ģì§Ģ
Ġo we
Ġcho se
ì§ĳ ìľ¼ë¡ľ
êµ¬ ìĽĲ
Įì ½Ķ
Ġë³µ ìĿĦ
ìĵ° ëŁ¬
r w
l ou
em pre
Ġï¿½ï¿½ï¿½ï¿½ ï¿½ï¿½ï¿½ï¿½
Ġìĭ¤ ë§Ŀ
Ġë°Ľ ìľ¼ìĨĮìĦľ
¸ëĵľ íı°
ee ze
ĠìĿ´ìĥģ íķ´
Ġmar ried
Ġfro zen
ĠìłĦ íķĺê³ł
Ġëª°ëŀĲ ëĦ¤
Ġname s
ì© Ĳì§Ģ
ëĮĢ ìĭł
ho l
Ġëĭ¬ ëĿ¼ê³ł
íķĺ ëıĦë¡Ŀ
ë°Ľ ê³ł
Ġìŀ Īë
Ġthre w
íĿĺëŁ¬ ê°ĢëĬĶ
æĻĤ éĸĵ
åħ¨ ãģ¦
Ġìļ° ìļ°
Ġìļ° ëĦ¤
ĠìĹİ ëĵľëł¤
ĠìĨĮ ëĿ¼
Ġsu cc
ëĭ¬ ìķĦ
c ool
ĠìĽĲ íķľëĭ¤ë©´
§ ŀ
íİ¸ ìĹĲ
ìĸ´ ë¥¸
ëıĮìķĦ ìĺ¬
ë§ ¥
Īìľ¼ ëĭĪê¹Į
ĠìĪ¨ìī¬ ëĬĶ
Ġë°ĺ ìĦĿ
ëıĻ ì°¨
ĠìĹĨ ëĤĺë´Ĳ
ìłķ ëĵł
ìĭ¬ ìĿĢ
¾ ¸
Ġdist ant
Ġë¹ł ë¥´ê²Į
Ġo ri
ëĤ Ń
h um
Ġíķĺë£¨ ë§Į
ĠìĦ¤ëłĪ ëĬĶ
Ġa ve
ìļ¸ ìĸ´
ê· ĵ
Ġwis dom
Ġcli ck
Ġbed room
Ġê² ī
d irty
Ġm m
Ġíķľë²Ī ëıĦ
Ġê° ļ
ë°Ń ìĹĲ
ĉĉ ĉ
ë§Įíģ¼ ìĿĢ
Ġíĸ¥ ê¸°ìĹĲ
ĠëģĮ ëł¤
Ġj az
ä¸Ĭ ãģĴ
Ħí ĽĦ
Ġme lt
Ġa dd
ìķĦ ë©ĺ
å Į
ĠëĤ¨ìŀĲ ìĿĺ
Ġëª¸ ìĿĢ
íķĺ ê²łëĦ¤
hall elujah
Ġìķ Ĺ
Ġëĵ¤ ìĿĢ
Ġë©Īì¶ °ëĿ¼
Ĥ Ĳ
ĠìķĦíĶĦ ì§Ģ
ĠìķĦ ëĤĺìļĶ
ĠìĪľê°Ħ ëıĦ
¬ì ±Ļ
ĠìĹ¬ìŀĲ ë¥¼
Ġì¤Ģ ëĭ¤ë©´
voc al
e red
Ġìĭľ ìĽĲ
Ġê¸°ìĸµ ëıĦ
Ġde pend
ë¶Ģ ìĦľ
ĠíĽ Ķì³Ĳ
Ġs ym
Ġre me
ĥ Ģ
ĠíĮĶ ìĿĦ
Ġra pper
ĠìĿ´ìľł ë¥¼
ĠìĹ´ ìĭ¬íŀĪ
ìŀ Īì£ł
è® Ĭ
Ġstand s
ë§Ī ëĬĶ
ä¿¡ ãģĺãģ¦
ãģ£ãģ¦ ãģĦãĤĭ
ther s
im my
clo ck
ìł¸ë ´Ĳ
ķ ¸
ĠìĿĺë¯¸ ê°Ģ
Ġëĭ¤ ìĿ´
Ġê°Ĳ ëĭ¹
Ġboot s
íĤ¤ ëħ¸
èĲ ½
Ġìľł ì¹ĺ
ì§Ģ ê²łì§Ģ
ê³ł íĨµ
ãģ® ãĤĪãģĨãģ«
Ġĉ ĠĠĠĠĠĠĠĠ
ĠìĥĿ ê²¨
ĠëĲł ê¹ĮìļĶ
Ġë²Ī ëıĦ
Ġê¸° ì°¨
ëĵ £ê³ł
Ã ¬
dream s
ĠìŀĬìĸ´ ë²Ħëł¤
Ġë¹Ħ íĬ¸
Ġë§´ ëıĦëĬĶ
Ġh mm
ë©Ģ ìĸ´ìł¸
ĠìĹĨ ìľ¼ëĭĪê¹Į
he st
Ģ ĵ
Ġë§ĪìĿĮ ëĮĢë¡ľ
Ġê² ģìĿ´
ëĭ¤ íķ´ëıĦ
ãģĿ ãģ°
b an
ëĵľ ëĿ¼ë§Ī
ê¸° ë©´
at a
Ġnat ural
Ġhor iz
ìŀĸ ëĭĪ
ĠìĹī ëį©
Ġë² Ķ
Ġhar m
åĦ ª
ĠìĨĮ ëħ¸
Ġë§ĺ ìĿĺ
ê¼¬ ë¦¬
Ġë¹Ħ êµĲ
Ġë²Ħ íħ¨
Ġgre ed
ĠìŀĬ ëĬĶ
ĠíĬ¹ë³Ħ íķľ
ĠìķĬ ê¸¸
Ġê´´ë¡ľ ìĽĮ
Ġafter noon
a tor
ĠìĤ¬ëŀĳíķľ ëĭ¤ëĬĶ
ìľ ¤
ĠìķĦëŀĺ ìĦľ
Ġp lu
Ġìĭ¤ ìĸ´
éĻ ½
å® Ī
íŀĪ ì§Ģ
íĤ¤ ëĤĺ
Ġapp le
Ġaf fair
ìľ¼ ìħ¨ëĦ¤
p on
Ġë§ĮëĤĺ ëıĦ
íĤ ¹
Ġê·¸ ê±°
Ġgood night
ì°¨ ê°ĳê²Į
Ġêµ¬ ìĨį
Ġwea ry
ëıĻ ëĦ¤
ê½ ī
sit ting
p eace
Ġìĥģì²ĺ ë§Į
ĠëıĮ ë¦´
ĠëıĮ ë¦¬ê³ł
Ġt ale
Ġdes ign
Ġce iling
ë¹Ļê¸Ģ ë¹Ļê¸Ģ
Ġì§Ģ ê¸Īì²ĺëŁ¼
Ġgo ds
íħĮ íĥĢ
ìĦ±ëł¹ ìĿĺ
ĠíĮĮí ĭ°
ĠìŀĲìľł ë¡Ńê²Į
Ġring ing
ĠëıĻ ê¸Ģ
ĠëıĮìķĦ ê°Ģê³ł
Ġflow s
ì§Ģ ê¸Īë¶ĢíĦ°
ĠìĿ¼ìľ¼ ì¼ľ
Ġë³´ìĹ¬ ìļĶ
ĠìĤ¬ëŀĮ ëĵ¤ìĿĺ
ĠëĦĪë ¨¸ë¡ľ
Ġê¾¸ ê³ł
sh ining
ĠëĦĪ ë§ĮìĿĺ
ìŀ ī
ìĬ¬íĶ Ħ
ll in
** *
Ġsing in
ì¶Ķìĸµ ìĿ´
ë§Įìķ½ ìĹĲ
ãģı ãĤĮãģŁ
ĠíĮĮ ê³ł
n w
ĠìĹ¬ìŀĲ ìķ¼
ĠìķĬìķĦ ìĦľ
Ġì£Ħ ìķħ
Ġë©Ģ ìĸ´ì§Ħ
vi ous
Ġìķ ¨ë²Ķ
íĳ ¼
ë£¨ë£¨ ë£¨
b al
ĠìŀĪ ëĭ¨
Ġê·¸ë¦¬ ëĬĶ
íĳ ¸ë¥´
ãģ¦ ãĤĤ
x ic
ent ine
ĭ «
Ġìĸ´ ë£¨ë§Į
Ġë§´ ëıĮìķĦ
Ġê° ĪìĪĺ
Ġrec ords
ìŀĲ ëĿ½
ìŀ¥ ë¯¸
ìķĦ ëĭĺ
ìĵ ¸
Ĥ ¢
Ġìłľ ìŀĲë¦¬
Ġëį ¤
ãģ£ãģ¦ ãĤĤ
t ear
ĠëĪĪ ê°Ĳ
ìł¸ë²Ħ ëł¤
l Ã
ì§Ģê¸Ī ìĿĺ
ê·¸ ê±¸
h an
Ġë§ ¥
Ġê·¸ë§Į íķ´
ãģĤ ãĤĬ
Ġëĵ¤ ë©´
ìĭ ¬ì
¸ë ¯¸
ĠìĿ´ ë²Ī
Ġ1 5
ìļ° ìķ¼
ìĥĿê°ģ íķ´
ħ ê
Ġì£¼ ë³Ģ
Ġë§ĪìĿĮ ë§Į
Ġbub ble
æ Ķ
¸ Ħ
Ġmotherfuck in
Ġêµ¬ë¦Ħ ìĿ´
ë§Īëį° ëª¨
ë ¼
ê¼ ´
ĠíĹ¤ ìĹĦ
ĠìŀĪ ê¸°ë¥¼
Ġbo ard
ëĸł ëĤĺëĬĶ
½ ī
for d
Ġìķł ëĵ¤
Ġìĭ¬ ìĸ´
Ġëĭ¤ê°Ģ ìĺ¬
Ġê±°ë¦¬ ëĬĶ
ë³´ëĭ¤ ëĬĶ
ê° ĪìĪĺë¡Ŀ
Ġì¶Ķìĸµ ìĿĺ
Ġì°¾ìķĦ ê°Ģ
Ġë³´ëĤ´ ìķ¼
Ġìŀĳ ê³¡
ĠìĿĮìķħ ìĿ´
Ġë§Īì£¼ ì¹ľ
íĿĶëĵ¤ ë¦¬ëĬĶ
ķ Ķ
Ĥ ì
ĠìķĮ ìĸ´
Ġìĵ°ëŁ¬ ìł¸
ëł¸ ëĦ¤
ëĦ Īë¡ľ
çĻ ½
Ġë²Ī ìĿĦ
ĠìķĬ ê¸°ë¥¼
Ġê±¸ ìĹĪëįĺ
å¹ ´
gi on
Ġl ar
Ġf ancy
ê¹Į ì§Ģë§Į
Ġshe ets
ìĹĨ ì§Ģ
¨ ìĿ´
Ġeasi ly
ìĦ¸ë £¨
½ ķ
Ġìĸ´ì©Į ëĤĺ
Ġë¶Ī ìķĪíķ´
íĹ¤ ìķ¼
ë¬¼ ê³ł
ole nce
Ġìłģ ìĿ´
Ġth ick
Ġt our
Ġd uck
íĮľ íĮľ
ìĦ¸ ê³Ħ
Ġìļ°ë¦¬ ëĵ¤ìĿĢ
Ġë¶Ļ ìĸ´
ìĽĢ ì§ģ
ìķ ¤
ì§ ĪìĪĺ
Ġë¹ ļ
Ġsacrifi ce
Ġf right
Ġc le
ìķĦ ìļ°
st ra
oooo oooo
gg ing
dream ing
Ġì°į ìĸ´
Ġê¹ľ ë¹¡
Ġhe els
ëª© ìĿ´
Ġstrug gle
Ġbeli eving
Ġìĭ¶ ê³ł
Ġwin ner
Ġhang in
w oman
ê¸° ëĦ¤
³ Ģ
at ive
ĠìķĦë§Ī ëıĦ
Ġëĭ´ ìĿĢ
íı¬ ê·¼
ë©Īì¶Ķ ì§Ģ
ë£¨ ëħ¸
ĠíĹĪ ë¦¬
Ġë ĮĦ
íĤ¤ ìĬ¤
ë§ĺ ìĹĲ
h alf
Ġíķĺ ìĿ´
ĠìĪľê°Ħ ë¶ĢíĦ°
Ġë³Ħ ì²ĺëŁ¼
Ġpur ple
ro ad
Ġl ee
ìłĪëĮĢ ë¡ľ
ìĥĿê°ģ ìĿ´
the ir
Ġë¹ĽëĤĺ ê³ł
ë¹ Ħì
ìŀĺ ëª»
ë± ī
y et
Ġì§ ĸ
íķĺëĤĺëĭĺ ìĿĢ
ëĦĵ ìĿĢ
ëª¨ ëĤľ
le v
Ġrecogni ze
ìĬ¤ íĭ±
fu ll
Ġp it
ãĤĪãģĨ ãģª
gra ph
Ġíĸī ìļ´
ĠìĤ´ìķĦ ìķ¼
ĠëĲĺëıĮ ë¦´
ëŀĳ ìĿ´
b right
Ġë¬´ë İĮ
Ġë§Į ìķ½
ì²ľ ë¦¬
4 4
ĠíķĺìĹ¬ ëıĦ
Ġme nd
ìĺ¤ ëįĺ
ìĺ¤ ëª¨
ëıĻ ìĿ´
æ ¯
f ai
Ġwra pped
Ġeasi er
ëļĿ ëļĿ
ëĬĲ ëĭĪëĿ¼
h ate
Ġpre ss
ìķ ¨ë²Ķ
( ?
Ġshe d
ë¦¬ ëĵ¬
ãģ²ãģ¨ ãģ¤
Ĭ ¥
Ġëĭ Ĳ
¸ëł ¸
Ġĉ ĠĠĠĠ
ì§ĵ ëĬĶ
ê¸°ëĭ¤ ë¦´
é ģķ
Ġì§ĢëĤĺ ê°Ģê³ł
ĠìĺĨ ìĹĲìĦľ
Ġê³łë§ĪìĽĮ ìļĶ
Ġto m
Ġrea ching
ëģ Įìĸ´
go in
Ġíķĺ ìĹ¼ìĹĨìĿ´
ĠìĹ¬ìŀĲ ìĿĺ
Ġrefle ction
na m
bre aking
Ġre call
Ġdrink s
Ġch an
ìłĸ ìĿĢ
ìŀ¥ ìĿĢ
ë³´ ìĿ´ëĬĶ
la dies
Ġíķĺ ëĭĪê¹Į
ê¿Ī ìĹĲìĦľ
Â ·
ĠìĬ¤íĥĢ ìĿ¼
Ġë²Ħëł¸ ëĦ¤
ìĿ´ëĿ¼ ìĦľ
ìŀł ìĿĦ
fa de
Ĥ ìĿĢ
Ġì ĿĦ
Ġlea ds
Ġcur se
ìĿ¼ ëŀĳ
Ġme dic
ìĺ¤ ëĤĺ
å ĸ
Ġs ins
ï »
íĿĶ ëĵ¤ìĸ´
si lent
" )
ĠìĦľ ë©´
Ġreg rets
Ġcirc les
ìĻ ľëĥĲ
Ġswee test
Ġìĸ´ë¦° ìĿ´
æ¬ ²
Ġë°ĸ ìľ¼ë¡ľ
Ġê¸°ìĸµ ëĵ¤ìĿ´
Ġê·Ģ ìĹ¬ìĽĮ
Ġt ab
Ġa ut
ëłĪ ëıĦ
Ġíķľ êµŃ
Ġëĳ¥ê¸Ģ ê²Į
Ġcop s
Ġbull shit
ìĺĪìĪĺ ìĿĺ
ll ip
ìĹĨ ê³ł
Ġìĭ« ìĸ´ìĦľ
ìĭľ ê°Ģ
ëĤ¬ ëĭ¤
c ity
ĠíĿ¬ë§Ŀ ìĿĦ
ĠìķĬ ìķĺëįĺ
ĠìıŁìķĦ ì§ĢëĬĶ
Ġk ings
ì§Īë ĵ¯
p ump
Ġê±° ë¦´
ë§ ´
ê°Ľ ê²Į
Ĥ Ĭ
Ġwill ing
ì§Ħ ìĿ´
ui ce
ĠëĦĺ ìĸ´ìĦľ
Ġsmi les
ĠìĥĿê°ģ íĸĪìĸ´
ĠëĲĺìĸ´ ìĦľ
Ġë³´ ë°°
Ġsha pe
ìľł ëĤľíŀĪ
led ge
i ble
ĠìĹ¬ ìľł
ĠìĤ¬ëŀĳ íķĺë©´
Ġëª» íķĺëĦ¤
Ġdes p
ë²Ħ ìĬ¤
ë§ º
ãģĹ ãģ¿
ci ence
Ġìĺģê´ĳ ìĿĦ
Ġìĸ¼ ìĿĮ
ĠìĪł ìĿĦ
ĠëĽ° ê³ł
Ġst ones
íĤ¤ ëĬĶ
ìĦ¸ë ¥¼
ë°± ëħĦ
âĢ ĭ
Ġë§Ĳ íķľ
Ġì£¼ ë¦Ħ
Ġscre en
Ġs che
Ġe ither
ìłģ ìľ¼ë¡ľ
bl in
ĠëĤł ê³ł
ĠëĤ´ë°Ģ ìĸ´
Ġê¸°ìģ¨ ìĿĦ
ar ma
Ġíķĺ ëĦ¤ìļĶ
Ġì¹ ¸
Ġì§Ģ ëĤł
ìĸ´ ìĿ´
ê¸° íĥĢ
ĠëķĮë¬¸ ìĿ´ìķ¼
ëłĪë ¯¸
ĠìĤ¬ëŀĳíķľ ëĭ¤ë©´
ĠëģĿ ëĤĺëĬĶ
Ġë¶Ģ ìĸ´
Ġê¿Ī ë§Į
ì°¨ ë§Ī
æ ²
to rs
ĭ ·
ĠìĹ¬ìĿ¸ ìķĦ
ĠëĲĺ ê²łì§Ģ
ëĪ Īë
ëª¨ ë¥¸
ĠìĦ¸ ìļ°
Ġë§İ ìķĦìĦľ
Ġtra cks
Ġj i
íķĺë£¨ ë¥¼
ìĭľ ëıĦ
ë°ĺì§Ŀ ìĿ´ëĬĶ
ĠìĿĺ ë¯¸ë¥¼
ĠëķĮ ëł¤
ëĬĺ íķľ
ë§Īì °¨
re mix
bo x
Ġìŀħ ìĹĲ
Ġëª© ìĿĦ
Ġje an
ì£¼ ë§Į
inst rumental
Ġì¤ĳ ìļĶíķľ
Ġvir gin
Ġhat ers
ëĮĢ ìĹĲ
Īë ł¤
Ġe ve
ìĤ¬ ëĤĺ
ê°ķ ë¬¼
ãģį ãģŁ
ĠìĹ° ìĿ¸ëĵ¤
Ġê²¨ ìļ°
Ġcham pagne
ê±°ë¦¬ ë¥¼
ãĥ ¯
Ġíķł ìĪĺë¡Ŀ
Ġíĥľìĸĳ ìĿ´
Ġwere n
Ġj ay
æľª æĿ¥
say ing
be n
Ġc ats
ëłĪë ª¨
ë°ĸ ìĿĦ
ĠìĹ° ìĬµ
ìĸ´ì§Ģ ì§Ģ
ë³Ģ íķ´
æľ Ŀ
°ëĿ¼ ë¦°
c ross
ĺ Ĩ
Ġìĸ´ëĶĶ ìĹĲìĦľ
Ġsen s
si x
Ġë¹Ī ìŀĲë¦¬
Ġpour ing
ãģĤãģªãģŁ ãģ®
Ġëĭ¤ ë¥´ê²Į
Ġner vous
ìĥĪì ĽĮ
ëıĦ ì½Ķ
ë¶Ģ ëª¨
Ġìĵ¸ìĵ¸ íŀĪ
Ġê²ĥìĿ´ ìļĶ
ë¨ ¸ë¬¼
ĠìĽĥ ìĸ´ìļĶ
ĠìĤ ½
ĠëĦĪ ëĦ¤
ĠìĿ´ ê±°
ĠìĤ ¬ë
Ġcon fi
ìĵ¸ìĵ¸ íķľ
ëŀĦëŀĦ ëŀĦëŀĦ
ê±° ìĹĲìļĶ
æ ®
Ġê³Ħ ìĭľ
Ġhi ps
Ġburn in
ìĨĲ ìĿ´
£ ê
ĭ Ŀ
ĠíĥĢ ìĿ´
íļ ¨
ìĪł ìĹĲ
ãĤı ãĤĭ
Ġìĺ ®
ì¹ ¼
ëĤ Ģ
å¹ ¸
li a
Ġëĵľ ëŁ¬
Ġëĳ Ķ
Ġë¶Ģ ëĶĶ
Ġë³´ ëŁ¬
Ġë§Ĳ íķĺë©´
Ġang er
Ġ ee
ìĿ´ ê¸¸
ëķħ ìĹĲ
ë³´ ê²Į
ĠíĽ ¨ìĶ¬
Ġì§ ĻìĿĢ
Ġg al
íĽ Ī
Ġëį §
ëĵ¯ íķ´
ĠìĨĮ ë¦´
ĠëĨĵ ìĿĦ
Ġê³ł ë§Ļ
íķĺì§Ģ ëĬĶ
ìĭł ê²½
f re
ĠìĪĺ ë¡Ŀ
ĠìĥĿ ê¸´
Ġt ar
ìķĦ ëł¨
ì¤Į ë§Ī
ãģł ãģ£ãģŁ
ìĬ¤ ëŁ¬
s wi
Ġwor ried
ll ed
Ġë³Ħ ë¡ľ
Ġê·¸ëŀĺ ìļĶ
Ġr aised
Ġfashi on
Ġìĸ´ëĸ ł
ĠëıĮìĿ´ íĤ¬
Ġê·¸ë¦¬ìĽĢ ìĿ´
Ġtra ce
Ġa hh
ìĿĮ ìĿĮ
åĲĮ ãģĺ
col ate
ĠëĦ£ ìĸ´
° ½
Ļ ķ
Ġì£¼ ìĭľëĬĶ
Ġe y
Ġcor az
ìĺĢ ëĦ¤
ë°Ķ íĢ´
st ri
Ġì§Ģ íĺľ
Ġê·¸ ìĤ¬ëŀĳ
ĠíĿĺëŁ¬ ëĤ´
ì°¬ ìĨ¡
ë§Īì Ľł
Ġê¸°ëĭ¤ëł¤ ìļĶ
Ġba gs
ê±´ ê°ĢìļĶ
ìĿ¸ ê±°ìķ¼
ãģĹãĤĩ ãģĨ
p as
Ġìı ĺ
Ġì į¼
Ġê¾ Ģ
ëĭ¹ ëĭ¹
Ġë©į ì²Ń
Ġë§ĺ ê³¼
Ġlull a
d Ã
ģ ĩ
Ġì Ł
Ġë°¤ ìĹĲëıĦ
Ġê¸°ëĭ¤ë¦¬ ë©°
Ġìŀĺ íķľëĭ¤
Ġë©Ķ ìĸ´
Ġê±° ëĿ¼ë©´
Ġr ou
Ġbl ing
íĸĩìĤ´ ìĿ´
ĠìķĦ ë¯¸
Ġì§ĢëĤĺ ìĦľ
ĠëĪĪë¬¼ ìĿĺ
Ġëª¨ìĹ¬ ìĦľ
Ġund one
ë§ĺ ìĿ´
di am
Ġì¶Ķìĸµ ëĵ¤ìĿ´
Ġdreame r
ex p
, "
Ġbar s
¾ ħ
Ġìĭ¸ ìĽĢ
Ġì£¼ ëįĺ
Ġë ĺ¥
Ġf ru
u y
lo ck
Ġor din
ìĥĪ íķĺìĸĢ
orig inal
Ġìĭ¬ìŀ¥ ìĿĦ
ma d
m ine
Ġpray ing
Ġp un
Ġgu ilty
Ġdo ve
an an
al ity
Ġíľĺ íĮĮëŀĮ
Ġcri b
ì§Ī ê²Į
êµ° ìļĶ
la ugh
inst ead
ĠìĦ¤ëłĪ ê²Į
Ġfla g
ìłķ ëıĦ
§ ł
Īë¹ ¨
ĠìķĬìĿĦ ê±°ìķ¼
Ġshor ty
ìĭ« ìĸ´
ëĭ¤ ë©°
ion s
ĠëĥĦ ìĥĪ
Ġë§Ĳíķ´ ì¤ĺìļĶ
íķľ ì°¸
ãĤ º
Ã ¼
u es
si p
ìĸ´ëĬĲ ëĤł
ë¨¸ ë¦¿
ê·¸ ë¦
ĠíķĺëĬĺ ìĿĢ
ìķĦ íķĺ
ave ns
ĠíĸĪ ìŀĸìķĦ
ĠëĪĪë¹Ľ ìĹĲ
Ġë¶Ī ìĿ´
ìĸ´ ìł¯ë°¤
Ī ľ
ĠíķĺëĤĺëĭĺ ìĿ´
Ġì° »
Ġê¸°ìĸµ íķĺê³ł
ìĨĮ ëħĦ
ë©į íķĺëĭĪ
Ġi ron
ìĭľ ëĸ¼
ĠìĺģìĽĲ íķł
Ġsi p
pl an
Ġëį ©
Ġëĭ¹ìĭł ìĹĲê²Į
ĠâĢ ĵ
Ġhom ies
Ġfo cus
Ġì¤Ħ ê²ĮìļĶ
Ġë¯¸ ìļ´
Ġhe aded
ëĦ ·
ê³ł ìļĶ
çĶ ±
se xy
łì ½Ķ
Ġs av
ìĺĪë °°
ê°Ħ ìĹĲ
ĠìĤ¬ëĿ¼ ì§ĢëĬĶ
èº «
ĠìĨ ŁìķĦ
ĠëĦĪëĿ¼ ëĬĶ
Ġref use
íķĺ ê¸´
íĤ· íĨł
ìĨĮë¦¬ ë¥¼
ì² ©
ë¯¿ ê³ł
¨ì ³Ĳ
Ġëľ ¯
ê¸ĭ íķľ
ê´ ľ
ìĶ ¬
íķĺì§Ģ ëıĦ
ëĤĺ ê¸°
ë¯¸ ì¹ł
sp o
Ġco at
Ġbla st
Į Į
ĠìĤ¬ ëĤĺ
Ġpa pa
ì£¼ëĭĺ ê»ĺ
ëĭ¿ ìĿĦ
nd s
Ġì§Ģê¸Ī ìĿĺ
Ġì¤Ħ ìĿĢ
Ġs om
¶ Ģì
ĠìķĬ ëĭĪ
ìĺ¤ ëĿ¼
no thin
Ġìĭ¶ ìĹĪëįĺ
Ġflo ating
å¤ ª
Ġê³ł ìļĶ
Ġìŀł ëĵ¤ê³ł
Ġìļ¸ ë¦°ëĭ¤
ì§§ ìĿĢ
Ġìĭ¬ìŀ¥ ìĿĢ
Ġche ek
ìĿ´ë³Ħ ìĿĦ
ĠëĸłëĤĺ ìŀĲ
ĠëĨĢ ìŀĲ
Ġdec ision
Ġare n
ëıĮ íĶĦ
çĽ ´
Ã ¹
lea ving
ĠìŀĲ ë¹Ħ
Ġrun away
ìĤ¬ëŀĮ ëĵ¤ìĿ´
ëĿ¼ ìĻĢ
ãĤ ¨
ãģĵ ãģ®å
ĠíĽ Į
Ġê± Ķ
Ġstay s
Ġcl aim
Ġ2 1
ë¡ľ ë¡ľ
u ng
ki ck
ĠìĤ¬ ìĬ´
ĠëķĮ ë¡ľëĬĶ
ĠëıĮìķĦ ìĦł
Ġë§ ģ
ìŀĲ ë¡ľ
ê°Ķ ìĸ´
ê°Ī ë§¤ê¸°
sa d
Ġë§Īë ¥¸
íıŃ íĴį
ë¥´ ë¥µ
è¶ Ĭ
µì ¿
ê² ī
brea the
ĠíĤ¤ ë¯¸ëħ¸
Ġli ber
Ġg ate
Ġfor th
ëĪ Īë¹Ľ
rican e
llip op
ĠëĲĺ ë¦¬
ĠëĪĦ ëĤĺ
Ġli ck
Ġê³ Ħì
us ing
ĠìĻ¸ ì¹ĺ
Ġì°¨ ë§Ī
Ġì§Ģ ê²¨ìĽĮ
ìŀĪ ëĭ¤ë©´
çĶŁ ãģ¾
si c
Ġìĺ¤ ìĦ¸ìļĶ
ãĤ °
f li
Ġì§ ±
ê³¼ ê±°
º ĩ
Ġas hes
Ġle gend
ìĭł ì§Ģ
ëıĦ ë§Ŀ
ê³¡ ìĿĦ
3 8
ĠìŀĲë¦¬ ìĹĲìĦľ
Ġë¹Ħ ìĹĲ
ìĿĮ ìĿĺ
ëıĦ ë¥¼
ë¯¸ë Ŀ¼
h ar
Ġì£¼ ë¨¹
Ġvoc als
Ġla zy
Ġfreak y
ķ «
Ġroad s
Ġdro ve
l ear
Ġë°ľ ê²¬
Ġi st
ìĸ´ë¶Ļ ìĿĢ
ľ °
ĠìĦ¸ìĽĶ ìĹĲ
Ġì°¨ ëł¤
Ġy all
åĳ ¼
íŀ Īì¹´
ê¸°ëĭ¤ ë¦¼
æµ ·
Ġsink ing
Ġang ry
ł Īë
ĠìĿ´ë³Ħ ëıĦ
Ġì¦Ĳ ê²ģ
Ġê³ģ ìĹĶ
å° ı
some how
d ead
6 0
Ġë¯ ¸ë¡ľ
Ġam ong
ëıĮìĿ´ íĤ¬
ê·¸ë Ŀ¼
ĠëĤ¨ ëĬĶ
Ġê·¸ë¦¬ìĽĢ ìĹĲ
Ġa ble
ë¶Ģì ¡±
ê¹¡ ì¶©
bu ild
Ġìĸ¸ìłł ê°ĢëĬĶ
Ġíĸ¥ ê¸°ë¥¼
ĠëĦĺ ì¹ĺ
ĠëĤĺ ì¹´
ëĲĺ ëıĮ
ë¶ķ ë¶ķ
ë§Ĳ ìĶĢ
is a
ĠíĴĪ ê³ł
Ġìłķ ë¦¬
¸ëį Ķ
Ġê°Ķ ëĭ¤
Ġj ones
Ġemotion s
ìłĦ ê±°
æŃ ©
try na
st on
Ġíĸ Īì£ł
Ġìĸ¸ìłľ ëĿ¼ëıĦ
Ġë¬´ ìĦŃ
Ġt it
Ġp ool
ìĿ¸ ëıĦ
ëĭ´ ë°°
try in
Ġì£¼ ìľĦë¥¼
ĠëıĮìķĦìĦľ ëĬĶ
ìĽĶ ìĿĺ
Ġìŀł ìĹĲìĦľ
ĠìĽĲ íĸĪëįĺ
ëĮĢ ê³ł
Ġëĭĺ ìĿĺ
Ġë©ĭ ì§Ģê²Į
íķĺ ìĭ¬
ĠìĿ´ ìĸ´
ĠìĨĮì¤ĳ íķ´
Ġì§ ł
íĨł ëª¨
ê°Ķ ëĭ¤
èª° ãĤĤ
æ ¸
¸ë ¥
Ġëĭ¬ëł¤ ëĿ¼
ìĿ´ ê¸°ìĹĲ
know ing
Ġë²Į ëł¤
ëĤ¨ ê²¨ì§Ħ
ĠìĦľíĪ ´
Ġìµľê³ł ìĿĺ
Ġg ar
ê°Ī ëŀĺ
be s
ĠëĳĲ ì§Ģ
Ġê³ł ìļĶíķľ
ìĺµ ëĭĪëĭ¤
feel in
ĠíĮĮ ëŀĳ
Ġkick s
Ġíĸīë³µ íķ´ìļĶ
Ġì´ Īë¡Ŀ
Ġë§¤ ë²Ī
Ġp ig
Ġin c
Ġcare ful
Ġbring ing
ìĻĶ ëĭ¤
Ġë¬´ ë¦¬
Ġ1 99
çĲ Ĩ
hi gher
ch ar
alal alal
ĠëĪ ĮëŁ¬
° ¥
Ġë¶Ļ ëĵľ
Ġë¨¹ ëĬĶ
Ġêµ³ ê²Į
ìĤ¬ ìŀ¥
Ã ±
su ddenly
Ġë³Ģ íķł
Ġë°¤ ìĹĶ
Ġwor ries
ìĽł ì§Ģ
Ġìł ĦìŁģ
ëĭ¨ ìĿĦ
æŃ ¥
ĠìĤ¬ëŀĳìĿ´ ìĹ¬
Ġë²Ħëł¤ ëıĦ
Ġdi vi
ê°Ĳ ìĿĢ
Ģë¡ľ ë¡ľ
Ġê·¸ëĮĢ ëıĦ
Ġrock ing
ëĶ ¨
ê¼Ń ê¼Ń
Ġordin ary
ëķ Ģ
ë Ĺ
um n
ĠìĿĮìķħ ìĹĲ
Ġin d
ï »¿
ëł ·
Ã ª
¼ì ¡±
Ġbe came
ê°ķ ìĤ°
ĠëĪĦêµ¬ ë¥¼
Ġcom me
ëĤĺ ëŀĳ
ĠìĪ¨ ê¸¸
Ġa side
sa w
Ġë©Īì¶° ìĦľ
Ġte ch
Ġmar ia
ìĺģê´ĳ ìĿĺ
ea red
ĠìķĮ ê¸°ìĹĲ
ĠëĤĺ ê³ł
Ġë²Ħ ë¦ĩ
Ġë°ľ ê¸¸
íħĶ ëłĪë¹Ħ
ëĥ ī
® ¤
íķĺ ê¸°ë§Į
ì¹ľ ëĭ¤
s la
ĠíĿ Ļ
Ġë»Ĺ ìĸ´
ë§ĪìĿĮ ìĿĺ
æ ¨
m om
Ġê°ĢìĬ´ ìľ¼ë¡ľ
Ġgr an
ì§ ¤ëŀĳ
Ġë©´ ë¥ĺê´Ģ
Ġfr on
ê·¸ëħĢ ë¥¼
Ġì§Ģìļ° ëł¤
Ġpull ing
Ġdis ease
Ġda ma
ìŀĶ íķľ
ìĽĥ ìĸ´
ä¸Ģ äºº
ĠìŀĪ ìĹĪì£ł
Ġn eg
Ġfur ther
Ġe go
ì ¥Ĳ
ëĤĺ ë§ĮìĿĦ
ãĥ §
Ġlone some
Ġhy pno
Ġfad es
Ġíķ¨ê»ĺ íķ´
Ġëļ ľëļľ
Ġë³´ ìĿ´ê³ł
Ġë°Ķë³´ ê°ĻìĿĢ
Ġga ther
íķ Ģ
ëĤ¯ ìĦł
Ġíıī ìķĪíķ´
Ġê°Ī ë§¤ê¸°
9 0
Ġì£½ ìĹ¬
Ġnightma re
under neath
ĠìĥĿëªħ ìĿĺ
Ġì§Ģê¸Ī ê¹Įì§Ģ
Ġì§ Īë¬¸
ĠëķĮ ëĤĺ
Ġë§ĲìķĦ ëĿ¼
ìŀĲ ëĤĺ
ì¹´ ìĻĢ
ä¿ º
5 5
Ġíĸĩ ë¹Ľ
Ġì´ĪëĿ¼ íķľ
Ġkill in
Ġfl at
Ġday light
ìĨ Ł
ê·¸ë¦ ¼ìŀĲ
sp in
Ġìĺ¤ì ħĶìĦľ
ĠëĤłìķĦ ìĺ¬ëĿ¼
ë§Ī ìļĶ
ê°Ģ ëł¤
ĠìŀĪ ê²łëĭĪ
Ġìĺ ¹
Ġsho p
Ġli on
ìĥģ ìĹĲ
æ ģĭ
ee k
be ing
ĵ ê
Ġìłģ ìĸ´
ĠëıĻ ìķĪìĹĲ
ãģĭ ãģ«
a ma
ĠìķĮ ìĪĺ
Ġëĳ ¬
Ġê°Ī ìķĦ
ëĤĺë´Ĳ ìļĶ
å Ĵ
ãĢ ħ
Ġíķ¨ê»ĺ íķł
Ġìŀ¬ ë°Į
Ġì£¼ ë©´
ìĤ¶ ìĿĺ
Ġwre ck
íĽ Į
ìĤ° íĥĢ
ĠìĽĥ ìľ¼ë©´ìĦľ
Ġê³łê°ľ ë¡ľ
Ġê±°ë¦¬ ìĹĲìĦľ
íķľ ìĪľê°Ħ
ìĿ´ë¦¬ ìłĢë¦¬
ë°ľ ìĿ´
u red
st uck
ĠìķĦíĶĶ ëıĦ
Ġì° ¡
Ġatt itude
ì¹ ĺì
ĠìĿ´íķ´ íķł
Ġìĭł ìĭ¤íķĺìĭł
Ġëħ¸ ëŀĢ
Ĩ ±
Ġë³Ģíķ¨ ìĹĨìĿ´
ë¬´ ê±°ìļ´
gre en
ĠíĿĺëŁ¬ ê°Ħ
Ġì£½ ìĿĢ
Ġë Ŀł
Ġfai ry
oo ooh
ĠìķĪ ëĤĺ
Ġê°Ģ ëĬ¥
Ġstr ings
ãĥ ¥
ãģ ĩ
Ġíĥ Ĳ
ĠëıĮìķĦìĺ¤ ì§Ģ
Ġsep ar
ê¹Į ëĿ¼
Ġë§İ ìķĺ
Ġno s
Ġdem and
ìŀĲ ìķ¼
ëĲĺ ìĭł
ãĤĬ è¿Ķ
Ġìĺģíĺ¼ ìĿĺ
Ġìĺ¤ ìĺ¤ìĺ¤
Ġì§ĢëĤĺ ì³Ĳ
Ġê·¸ ëĬĶ
Ġbreak in
ìĨĮ ëħĢ
Ġìĸ´ ìļ¸ëł¤
Ġêµ¬ ëĳĲ
Ġwork s
ê·¸ëŁ¬ ë©´
± ê
Ġë¶Īìĸ´ ìĺ¤ëĬĶ
Ġlu ng
íķĺ ëĵ¯
ĠìĹĨëĬĶ ì§Ģ
Ġë¬¼ ìĹĲ
Ġë§ĪìĿĮ ê³¼
that s
st yle
ha med
Ġmu z
íĺķ ìłľ
al y
Ġë²Ħí ĭ°
Ġì¶Ķìĸµ ëıĦ
ìĹĲ ìĺ¤
å¥ ³
Ġì°¨ ì°¨ì°¨
Ġtri gger
ë¶Ģ ëŁ¬
çĦ ¶
ãģĻãģ¹ ãģ¦
ro me
Ġë°¤ ìĿ´ë©´
Ġnavi dad
Ġdest roy
ĠìŀĪ êµ¬ëĤĺ
ĠìĿ´ ë¥¼
Ġìĸ´ëĳł ìĿĦ
Ġê±¸ ìĸ´ëıĦ
Ġsm art
íĨł ë©Ķ
ëĵľ ë¦¬
ë§ĺ ìĿĦ
ãģĹ ãģªãģĦ
Ġíİ¸ ì§Ģë¥¼
ëĦĪëĿ¼ ëĬĶ
ë°Ķ ëŀĮìķĦ
Ġìŀł ìŀł
Ġw ound
Ġe c
ª¨ ìĬµ
Ġê³łì ³Ĳ
Ġê°Ģ ëģĶìĶ©
Ġlot ta
t ar
Ġex tra
Ġbill s
Ġì ¼
íĺ ¸ë
ìĸ´ëĶĶ ìĦłê°Ģ
ëª» íķľ
ĠìĦł ìĥĿëĭĺ
ĠëĳĲëł¤ ìļ´
Ġhung er
Ġbelong s
Ġì¶Ķ ëĬĶ
ĠëĮĢ íĻĶ
ìľł ë¦¬
ë²Ħëł¸ ëĤĺ
¸ë¶Ģ ë¦¼
memor ies
Ġëª¨ë¥¸ ì²Ļ
Ġgri p
ê° ¯
ĠìĹ Ķ
Ġëĵľ ë¦¬ëĦ¤
ì¹´ ë¦¬
Ĥ ¿
ĠìĹ¬ ìŀĶ
Ġì£¼ê»ĺ ìĦľ
Ġre wind
ì§Ģ ëıĦë¡Ŀ
ê°ĢìĬ´ ìĨįìĹĲ
Ġìĸ´ ëł¸
Ġw ah
Ġì¶© ë§Į
Ġëĭ¹ ìĹ°
ĠëĤĺ ìĿĢ
Ġsavi or
ĠìĬ¬íĶĶ ëıĦ
Ġth irst
Ġs core
ìł¸ ê°Ģ
ëıĻ ë¬´
te mp
am our
Ġëª¨ë¥´ ëĭĪ
be hind
ĠìĥĿê°ģ íķĺì§Ģ
ĠìĤ¬ ë§ī
Ġì¶©ë¶Ħ íķ´
Ġëĭ¤ íķ¨ê»ĺ
ì½© ì½©
ŀ ³
ĠìŀĬ ê²Į
Ġìļ¸ ìĹĪìĸ´
Ġf er
Ġ5 0
ima gine
" ,
ĠìĻĢ ì¤ĺ
Ġë§ŀì¶Ķ ê³ł
ìĭł ìĿ´
ĠëĤĺ ì§Ģ
Ġl ake
Ã³ n
ĠëĦĪìĻĢ ëĤĺ
Ġball in
Ġba th
ìĨĮë¦¬ ì³Ĳ
ur o
ĠíĿĺëŁ¬ ìĦľ
Ġpi ano
ì£¼ ê²łëĭĪ
ĠìĿ¸ìĥĿ ìĹĲ
ĠìĦ¸ìĽĶ ìĿĦ
Ġë§ Īì£
Ġsuff er
íĤ¤ ëĿ¼
ãĤĬ ãģŁãģĦ
Ġëĵ¤ ìľ¼
Ġs ake
Ġcon cer
ë¯ ¸ë¡ľ
âĢ »
ĠíĸĪ ìĹĪì§Ģ
Ġdu de
ê¸° ëĤĺê¸´
Ġì§Ģì¼ľ ì¤Ħê²Į
ì§Ģ ëįĺ
é« ĺ
ĠíĸĪ ëĬĶì§Ģ
Ġo c
ìļ°ë¦¬ ëĵ¤
ìĹĲ íĥĢ
ç ¢
Ĩ į
Ġmu tha
Ġfli es
ëĿ ł
w ards
ĠìĪľê°Ħ ëĵ¤
ëĦĪ ìĹĲ
pe st
e ng
Ĥ Ī
4 6
ĠìĥĪ ê°Ģ
ìĹĲ ìĿ´
® ë
íĮĶ ëĶ±
ìłľ ìĿ¼
ê²Į ë§Į
ar m
Ġfin ish
ìĹ¬ ëŁ¬
ìĦ ¸ëĿ¼
ëĤ´ê²Į ëĬĶ
ê²łì§Ģ ìļĶ
ĠìĪľ ì¢ħ
Ġìº Ķ
ĠëĨĴ ìķĦ
ĠëĤ¬ ëĦ¤
ìļ° ëĤĺ
ga ve
3 9
łì ¦Īì¼Ģ
Ġìļ °ì
ê±° ëŀĢ
ti ve
Ġì§Ģì¼ľ ë´Ĳ
Ġë²ħ ì°¨
ìĦ¸ íħĮ
ê·¸ëķĮ ìĿĺ
ĉĠĠĠĠ ĉĠĉĠ
ëĲĺ ë¦¬
f fe
ĠìķĦ íķĺ
ĠìĬ¬íĶĶ ìĹĲ
Ġì°¬ëŀĢ íķľ
Ġê³ł ì§ĳ
ìĮ ĵ
smo ke
ĠëĤĺ ìĺ¬
Ġsha des
ëĸł ëĤł
ç ª
she d
5 1
Ġseas ons
íĸīë³µ íĸĪëįĺ
Ġíĥľ ìĸ´
ĠìŀĬ ìĿĦê¹Į
Ġë¶ īê²Į
Ġqu ack
ĠìĹĨ ëĭĪ
Ġë³´ ìĦĿ
Ġê¿Ģ ê¿Ģ
Ġth ie
ìĭ¤ íķľ
ìĬ¤ ë£¨
lo s
Ġëª°ëĿ¼ ìĦľ
Ġæ ĦĽ
Ġto e
ìŀĦ ìĹĨìĿ´
ê¾ ¸ë¡ľ
!! !!
Ġëĭ¤ íĸī
Ġë¹Ħ ë¡Ŀ
ìĸ Ħ
Ġë¬´ ìłķíķľ
Ġë§ĮëĤĺ ì§Ģ
ãģ® ãģĭ
¯ Ģ
Ķ ¼
ĠíĸĪ ëĤĺ
ĠìĿ´ ìĿ´
Ġë¬´ ê±°ìĽĮ
Ġlear ning
ê°Ģ ê°Ģ
Ġì¶ķë³µ ìĿĺ
Ġp on
ìļ°ë¦¬ ìĹĲê²Į
ìĻĶ ì§Ģ
ìĪĺ ìĹĨìĿ´
ê´ľì°® ìķĦìļĶ
he ard
Ġìłķ ìĿ´
Ġìķŀ ìĦľ
ë©Ķ ë¦¬
éĩ į
d ent
Ġbur y
ìĸ´ìłľ ëĬĶ
ãĥ ĭ
² ĥ
get tin
ay a
play ing
Ġì¡ Į
Ġë°ĺì ª½
Ġspl it
Ġso le
ëª° ëŀĲ
ĠìŀĲ ìŀ¥
ĠëĲľ ëĭ¤
Ġê³łë§Ī ìļ´
Ġjoh nny
ìĻ ¼
ch in
ĠìĥĿê°ģ íķł
Ġdance d
ãĤ ¬
Ġëĭ¬ ë¦¬ëĬĶ
ĠìĤ´ ëįĺ
Ġthan ks
Ġs aving
Ġmicro phone
Ġheal ing
Ġc red
ìļ° ìĹ°
ìļ© ê¸°
Ġì²ĺìĿĮ ìľ¼ë¡ľ
íı ´
íĬ ¸ë¥¼
ìĺ¤ ëŀ«ëıĻìķĪ
ĠìķĦëĭĪ ê³ł
Ġde light
ĠìŀĲë¦¬ ë¥¼
Ġdoll ars
ê·¸ëłĩê²Į ëıĦ
Ġj un
Ġc ute
? !
ĠìĿµìĪĻ íķ´
ĠìĿ´ ë°¤
s ma
3 5
Ġìĵ¸ ìĸ´
íĸīë³µ ìĿĦ
ìĨ Ĳë
ëıĻ ìļĶ
¿ ê
re o
Ġso ber
6 6
Ġìĭ¸ ìĽĮ
Ġprin ce
Ġjump ing
Ġcon tin
ê·¸ ëıĻìķĪ
º º
ren ch
k ind
ĠìķŀìĹĲ ìĦł
Ġëĭµëĭµ íķ´
Ġë°ľ ìĿ´
fin ally
ĠìĪ «
Ġthro at
Ġdown town
ìĺĪì ģĺ
ìķ µ
ë¦ Ń
ĠìĽĲ íķĺì§Ģ
Ġë¹Ħ ìĬ·
Ġp ub
ëĤľ ëĤľ
ĥ ı
Ġapo logi
íķĺëĬĺ ìĿĢ
ëĪĪë¬¼ ìĿĢ
íħĮ ìķ¼
lea d
ĠíĬ Ģ
Ġy u
ìĿ´ ìŀĲ
ĠìĿ´ë¦Ħ ìĿ´
Ġsim ply
Ġs ei
ìĹĪ ê¸°ìĹĲ
p ara
Ġì Ķ©
Ġrain s
Ġletter s
ĠìĨĶì§ģ íŀĪ
ĠëĤ´ ê³ł
Ġê±° ì¹ł
Ġter ri
Ġsha red
ãģĮ ãģĤãĤĭ
Ġë°ĶëĿ¼ ë³¸
Ġë°Ķ ìľĦ
Ġë¹Ļê¸Ģ ë¹Ļê¸Ģ
ë³´ ìĦ¸
ho h
Ġca ge
ìķĦ ê²Į
ì¤¬ ëįĺ
Ġëĭ¬ ìĿĦ
Ġhe avens
ë¡ľ êµ¬ëĤĺ
ç¶ ļ
ç ŀ¬
ma gic
ĠëĤ¨ ìĿĦ
Ġrest less
ä¿¡ ãģĺ
ãģ¯ ãģļ
Ġì§Ŀ ì§Ŀ
ìĹ´ ì°¨
ìĨĲë ¼ī
ë³Ħ ìĿĦ
li d
Ġs aint
Ġma gaz
Ç Ĵ
į ©
ëį Ł
te nder
Ġë§¤ ìļ°
Ġte x
ìĿ´ìłľ ìĦľìķ¼
ìĿ´ ìĹĲìļĶ
ĠìĿ¼ ëĵ¤
Ġëĵ± ìĿĦ
Ġë´ ¤ìĿĦ
8 8
Ġëĭĺ ìĿĦ
Ġë¬¼ ìĿ´
ught y
ĺ ¬
ĠìĿ¸ëıĦ íķĺìĨĮìĦľ
Ġíĸ¥ íķ´ìĦľ
Ġs no
Ġjaz z
ãģĳ ãģªãģĦ
Ġì£¼ ìħ¨ëĦ¤
ĠëĤ´ ë¦°ëĭ¤
çº Į
ĠíĶ¼ ëħ¸íĤ¤ìĺ¤
Ġìĭ«ìĿĢ ëį°
n ì
ĠìĤ ¬ì
Ġup side
Ã ¥
ĠíĿĲ ë¥¼
Ġë§ĮëĤĺ ê¸°
Ġco ck
ëĤ¯ ìĦ¤
¦ Ĳ
e ve
ĠìĹ¬íĺ¸ìĻĢ ìĿĺ
ìķĦ ë²Ħ
ìĪĺì¤į ìĿĢ
ì§Ģë§Ī ìļĶ
Ġìĭľ ìĽĲíķľ
ĠëŀĦ ëŀĦëŀĦëĿ¼
Ġë°Ķ ëĭ¤ê°Ģ
Ġj uice
Ġcher ry
Ġì¶Ķìĸµ ìľ¼ë¡ľ
Ġw ai
ë¶ĢíĦ´ ê°Ģ
ë§Ĳ ìŀĲ
Ġê±· ëĭ¤ê°Ģ
Ġblow in
ì§Ģ ìĸ´
ëł¸ ì§Ģ
ĠìĤ¼ ìķĦ
Ġlulla by
Ġh avin
ug hed
c ur
) ]
ļ Ŀ
Ġëŀĺ íį¼
Ġê°Ĳ ëıĻ
Ġw aking
ìĿ¸ ì¤Ħ
ìĭľ ì¼ľ
ë§ĪìĿĮ ìĹĲ
ê° Ŀ
Ġë©Īì¶Ķ ê³ł
Ġstr ing
ìķł ê¸°
ìĬ¤ íģ¬ë¦¼
sw ing
ĠìĤ° ê³¨
Ġìª ¼
Ġpu ff
Ġë³´ìĹ¬ ì¤Ħê²Į
Ġtra pped
Ġfind ing
ì¹´ ìłľ
ë³´ ìķĦëıĦ
ãģĻãģ İ
ĠìŀĪìĹĪ ìĸ´ìļĶ
ĠìĻĶ ëĭ¨ëĭ¤
Ġì¢ĭìĿĢ ëį°
Ġg am
ë²Ī ìĿĦ
s pe
´ë Ŀ½
tell ing
ĠíĿĶëĵ¤ ëł¤
ĠëĪĪë¹Ľ ìĿĦ
Ġresc ue
Ġad vice
7 6
ĠëĳĲ ë¦¬
ĠëĲ ĺë
Ġë¨¸ë¬¼ ê³ł
Ġconf usion
Ġchill in
gg in
ĠíĿ¬ë¯¸ íķľ
Ġstri ke
Ġcount ing
Ġê°Ģ ìĦ¸
Ġt ro
Ġex i
ìŀĬ ìľ¼ëł¤
Ġë» Ĳ
Ġë°ĶëŀĮ ìĿĢ
Ġìłĳ ìĸ´
ĠìķĦ ë
ĠëĤ¨ìŀĲ ìķ¼
Ġê°ĩ íŀĮ
Ġto y
Ġa si
ìĹĪ ëĭ¤ëĬĶ
Ġíķľ ëĭ¤ëĬĶ
ĠìĤ¬ë¡ľ ìŀ¡
ĠëĤł ìĹĲëĬĶ
Ġtr ans
ë§¤ ë²Ī
tur ned
Ġëĭ ³
Ġto k
ìĸĳ ìĿĦ
ëľ ©
æĦŁ ãģĺ
ĠíĹ Į
Ġë° Ń
Ġë¦¬ëĵ¬ ìĹĲ
Ġê°Ķ ëĤĺ
us s
2 9
Ġì§ ķ
Ġë¬´ ëį¤
Ġê´ľì°® ìĿĦ
Ġsi ze
Ġri en
Ġlong ing
Ġl in
ì° ¢
ëĸłëĤĺ ê°ĢëĬĶ
ãģĿ ãģ£ãģ¨
fe nd
Ġë© °
Ġê²ĥ ìĹĲ
Ġwe dding
Ġstay ing
Ġ4 0
ëĮĢ ìĿĺ
ë¶Ģëĵľ ëŁ¬ìļ´
Ġ1 7
é¡ĺ ãģĦ
Ç Ĳ
Ġíķĺë£¨ ì¢ħìĿ¼
ìĤ° ìĿ´
ê°Ģ ìĭł
éĥ ¨
ãģµ ãģŁãĤĬ
pro d
ĠëıĻ ë°±
la sting
Ġíķ¨ê»ĺ íĸĪëįĺ
Ġliqu or
Ġfra me
íĿ ĳ
ĠìĹĨ ê²łì£ł
ìŀĳ ìłķ
İ ĳ
ĠìŀĪ ê²łì£ł
Ġyou re
Ġhope less
ë¹Ħ ë¡Ŀ
ëª¨ ëŀĺ
l as
ĠëģĿ ëĤ¬ìĸ´
Ġn ous
Ġg ay
ì¹ľêµ¬ ìķ¼
ë¯ ¸ì³Ĳ
Ġni cht
ëŁ½ ì§Ģ
ç¬ĳ é¡Ķ
Ġê·¸ëĤł ê¹Įì§Ģ
ìĤ¬ëŀĳ ê³¼
ëĨ į
pa thy
ìĿ´ìķ¼ ê¸°
Ġvicti m
Ġtem pt
Ġfi st
pa red
d ru
Ġìĸ¸ìłł ê°Ħ
Ġconf ess
ìķĦìķĦ ìķĦìķĦ
ìĨĲ ìľ¼ë¡ľ
ĠìĦ± ê²©
ĠìĤ´ ëĭ¤
Ġë°° ìĭł
Ġë§ī ìķĦ
Ġro le
Ġera se
ë¥¸ë °ľ
ãģ£ ãģ
h mm
Ġë¶ĪëŁ¬ ì¤ĺ
Ġguar ant
Ġ ãĢĮ
íĸīë³µ íķĺê²Į
ìĥģ íķľ
Ġne on
Ġcomm and
ìĹ¬ ì§Ħ
su gar
es day
be st
ĠìķĦ ëĿ¼
ĠëĿ¼ ìĿ´
Ġthr one
ë¹Ħ íĸī
ê²¬ ëĶľ
Ġëĭ¿ ì§Ģ
Ġë°ĺ ê°Ģ
Ġëª¨ ì§Ħ
ĠëĸłëĤĺ ëıĦ
ë²Īì Ķ©
ãģ» ãĤī
Ġíİ¼ì³Ĳ ì§Ħ
Ġworld s
bon us
ìŀĲ ëĿ¼
ìļ° ì£¼
ìĺ¨ ì¢ħìĿ¼
sk y
Ġë°Ľ ê¸°
ìĤ¬ ë¦¬
ê¶ģ ê¸Ī
ãĥ ľ
j ect
b and
īì Ńī
ĠíķĺëĤĺ ë§ĮìĿĦ
ĠíĴ Īìľ¼ë¡ľ
Ġwit ness
ë¡ľ ìĽĮ
Ġìĺģê´ĳ ìĿĺ
ĠìĪĺì¤į ìĿĢ
Ġinno cence
ìŀ £
ly n
íķĺ ëĭ¤ëĬĶ
ãĤī ãĤĮãģªãģĦ
ãģĹãģ¦ ãĤĤ
hop ing
ìĹ Īìľ¼ëĭĪ
ê°Ķ ëįĺ
ĠìĻ¸ë¡Ń ì§Ģ
Ġë³´ìĿ´ ëĦ¤
Ġm art
Ġclo sing
Ġbloo dy
íķĺ ëł¤ê³ł
å Ģ
Ġlo aded
ìĨį ìĿĢ
ãģı ãģªãģĦ
´ì ĩł
ĠìŀħìĪł ë¡ľ
Ġbur ied
ë¯¸ ìĺ¤
Ã¡ s
w ear
in ts
Ġë³ĳ ìĭł
ìĦ¤ëłĪ ëĬĶ
ãģĤãģ® æĹ¥
ĠíĿĲë¥´ ë©´
ĠíĶ¼ ë¥¼
ĠìĽĥ ëĬĶëĭ¤
Ġì§Ģ ë©´
è¦ĭ ãģ¦
Ġro am
ì§Ģ ê¸¸
Ġíĳ ¹
Ġag ree
ìĤ¬ëŀĳ ìĬ¤ëŁ°
ì´ Īì
ì£¼ ë©°
ê³Ħ ìĭł
3 3
Ġgra vity
Ġflo at
íķŃ êµ¬
ìĤ¬ëŀĮ ìĿĢ
Ġë°ĶëĿ¼ë³´ ëįĺ
Ġê½ĥ ì²ĺëŁ¼
Ġpill s
ëĤ´ ê³ģìĹĲ
ë°ĶëŀĮ ì²ĺëŁ¼
ë¯¸ìķĪ íķ´ìļĶ
Ġê³ł ê°¤
éĢ ļ
Ġìĭľ ë¦°
Ġì Ńī
Ġë°© ìĹĲ
Ġa while
íķľ ë²Īì¯¤
ãĤ ±
f unk
8 2
ĠìŀĬíĺĢ ì§Ħ
Ġe sta
ìĹŃ ìĭľ
Ġê·¸ëłĩê²Į ëıĦ
Ġr oman
Ġin tention
íķĺíķĺ íķĺ
ĠìŀĲ ë¥¼
Ġp ue
Ġmen tion
ch u
Ġì£¼ ëĦ¤
Ġë¹Į ëł¤
Ġë¶Ļìŀ¡ ìķĦ
Ġno el
Ġble w
Ġìľ Ļ
Ġë¶Ī ê³ł
Ġvic tory
íķľ ê±´
ç ĹĽ
ok er
Ġsmo kin
ìħ¨ ëĤĺìļĶ
ëĥ Īëįĺ
ĠìĻ¸ë¡ľ ìĿ´
Ġë¡ľ ë§¨
êµ ¿
mo ving
ĠíĸĪ ìĹĪëįĺ
Ġìĭľê°Ħ ëĵ¤ìĿĦ
ĠëĭĲ ë¦¬ë¦¬
Ġê±¸ ìľ¼ë©°
Ġ ä»Ĭ
ìĸ´ëĶĶ ëĵł
- >
ĠíķĺëĤĺ ë©´
Ġíķĺ ê²łì§Ģ
Ġê°Ģ ì¡Į
Ġch u
íĥĢ ëħ¸
Ġdi p
ìĥĿ ìĿ¼
ë°Ķë³´ ê°ĻìĿĢ
ë§Īë łĪ
ĠíŀĪ íĨł
Ġìŀĳ ìĤ¬
ĠìĻ¸ë¡ľìĽĢ ìĿĦ
ĠìķĦëĭĪ ìŀĸìķĦ
Ġëī ĺ
ë§Īë ª¨
ê³łë§ĪìĽĮ ìļĶ
Ġíķ´ ì£¼ê³ł
Ġëı¼ ì§Ģ
Ġë°ĺ ëĵľìĭľ
Ġë§º ìĿĢ
Ġe qu
éģİ ãģİ
ĠìĿ¸ìĥĿ ìĿ´
Ġg ates
ë¹Ļ ë¹Ļ
» ¥
f lies
ĠìĿ¸ìĤ¬ ë¥¼
Ġspo ke
Ġpla stic
Ġmi ch
Ġene mies
ve ni
Ġìĭł ë°ľ
Ġmiss in
ìŀĲ ìĹĲ
at t
ĠìĪ¨ ê¸°
ĠìĨĮì¤ĳ íĸĪëįĺ
Ġë²Ħëł¤ ì§Ħ
ìĸ´ëĸ¡ íķ´
Ġì§Ħìĭ¤ ìĿĦ
Ġh an
Ġbl ink
Īë¹¨ ê°Ħ
íĨ ±
ê¸ ¸ë
fa ction
Ġla ughed
Ġroll er
ëĤ´ìĿ¼ ìĿ´
ng o
m ur
Ġhero es
Ġham mer
ì§Ħ íķľ
ëĶĶ ìĸ´
ëĭ¬íĶ Ī
ê¸° ìģľ
si l
Ġì°½ ë¬¸ìĿĦ
Ġë°° ê°Ģ
ìĭľ ëįĺ
res pect
Ġì°½ ë¬¸
Ġê°ĢëĬĶ ì§Ģ
Ġoff er
íĬ ¹ë³Ħ
ìĵ °ë¦¬
æĮ ĩ
Ġc ab
Ġbut t
ìŀĲ ìĹ°
Ġc lue
íĻĶ ìŀĲ
íĥĢ ëĭ¤
Ġì° ¸ëĲľ
re lla
ĠëĤĺëĪĦ ê³ł
íķ´ ì¤ĺìļĶ
èµ ·
ī ģ
ĠìłĦ íķł
ĠìĿ´ìłľ ë¶ĢíĦ°
Ġsho ck
Ġbecome s
íĿ Ļ
ëĦĪ ëĦ¤
ëĤ¨ìŀĲ ëĬĶ
ci ally
ķ ı
Ġíķ¨ê»ĺ íķĺëĬĶ
Ġs wo
Ġd ue
ëĭĪë ĵ¤
ëª¨ ìķĦ
åħ Ī
ĠìĤ¬ëŀĮ ì²ĺëŁ¼
Ġê°Ģ ëĳ¬
Ġwrit ing
Ġ ãģĵãģ®
íħĮ ìĺ¤
ìĪĺ ë¦¬
ãģ« ãģĦãĤĭ
r aise
ĠíĹĽ ëĲľ
ĠìĺĪìģĺ ê²Į
Ġì°¢ ìĸ´
ĠëĨĵ ì¹ĺì§Ģ
Ġgu ard
Ġcar ol
£ ç
en to
Īë³´ ëĿ¼
Ġë¶Ī íĸī
Ġê³µ ë¶Ģ
Ġt ap
Ġcon stant
ĉ ã
ìŀĪ ì§ĢìļĶ
ë¡ľ ìĨĮ
ĠíĿĲ ëĬĲëģ¼
Ġíĥ Ī
ĠëĪĪ ê¸¸
Ġê³¨ ëĿ¼
Ġmi ke
ë§Īë ĥ¥
ê·¸ëłĩ ì§Ģë§Į
åĲ į
å ł´æīĢ
c ts
ĠìĨĮë¦¬ ë¡ľ
Ġwor ship
Ġlo ser
éĢ ²
b om
ĠëĨĴ ê³ł
Ġê·¸ëŁ¬ ë©´
ìĺ¤ ë¥¼
p ort
ir a
ĠëĸłëĤĺê°Ģ ëĦ¤
ĠëĮĢíķľ ë¯¼êµŃ
Ġswi mming
ìĨį ìĤŃ
ëĵ¤ ëłĪ
f ound
ĦìºĦ íķľ
Ġíķ´ ê²°
ĠìĻĶ ìĸ´ìļĶ
ĠìĺĪìĪĺ ê»ĺ
ĠìĤ¬ ê³ł
Ġì£¼ ë¨¸ëĭĪ
ìĻĢ ìĻĢ
ëł ĪìĻĢ
ca p
Ġíİ ¼
ĠíĮĶ ëĶ±
Ġëĵ£ ëįĺ
Ġë¨¸ë¦¬ ê°Ģ
Ġê±¸ ìļĶ
Ġbill y
ì½© ëĭ¥
tre at
il ity
ĠëĤĺ ê°Ī
Ġdro pped
ëĤ´ ëıĦ
der n
ĸ Ħ
¡ ê
p hi
lo vin
ĠìķĬëĬĶ ëĭ¤
Ġë°° ê³ł
Ġê¸°ëĭ¤ë¦¬ ëĭ¤
Ġsqu are
Ġhoriz on
Ġdri vin
ãģĦ ãģ§
Ġê° Īì
ìĨį ìĿ´
ĠëĤĺ ìĿ¸ëį°
Ġco ke
ê·¸ ê²ĥìĿ´
fa ther
al d
ĠìĿ¼ ê³±
Ġìĵ° ëĬĶ
ĠëĲĺ ìĭľëĦ¤
Ġë¿Ĳ ìĿ´ì£ł
ħ ī
ħ ìĭľëĭ¤
Ġíķľ ì°¸
ĠìĦľ ëŁ¬
ĠìĤ´ ëł¤
ĠëĤ´ ë¦´
Ġë§Ĳ ìĸ´
Ġ +
ëĵ Ń
ë§Īë ²ķ
Ġê°Ĳ ìĥģ
ìĬ¤ ë²łíħĮ
ìĪ¨ ê²¨
ì§ ľì¦Ŀ
ëĭ¤ ëłĪ
Ĳģ ëĭ¹
ĠëĲĺ ëıĮìķĦ
Ġë¶Ģë¥´ ë¦¬
Ġë³´ê³ł ìĭ¶ìĿĢ
Ġvi olence
íķ¨ ê³¼
ë¿Ĳ ìĿ¸ëį°
ãģł ãĤĪ
ĠìĽĥìĸ´ ë´Ĳ
íķĺ ì²ł
âĢ¦ âĢ¦
h ou
Ġìĸ´ëĸ »
ë°Ķ ìľĦ
æĬ± ãģįãģĹ
na ge
Ġìĸ´ ëĶ¨
Ġì£½ ëĬĶ
ĠëĤ´ëł¤ ëĨĵê³ł
ëľ °
Ġlike d
ìĹ ĪìĬµëĭĪëĭ¤
ãģª ãģĭãģ£ãģŁ
it es
d am
Ġíķľ ì°¸ìĿĦ
Ġì§ĢìĽĮ ì§Ģì§Ģ
Ġas hamed
æ ¶Ļ
ãģĤ ãģĴ
w ord
Ġë¹Ĺ ë°©ìļ¸
v ision
Ġë¶ĢëģĦ ëŁ¬ìĽĮ
Ġwhi st
Ġcro ssed
ĉĠ ĉ
ìĤ¬ ìĿĺ
ì²ĺìĿĮ ìĹĶ
ĠìĿ´ íĤ¤
Ġê½ĥ ìĿĢ
Ġê²Ģ ìĥī
Ġt um
ãĥ© ãĤ¤
±Ħ ë¡ľ
whis per
r q
ĠìĹ¬ ë¦°
ìł Īë
ëĴ¤ ìĹĲ
ë²Ħ ëĵ¤
sha dow
lo ad
gi ven
Ġìĭľ ëł¤
Ġê¹Ĭ ìĪĻ
Ġac c
íľ ´
æĸ °
ìĹĲ ëĿ¼
ë³Ħ ë¹Ľ
ë§Ī íĥĢ
Ġëĺĳ ê°ĻìĿ´
· í
d um
Ġt ail
Ġdro ps
q i
li ft
ce nd
Ġìĸ¸ëįķ ìĹĲ
ĠëĿĦ ìĽĮ
Ġë³Ħ ëĵ¤
Ġë³´ìĹ¬ ì¤Ħ
Ġdem on
ê¿Ī ê¾¸
Ġìķ¼ ìĺ¹
Ġoh hh
Ġhur ricane
Ġhead ing
ì¨ Į
ĠìķĮìķĺ ëĦ¤
Ġact in
çī ©
ìĭľ ì£ł
ê²°êµŃ ìĹĶ
l ate
Ġíıī ë²Ķ
Ġy uh
ëıĻ ìĤ°
ë¬¼ ìĹĲ
ja ck
Ġíķ´ ë³Ģ
Ġìĸ´ ëĳĶ
ĠìĤ¬ëŀĳíķ´ ëıĦ
Ġëª ½
Ġê·¸ëĤł ìĿĦ
Ġê·¸ê³³ ìľ¼ë¡ľ
ìŀĳ ìĤ¬
ses sion
ĠíĿ łë»ĳ
Ġëĭ´ ìĿĦ
ĠëĤĺ ëĪĪ
ì¤¬ ìľ¼ë©´
ìĦ¸ ì¹´ìĿ´
ëĭĪê¹Į ìļĶ
ë¥¸ì ª½
å® ī
sho t
Ġì£½ ìĿĮ
ĠëĤ´ ìķĪìĹĲ
Ġë¹ĽëĤĺ ëįĺ
Ġëª» íķ´ìļĶ
Ġpush ing
íķĺ ìħ¨
ê±´ ëĦĪ
com o
an na
Ġì°¸ ì§Ģ
ĠëĤ® ìĿĢ
ìĺ¤ëĬĺ ìĿĺ
ìĬ¤ íĤ¤
ì¡° ê·¸ë§Į
ë°Ķ ëŀĺ
Ã ¶
ar ing
Ġëĭ¬ì½¤ íķ´
Ġë°ľ ëģĿê¹Įì§Ģ
Ġë¨¸ë¦¬ ìĹĲ
Ġfo ld
ãĥ ĵ
ye h
we st
Ġìķ ¤
Ġreli gion
ìłĬ ìĿĢ
ìĽĲ ìĿĦ
ĠëķĮ ë¶ĢíĦ°
ĠëĤ´ ë¦¬ëįĺ
Ġë§Īì °¬
æ°¸ éģł
Ã §
ĠíĻĶ ëł¤íķľ
ĠìĦ¤ ëłĺ
Ġì±Ħ ìļ°ê³ł
Ġì§Ģ ëĤ¬
Ġpo st
ĠíĶ Į
Ġay y
íĹ¤ ìĸ´
Ġìłķ ìĦ±
Ġê°Ļ ìķĺëįĺ
Ġv ow
Ġsal vation
íı¬ íĤ¤
ëł Ľ
stre et
Ġetern al
íĳľ ë¥¼
ç ı
it ation
ĠìĤ¬ëŀĳíķĺëĬĶ ëį°
Ġì§Ģì³Ĳ ìĦľ
Ġë§Į ëĤĺìļĶ
Ġbl own
ëĭ¤ ëĵ¬
Ġwho se
Ġben z
ìĺĽ ëĤł
ë°Ģ ëł¤
x e
Ġì ĳ
Ġë¶Ģ ëŁ¬ìĽĮ
Ġê·¸ íĨłë¡Ŀ
Ġd as
¦ ¿
Ġìĭł ê³ł
Ġë§¨ ëĤł
Ġê°Ħì§ģ íķľ
Ġris k
Ġbo red
ìķĦë¦Ħëĭµ ê²Į
æ· ±
¦ â
Ġíŀĺëĵ¤ ê³ł
Ġpro of
³ °
Ġíķĺ ëĿ¼
Ġê·¸ëĤł ìĿ´
Ġk an
ìŀ¬ ë¯¸
ì¹ ´ëĿ½
å ¦
£ ë
ĠíĿĶëĵ¤ ë©°
ĠëĨĪ ìĿ´
Ġde feat
ëıĻ ëĮķ
( '
ĠìŀĬìĿĦ ìĪĺ
Ġë¶ĪëŁ¬ ë³´ëĬĶ
Ġsl ee
©í į¼
ly ing
ĠìķĦ ëĬĶì§Ģ
Ġpa ce
Ġì§Ģ ìľ¼ìĭł
Ġwat ers
íĸīë³µ íķ´
ëª» ëĤľ
Ġìł Īë
Ġìļ© ê¸°ê°Ģ
Ġì¤Ħ ëıĦ
Ġt rop
ìĬ¤ ë¥¼
æīĭ ãģ«
åĬ Ľ
ci p
c d
ĠëģĿ ëĤ¬
Ġori gin
íķĺ ìĭ¬ìĿĦ
ëıĦ ìĭľ
h w
Ġfore ign
ìĿ¸ ìĹ°
ĠëĤ´ë²Ħëł¤ ëĳ¬
Ġë¹Ħíĸī ê¸°
Ġany time
íĤ¤ íı¬íĤ¤
ä» ¥
ãģĭ ãģĦ
ãģ«ãģª ãģ£ãģ¦
ee ee
ĠëĶ¸ ëŀĳ
Ġë¹¨ ê°ľ
Ġcry stal
ä» £
ge dy
Ġíķĺ ìħ¨ëĦ¤
Ġë¶Ī íĥĢëĬĶ
Ġin de
ë¡ł ê°Ģ
Ġprodu cer
Ġlung s
Ġlea ther
Ġd im
ìĿ´ ê±°
æ ģ¯
to ri
ĠìĺĪìĪĺ ìĹ¬
ĠìĹĦë§Ī ê°Ģ
Ġpri vate
ëĳ¥ ìĿ´
Ġìļ° ìĬµ
ĠëĤ´ê²Į ëıĦ
Ġë¬´ ì§Ģ
Ġshin y
Ġcham pi
ìĭľ ë©´
ì§¸ ìĦľ
åĪ ¥
ĠìķĦíĶĦ ëĭ¤
Ġìµľê³ł ìķ¼
ĠëĴ¤ ì²Ļ
ĠëĪĦêµ°ê°Ģ ë¥¼
Ġëª¨ë¥´ ì£ł
Ġêµ ¿
Ġê±°ì§ĵë§Ĳ ìĿ´ìķ¼
Ġtri cks
Ġof fi
ìľĻ ìľĻ
ëĭ¤ ìłķ
mp h
le n
g ro
ĠìĻĦë²½ íķľ
ĠìĦľ ìŀĪìĸ´
Ġë¶Ģë¥´ ëįĺ
Ġval entine
ëĵł ëĭ¤
ë§Į ëĤ¨
sear ching
ĠìķĦëĭĪ ì§Ģ
Ġìĭľê°Ħ ìĿĺ
Ġë³ ¼ëķĮ
Ġvi o
Ġpati ence
stas y
ĠìĹ¬íĺ¸ìĻĢ ê»ĺìĦľ
Ġsto r
íķĺëĤĺ ëıĦ
ãĥ Ħ
ru ction
ĠìĿ´ íĨłë¡Ŀ
Ġìļ¸ ëĭ¤
Ġê°Ģ ë³įê²Į
Ġsee d
Ġa ven
ãģ® æĹ¥
w it
ĠëĲľ ëĭ¤ê³ł
Ġput ting
ìłĦ ëĬ¥íķĺìĭł
ìĭľ ì¹´
ì¹ľêµ¬ ëĵ¤
ê²ĥ ê°ĻìķĦ
ãģ¾ ãĤĬ
Ġì¢ģ ìĿĢ
Ġê·¸ë ¶Ħ
ë°ĶëĿ¼ ë§Į
r as
Ġre present
ëĶ Ľ
ĠìĨįìĹĲ ëıĦ
ĠìĤ° ìĿĦ
ĠëıĮìķĦ ëĿ¼
Ġp air
?? ??
ĠíĽĦíļĮ íķĺì§Ģ
Ġì¶Ķ ê³ł
Ġê±´ ê°ķ
Ġtra de
Ġj ane
Ġfaith ful
Ġdai ly
ìĸ¼ ë§Ī
ë¯¿ ìĸ´
st one
ĠìŀĲ ë¦´
Ġë°¤ íķĺëĬĺ
Ġë¨¸ ë¦´
Ġto do
Ġna ughty
Ġin tro
ìĹĲ ê°Ģ
ëıĦ ì¿ł
pa pa
m ate
Ġì¹ĺ ë©°
Ġì§Ģ ëıĦ
ĉĠĠĠĠĠĠĠĠ ĠĠĠĠ
è· ¡
ãĤĭ ãĤĪ
» ·
ä½ķ åº¦
¿ ë
to e
; &
ĠíĹ ·
ĠëģĿëĤĺ ì§Ģ
Ġê¸°ìĸµ ìĨįìĹĲ
Ġê²ĥ ë³´ëĭ¤
Ġapp ear
è¿ ĳ
str ong
ĠìĬ¤ì³Ĳ ê°ĢëĬĶ
ĠìĦ¤ ìĽĢ
ĠìĤ¬ëŀĳ ë§Į
ëľ¨ ê²ģê²Į
ëĤĺ ëĦ¤
ê·¸ ë¦¼
ê·¸ ê²ĥìĿĢ
s ou
ca re
bir ds
Ġb uzz
ê°Ķ ì§Ģ
¯ ¼
ĠíĿĺ ëłĢ
Ġëĵ¤ ìĹ¬
Ġë¬ µ
Ġwol f
Ġcol our
free dom
Ĥ Ģ
ĠìĹ´ë§¤ ë¥¼
Ġìĸ¸ ìķ½
Ġì¢Ģ ëįĶ
Ġw ha
Ġ1 4
ê²ĥ ì²ĺëŁ¼
us hed
d dy
ĠëĤĺë¬´ ê°Ģ
æĢĿãģĦ åĩº
ãģ ģ
ĠëĤĺ ëĦ¤
Ġë¶Ļ ìĹ¬
Ġêµ¬ìĽĲ ìĿĺ
Ġimagin ation
Ġhesit ate
ëħ¸ ëĤĺì¹´
ëħ ĺ
ĠìĺĪì Īł
Ġì´ ī
Ġha lo
ĠìĤ´ ìĪĺ
Ġhid den
tra ck
ĠìķĦ ë¥¸
Ġë°Ķëŀĺ ìļĶ
Ġëª «
ì§Ģ ëĭĪ
ì£¼ ìłĢ
Ġíĸīë³µ íķĺê¸¸
Ġëĭ¤ íķĺìĹ¬
Ġë¶Ī ìĸ´ëıĦ
ìŀĪ ëĤĺìļĶ
ëĥ Ħ
roll in
Īì ·Ħ
Ġì§Ģ ì¹ł
Ġëĭ¬ ê³ł
ĠëĪ Īì
Ġwand er
íŀĪ íĨłë¦¬
íĺ Ī
ëķĮ ê°Ģ
ëĪ Į
0 4
ĠíĤ¤ ìĽĮ
Ġê¸°ë¶Ħ ìĿĢ
Ġchic ken
Ġìĺ¤ ëŀ«ëıĻìķĪ
ĠìĥĪ ê²¨ì§Ħ
Ġimp ort
p ower
ĠíĦ ±
ĠìŀĪ ê¸°
ĠëĶ° ë¡ľ
Ġpray ers
ìļ¸ë ķĮ
g ee
0 5
Ġë ĬĶ
íķĺ ìĺ¤
ë°ĶëĿ¼ ê¸°
ģ ģ
Ġëĭ¬ ë¦°ëĭ¤
ĠëĪĪë¹Ľ ìĿĢ
Ġë§ĮëĤ¨ ìĿĦ
ë¬¼ ë¡ł
ê°Ģ ì§Ģê³ł
Ħì ½Ķ
ĠíĹ¤ìĸ´ ì§Ĳ
ĠìĦľ ëŁ¬ìļ´
Ġì§ĳ ì°©
Ġë¶ĪëŁ¬ ë³¸ëĭ¤
Ġwho o
Ġscr atch
Ġ1 3
ê·Ģ ë¥¼
ä½ ľ
ģ ´
Ġëĸ ¨ì³Ĳ
ĠëĲĺ ê¸¸
êµ ½ìĿ´
ĵł ì§Ģ
Ġë°ĶëĿ¼ ì§Ģ
Ġde vi
ìĪĺ ìĿĺ
æ ĭ
ãģı ãĤĮãĤĭ
0 3
ĠëŁ ¬ë
Ġhig hest
ì¢ĭ ê²Į
ë¦¬ ìķ¼
ĠìĿ¼ ì°į
Ġyoung er
Ġdin ner
ìŀĶ ìĿĦ
ê±°ë¦¬ ë©°
ãģĽ ãģªãģĦ
ī ´
ĠëĤĺ ê²Į
Ġê± ¸ëł¸
ìĽĥ ìĿĦ
ãĤ »
um ber
Ġê¸ ¸ë
Ġpsy cho
Ġcho colate
ìĿ¼ ìĿĢ
ë© ¸
ç¾ İ
ĠëıĦ ì°©
ëĭ¬ëł¤ ëĿ¼
ë¹Ħ ë°Ģ
Ġë¶Ģëĵľ ëŁ¬ìļ´
ìĨĮ ëłĪ
ì´ Īë¡Ŀ
ë²Ī ì§¸
da da
ĠìĦ¸ìĽĶ ìĿĢ
Ġë§Ĳ íĸĪìĸ´
Ġtwi light
ìĸĳ íķľ
Ġìĭł ëĤĺëĬĶ
ĠìĥĪ ê¸´
Ġë¶Ħ ëĭ¤
Ġë¯¸ìķĪ íķ´ìļĶ
ëĽ° ìĸ´
ëĤĺì¿ł íħĮ
éĻ į
´ì ½Ķ
ĠìŀĬ ì§Ģë§Ī
ĠìĿ¼ ìĸ´ëĤł
Ġìĺ¤ ëĤĺ
Ġìĸĺê¸° íķ´
Ġreve al
íı Ĳ
lo se
any time
Ġíģ¬ ê³ł
Ġì§Ħ ìĭ¬ìĿĦ
Ġê¸°ëĭ¤ë¦´ ê²Į
Ġwo re
Ġdam ned
Ġar my
ì¹ĺ ëıĦ
êµ¬ ëĭĪ
turn ing
Ļ Ķ
Ġíķĺ ìĺĢ
Ġìļ¸ ìĹĪëĭ¤
Ġë°Ķë³´ ê°ĻìĿ´
ê·¸ëŁ¬ ëĭ¤
è ĭ
íĮĮ íĮĮ
ìŁ ģìĿ´
ìķĦì§ģ ê¹Įì§Ģ
ê¸°ë¶Ħ ìĿ´
ê± Ķ
ĠìķĮìķĦ ìĦľ
Ġmes sed
Ġë©Ģ ê³ł
ëħ ¸ëł¥
è¨ ĺ
c ru
Ġìĸ´íĹĪ ìķ¼
Ġshe ll
íĤ¤ì ¦Ī
ìĿ¼ ëĭ¨
Ġìį °ë§¤
Ġëľ» ìĿ´
ë§Ī ë¦¬ê°Ģ
ê½ģ ê½ģ
ĠíĽĦ íĥĢë¦¬
Ġde fin
Ġbig gest
ĉĠ ĉĠĠĠ
ëĶ° ìĬ¤
Ġì¹ľêµ¬ ëĬĶ
Ġì§Ĳ ìĿĦ
ìľ Ħí
Ġìĸ¸ìłľ ì¯¤
ĠìĤ¬ëŀĳíķĺ ìĭ¬
ĠìĤ¬ëŀĳ íķĺë©°
Ġë¶ ķ
Ġê°Ĳ ìĿĢ
Ġp lent
sp eak
Ġíĺ ¸ë
Ġk i
ëĤł ìĿĦ
¸ Ń
vi e
Ġì£¼ ìľĦ
Ġs ale
ëį° íĤ¤
it ter
ĠëĦĪëĿ¼ ìĦľ
Ġë°ĺ íķ´
Ġplan ned
Ġpain ted
Ġo le
ìĹ £
ëĭ¤ ìĦ¯
ë£¨ ìĻĢ
âĻ ª
em p
Ġíķľ ëį°
Ġìŀ¥ ìĨĮ
ê¿Ī ìĨįìĹĲìĦľ
ĠëıĻ ëıĻ
Ġê°Ģ ìĭĿ
Ġre nt
Ġplent y
ìľ¼ ìĭľê³ł
tr ouble
fo ol
Ġìŀ¡ ìķĦìļĶ
Ġì¹ĺ ë£Į
Ġm aker
èĥ ½
do ing
ĠíĿ¬ ìĥĿ
Ġì§Ģ ê°ĳ
Ġë ģĵ
Ġê¾ ¼
r up
Ġset s
ëĦĪìĹĲê²Į ë¡ľ
ê¹ľ ë¹¡
Ġì¹ĺ ëĬĶ
Ġë§Į ìł¸
Ġpim p
ìĥģ ìĿĺ
b ble
ay y
ĠíŀĺëĤ´ ìĦ¸ìļĶ
ĠìĽĮ ìļ°ìĽĮ
ĠìĹ¬ ìĦ¯
ĠëĤĺ ì§Ģë§Į
Ġë³Ģ íĻĶ
Ġnumb ers
ìĺ¤ ìĻĢ
ìĸ´ì§Ģ ë©´
ëł Īëį°
ëŀ ł
êµ¬ë¦Ħ ìĿ´
çľ ł
================ ================
Ġê°Ĳ ì¶ľ
Ġaf fection
ë£» ë°¤
å¤§ åĪĩ
er t
ìłķ ìĿĢ
ëıĮìķĦìĦľ ëĬĶ
ud es
di g
di a
ĠëĤĺ ëŃĩìŀİ
Ġë¶Ħëªħ íŀĪ
Ġin fin
Ġhe n
éĥ ½
ua ge
com in
Ġëĭ Īëĵ¤
Ġë´ ħëĭĪëĭ¤
ê° ĪëķĮ
dri ving
Ġíĺ Ģ
ìŀĲ ìļ±
sp read
ķ ·
ĠìĿ´ê²¨ ëĤ¼
ĠëĶ°ëľ» íķĺê²Į
Ġkn ee
ìķĦ ëĬĶ
ma kin
hi de
Ġìĭľìŀĳ íķľ
ĠìĥĿëªħ ìĿĦ
Ġsha kin
Ġo per
Ġìļ ¸ë
Ġsmo king
Ġknock ing
ê³¨ ëª©
ac y
Ġpic ked
ìĿµìĪĻ íķľ
ê·¸ ëŀĢ
p ay
Ġìĥģ íĥľ
Ġja cks
Ġco vered
ìĤ¬ëŀĮ ìĿĦ
be li
Ġëħ¸ ëĬĶ
Ġê·¸ëĵ¤ ìĿĺ
íķľë²Ī ëıĦ
è ¿½
ãĥ ¤
ãģŃ ãģĩ
me an
ķ ī
Ġìĭł ìĿ´
Ġë²Ħ ë¦¬ëĬĶ
ìĹĲíĹ¤ ìķ¼
ì§ĢëĤĺ ê°ĢëĬĶ
ê°Ģ ëĬ¥
qu er
ĠìĦ ¼
Ġp ale
ìĽĲ ëŀĺ
âĻ ¬
6 7
ĠìķĮìķĦ ì¤ĺ
ĠëķĮ ì¯¤
ĠëĦĪë °ĸìĹĲ
Ġå ĥķ
Ġto ast
íķĺìĹ¬ ëıĦ
è §£
ç´ ł
~~~~ ~
ic y
gr ow
de red
Ġí Ĥ·
ĠìĭŃ ìŀĲê°ĢìĹĲ
Ġì§Ģ ì§Ģ
ê¿Ī ìĿĢ
é ģĭ
ìķ¼ ìĤ¬
ì§Ģ ê¸Īì²ĺëŁ¼
ëĭ¹ íķľ
ë°© ìĿĦ
ĠìĿ´ìĥģ íķľ
Ġhar mony
Ġchar m
ìĨĮ ë§Ŀ
ëģĿ ëıĦ
x a
ĠìŀĬ ìĸ´ìļĶ
ĠìĿ´ ëĿ¼
ĠìĥĿê°ģ íķ´ëıĦ
Ġdon na
ìļ ¸ë¡ľ
ëĲł ê±°ìķ¼
Ġìĺ ¬ì±Ļ
Ġsu ng
Ġdri p
ìĹ¬ê¸° ìłĢê¸°
ì¹ĺ ëĵ¯
ì²ľ ëħĦ
ë°¤ ìĿĢ
ë¨¸ ë¦¬ê°Ģ
éĢ ĥ
ãģĿ ãģ®å
hy si
ĠíĿ© ëĤł
Ġíķĺ ë¦¬
Ġê¿Īê¾ ¸ëįĺ
Ġg ently
ì°½ ìĹĲ
ì¢ħ ìĨĮë¦¬
ë© ĭìŁģìĿ´
ê·¸ë¦¬ìĽĢ ìĿ´
f ear
Ħ Ŀ
Ġíİ¸ íķĺê²Į
ĠëĨĢ ëįĺ
å¼ ·
ĠìŀĪìĸ´ ìķ¼
ë¶Ħ ìĹĲ
ë³µ ìŀ¡
ëª¨ ìŀĲ
s ki
Ġë¯¸ì¹ĺ ê²łìĸ´
Ġê¿Ī ê³¼
Ġfree ze
æ ŀľ
ĠíĴĪ ìĹĲìĦľ
Ġë³´ìĹ¬ ëıĦ
Ġë°Ķ íĢ´
íķĺ ëĦ¤ìļĶ
ìļ°ìļ° ìļ°
Ġgu cci
ãģ¸ ãģ¨
£ Ħ
Ġìĸ´ëĬĲ ëĤł
Ġp up
Ġmas k
Ġlast s
Ġjump in
Ġboo ks
íķ´ ë´ĲëıĦ
ìĿ´ ëĶ°
ìĹ ¾
ëłĪì Ĭ¤
ŁĪ ëĤĺìĿ´
ĠëĦĪë¬´ ëĦĪë¬´
ĠëĤĺ ë¹ł
Ġë°Ķ ìĿ´
Ġsen ses
ĠíĶ¼ ìĽĮ
Ġë©Ķ ë§Īë¥¸
Ġë§Īì£¼ ì¹ł
Ġtw inkle
Ġspot light
Ġhim self
ëª¨ëĳĲ ëĵ¤
éĸ ī
èĥ Į
Ġíİ¸ íķľ
Ġu hh
ëĬĲ ëĤĦ
¹ Į
r hy
lo gy
ĠìĿ¼ ìĹĲ
Ġì£¼ ìĭľëĭĪ
ĠëĨį ëĭ´
ìĹ¬ ì°¨
se en
d ence
Ġë¹Ħ ì¹ĺëĬĶ
Ġì¹ľêµ¬ ë¥¼
Ġê¸°ëıĦ ë¥¼
Ġpretend ing
Ġche er
Ġbor row
Ġa we
ĪëĥĲ ê³ł
ĠìĹ ®
ĠìĶ¨ ìķĹ
ĠìĬ Ī
Ġì§ĢíĤ¤ ëĬĶ
ĉĠĠĠĠ ĠĠĠ
ãģ° ãģĭãĤĬ
wish ing
st ea
ro lling
pl us
m ma
Ġbet ray
ê°Ģ ëĤĺ
.. )
. ,
Ġëĵ± ë¶Ī
Ġë°ĶëŀĮ ëıĦ
Ġë°° ìĽĮ
Ġë§ĲìĶĢ ìĿĦ
Ġself ish
Ġr am
Ġ Ã©
ì£¼ëĭĺ ë§Į
¸ ĭ
Ġa str
ìĺĢ ëĬĶëį°
ìĥĪë ¡ľ
ac ross
a x
Ġë¶Ī íĥľ
Ġw ing
ê²° íķľ
¸ë¬ ´
Ġdrink in
ìļ° ìĭł
ëĪĦ êµ´
ë¶ Īì
ç Ĩ±
ĠíĻķ ìĭł
Ġêµ ½ìĿ´
ëĤĺ ëĭĪëª¨
æİ ¢
Ġíķĺë£¨ ìĹĲ
Ġëĭ¤ê°Ģ ìĺ¤
Ġë´¤ ëįĺ
ìŀĲ ìŀ¥
Ġíķĺ ìŀĸìķĦ
Ġìĸ´ëĶĶìĦľ ëĤĺ
Ġti d
Ġm it
Ġbo ld
would n
f ri
Ġë¹¨ ëĿ¼
Ġsummer time
ìĭľíħĮ ë£¨
éŁ ³
ãģ® ãģªãģĦ
gra b
ĠíĻ© íĺ¼
íĹ Į
ëĴ¤ ë¡ľ
z in
y ah
Ġê°ĢìĬ´ ë§Į
¼ìĶ¨ êµ¬
cre te
Ġíķľ ìĪľê°Ħ
ĠíķĺëĤĺ ìĶ©
Ġìĺ¨ ëĭ¤ë©´
Ġëĭĺ ìĿ´ìĹ¬
Ġë± ħ
Ġneigh bor
Ġì§Ģ ëĤ¸
Ġë²Ī ìĿĺ
Ġê¹ ľì§Ŀ
ìĬ¤ íħĮ
ì£¼ ëł´
å¼ º
Ġëĳ¥ ê·¼
íķĺ ê²łìĸ´
ê°Ģ ë²Ħë¦°
j ang
Ġìŀ¡ ëĬĶ
Ġj ac
ì§Ģ ë§Ĳê³ł
ë³ ķ
t ried
Ġíı¬ê¸° íķĺì§Ģ
Ġì§Ģ ìĺ¥
Ġë¶Ģì¡± íķ´
Ġcrash ing
ë°° ë¥¼
w ent
ĠìĬ¬íĶĶ ìĿĢ
Ġê±±ìłķ ìĿĢ
Ġy ard
Ġprot ec
ìĽĮì ¡Į
y p
ash ing
Ġê¸¸ ìĸ´
Ġwait s
ëł ¬
ë² Īë
ãĤı ãĤīãģªãģĦ
Ġì¢ĭ ìķĺëįĺ
Ġë¨¸ ëĤĺë¨¼
Ġë§Ĳ íĸĪëįĺ
Ġwor ked
Ġg or
ìĹ° ëĿ½
ëĿ¼ ìĨĶ
ë¡Ń ê³ł
ë¡ ¬
Ġìļ¸ ë¦¬ê³ł
Ġì§Ģê¸Ī ìĿ´
Ġì£¼ ìħ¨
Ġwhis key
Ġmo tor
Ġh ou
ĠìĤ¬ ê³¼
Ġan ti
Ġíģ´ ëŁ½
Ġìĭ¶ ì§Ħ
Ġriver s
ìķĦ íĮĮëıĦ
ê°ľ êµ´
Ã Ĺ
Ġëĭ¬ ëıĦ
Ġwar ri
ëįĺ ê°Ģ
è ²
çĶ ĺ
ĺ Ľ
ĠíĹ¤ ìĸ´ì§Ī
ìĹī ëį©
ì§Ģ ë§ĪëĿ¼
w inter
ad es
Ġì°¬ìĸĳ íķĺìĦ¸
Ġëĺĳ ë°Ķë¡ľ
Ġë» ¥
ìĭ¬ íķ´
åı £
Ġser ve
Ġf ought
Ġba bies
ìĺ· ìĿĦ
´ Ŀ
r Ã
ca li
ĠíĹ Īë¬¼
ĠìĿĮ ë©Ķ
Ġì¤Ħ ê»ĺ
Ġëĵľ ëł¤ìļĶ
Ġê´ ľ
Ġmovi es
Ġdesp air
ìķĪ ìĿĺ
ëĤł ê°ľ
êµ ½
ä¸Ģ åº¦
Ġíĺ¸ ìĤ°ëĤĺ
ĠìļĶ ë¦¬
Ġr ome
Ġenter tain
Ġ #
íĸĪ ëĬĶì§Ģ
ĠíĴĢ ìŀİ
Ġì¶ķë³µ íķ´
ìĽĢ ìĿĢ
ëĭ¹ìĭł ëıĦ
ë§Į íķ´
ê¸°ìĹĲ ëĬĶ
ãĥ Ķ
ch ang
Ġë³´ ëĭ¤ê°Ģ
ë°ĺì§Ŀ ë°ĺì§Ŀ
Ġëŀ© ìĿĦ
Ġë°¥ ìĿĦ
Ġsu icide
Ġro cket
Ġbe in
¿ Ħ
tin ess
d ges
Ġì¤Ģ ë¹Ħê°Ģ
ĠëĿ¼ ë©´
Ġë§º íĺĢ
Ġname d
Ġhear ing
ëĮĢ ë©°
gu itar
ĥ ł
Ġë°ķ íĺĢ
Ġë°° ë¥¼
Ġm io
Ġìķī ìĿĢ
ĠëĿ¼ ëĿ¼ëĿ¼ëĿ¼ëĿ¼
Ġëĳĺ ìĿĺ
Ġra ppers
Ġcigare tte
ìķĪë Ĳĺ
ì§Ģ ëĿ¼
ê³ĦìłĪ ìĿ´
ĠìĻ ¼ìª½
ĠìĤ¬ëŀĳ íķłê²Į
íķĺê¸° ìĹĶ
ĠìŀĪìĿĦ ëķĮ
Ġìĸ´ ì©ľ
Ġë°Ķ ìģĺ
Ġë¯¿ìĿĮ ìľ¼ë¡ľ
Ġfore st
fi eld
Ġì°¨ ë¡Ģ
ìĿ¼ ë¿Ĳ
ĠíĭĢ ìĸ´
ĠìĹĨìĸ´ ëĿ¼
Ġê·¸ëħĢ ìĹĲê²Į
Ġtow ards
Ġtalk s
Ġst umble
ì£½ ìĸ´ëıĦ
7 0
ëª¨ ìĭľ
ut ti
ou n
ĠìĤ¬ëŀĳ íĸĪìĸ´
Ġlou is
Ġ- >
ìĬ¤ ê¸°
ëĶ¸ ëŀĳ
ë°Ķë³´ ê°ĻìĿ´
§ ¹
ĠíĻ ľ
ĠìķĦ ê¹Ŀ
Ġëį°ëł¤ ëĭ¤
çħ §
ë¬¼ ê²°
ë¦´ ë¦¬
´ Īì
lo o
a da
ĠíĿĲ ë¥¸
Ġë°Ķ ì¹ĺ
Ġtr an
Ġshow ing
Ġpos ition
ìĿ į
fe liz
Ĭ ê
Ġpo et
ë¦Ħ ìĿĦ
ĠìķĬ ëĤĺìļĶ
ĠëĳĲ ìĨĲ
Ġë³´ ëł¤
ë¶Ģ ë¡ľ
te m
rea ch
p ì
ìĻĦ ë²½
½ ł
te mber
ic tion
ë¶Ħ íķľ
ê²¨ìļ¸ ìĿ´
ãģı ãģª
¥ ½
ac ute
ĠìĤ¬ ë¬´
Ġì£¼ëĭĺ ê³¼
ĠëĤĺ ëĭĪê¹Į
ĠëĤĺ ë¦Ħ
Ġë¯¿ ìĹĪìĸ´
ãģĿãģĨ ãģª
go on
ĠìŀĪ ê¸¸
Ġëĭ¬ ë¦¬ê³ł
Ġê°Ļ ìķĺìĸ´
tu red
i ent
an te
Ħ ĺ
ĠëĨĵ ì¹ł
Ġwatch in
Ġmar ch
Ġj ig
Ġhelp less
ë©Ķ ë£¨
ë¡ľ ë§Į
Ġë§ĪìĿ´ íģ¬
ì§ĳ ìĿĦ
ëıĻ ìĥĿ
ãĤĪãĤĬ ãĤĤ
ri ly
ĠìĹ´ ì°¨
ĠìķĪ ìĿĢ
Ġëļ ±
Ġë¶Īì Įį
Ġe in
Ġca red
ìĿ´ ëĥĲ
ë°Ķ ëĳĳ
Ġíķĺê³ł íĶĪ
Ġìŀ ¬ì
Ġìĸ´ìĥī íķľ
Ġcold er
lic it
ee ns
Ġíŀ ĺì
Ġíĥľìĸ´ëĤľ ìĤ¬ëŀĮ
ĠìĹ ĩ
Ġëħ¸ëŀĺ íķĺë©°
Ġê¼¬ë¬¼ ê¼¬ë¬¼
Ġturn in
ìĪ «
ìºĩ íĥĢ
ë°© ìķĦ
ĠíĽĦíļĮ íķł
Ġë³´íĺ Īë¡ľ
Ġbri ck
ëŀĢ ìĹĲ
Ġì£¼ ê²łëĭĪ
Ġë°Ľ ì§Ģ
c ke
ĠìŀĬíĺĢ ì§Ī
ĠìķĬìķĺ ì§Ģ
ìŀ¥ ìĿĺ
ëĺĳ ëĶ±
êµ³ ìĿ´
ê°Ģ ìĿĺ
lo ver
Ġë°ĶëĿ¼ ëįĺ
Ġp unch
Ġdri ves
ìĭľ ë¦°
per o
h Ã
Ġê°Ħì§ģ íķĺê³ł
íĪ ¼
ëĸ¨ ìĸ´ì§ĢëĬĶ
ãĤī ãĤĮãĤĭ
ãģłãģĳ ãģ§
Ġì°¬ìĸĳ íķĺë¦¬ëĿ¼
Ġëĭ¤ê°Ģ ê°Ī
Ġz u
ìĹ¬ê¸° ê¹Įì§Ģ
ê°ľ êµ¬ë¦¬
è ģ²
åĲĪ ãģĨ
ãģ£ãģ¦ ãģŁ
ca se
Ġíķĺ ìĭľëĭĪ
Ġshin in
ìķĦ ìĬ¤
ãģĮ ãĤĭ
5 2
ĠìķĦ ì¤Įë§Ī
Ġì£½ ê³ł
ĠëĲĺ ëĭĪ
ìŀĪ ìĿĦê¹Į
æ± º
ãģ®ä¸Ń ãģ§
ĠìķĦë¹ł ìĿĺ
Ġstu dio
ê±° ë¦´
ĠìŀĲ ê°Ģ
ĠìĦ±ëł¹ ìĿ´
ĠìĤ´ ê²łëĦ¤
Ġs ie
ìĿ¸ ìĿĢ
ìĿ´ì¸ł ëª¨
ì²ĺìĿĮ ìľ¼ë¡ľ
qu and
ĠìĤ´ ëĭ¤ê°Ģ
ĠëŃĲ ëĵłì§Ģ
ìľĦ ìĬ¤íĬ¸
ìī ´
ìĤ° ëıĦ
fu me
di ct
a do
ĠíĿ ĳ
Ġëĺĳ ê°ĻìķĦ
b ing
Ĺ ê
Ġíķľ ìĨ¡ìĿ´
ĠìķĦ íĻī
Ġìĭ¤ ìĿĢ
Ġlo ss
íķĺëĬĺ ìĹĲìĦľ
ìĭľ ë¡ľ
g la
ı ¬
ĠìĿ¼ ìĥĿ
ĠìĺĪ ê°Ĳ
Ġê±° ìŀĸìķĦ
Ġprot ect
ëĭ¹ìĭł ë§ĮìĿĦ
å¹¸ ãģĽ
£ç ¯Ģ
is co
Ġìľ ¼ì
Ġì¢ĭ ìķĺìĸ´
å¤ ļ
ĠìĿ¼ ìĿ´ìķ¼
Ġë°Ł ê³ł
Ġtrouble d
ìľ łì¼Ģ
ì¹´ ìĹĲ
å½ ĵ
u ne
Ġreali zed
íī ģ
ãģĿ ãģĹãģ¦
Ġpre ac
Ġlang uage
ìĿ¸ ìĿĦ
ìķ ķ
è¾ ¼
ãģı ãĤĭ
s al
Ġwas hed
Ġshould a
ëĤ´ìĿ¼ ìĿĦ
ill ac
ĠíĸĩìĤ´ ìĹĲ
Ġê½ĥìŀİ ì²ĺëŁ¼
Ġs our
ê¸°ëĭ¤ ë¦¬ê³ł
Ġìĭľ ëĵ¤
ĠëķĮ ë¡ľ
ìĿ´ íĨłë¡Ŀ
ì´ĪëĿ¼ íķľ
di ble
ĠëĤĺ ìĿ´ê°Ģ
ĠìŀĲ ëıĻì°¨
ĠìĿ´ íĭĢ
Ġë°Ķ ëŀĢ
Ġk im
Ġj ames
Ġb ail
íĸĪ ëĭ¤ê³ł
ê²½ ìĿĦ
ãĤĮ ãģ©
Ġê· ¹
Ġtr ash
ëĳ ĺìĶ©
ë¬´ ë¦İ
ĠìĥĪ ëıĦë¡Ŀ
Ġê¸°ëĭ¤ë¦¬ ëĦ¤
íĤ¤ ê³ł
ĠíĮĮëıĦ ê°Ģ
Ġcad illac
ìĥĪ ëıĦ
ìĤ´ ê¸Ī
êµ¬ ë©į
re well
l ately
ĠíĸĪ ê³ł
ĠíķĺëĤĺëĭĺ ê»ĺ
ĠìĿ¼ ëĭ¨
Ġëª» ëĲľ
Ġw rap
íħħ ë¹Ī
ìĺ¤ëŀľ ë§ĮìĹĲ
Ļ ¬
Ġì°¾ ìľ¼ëŁ¬
Ġs ides
ìĹĲ ìķ¼
ì±Ħ ìĽĮ
125 40
Ġì°¾ìķĦ ìĺ¬
Ġsqu eeze
íħĮìĿ´ íĥĢ
ëĤĺ íĮĶ
Ġíĺ¸ íĿ¡
Ġëª¨ìŀĲ ëŀĢ
Ġneigh b
Ġìī¬ ê²Į
ĠìĤ¬ëĿ¼ ì¡Į
Ġë° ĺëĮĢ
Ġly in
ê·¸ëĤł ìĿĺ
vi ew
ĠëĤĺ íķľíħĮ
Ġê¹¨ëģĹ ìĿ´
Ġt ag
íķĺ ëıĦëĭ¤
o om
ĠìŀĲ ê²©
Ġìĸ´ëĸ ¨
Ġì¹¨ ëĮĢ
Ġë§ŀ ê³ł
ìĻķ ìĿĺ
ìĤ´ìķĦ ê°ĢëĬĶ
ãģ²ãģ¨ ãĤĬ
ĠíĿĺ ë¦¬ëĬĶ
Ġë© Īì·Ħ
ê´Ģ ìĭ¬
ê±¸ ìĿ´
ãģĤãģªãģŁ ãģĮ
ĠìĿ´ìķ¼ ê¸°ë¥¼
Ġê¸°ìļ¸ ìĹ¬
Ġpara de
Ġp ity
íķ´ ì¤Ħ
ìķĦ ëĭĪëĿ¼
ì§ľ ëĿ¼
ë¹Ħ ìķ¼
ê² °ì½Ķ
anta stic
an ish
įí ľ¼
Ġëĭ´ ê²¨
ìĿ¸ìĥĿ ìĿĺ
ë§Į ì¹ĺ
ê·¸ë ł¤
ill a
ĠíĽĦíļĮ ëĬĶ
ĠìķĦìī¬ ìļ´
Ġve l
Ġfill s
ë¯¸ ëĭĪ
çľ Ł
fai th
f le
Ġê¿Īëĵ¤ ìĿĦ
Ġstor my
Ġcomplete ly
íĥĢ ëł¹
ãģı ãĤīãģĦ
6 5
Ġì§ĳ ì¤ĳ
Ġì§Ģ ìĿĢ
Ġë¶ĪìķĪ íķľ
Ġëª¨ìŀĲ ëĿ¼
Ġra z
ìĦ± ê³µ
ëħ¸ ëŀĢ
Ġëħ¸ëŀ «
ìĺģìĽĲ íķł
ëĵ¤ ìĹ¬
ç ĩ
¨ ìĿĦ
t es
mi go
ĳí Ĵ
ĠìĨĲ ìĿĢ
Ġso y
Ġru de
ìĹĨ ëĭ¤
ëĭ¤ ìļĶ
æĮ ¯
ha ps
ë¶Ħ ìĿ´
ê±´ ëį°
Ġì°¾ ìĿĢ
Ġëĭ¤ ìłķíķľ
Ġê°Ĳì¶Ķ ê³ł
Ġst airs
Ġsmile d
Ġflow ing
ĠìķĦ ëħ¸
Ġë¯¸ì¹ĺ ëıĦë¡Ŀ
Ġê·¸ëĤł ìĿĺ
ãģª ãĤĵãģł
spo ken
ĠíĿĺ ë¦¬ë©°
ĠíĨł ìļĶìĿ¼
ĠìķĦíĶ Īëį°
ĠëĬ¦ ì§Ģ
íķĺë£¨ ìĹĲëıĦ
ĠìĿ´ ë¥¸
Ġìĺ Īë¹Ħ
Ġì¶Ķ ìļ´
Ġëĺĳ ëĺĳ
Ġë³Ħ ê±°
Ġë²Īì Ķ©
Ġsix teen
Ġd ed
íķĺëĤĺëĭĺ ìĿ´
ìĿ´ìłľ ìĻĢìĦľ
ĠíķľìĪ¨ ë§Į
ĠìĻĦ ìłĦíŀĪ
Ġëĵ ¤ì
Ġë³´ëĤ¸ ëĭ¤
Ġê¸°ë¶Ħ ìĿĦ
Ġpl ate
Ġec stasy
ìŀ¥ ëıĦ
ì§Ģ ìĿĺ
v ir
ca st
Ġíŀĺ ê²¨ìļ´
ĠìķĦì§ģ ê¹Įì§Ģ
Ġì§Ģì¼ľ ì£¼
Ġë£¨ ë£¨
Ġal so
tw enty
ĠíĮĲ ëĭ¨
Ġë§ģ ê°Ģ
Ġê°Ģì§Ģ ë¥¼
Ġsoldi ers
Ġd un
Ġíİ ľ
ĠëĦ¤ ìĺ¨
Ġê¸ Īë°©
Ġwhat s
Ġbee f
ëĪĪ ê°Ĳ
pro du
ĠìĨ¡ ìķĦì§Ģ
Ġë¬ ´ì¡°ê±´
ëĺ ¥
Ġì¤Ħ ê±°ìķ¼
Ġë¯¸ìĽĮ ëıĦ
ìĹ¬ìŀĲ ìĿĺ
ì² ĺë
ëĭ¤ ìĸĳíķľ
qu est
Ġê·¸ëŁ¬ ëĤĺ
ìĸ´ëĬĲ ëį§
ëĤ´ê°Ģ ìĬ´
ãģ¡ ãĤĩ
ell e
cus sion
Ġìĸĺê¸° ê°Ģ
ëĦĪ ìĹĲê²Ĳ
ë¬´ ìĦľ
éģł ãģı
ĠìĿ´ëłĩê²Į ëıĦ
Ġëĵľ ëĿ¼ë§Ī
Ġë¹Ľ ëĤł
Ġë§Īì°¬ ê°Ģì§Ģ
Ġmotherfuck ers
ìĽĲ íķ´
ìĺ¬ ëł¤
æ· ļ
ĠìĭľìĦł ìĿĦ
Ġì§ĢíĤ¤ ê³ł
Ġë¶Īë ©°
Ġê¿Īê¾ ¸ë©°
Ġê¸°ëĭ¤ëł¤ ì¤ĺ
ëıĻ ìĿĦ
æŃ¢ ãģ¾
fly ing
c ute
........ ........
ĠìŀĲìľł ë¥¼
Ġìĸĺ ê¸´
ì§ ĻìĿĢ
ãģĿ ãģĵ
ha el
Ġno che
Ġa bu
ìĿ´ ë¥¸
ëŀ Ļ
i le
Ġíķľ ë§Īë¦¬
ĠíĨł íĤ¤
Ġìĵ° ì§Ģ
ìĨĲ ëĤĺ
ì¶Ķìĸµ ìĿĦ
ê²¨ ìļ¸ë
åĲ ¹
Ġíķł ê¹ĮìļĶ
ĠìĻĶ ëĭĪ
ĠìĥĪì ĽĮ
Ġì§Ģ ëĦ¤
ĠëĬĲëĤĦ ìĪĺ
Ġê¸ ¸ëĵ¤
Ġt iny
Ġse vent
Ġhip hop
Ġengine er
ìĤ° ìķĦ
ê±° ìŀ¥
Ġì£¼ ê¸¸
ĠëıĮìķĦ ìĦ¤
Ġsli pping
Ġhar dest
ëĤ´ê²Į ìĦľ
åı ĸ
ãģĪ ãģ°
ľëļ ľëļľ
ĠíĶ¼ íķł
Ġì¹ľêµ¬ ìĹ¬
Ġëį® ìĸ´
Ġfollow ing
Ġcut s
Ġar r
ëĭ¤ì¼Ģ ëıĦ
ê·¸ëĮĢ ë§ĮìĿĦ
Ġíĺ¸ íĺ¸
Ġhypno ti
Ġband s
ìļ° ìĻĢ
ë³´ ê¸°
ê³µ ê°ľ
Ġìłķ ëĭµ
Ġë§Ĳ ëł¤
Ġê¼Ń ê¼Ń
Ġê¸¸ ìĹĲìĦľ
ì§ĢëĤĺ ìĺ¨
ê°Ģ ëĬĶëį°
Ġì½ ĺ
Ġmo de
Ġin te
ìĥģ ê´Ģ
ëĳ¥ ëĳ¥
ëĭ¤ ìĬ¤
ãģĹãģı ãģ¦
ta lly
b ound
Ġìķł íĥĢê²Į
Ġê·¸ëķĮ ìĿĺ
ìĹ¬ ë³´
ë¿Ĳ ìĿ´
whe ther
Ġìĺ¤ëŀĺ ëĲľ
Ġìķŀ ë§Į
ĠëĪ Īì²ĺëŁ¼
ë³´ ëįĺ
ve t
u me
ĠëĤĺ ìģĺ
Ġmil k
íĥ ±
ìħ Ģ
ì§Ģ ëĭ¤
ĠìĻ¸ë¡ľìĽĢ ìĹĲ
ĠìĤ¬ì§Ħ ìĿĦ
ĠëĪĪë ľ¨
Ġëħ¸ ìĺĪ
Ġre ck
ĉĠĠĠĠĠĠĠĠ ĠĠ
take s
i h
Ġë°ĺë³µ ëĲĺëĬĶ
ìĦľ íĪ
ì§Ģ ìļ°
ë¶ īê²Į
ë¡Ŀ íķ´
ĠìĦ± ëıĦ
Ġê¸° ìļ´
ìŀħ ê³ł
re ly
bl ind
ĠìľĦ ìĿĺ
ĠìķĦë¹ł ê°Ģ
Ġdr ank
ìĹ¬ ê¸°ìĹĲ
ëĭĪì Ĭ¤
ĠìľĦíķ´ìĦľ ëĿ¼ë©´
ĠìķĮ ê²łìĸ´
ĠëĦĪëĿ¼ ë©´
ìıŁìķĦ ì§ĢëĬĶ
slow ly
ra ve
be yond
Ġëļľ ë£¨
Ġê·¸ë¦½ ëĭ¤
Ġdeci ded
ëĤ´ ìķ¼
ãģ ŀ
3 1
. (
Ġìĭ¶ìĸ´ ìł¸
ìĿ´ ìĺĪ
ìĭľ ìĹ¬
æ ħ
« ë
ĠìĦ±ëł¹ ìĿĺ
Ġëĭ¬ëĿ¼ ì§Ħ
Ġaven ue
ìĿ¸ ìĤ¬
ĠíĸĪ ëĭ¤
ĠìŀĪìĹĪ ëĬĶëį°
ĠìķĦê¸° ê³°
Ġëħ¸ëŀĺ íķĺê³ł
Ġend ed
Ġê³Ħ ìĭľëĦ¤
ë°¤ íķĺëĬĺ
d eath
Ġê°ĢìĤ¬ ìŀħëĭĪëĭ¤
Ġf em
Ġbor der
ìĿ´ëĿ¼ ëĦ¤
ìĹ° ê¸°
Ġëĭ¤ìĬ¤ ë¦¬
Ġê¸°ìģ¨ ìĿĺ
Ġp ad
Ġknock in
Ġdon g
íĶ¼ ê³¤
ìĤ¬ ê³µ
s wa
ĠìľĦ ëĮĢ
ĠëĬĲëĤĮ ìĿĦ
Ġpan ic
Ġdanc er
íĦ ±
ìķĦë¹ł ê°Ģ
ëıĪ ìĿ´
no s
ĠìĬ Īíį¼
Ġê±° ëĭĪê¹Į
Ġtr unk
Ġchi ca
íĸĪ ìŀĸìķĦ
ëĿ¼ëĿ¼ ëĿ¼ëĿ¼ëĿ¼
åĪ °
ti red
ad ing
Ġë°© íĮ¨
Ġë¯ ¸ëĿ¼
Ġê¸°ìĸµ íķł
Ġqu arter
Ġ ãģĤ
ë©Ķ ìĿ´
µì¿ µì¿µ
pi ano
ĠíĶ¼ ìĸ´ëĤľ
Ġëª¨ëĳĲ ë¥¼
Ġt us
Ġphoto graph
Ġn as
ë²Ħëł¸ ì§Ģ
ĠëĬĲëģ¼ ë©°
Ġgo al
Ġcr itic
Ġcomplic ated
ëıĻ ê°ķ
ëıĮìķĦìĦľ ìĦľ
ĠíķĺëĬĺ ê³¼
Ġìĭľìŀĳ ìĿ´ìķ¼
Ġë³´ ë¦¬ëĿ¼
ìľł ì¹ĺ
ìķĦ ë©Ķ
ëĤ´ìĿ¼ ëıĦ
ĠìŀĲ ìĿĺ
Ġë¶ĢëĶª íĺĢ
Ġæ Īĳ
ëłĩ ì§ĢëıĦ
ëĤ´ê²Į ëıĦ
ë§ĪìĿĮ ëĮĢë¡ľ
re ci
mis sion
ĠìŀĬ ìĹĪëĤĺ
ĠëĲĺìĸ´ ì¤ĺ
Ġë§¤ìĿ¼ ë§¤ìĿ¼
Ġr ust
Ġma p
íĺ ¸ë¥¼
çı ¾
j er
ange d
ìĹ¼ ìĨĮ
ëłĪ ê¸°
ëĴ· ëĭ¤ë¦¬ê°Ģ
¶ ë
ļ ê½ĥ
ĠìĿ´ìłľ ìĦľìķ¼
Ġë¯¿ìĸ´ ì¤ĺ
rock in
ìĹĪ ëĭ¨
ì§ľ ë¦¿
ì§ģ íķľ
o j
ĸ ĺ
Ġê³ł ìĿ´
ë°ĶëŀĮ ìĿĢ
ãģĹãģ¾ ãģĨ
Ħ ¨
ĠìŀĪìĿĦê¹Į ìļĶ
Ġìĭł ë¹Ħ
Ġìĭľ ëĥĩë¬¼
ĠëĲĺ ëĬĶëį°
ëĤ¬ ì§Ģ
bo p
Ġìĸ¼êµ´ ìĿĢ
Ġì§Ħ íķľ
Ġflo od
íķľ ëıĻìķĪ
ì§ĢìķĬ ê³ł
ë¶Ħ ìľĦ
² ħ
Ġìĸ´ ëĶĶì¯¤
Ġun less
ë¬´ ëĮĢ
íķł ìķĦë²Ħì§Ģ
ìĭł ëĤĺëĬĶ
ëĪĪë¬¼ ëıĦ
Ġëĵ¤ ì§Ģ
Ġë¶Ģë¥´ ì§Ģ
Ġwhat cha
ì¢ģ ìĿĢ
uh h
id ing
f Ã
Ġíķ´ ìĻ¸
Ġco re
è ²ł
Ġìį¨ ëıĦ
Ġë¬¸ ìŀĲ
ë©ĭ ëĮĢë¡ľ
nam ite
Ġì§Ŀ ì§Ŀì§Ŀ
Ġë³¼ ìĹĲ
Ġë°¤ ë§Īëĭ¤
Ġtr ail
íĻĺ íķĺê²Į
íķľ êµŃ
ìļ° ìļ¸
ìĸ´ íĹĪ
ë¦¬ ìĻĢ
bla me
ĠíĿĶëĵ¤ ë¦¬ì§Ģ
Ġìĸ´ëĶĶ ëĿ¼ëıĦ
Ġê°ĢìĬ´ ìĹĶ
Ġtea cher
Ġt ing
Ġdama ge
ëıĪ ëĤĺ
ëĤ¨ ìĿĺ
é ķ·
4 9
Ġìŀ Ħë§Ī
Ġìĸ ¹
Ġë³´ ìĿ¸
Ġro pe
Ġo d
Ġcho sen
ìµľ ê³ł
ëıĦ ëłĪë¯¸
x o
lu cky
Ġìłģ ìĭľëĦ¤
Ġìĭľ ëĵ¤ìĸ´
Ġë³´ëĤ´ ì§Ģ
Ġê°Ļ ëĭ¤ë©´
sha ll
Ġì°¬ìĸĳ íķĺëĿ¼
Ġëª¸ ê³¼
ç¢ º
mo i
Ġìĺ¤ ê¸°
ĠìĤ´ìķĦ ê°Ģê³ł
Ġì£¼ ìĸ´ì§Ħ
Ġëĵ¤ ìĹĪìĸ´
ëį° ë¡ľ
ë©Ģ ìĸ´ì§ĢëĬĶ
èĪ ŀ
´ Į
ĠíĻķìĭ¤ íŀĪ
ĠìĬ¹ ë¦¬ë¥¼
ĠëĸłëĤĺ ìĦľ
t n
Ġshow er
Ġho les
íķĺ ëħ¸ëĿ¼
ìĬ¤ ìĬ¤ë¡ľ
ëĳĲ ì§Ģ
ë³Ģ ì¹ĺ
ë°¤ ìĿ´ë©´
ĠìĪĺ ê³ł
ĠëĪĪë ¶Ģì
Ġco de
¿ ¡
mid night
Ġì¢ĭìĿĢ ê±¸
Ġëª¨ë¥´ ê²łì§Ģë§Į
ìĭľ ìļĶ
ì¶Ķ ìļ´
ë¬¸ ìĿ´
ê·ĵ ê°ĢìĹĲ
ìĶ ½
ust r
tt es
Ġíı ¼
Ġëĭ¨ ëĳĺìĿ´
Ġëª ¸ë¶Ģë¦¼
Ġê¾ ¸ë©°
Ġê²ĥ ê³¼
Ġmor n
Ġcom b
Ġëª¨ìĬµ ë§Į
ìĸ´ëĸ ¼
ëĿ¼ ìĬ¤
run nin
Ġíĥľ ìļ°
ĠìķĮìķĺ ì§Ģ
ĠìķĮ ìķĺëįĺ
ĠëĸłëĤĺ ê°Ħëĭ¤
Ġëı Ľ
ĠëĤ´ ë§ĪìĿĮìĿĦ
Ġë°Ķì³Ĳ ìĦľ
Ġê¸° ëĮĪ
ìĸ´ ëłµ
ëĭ¹ íŀĪ
Ç İ
sw ee
d ouble
Ġr ab
Ġgr in
ë¶Ģ ê°Ģ
æĦı åĳ³
Ľ ê
Ġëį°ë¦¬ ê³ł
Ġë³Ħ ëĵ¤ìĿ´
Ġve z
Ġb eep
ìĹĨ ìĸ´ìļĶ
ì¶Ķìĸµ ìĿĺ
ê°Ģ ë²¼
Ġìĭľê°Ħ ìĨįìĹĲ
ĠëĦĪíĿ¬ ê°Ģ
Ġë¶Ģ ëŁ¬
Ġë¯ ¼ì¡±
Ġw oh
Ġsens ation
Ġn ic
Ġbli ss
ĠìĿ´ ë¶Ī
ĠìľĦíĹĺ íķ´
Ġëħ¸ ìĹĺ
Ġë³´ ì§Ģë§Į
Ġë© ¸
ì§Ģê¸Ī ìĿ´
ì§¹ ì§¹
ĠìŀĲ ìļ±
ĠìĿ¼ ê¸°
ĠìĽĥìĸ´ ì¤ĺ
Ġìĸ´ ìĹ¬ìģľ
Ġê°Ļ ìĿĦ
Ġsuck er
Ġsin ner
Ġg rou
³ ±
tr u
g m
am s
ĠìĿ¸ ìŀĲ
ĠìĺĪìłĦ ì²ĺëŁ¼
ĠìĤ¬ëŀĳíķ´ ì¤ĺ
Ġcoo k
ìĤ¬ëĿ¼ ìł¸
ãĤ §
id er
ĠíĻĶ ë¥¼
Ġìĸ¼ ë¥¸
Ġë°ĶëĿ¼ë³´ ëĦ¤
Ġê¶Į ëĬ¥
Ġê°Ĳìĥģ íķĺê³ł
Ġwi pe
ëª¨ ë¥¼
pie ce
look s
ar row
ĠëĨ ¨
Ġê¸° ì¤Ģ
Ġis sue
ìĪĺ íķľ
ìĦ¸ ìĿ´
f ing
ķ µ
Ġì§ĳ ìĹĲìĦľ
Ġê³ģìĹĲ ë§Į
Ġaut umn
ìĿĮ ìĿĢ
ìĿ¼ ìĹĲ
ìķĦë²Ħ ì§ĢëĬĶ
ìķĦ íĻī
è §
think in
keep s
clo ser
ĠìĿ¸ëĶĶ ìķĪ
ĠìķĪ ìĭĿ
Ġë°ķ íŀĮ
Ġê¾ ¸ë
Ġt one
Ġre min
Ġdo ck
íķĺëĤĺ ë§Į
ĠìĨĮìĽĲ ìĿĦ
Ġì¹ ľíŀĪ
Ġì¢ĭìķĦ íķľëĭ¤ê³ł
Ġëĭ Īë
Ġë©ĭ ìł¸
Ġê¸°ìĸµíķ´ ì¤ĺ
Ġapp ro
Ġac cept
Ġêµ¬ìĦ¸ ì£¼
Ġpur pose
Ġfal se
ìĦł ë¬¼
ëĤĺê°Ģ ëĿ¼
ê°ĸ ê³ł
¸ì Ńī
ĠíĿ¬ë§Ŀ ìĿ´
ĠëĦĺ ì¹ĺëĦ¤
ĠëĦ ĭ
Ġë¨¸ë¬¼ ëĭ¤
Ġsi sters
Ġla ck
íĺ¹ìĭľ ëĿ¼ëıĦ
íĨł ìļĶìĿ¼
ë¯¸ë ¯¸
ëªħ ìĿĦ
ãģĦ ãģĭ
v r
Ġíİ¸ íķ´
ĠìĺģìĽĲ íķĺìĭł
ĠëįĶ íķ´
ĠëĦĪë¿Ĳ ìĿ´ìķ¼
Ġë¬» ìĿĢ
Ġëª¨ ëħ¸
Ġê°Ĳìłķ ìĿĦ
Ġund erstood
Ġpre si
Ġdri ver
ë°ľ ë¡ľ
m bling
ĠìłĢ íİ¸
Ġìķ Īìľ¼
Ġre bel
Ġemp tiness
íĥ ĳ
ëł¤ íķ´
ëģĿ ìĿĦ
ë¶ Ĳ
ë°¤ìĥĪ ëıĦë¡Ŀ
ê¾ ¸ë
dd dd
cry ing
ĠìĤ¬ëŀĳ ìĿ¸ê°Ģ
Ġì¿ ¨
Ġê²Ģìĥī ëŀĢìĹĲ
Ġha ze
ìĸ´ëĳĲ ê³ł
ë¹ł ì§Ħ
ĠëĲĲ ì§Ģ
ĠëıĮìķĦìĦľ ìĦľ
Ġê·¸ëķĮ ê°Ģ
íŀĻíķ© ê³¡ìĿĦ
ìĸ´ìłľ ëıĦ
ê³µê°ľ ìķ¨ë²Ķ
Ġì¢ĭ ëĭ¤ê³ł
Ġë²Īì ¯¤
Ġsi ppin
Ġmic hael
Ġ âĢĻ
ìĻĢ ëĬĶ
ì½ Ķì½Ķ
ì³Ĳ ìĦľ
ĠíıŃ íĴį
ĠíĨ ¡
ĠìĥĪ íķĺìĸĢ
Ġê¸° ëĤĺê¸´
Ġê°Ģ ëĭĪ
Ġsuff ering
Ġreac hed
Ġha bit
ìĿ¼ ì§Ģ
ìĺ¤ ë¦¬ëĭ¤
ìķĦë¦¬ ìķĦë¦¬
Ġíķł ëŀĺìļĶ
ĠìĥĿê°ģ íķĺëĭĪ
ìĭł ê¸°
ëļľ ë£¨
oho jang
ohojang goon
min al
d re
ĠíĸĪ ìĸ´ìļĶ
ĠìŀĪ ê²łì§Ģë§Į
ĠìĦł íı¬
ĠëĤ¨ ìª½
Ġthrow ing
íĴ ĭ
ìį ©
æ¬ ¡
t ent
Ġì°¾ ìķĺ
Ġëĵ£ ê¸°
Ġvi br
Ġter ror
Ġspend ing
Ġcon ta
Ġcame ra
per i
Ġìľł ëĤľíŀĪ
ĠìĦľ ê¸ĢíĶĪ
ĠëĸłëĤľ ëĭ¤
Ġëª©ìĨĮë¦¬ ë¥¼
ëķ ł
ë© Ķì
d m
ĳí İĳ
ĠìľĦë¡ľ ê°Ģ
Ġë¯¸ìĨĮ ìĹĲ
Ġê·¸ ìĹĲê²Į
Ġtear ing
Ġdi a
íŀĪ íĨłì¸ł
íĥĢ íĥĢ
ì²« ìĤ¬ëŀĳ
ëĭ¤ê°Ģ ìĻĢ
ëĤĺ ë¡ľ
ma ch
Ġê²½ íĹĺ
Ġti c
Ġhor ses
ì¹ĺ ë¥¼
Įë ķĮ
ĠíĹĪ ëĭĪ
Ġìŀĺëª» ëĲľ
Ġì°¾ ê²Į
ĠëĤ Ģ
Ġêµ¬ ê²½
Ġst un
Ġcre ature
æĨ ¶
Ġë§ŀ ì§Ģ
ìļķ ìĭ¬
ìĥĪë ¡Ńê²Į
ì°¬ëŀĢ íķľ
ì ¾Į
ëĭµëĭµ íķľ
ëª¸ ìĹĲ
ĠìĭŃìŀĲê°Ģ ë¥¼
Ġì¤Ģë¹Ħ íķ´
Ġë¶Ļìŀ¡ ìĿĦ
Ġê°Ģ ë§Į
Ġp ea
ìķĪ íĥĢê¹Į
ìķĦ ìĭľíĥĢ
ëĶ° ìľĦ
¸ì¡ ¸
Ġìķł ê°Ģ
ë¦¬ ëıĦ
ãģŁãĤģ ãģ«
sun shine
Ġíħħ ë¹Ī
Ġíĥľ ëıĦ
ĠìķĦìĿ´ ê°Ģ
Ġë§¤ìĿ¼ ìĿ´
ìĥĪ íĮĮëŀĢ
ë´Ĳ ëĿ¼
ë¦´ ê¹Į
æĹ ħ
Īì ľĦ
Ġìĺ¤ ë¥ĺ
ĠìķĪìķĦ ì¤ĺìļĶ
Ġìĭł ìĦ¸
ĠìĤ¬ëŀĮ ëĵ¤ìĿĦ
Ġtouch ing
Ġpoc kets
ë¬ ´ì¡°ê±´
ãģ¤ ãģĭ
» Ķ
Ġìĸ´ëĶĶ ìĹĲëıĦ
Ġstand in
Ġd ut
Ġchi cks
ìĸµ ì§Ģë¡ľ
ë°Ģ ìĸ´
Ġíķł ìķĦë²Ħì§Ģ
Ġar tist
ìŀĲìĭł ìĿĦ
ìĻ¸ë¡ľ ìĽĮ
ë¶Ģ ë¥¼
1 00
ĠíĴĪ ìĿĢ
ĠìĿ¼ ë§Į
ĠìĻĶ ëĭ¤ê°Ģ
Ġmedic ine
ä¸Ģ ãģ¤
ĠìķĬ ëĬĶëį°
ĠìĥĿ ê¸¸
ĠëĤĺìĻĶ ìľ¼ë©´
Ġroll s
ëŀ¬ ëĭ¤
ê°ķ íķľ
ni ce
Ġíķł ëķĮ
Ġë¯¸ìĨĮ ëĬĶ
Ġëª¨ëĵł ê²ĥìĿĦ
Ġsho ok
Ġclas sic
ĠìĿ´ë³Ħ ìĹĲ
Ġë© ĭìŁģìĿ´
Ġcraw ling
ìŀĪ ìĸ´ëıĦ
ìľ¼ ëĬĶ
ê·¸ë¦¬ìĽĢ ìĹĲ
ê±°ë¦¬ ëĦ¤
Ġë§Ĳíķł ê¹Į
Ġsma sh
ê±°ë£© íķľ
li s
ĠìĿ´ ìĦ¸ìĥģ
ĠëĦĺ ê²¨
Ġë¹ł ìł¸ë²Ħë¦°
Ġë³Ģ íķ´ëıĦ
Ġë§ĪìĿĮ ìĨį
Ġmix ed
Ġm ai
ìĽ ¬
ëĪĪ ëıĦ
ë´ ĩ
ë°¤ ìĿĺ
me rs
Ġíŀ Īì¹´
ĠìĹĨ ê²łëĭĪ
ĠëĤĺìĹĲê²Į ë¡ľ
Ġimport ant
íķľ ëĭ¤ëĬĶ
íıī ìĨĮ
ìłĢ íŀĪ
ìĬµ ê´Ģ
ì´ Į
star ing
for give
ĠìķĦëĭĪ ëŀĢ
Ġë°Ķëĭ· ê°Ģ
Ġn ick
ê¹¨ ëģĹ
ê°Ģ ê²Į
Ġsto pping
Ġsn eak
Ġdo om
Ġc ul
Ġaf ford
ì§Ģ ìŀĲ
ëª© ìĪ¨
Ġíķ´ ì£¼
Ġsy mph
Ġste reo
íĥĢìĿ´ ìļĶ
ìĪ ¨ìī¬
ê²ł ìĬµëĭĪëĭ¤
per fect
ev a
ĠíĴ ĭ
Ġíį¼ ìł¸
Ġwarm th
ì§ľ ê¸°
ëıĻ íĻĶ
ë§Ŀ ìĿĺ
ë§Ŀ ìļ¸
joh n
ĳ ĺ
ĠìĹĲíĹ¤ ìķ¼
Ġì¹ľêµ¬ ëĵ¤ê³¼
Ġchee se
ìĦ¤ íĶĪ
ë°Ķ ëĬĺ
Ġìĺ µ
ĠëŁ¬ë ¸Į
Ġtal ked
Ġspir its
Ġj ag
Ġë°© íĸ¥
Ġê°Ģê¹Į ìļ´
Ġsna ke
Ġqu ie
Ġfru it
Ġche at
íŀ ĪëĿ¼
ëĭ¤ ì§Ģ
ë¬´ ëĦ¤
ãĤı ãģĭ
¬ĳ é¡Ķ
n Ã
Ġìŀ¥ ë©´
Ġê°Ķ ìĸ´
Ġpa ges
Ġfa it
Ġì¹´ ëĤĺ
Ġsac red
Ġn ur
Ġg an
Ġexplo de
Ġall ey
íķĺ ëĭ¤ê°Ģ
Ġìĺ¨ ê¸°
Ġë¶Ģ ì§Ī
Ġë§Ľ ìŀĪëĬĶ
íĤ¤ë¯¸ ìĻĢ
hur ry
Ġìĸ´ë¦¬ ìĦĿ
Ġë²Ī ìł¸
Ġë°Ľê³ł ìŀĪì§ĢìļĶ
Ġê·¸ëķĮ ëĬĶ
Ġcho ir
Ġbe ne
ìĹĨ ìĿĦ
ì£¼ ë³Ģ
st in
o ther
Ġíķĺ ìĺµìĨĮìĦľ
ĠëĨĵ ì¹ĺ
² Ļ
¥ ĺ
se y
ĠìķĪëĲľ ëĭ¤ê³ł
Ġme ntal
¤í į¼
ĵ ê³ł
Ġìĸ´ëĶĶ ë¥¼
Ġì§Ģ íĻĶìŀĲ
Ġê¸´ ìŀ¥
Ġl uc
Ġcol ours
Ġc amp
ï¼ Į
ë§Ĳ íķł
¼ Į
de m
ĭ ë
ĠíĹ¤ë§¤ ëĬĶ
Ġìļķ ìĭ¬ìĿ´
ĠìĤ´ ê¸°
Ġë¶Ģíĥģ íķ´
Ġê¸°ìģ¨ ìľ¼ë¡ľ
íķĺê²Į ëıĦ
ë§ Īì¹¨
bi a
Ļ Ĥ
ĠíĺĦìĭ¤ ìĿ´
ĠìĹ° ìķ½
ĠìĨĮ ê°ľ
ĠëĲĺ ëĬĶì§Ģ
Ġmar ching
Ġkill s
ëį° ìļĶ
z l
Ġëī ´
Ġë³´ìĿ´ ì§Ī
Ġt ease
å° ±
¹ µ
; &#
Ń ĩ
Ġê± ¸ë¡ľ
Ġw ounds
ìķ īìĿĢ
ë¶Ī íĥĢëĬĶ
łê º¼ìķ¼
ĠëĶ°ìľĦ ëĬĶ
Ġski p
ìŀĶ ëĭ¤
s ail
h ush
come s
bro ther
ê¹¡ ì´Ŀ
¸ëį° ìĹĨëĬĶ
io s
ate ll
Ġt un
Ġdrift ing
Ġat trac
ìĸ´ ì©Ĳì§Ģ
ëĳĲ ëĳĲ
ëĦ £ê³ł
ë° į
ë¯¸ì¹ĺ ëıĦë¡Ŀ
ê³¼ ìĿĺ
ä½ķ ãģĭ
ur ing
it er
Ġíķ´ìĻ¸ íŀĻíķ©ê³¡ìĿĦ
ĠìĿ´ëŁ¬ ëĬĶ
ì¡ °ë¦¬
ex c
ĠìķĦíĶĶ ìĿĢ
ëĭĺ ìķĦ
an yone
ĠìķĦëĵĿ íķľ
Ġì§Ģ ê¸Īë¶ĢíĦ°
ĠëŃ ī
Ġëĵ¤ìĸ´ ì¤ĺ
íĸĪ ìĿĦ
íĮĮ ìĿ´
su nday
ce lebr
Ĳë ļ¤
ĠìŀĪ ìĹĪëĦ¤
Ġê·¸ëĵ¤ ìĿ´
Ġsurpri sed
Ġcou rage
ë©° ì¹ł
ë¦¬ ëĤĺ
ë£¨ ìĬ¤
Ä ģ
w ing
s ound
ìĭľ ëħ¸
ëĮ Ķ
ëª© ìĨĮë¦¬
ê°Ģ ìĹĶ
ro ps
Ġvi deo
Ġìĸ ½
Ġëļ« ê³ł
Ġë° ŁìķĦ
Ġlay ing
ê·¸ ë¦½
ãģĦãģ¦ ãĤĤ
ĠìĤ´ ë©´
Ġth ird
Ġp ha
Ġ2 5
Ġì·¨ íķ´ìĦľ
Ġì¶Ķ ëĭ¤ê°Ģ
Ġbeli ever
ëħ Ķ
ëĤ¨ìŀĲ ìĿĺ
ë°Ķ ëŀľ
ê°Ģ ì§Ī
ĠìĤ¬ëŀĳíĸĪ ìĸ´ìļĶ
Ġê³ł ì¹ĺ
Ġp le
ĠìĦłë¬¼ ìĿĦ
Ġì¿ µì¿µ
Ġì¡° ìĹ¬
Ġë§ĪìĿĮ ê»ı
Ġnear ly
Ġdou b
ĠìĿĢ ì´Ŀ
ĠìĿ¼ìĸ´ëĤĺ ìĦľ
ĠìĤ¬ìĹ° ìĿĦ
Ġëĵ± ìĹĲ
ĠëĳĲ ìĨĲìĿĦ
ĠëĦĪ ìĹĲê²Ĳ
Ġper fume
ï ¥
ëĵ¤ ë©´
å ĵ
Ġpus hed
Ġcomp et
ë³´ ëĤ¸
é »
mi ll
lo sing
Į ģ
ĠíĻ© íĻĢ
Ġìŀ¡ ìľ¼ëł¤
ĠìĤ¬ëĬĶ ê²Į
Ġì¶ķ ìłľ
ĠëıĮìķĦìĻĢ ìļĶ
Ġë¹Ľ ìĿĢ
Ġë¹Ħ ì°¸
Ġê·¸ë¦¬ìĽĢ ë§Į
Ġê²ĥ ëĵ¤ìĿĢ
ì§Ģ ë¶Ħ
ê¹Į ë§£ê²Į
êµ¬ ëĬĶ
ãģ« å
ĠíĿ ł
Ġíĳľìłķ ìĿ´
ĠìĹ ´ìĩł
Ġë¿Ĳ ìĿ´
Ġti ger
Ġa nn
ìŀĪ ëĭĪ
¿ Į
w in
as hed
ĠíĽ Ķ
ĠëĤĺëĿ¼ ë¡ľ
Ġë¦ ½
Ġê·¸ëħĢ ìĻĢ
Ġre sp
Ġma ck
ëıĦ ìļ°
ëĭ¨ íŀĪ
ë©Ķ íĥĢ
ê²¨ ìļ°
´Īì ½Ķì
fun ny
Ġê±· ëĬĶëĭ¤
Ġpal m
Ġin ner
íĽĦ ìĹĲ
ëĸ ³
ë¨¹ ìĸ´
ĭ ±
ĠíĿ© ìĸ´ì§Ħ
ĠíļĮ ë³µ
Ġìĸ´ ìķ¼
Ġë¹ ¡
Ġëª© ìłģ
Ġrid er
íĶ¼ ëĬĶ
ëĪ Īìľ¼ë¡ľ
ê´´ ë¡ľ
y ard
str ange
bi ll
Ġíĥ ģ
Ġê³Ħì ħĶ
Ġru in
Ġpre sence
Ġexc ited
ìĽĲ ìĿ´
ìĸ¸ìłľ ë¶ĢíĦ´ê°Ģ
ë§ģ ê°Ģ
ê°Ģìļ´ ëį°
ĠëĤ¨ ìĿĺ
Ġstre t
í Ĳģëĭ¹
ìĥĮ ê°Ģ
ĠìĽĥ ì§Ģ
ĠìķĬ ëĦ¤ìļĶ
ĠìĨĮ ì£¼
Ġì ³¤
Ġë§Į ì§Ģ
Ġsai ling
Ġcom pare
° Ļ
th ear
ĠìĹ¼ ëł¤
ĠìķĪ íķ´ëıĦ
ĠëĿ¼ ëŀĦëĿ¼
ìķ½ ëıĮ
pe cted
g ang
Ġda vid
íĿ ł
íķĺë£¨ ëıĦ
¥ µ
sat urday
ch an
19 9
Ġwea pon
ìķĦ ë¹Ħ
ìĭ¬ì ½Ķ
ì¹ľêµ¬ ê°Ģ
ãģ¯ ãģªãģĦ
out side
Ġìķŀ ëĭ¤ë¦¬ê°Ģ
ĠëĲĺ ê¸°
ĠëĦ Īì²ĺëŁ¼
Ġë¹ł ìł¸ë²Ħ
Ġthr own
Ġm oo
Ġdece mber
íĹ¤ ë§¤
ìĸ¸ìłľ ëĵł
ë¶Ģ íĥģ
ãģł ãģ¨
b by
0 8
Ġë§ĺ ê»ı
Ġê·¸ë¦¬ ëįĺ
Ġf ul
íķ´ ëĬĶ
ìĺ¤ëĬĺ ìĿĦ
ì²´ ê°Ģ
if ied
ĠìŀħìĪł ìĿĢ
Ġì§Ħìĭ¬ ìľ¼ë¡ľ
Ġë¹Ľ ê³¼
Ġëª» ìĤ´ìķĦ
ì¹ĺ ì¹´
æĿ Ł
º ½
Ġíķ ¸ëĵľíı°
Ġì°¨ê°Ģ ìĽĮ
ĠëĤ¨ìŀĲ ë¥¼
Ġma jor
Ġdra gon
ëĭĺ ê»ĺ
æľª ä¾Ĩ
ĠìķĦ ëĤĮìĹĨìĿ´
Ġëĵ¤ íĮĲ
Ġin cre
ìŀĬíĺĢ ì§Ħ
ëĭ¤ ëħĢ
wi de
Ġëª» ëĭ¤íķľ
íĨł ìĭ¤
ê²° íĺ¼
exp licit
ĠìŀĬ ê³łìĦľ
ĠëįĶ ëŁ¬ìļ´
Ġë¶Ģ ìłķ
íķĺ ìĭ¤
ìķŀ ìĿĦ
Ġë¯¿ ìĹĪëįĺ
ì°½ ê°ĢìĹĲ
ë§Ī ìļ°
Ġí ĩ´
Ġanc ient
íŀ Īë¹Ħ
íĤ¤ ì§Ģ
ri ding
pl ane
pa c
ĠíĬ ¼
ĠìĦ± íĥĦ
Ġì½ Ķì½Ķ
Ġsta ck
ë»Ķ íķľ
å£ °
to s
ĠëĲľ ëĭ¤ëĬĶ
Ġêµ¬ ë©į
Ġê³ł ë§ĪìĽł
Ġê°Ĳìĭ¸ ê³ł
z er
li er
Ġíķł ë¨¸ëĭĪ
ĠìŀĪ ìĿĮìĿĦ
ĠìĥĿê°ģíķ´ ë´Ĳ
Ġì¿ Ħ
Ġì±Ħ ìļ´
Ġë¶Ī ìĸ´ëĿ¼
Ġsqu ad
Ġscream s
ê³ µí
ãĥ© ãĥ©
¸ëŁ¬ ê¸°
wa sh
ha h
Ġíķ¨ê»ĺ ë©´
Ġê°Ģ ëıĦë¡Ŀ
Ġ Â
ìļ°ë¦¬ ëĿ¼
ë¶Ļ ìŀ¡
un less
some thin
ca ine
any where
ĠìĦľ ìŀĪëĦ¤
ê²Į ëıĦ
gg le
Īì ¸ł
ģ ±
ĠìĤ¬ìĭ¤ ìĿĢ
ĠëıĻ ë¬¼
ĠëĤ¨ê²¨ ëĳĲê³ł
Ġcha p
íıīìĥĿ ìĿĦ
ë¦¬ ì§Ģë§Ī
star s
Ġìŀ ĪëįĶ
Ġìľł íĸī
Ġìķ¼ ìķ¼ìķ¼
ĠìĤ¬ëŀĳíķĺ ë¦¬
Ġëŀ ©íį¼
ĠëĤĺëĪ Į
Ġë²ķ ìĿĦ
Ġsatis fy
Ġba e
íĤ¤ë¯¸ íĨł
ë¹Ħ ìĺ¤ëĬĶ
ê¿Ī ìĨįìĹĲ
æĺ ¥
c at
Ġì¶¤ì¶Ķ ê³ł
Ġì¤Ħ ê¸°
ĠëĦĺ ìĸ´ìł¸ëıĦ
Ġë¶ĪëŁ¬ ë´ĲëıĦ
Ġê¿Īëĵ¤ ìĿ´
Ġto ys
Ġlif ted
Ġfami liar
íĺ ĳ
ì§Ģê¸Ī ê»ı
ê±°ê¸° ìĦľ
èĢ ħ
ãģĳ ãĤĮãģ©
qu es
ki lling
Ġê·¸ëŁ¬ ëĭĪ
ì¶¤ì¶Ķ ëĬĶ
ì§ł ì§ł
Ġp hysi
Ġded ic
ìŀĬìĸ´ ìķ¼
ëĤĺ ë¯¸ëĭ¤
ë¬´ ìĸ¼
¡ ¤
ind rops
Ġíķĺ íķĦ
Ġìļ¸ ë¦¬ëĦ¤
Ġìĺ¤ ë¡ľì§Ģ
Ġê³¨ëª© ê¸¸
ì´ Īë
ãģĦ ãģĨ
ea rer
ĠìĹĨ ëıĦë¡Ŀ
Ġëĭ¬ì½¤ íķĺê²Į
Ġë°Ľ ìķĺ
Ġë§İ ì§Ģë§Į
Ġtra f
Ġgeor gia
¤ë ķĮ
ĠìĻĶ ëĬĶëį°
Ġj immy
ê¼¬ ë¶Ģëŀĳ
ê¸¸ ê³ł
âĶ Ģ
ri ch
hang ing
ĠìķĬ ê²łì§Ģ
Ġëĺĳ ëĶ±
ĠëĴ¤ ìĹĶ
Ġëĭ¬ ìĿĢ
Ġê·¸ ê²ĥìĿĢ
Ġcom mit
ëĸłëĤĺ ê°Ģ
ëįĶ ëĿ¼ë©´
ĠìłĦíĻĶ íķ´
ĠìĬ¬íį¼ ëıĦ
Ġì¢ĭ ê²łëĭ¤
ĠëĤ ¡ìĿĢ
Ġê²°êµŃ ìĹĶ
Ġvi ol
Ġsp eaking
Ġmar i
ìĨĮ ìĺ¤
èĭ ¦
ç«ĭ ãģ¡
sil ver
ĠëĲĺ ëĤĺìļĶ
Ġë°ĶëŀĦ ê²Į
Ġê°ĸ ì§Ģ
Ġbra ins
ìķĦê°Ģ ìĶ¨
ëł¤ ìĦľ
ëħ¸ëŀĺ ê°Ģ
ĠìŀĪ ê±°ëĿ¼
Ġë¯¿ìĸ´ ë´Ĳ
Ġë ĹĦ
Ġrema ster
íķĺíķĺ íķĺíķĺ
ìľ ½
ìĸ´ìĥī íķľ
ë¹ł ëĿ¼
re g
Ķ Ģ
ĠìĨĮ ìľł
Ġbull ets
íı¬ ìĿĺ
ìĤ´ ëłĺ
ì¡° ìļ©íķľ
ë¶Ħ íĻį
thank s
? ]
Ľ °
Ġì£¼ ìĺµìĨĮìĦľ
ĠëĤ´ìĿ¼ ìĿĺ
Ġê¸°ìĸµ íķ´ìļĶ
Ġre ceive
ìķĦ ìĺ¤
Ġìĸ´ëĳĲ ìĽĮ
Ġstar light
Ġ ï¿½ï¿½
ĠìĹĨ êµ¬ëĤĺ
ĠìĤ¬ ê·Ģ
ĠëıĮ ìĿĦ
Ġlo co
Ġever lasting
Ġc ot
å¿ ħ
Ġswee ter
Ġsec onds
Ġcar ried
e ur
ĠëĪĦêµ° ì§Ģ
Ġæ Ń
Ġwin ning
Ġrad ar
ìĪĺ ìĪĺ
ì£¼ ìĭľëĦ¤
Ġìļ¸ëł ģ
Ġë°ĺ ê°ĳ
Ġpis to
Ġcre ation
ĉĉĉĉ ĉĉĉ
íŀĺ ê²¨ìļ´
ê°Ģ ìĿ´
£¨ ìĤ´ëłĺ
mi mi
ĠëıĦ íĻĶ
Ġê±· ìĸ´
p ur
Ĭ ¦
Ġíķĺ ìĭľëĬĶ
Ġíķĺ ìħ¨
ĠìŀĦ íķĺìĨĮìĦľ
wor king
c in
ĠíķĺëĤĺ íķĺëĤĺ
ĠëĦĪ ë§ĮìĿ´
Ġmo del
Ġbi ble
gi le
d ans
Ġíĸīë³µ ìĿĺ
Ġíĥľìĸĳ ìĿĦ
ĠìĦ¤ëłĪ ìĿ´ëĬĶ
Ġë¬´ ëĦ¤
Ġsw ord
ìĺ¤ëŀĺ ëĲľ
æĻ ¯
bu ll
b in
Ġì§ĢëĤ´ ê³ł
Ġë¶Ī íĥĢ
ìŀĳ ê³¡
ì¡Į ëįĺ
åĥķ ãģ®
ĠìŁ ¤
ìĤ ¿
æĶ ¾
gra ce
an ity
ĠìĿĮ ìĿĮ
ĠëĲĲ ëĦ¤
Ġê³łë°± íķ´
Ġstri p
Ġgran ted
ìŀħ ìĿĦ
b us
6 4
ĠìĤ° ìĹĲ
Ġprin cess
Ġcl ing
ëĤ´ ìķĪìĹĲ
ë²Ī íĺ¸
ãĤĤ ãĤĬ
com me
Ġìī¬ ì§Ģ
Ġë¶Ģëĵľ ëŁ½ê²Į
Ġê·¸ëŁ° ì§Ģ
Ġa men
ì¡ ¸
ĠìĹĨëĬĶ ê±°ìķ¼
ĠëĤ´ ëĬĶ
ĠëĤ´ ë±ī
Ġë§ĺ ìĨį
Ġno rm
Ġfig ured
´ Īë¶ĢíĦ°
ĠëģĮìĸ´ ìķĪê³ł
Ġë²ħ ì°¬
Ġpac ked
ìĦł ìĿ´
ë§Ī ëĭĪ
f fere
ai me
ĠìķĦ ë¬¼
ĠëĲĺ ê¸°ë¥¼
ĠëĨĪ ìĿĢ
ĠëģĿ ëıĦ
Ġë½ ĳ
Ġëª© íĳľ
Ġë§ĮëĤ¨ ìĿ´
Ġa ah
ëĪ Īë¶Ģìĭľê²Į
on ic
le ans
ĠìŀĬìĸ´ ìķ¼ì§Ģ
Ġìĺ¤ íŀĪëł¤
Ġorigin al
ëĭ¹ìĭł ìĹĲê²Į
· °
ĠíĽĦ ë¡ľ
ĠìķĪìķĦì£¼ ê³ł
Ġë³´ íĺ¸
Ġê°Ļ ê³ł
Ġma x
íī ģìĿ´
ì°½ ë¬¸
ë ®
Ġíĥľ ìļ°ëĬĶ
ĠëĤłìķĦ ê°Ī
Ġê±¸ ìĹĪìĸ´
Ġv oy
Ġsome time
ìķĮ ìŀĸìķĦ
ìķĪ ìĿĦ
ë§Į ëĵ¤ìĸ´
ãģį ãģŁãģĦ
ãģĦ ãģªãģĦ
¤ë ļ±
tom atic
aa a
Ġìŀĺëª» ìĿ´
Ġëľ¨ ê²ģ
ĠëįĶ ëĵ¬
Ġë¨¹ ìĿĢ
Ġê¸°ìģĺ ê²Į
Ġcrow ded
ìĥģ ìĿ´
é ľ
ĠíıīìĥĿ ìĿĦ
Ġê³ĦìĨį íķ´ìĦľ
Ġthere s
Ġs ni
Ġlo llipop
Ġima ge
ìŀĶ ìĹĲ
ì¹ĺ ëĭĪ
ë³´ ëĤ¼
ë° §
èĲ½ ãģ¡
ãĤĮãģ¦ ãĤĭ
nigga z
ĠìłĦ íĻľ
ĠìĻľ ìĿ´ëŀĺ
Ġìĺ¤ ëĦ¤ìļĶ
ĠìĥĿê°ģ íķ´ìļĶ
Ġì°¬ìĸĳ íķĺëĦ¤
Ġn ec
Ġher self
ìķĦ ìĿ´ê³ł
ãĥ Ļ
p m
emp ty
ĠĠ ĉĠ
Ġma g
Ġbl an
íĽ ĹëĤł
ìĥĪ ëĬĶ
ì§Ģ íħĮ
ë¦¬ ëħ¸
Ġëļ± ëļ±
Ġëħ¸ëŀĺ íķĺëĦ¤
ĠëĦĪíĿ¬ ë¥¼
Ġsen time
Ġmo dern
Ġjacks on
ìĹ¬ íĥľ
ì¦ ĽíĨł
ë¶ Īë¹Ľ
åĲĽ ãģ®å
sk in
si der
Ġìĺģíĺ¼ ìĹĲ
Ġì ¨
Ġë³Ģ íķĺëĬĶ
Ġêµ¬ë¦Ħ ì²ĺëŁ¼
Ġê²ĥìĿ´ ëĭĪ
íĤ¤ë¯¸ ìĺ¤
friend s
Ġëĵ¤ ìĸ´ìļĶ
ĠëĤ¨ìķĦ ìŀĪìĸ´
Ġsu is
Ġr ange
ìĺ¥ ìķĦ
Ļ ª
Īì¹ ĺì
Ġíĺ¹ ìĿĢ
ĠíĹ¤ ìĸ´ì§ĢëĬĶ
ĠìľĦ ìĹĶ
ĠëıĮìķĦ ìĻĶ
Ġë¯¸ëŀĺ ê°Ģ
Ġtu esday
Ġcon crete
íĸĪ ìĹĪìĸ´
ê·¸ë ¶Ħ
ä» ĸ
¦Ī ëĭĪ
¤íĬ ¼
ĠëĸłëĤĺê°Ģ ë©´
ĠëĤĺìĹĲê²Į ëĬĶ
Ġë© ĺ
íĸĪ ëĤĺ
ë¦¬ ìŀĲ
è Ļ
Ġê´ĳ ìķ¼
Ġs ed
Ġpre pared
Ġb unch
ê´ľì°® ìĿĢ
¦ Īë
con tro
ĠíķĺëĤĺëĭĺ ìĿĦ
ĠìŀĪëĬĶ ê±´
Ġë¬´ìĹĩ ë³´ëĭ¤
Ġw u
ê¸° ìĸ´
out ro
it ing
ĠìĪ¨ ê¸°ê³ł
Ġê³ł ìĿ¸
Ġt in
Ġbl in
ìĦ ŀ
wr ite
d w
bi lly
ĠíķľìĪ¨ ìĿĦ
ĠìŀĪìĿĦ ì§Ģ
Ġìĭ¶ ëĦ¤
Ġì ħĢ
Ġê°Ģ ëĦ¤ìļĶ
ìĺĢ ëĤĺ
ìķĦ ìĬ¬
ì¤Ħ ë¡ľ
êµŃ íĻĶ
¼ì ¿ł
th o
pa ce
ĠìĻķ ìĿĺ
Ġìĸ´ì©Į ëĭ¤
ëłĪ ìĺ¤
ëł¸ ëĭ¤
Ġíĸ¥ê¸°ë¡ľ ìļ´
Ġëĵ± ë¡Ŀíķ´
Ġë¹ł ë¥¸
Ġê³µí ĹĪ
Ġjo int
ëłĪ íĮĮ
ë²Į ëłĪ
¤ì »·
en ing
Ħ ¼
Ġìĭľìŀĳ íķĺëĬĶ
Ġmo tha
on de
Ģì ©
ĠìĮ į
Ġì¡´ ê·Ģ
Ġëľ¬ ëĭ¤
Ġëħ¸ëŀĺ ìĹĲ
Ġê°Ģë¡ľ ëĲĺ
Ġquick ly
ìĸ¼ ìĸ´ë¶ĻìĿĢ
ì¶Ķìĸµ ìĿĢ
ë³´ ìķĦìļĶ
ĠìĹĨ ìĹĪëĦ¤
Ġê» į
Ġê±¸ìĸ´ ê°Ī
Ġspo ken
Ġa v
ĠìĪ¨ ê²¨ì§Ħ
Ġëĵľ ë¦½ëĭĪëĭ¤
Ġëĭ¤ ìľĹ
ĠëģĦ ëįķ
Ġê°Ļ ì§Ģë§Į
Ġto ck
Ġb ing
ëĤľ ì²ĺ
there s
it i
ction s
ĠíķĺëĬĺ ë§Į
ĠíĪ¬ ìłķ
Ġìłľ ë³´
Ġìļ¸ìĸ´ ìķ¼
Ġb iz
ìĸ´ ë¥¸ëĵ¤
ëł¤ ë©´
ê³³ ìĿ´
ê°Ģ ë£¨
ĠëĪĪ ê°ĢìĹĲ
Ġê°Ģë²¼ ìļ´
Ġsleep s
ti r
keep ing
Ġíŀ Īë
Ġìŀł ëıĦ
Ġìĺ¤ ë¥¸ìª½
Ġë©° ì¹ł
Ġë§Į ìĿ¼
ìłĪ íķľ
ä¸Ģ ç·
Ġë¶ĦìľĦ ê¸°
Ġsto mp
Ġso ci
ï ¤
ĠìĥĿê°ģ ìĿ´ëĤĺ
Ġì½ ľ
Ġfav our
ìĿ´ë³Ħ ìĿ´ëŀĢ
ë°Ķ ëĭ·
æ¬² ãģĹãģĦ
ut ter
n ine
3 4
ĠíķĺëĬĺ ìĹĲìĦľ
ĠìŀĲ ê·¹
Ġìĺ¤ ëł¤ëĤĺ
Ġë²Ī íĺ¸
Ġsho e
Ġor leans
Ġfell as
Ġch ris
ëĦĪìĻĢ ëĤĺ
ë¹ ¤
ë°Ľ ìĿĦ
ë§Īë ĪĦ
ĠìŀĪëĬĶ ê°Ģ
Ġìĺ¤ ëĦĪëĿ¼
ĠìķĦëĿ¼ ë¦¬ê°Ģ
ĠìĬ¤ ë¬¼
Ġë©Ģë¦¬ ë©Ģë¦¬
Ġt ower
Ġar row
ĭ Ģ
ĠìĿ´ ëģĮìĸ´
ĠìĤ¬ ìŀĲ
Ġëĳĺ ë¦¬ëĬĶ
Ġëĭ¹ìĭł ëıĦ
Ġë¨¸ ê¸Ī
Ġn ai
ti al
rent s
Ġëĭ¤ ìĺ¤
Ġdi zzy
éĤ £
¬ì ©į
mor ning
gl ory
Ġë§Į ë¬¼
ìĺ¤ëĬĺë°¤ ìĿĢ
ëĤĺ ìĹĲ
ĠìĿ´ë£¨ ìĸ´
ĠìķĦ ë¡±
Ġìı Ł
ĠìĤ¬ëŀĳ ìĬ¤ëŁ¬ìĽĮ
Ġë³¼ ëŀĺ
Ġê²½ë°° íķ´
Ġê±´ ê°Ģ
Ġre place
Ġba lls
Ġa ching
ëĦĪ ë§ĮìĿ´
f ake
Ġì£¼ ìĹĪëįĺ
ĠëĳĲê·¼ ê±°
ĠëĤ¨ ì§Ģ
Ġmon ths
ìĺ¤ íŀĪëł¤
ê°Ĳ ìĹĲ
ir t
Ġëĭ¬ëł¤ ê°ĢëĬĶ
Ġë§Ĳ ìķĺìĸ´
íĹ Īë¬´
íķĺë£¨ ìĹĲ
ê½ ¤
ãģĦãģ¤ ãģ¾ãģ§ãĤĤ
Ġíķĺ ëĭ¤ê°Ģ
Ġíİ´ ìĦľ
Ġë³Ģ íĸĪìĸ´
ìĤ¬ëŀĳ íķ´ìĦľ
en ough
ang led
ĺ íķľ
Ġìļ¸ ì§Ģë§Ī
Ġë¹Ħì¶Ķ ê³ł
Ġê°ĲìĤ¬ íķ´ìļĶ
Ġbla de
ìĻĢ ë£¨
ìĥĿ ê¸´
ëĦ £
ê±° ë©´
ç Ŀ
½ľ ë¦¿
§ ķ
Ġíı ´
ĠìĿ´íĽĦ ë¡ľ
ĠìķĦëĭĮ ê±¸
Ġìķ Ļ
Ġê±´ëĦĪ ìĦľ
Ġfla vor
Ġclear ly
íķ¨ê»ĺ íķľ
ìľ¼ë¡ľ ë§Į
ìļ°ë¦¬ ì§ĳ
ìĸ´ë¥¸ ìĿ´
ë³´ì¿ł ìĻĢ
ë²Ħ ëĳ¥
ĠìĨį ìĿĢ
Ġì¦Ĳ ê¸°
Ġë§Ĳ íķĺëįĺ
Ġç §ģ
Ġte nd
Ġse re
ģ ëĭĪëĭ¤
ĠìķĮ ëįĺ
Ġêµ ½
ëŀĳ ëĤĺë¹Ħ
ëĭĺ ëıĦ
Ġëĭ¤ìĿĮ ìĹĲ
Ġë³´ ìķĦìļĶ
Ġin se
Ġbl ur
ëĬ¦ ê²Į
ê·¸ë ¥¼
ãģĳ ãģ°
Ä «
Ĳ ł
ĠìĿĳ ëĭµ
Ġì´Ŀ ê°ģ
Ġëĭ¬ëł¤ ê°Ħëĭ¤
Ġë°© ê¸ĭ
Ġê°Ħì§ģ íķ´
Ġdev otion
Ġd ub
ë¡ľ ìļ°
è¦ º
Ġíķĺ ë£°
Ġì§Ħ ìĭ¬ìĿ´
Ġëĳ ĺìĶ©
Ġmo an
Ġg er
ì§ľ ë¦¬
ë³´ ëł¤ê³ł
l ì
Ġìŀł ìĹĲ
ĠëĤł ìĶ¬
Ġê°Ļ ìķĺ
Ġwis hes
Ġad v
ë¹Ĺ ë°©ìļ¸
µ ê
wonder ing
wo ke
ĠìŀĪìĿĦ ê±°ìķ¼
ĠëĶ Ľ
ĠëĲĺ ëĦ¤
Ġë³Ħ ìĿĢ
Ġê°ĢëĵĿ ì°¬
Ġæ ĺ
Ġsee ds
Ġmar s
ë²Ħëł¤ ëıĦ
Ġíķ´ ëĤ¼
Ġsup pose
Ġfar m
Ġ ãĤĤãģĨ
ç§ģ ãģ¯
°ì ±ħ
si mp
Ġíķĺ ê²łìĸ´
ĠëĸłëĤĺ ëł¤
Ġë¨¸ë¦¬ ì¹´ëĿ½
Ġroman tic
Ġdee pest
Ġbri dges
íĥĢì ½Ķ
ì§ĢìĽĮ ì§Ģì§Ģ
diam onds
ìķ¼ íķł
ì İ
Ġìłķ ìĹ´
ĠìĦľ ë¦¬
Ġì¶¤ì¶ °
Ġì§Ģ ë¶ķ
Ġê±° ìĬ¬
Ġta xi
ìķĦëĤĺíĥĢ ëħ¸
en te
İ ¢
Ĥ ©
ĠíĨł ëĿ¼
Ġìĭľìŀĳ íķł
ĠëĲĺë ĩĮ
Ġëĭ¤ íĪ¬
Ġden ied
ë°Ķ ì§Ģ
é ³´
ee ch
ca lly
ĠìĨĮë¦¬ ìĹĨìĿ´
ĠëĦĪë ³´ëĭ¤
Ġå ı
Ġta pe
íķ´ ëĿ¼
ìķĦ ìłĢìĶ¨
ë§ī íĺĢ
ĠëŃĲ ê¸¸ëŀĺ
Ġtem per
Ġpa ul
Ġmom my
Ġh ater
Ġfollow ed
íĨł ë°Ķ
Ġo p
íķĺ ê¸°ëıĦ
ìĿ´ ì§Ģë§Ī
ìĭ¤ íĮ¨
ê³ł ë§Ļ
ea cute
ĠìĻ¸ë¡ľ ìļ¸
Ġë³´ ìķĺì§Ģ
Ġê¸°ìĸµ ëĵ¤ìĿĦ
Ġlo o
ìķĦë¹ł ëĬĶ
ãĤı ãģªãģĦ
ãģ¾ ãģĻ
do in
Ġì§ĢíĤ¤ ë¦¬
ĠëĳĲ ëĳ¥ìĭ¤
ì°½ íķľ
åĤ· ãģ¤
co hol
Ġíĺ¼ìŀĲ ìĿ¸
Ġwai st
Ġe vent
íıī ë²Ķ
íı´ ì§Ŀ
ìķŀ ìĿ´
ëĸłëĤĺ ì§Ģ
Ġíķľ ê³Ħ
ĠíĥĢ íĸ¥
ĠëıĦ ìłĦ
Ġwhist le
Ġshe ep
Ġin ch
Ġcoll ide
ìķĪëħķ íķĺìĦ¸ìļĶ
ëĨĵ ìĿĦ
æĪĳ çļĦ
ĠìĦ¸ìĥģ ëıĦ
Ġìĥģ íķľ
Ġì§Ŀì§Ŀ ê¿į
Ġëĳ¥ ìĭ¤
ĠëĤ¨ ìŀĶ
Ġë¬´ ì²Ļ
Ġl am
ìĹ İ
ìķĬ ê³ł
ì¹´ ëĤĺìĿ´
ëļ ľëļľ
ëĳĺ ê¸°
ģ ½
Ġmon th
Ġlead ing
Ġê±±ìłķ ìĿ´
Ġslee ve
íİ¸ ìĿĺ
ìª ¼
ë°ĺ ëĵľìĭľ
d anger
ĠìŀĲ ìĨĲ
ĠìķĦê¹Į ìĽĮ
Ġì½© ì½©ì½©
ĠëıĻ íĻĶ
Ġsepar ate
ìĿ¸ê±¸ ìļĶ
ìĤ¬ ê³¼
ê¸° ì°¨
ãģĭ ãĤĤ
si gn
ĠëĬ ĳ
Ġëªħ ìĺĪ
Ġë§ŀ ìĦľ
Ġd iss
íĸ Īìľ¼ëĭĪ
ìĹĦë§Ī ëĬĶ
ë°ľ ê±¸ìĿĮ
b ass
ĠìĹ¬ íĥľ
ĠìķĪë ¶Ģ
ĠìĦľ ëĳĺëŁ¬
Ġì£¼ ë¬¸ìĿĦ
ĠëĳĲ ë£¨
Ġë§Ĳ ìķĺ
Ġê² ¸ìĨĲ
Ġth irty
ëį ®
ê± ±
è¡Į ãģĵãģĨ
s now
Ġìķł ìĿ¸
ĠìķĦ ëĬĶëį°
ĠëģĿëĤĺ ê³ł
Ġëª© ë©Ķ
Ġdest ruction
Ġbo i
ãĥĥ ãĥĪ
ĠíĿ¬ë§Ŀ ìĿĺ
ĠìĿ´ë¥´ ëĲĺ
Ġëħ¸ëŀĺ íķ´ìļĶ
Ġë´Ĳ ëĿ¼
Ġwe d
Ġg love
Ġfil m
ë¶ ģìĿ´
ë ĩĮ
w ee
ti ght
child ren
Ġê±°ëĭĲ ëįĺ
Ġsatis faction
ìĪĺ ìĹĨìĸ´
ëŁ° ì§Ģ
ëıĮìķĦ ê°ĢëĬĶ
ë§ĮëĤĺ ë©´
a j
ļ ķ
ĠìŀĬ ì§ĢëĬĶ
Ġìĺ¤ ê²łì§Ģ
Ġë¶Ģ íĻľ
Ġë¶ Ĳ
Ġê±° ê¾¸ë¡ľ
Ġcen ter
ê·¸ë Ł
é º
½ ĺ
Ġë©Ģ ìĸ´ì§Ī
Ġê±¸ ìľ¼ë©´
Ġsh own
Ġroll ed
Ġdis aster
e ye
any way
ĠìĿ´ ë»Ĳ
Ġìľ ¤
ĠìĨĮë¦¬ ëıĦ
ĠëĸłëĤĺ ê°Ģì§Ģ
Ġê·¸ ê²ĥìĿ´
Ġweak ness
Ġk arma
Ġe u
Ġdef en
ìĻ¸ë¡ľ ìĽĢ
åħ ¥
Ġìł Īë¡ľ
Ġê°Ģ ì§Ģë§Į
Ġplay a
s na
ic al
ĠíĶ¼ ê°Ģ
ĠìĭĿ ìĸ´
Ġë¹Į ëĶ©
Ġtraf fic
Ġtat too
Ġst ro
ì¹ łëķĮ
ëĭ ®
æĺ ł
ãģ¦ ãĤĭ
ĠëĲĺ ìĸ´ëıĦ
Ġë² ¤
Ġob vious
Ġcou pe
ê°Ļ ëįĺ
é Ĺĩ
çĽ® ãĤĴ
ç¥ ŀ
âĺ Ĩ
re me
Ġri ot
ì§ľ ì§ľ
ëŃĲ ëĿ¼ê³ł
ëķĮ ê¹Įì§Ģ
it ty
ec ho
Ġíİ¸ ìĿ´
Ġìĸ´ë¦¬ ìĦĿìĿĢ
Ġìķłì ĵ°
Ġê³łë°± ìĿĦ
íĹĽ ëĲľ
ì¹Ļ íıŃ
ëł¨ ë§Į
walk in
Ġìŀĥ ì§Ģ
Ġìĸ» ìĿĢ
Ġìķ¼ íĺ¸
ĠìĨĮìļ© ìĹĨ
Ġë¬» ëĬĶ
Ġê°Ģìł¸ ê°Ħ
Ġsou thern
Ġco lo
íŀĺ ëĵ¤ê³ł
ìŁĪ ëĤĺìĿ´
ì¹ĺ ë§Ī
ì²« ëĪĪìĹĲ
ë¬ ¸ë
ãĥ į
un i
Ġìĺ¤ ëĬĶëį°
Ġê·¸ëĮĢë¡ľ ìĿ¸ëį°
Ġs ons
Ġmu d
Ġcur tain
ëĪĦêµ¬ ë¥¼
ê»į ìķĦ
ê±° ëĿ¼ë©´
spir ation
now here
fe ll
ĩì ĩ¼
Ĥ º
ĠìĤ¬ëŀĳ ìĿ´ëĿ¼ë©´
Ġfr anc
íķĺë£¨ ë§Į
íĶ¼ ë¦¬
ìĹ¬ìŀĲ ëĬĶ
7 7
Ġìĺģ ìĺģ
ĠìĤ¬ íļĮ
Ġë§ Īì¹¨
Ġê³Ħ ëĭ¨
Ġhon or
ìľĦ ìĹĲìĦľ
ê·¸ ë¦°
éĽ ª
ãĥ Ĵ
igh s
ĠìĿ´ê³³ ìĹĲìĦľ
ĠìĤ´ìķĦ ìŀĪëĬĶ
Ġì» ¸
Ġì¹ľêµ¬ ëĵ¤ìĿ´
Ġê·¸ ë§Įíģ¼
Ġê² ©
ìĿ¸ ìłķ
ëıĮ ëł¤
éĽ ²
ä»ĬæĹ¥ ãĤĤ
under stand
it ive
Ġëĭ¹ ìĹ°íķľ
ĠëĪĦêµ°ê°Ģ ê°Ģ
Ġë³´ ë¬¼
Ġê°Ħ ìĹĲ
Ġpati ent
Ġd udes
ìļ°ë¦¬ ëıĦ
ìĦ¸ ê²Į
ì½Ķ ìĹĲ
ë± ĥ
ë¡ľ ë²Ħ
Ġëı Ħì½Ķ
ĠëĤĺ íĻĢë¡ľ
Ġë³µ ìĿĮ
Ġë¯¸ ë¦¬
ë©Ķ ëĿ¼
ë§ŀ ì¶°
ãģĹ ãģŁãģĦ
ĠíĸĪ ëĤĺìļĶ
Ġìľ¼ì ĵ±
ĠëĦĪë§Į ìĿĢ
Ġê°Ĳ íŀĪ
ãģª ãģį
wel ve
ele ctric
ĠíĤ¤ ê°Ģ
Ġê±´ ë°°
Ġthem selves
ì½ §
ì¥ ¬
ë²Ħ ë¦¬ì§Ģ
ê²¼ ëĦ¤
b ot
ĠíĤ· íĨł
Ġê°ķ ìķĦì§Ģ
Ġwee ks
Ġt es
Ġl an
íĸ¥ ê¸°ë¡ľ
ëĭ¤ëĭĪ ëĬĶ
le m
ĠìķĦ ìĬ¤
Ġê¹¡ ì¶©
Ġshar p
Ġblin ded
ìĦ± ìĿĢ
ĠìŀĲ ìĹĲê²Į
ĠìķĦ ìĭľëĤĺìļĶ
ĠëĬ ª
Ġê°Ģ ë³´ìŀĲ
íİĺ ìĿ¸
ìłĢ ëŁ°
æ° ´
ä»Ĭ ãģ¯
c ation
Ġcast le
íĿĶ ìłģ
Ġìŀ¬ì ´ī
Ġì½© ëĭ¥
Ġëĸ¨ ê³ł
Ġê°Ģ ëĤľ
Ġstole n
£ °
ĠìĿ´ ê±¸
ĠìĪłìŀĶ ìĿĦ
Ġì§ĢìĽĮ ëıĦ
Ġsymph ony
Ġdi ch
ĠíĬ¸ ìľĦìĬ¤íĬ¸
Ġìļ¸ê³ł ë§Į
Ġëĭ Ń
ĠëĨĴ ê²Į
Ġë¹ł ì§Ī
Ġê±°ì§ĵë§Ĳ ìĿĦ
Ġkno cked
Ġjust ice
íĻĺ íķľ
ìĿ´ì¸ł ì¹´
ìĤ¬ëŀĮ ìĿĺ
ëľ¨ ê±°
al most
Ĥ £
Ġbless ing
íĨłì ½Ķ
ìĿ´ëŀĢ ê±¸
ìľ Į
ìĸ´ëĸ»ê²Į ëĵł
ìĦľ ëıĦ
å¾ ®
ve st
Ķì ¸ł
Ġê·¸ ë¦´
Ġr it
Ġcra cks
Ġcap tain
íľĺ íĮĮëŀĮ
ìķħ íķľ
ê¸° íļĮ
ãĥ Ľ
ãĤĵ ãģ¨
ī ¬
Ġìĸ´ ëķł
Ġìĭ« ëĭ¤ê³ł
ĠëĿ¼ ëĬĶ
Ġëª¨ íĹĺ
Ġme d
Ġma mi
ì°¸ ìķĦ
y d
is m
cha el
Ġì£¼ ë¦¬ëĿ¼
ĠëĲĺëıĮ ëł¤
ìłķ ìĹĲ
ê·¸ëĵ¤ ìĿĢ
èª ŀ
a bove
Ġíķł ê²ĮìļĶ
Ġìłģ ìĿĢ
ĠìĤ½ ìŀħ
Ġê± į
Ġsucc ess
â Ī
ell a
ce ption
ĠìłĢ ëŁ°
Ġì¹ Ļ
Ġì£¼ ë§Ĳ
ĠëıĮìķĦ ë³´ë©´
Ġë§Ŀ ê°Ģ
Ġun fold
Ġgood by
Ġc us
g ri
Ġy ay
Ġso lid
ë¦¬ ê¸°
éĿ ¢
ç ¨
lo lli
bo ards
Ġëĥ ĩ
Ġêº¼ ì§Ħ
Ġperson al
íķľ ëĵ¤
ì½ ķ
ì§Ģë§Į ìĿĢ
ë§Īë ¥´
Ġì¶Ķìĸµ ëĵ¤ìĿĦ
Ġì°½ ìŀĳ
Ġì£½ ëıĦë¡Ŀ
ìĿ´ ëĤ´
ìĥĿê°ģ ìĿĦ
ìĤ¬ìĿ´ ë¡ľ
ë¸Į ëĿ¼
æĪ Ģ
n at
d an
com plete
Ġì¶ľ ë°ľ
Ġì£¼ìĭł ëĭ¤
Ġsur face
Ġp ed
Ġfea ther
Ġe ating
Ġcho ke
Ġa ware
å± ±
¼ ľì
thear t
ĠìĻ¸ì³Ĳ ë´Ĳ
Ġì¢ĭ ëĦ¤
ĠëĨĵ ì³Ĳ
Ġë²Ħí ĭ¸
Ġsevent een
Ġpri ze
ìĸ´ìłľ ìĿĺ
ëª¨ ë¦¬
f reak
ĠìĿ¼ ë¡ľ
ĠìĪł ìĿ´
Ġì¹ĺ ìĽĮ
Ġì°¨ ìĺ¬ëĿ¼
Ġê°ĦìłĪ íķľ
Ġsat an
Ġner ve
ìĭĿ ìĿ´
é ħ
è ¸Ĭ
Ġì¶¥ ìĭľëĭ¤
Ġì£Ħ ê°Ģ
ĠëĦĪíĿ¬ ìĹĲê²Į
Ġtra gedy
Ġst at
íĤ¤ë¯¸ ëĭĪ
ìĸ¼ ìĭ¸
ìķ Īì
) (
ĠíķĺëĤĺ ë¥¼
Ġì»¤ íĶĮ
Ġë§Ĳ íķĺì§Ģë§Į
Ġpos sible
Ġhot ter
Ġg at
Ġbo re
íĳľ íĺĦ
ëŀĦ ëĿ¼ëĿ¼ëĿ¼
ëıĮìķĦ ë³´ë©´
ë¬ ¸ìłľ
ê²ł ëĭ¤ëĬĶ
éģĭ åĳ½
urs day
sun ny
sh or
4 2
'' ''
Ĭ Ī
Ġíļ ¨
Ġì¢ĭ ì§Ģ
Ġë§Ĳ íķĺì§Ģë§Ī
Ġkeep in
ìŀĲ ëŀĳ
ê±° ì¹ł
ãģĿãĤĮ ãģ§ãĤĤ
alal ala
ĠíĹĪ ìłĦ
ĠìĿ¸ëıĦ íķ´
ĠìķĦìĿ´ ìĬ¤íģ¬ë¦¼
Ġì¦ ĽíĨł
Ġì£¼ëĭĺ ìĿĢ
Ġì£¼ê»ĺ ë¡ľ
Ġlea der
íĺ¼ìŀĲ ê°Ģ
ì¹´ íĥĢ
å¯ Ħ
st ro
s qu
ĠìķĪë ĵ¤
ĠìķĦëĭĮ ì§Ģ
Ġpart s
Ġla me
ìŀĲìľł ë¡Ńê²Į
ëĤĺ ê·¸ëĦ¤
ë°¤ ë§Īëĭ¤
¬ëŀ Ĳ
sing le
pa ck
ĠìŀĲìĭł ìĿĺ
Ġë¶Ī íİ¸
Ġë¶Ģ ë¥¸
Ġê°Ģ ì§ľ
ìĭľ ê¸°
ìĨ Įì¿ł
ê³³ ìĿĦ
to y
Ġìĭ¤ ëł¥
ĠìĬ¬íĶ Į
Ġëª¨ë¥´ ë©´ìĦľ
Ġê´´ ë¡ľìļ´
Ġreali se
Ġpro per
Ġpas ses
Ġhear ted
Ġf ans
Ġdesper ate
ëĲĺ ê²Į
è¨ĺ æĨ¶
¡ ¸
ti ck
ĠëĤł ìĿ´ë©´
Ġë¨¸ë¬ ¸
Ġë§ī ìķĦëıĦ
Ġsep tember
Ġs au
íĨ ¤
ìľĦí Ĺĺ
ì§ĳ ìĹĲìĦľ
ç ŃĶ
ãĤī ãĤĮãģŁ
mi chael
__ __
ĠíĿĶëĵ¤ ê³ł
ĠìŀĬìĸ´ ì¤ĺ
Ġì¤ĳ ëıħ
Ġëª» ìĤ´
Ġê¹Į ëĭŃ
Ġpub lic
Ġbe lief
ìŀł ëĵł
Ġìŀĳ ê³ł
Ġì§Ģ ì¹ĺê³ł
Ġm um
Ġinv is
Ġhoo ked
ë§Ľ ìŀĪëĬĶ
ê¼ ½
é£Ľ ãģ³
wa h
Ġìļķ ë§Ŀ
ĠìĻ¸ë¡Ń ê²Į
ĠìĹ° ëª»
ĠëĪĪë¹Ľ ê³¼
Ġsp ine
Ġsal t
Ġpos si
Ġland s
Ġit self
ë¨¼ ì§Ģ
è· ¯
on i
ĺë ¨¹
ĥ «
ĠìĹ¬ìŀĲ ë¡ľ
Ġì²ĺ ëŁī
Ġd ash
ë¯¿ ëĬĶ
åı Ĺ
cl ear
ĵ ´
ĩ º
Ġìŀĺ ëĿ¼
ĠìŀĬìľ¼ ëł¤ê³ł
Ġë³´ìĹ¬ ì£¼
Ġê¸ įíľ¼
ëĭ Īì¹ĺ
åĪ Ŀ
å¤ª éĻ½
ħ Į
Ġë¯¸ì³¤ ìĸ´
Ġë§ Īë¥¼
Ġl isa
Ġhap pi
Ġd Ã©
Ġchar ge
ìĽĥ ìľ¼ë©´ìĦľ
ç ŀ³
ar o
ģ ï
ĠìĿ´ëģĦ ìĨĮìĦľ
ĠëĤłìķĦ ê°ĢëĬĶ
Ġë¹Ľ ê¹Ķ
íĴĢ ìĸ´
ìĪĺ ë§Į
Ġíķ´ ëĬĶ
ĠìĽĥìĿĮ ìľ¼ë¡ľ
Ġë¹Ľ ëĤľ
Ġë°ĺ ìĿĳ
ë§Ī ìŀĲ
ë¡ľ ë¡±
ë ķľìĹĲ
å± Ĭ
gl or
Ġìķ ķ
ĠìĦ¸ ì¹´ìĿ´
ĠìĤ¬ëª¨ íķĺëĬĶ
Ġì°¨ ê°ĳ
Ġë¿Ĳ ìĿ¸ê±¸
Ġë²Ħ ë¦¬ë©´
Ġê·¸ ê±¸ë¡ľ
Ġre ign
Ġdeli ver
ê°Ģ ì¡±
¾ °
Ġlo sin
ë½ Ĳ
ê³ł ëıħ
æľĢ å¾Į
ãģ¿ ãĤĵãģª
Ã Ł
k k
ı ħ
Ġìłķ ëħķ
Ġìĭ¸ ìļ°
Ġìĥ ģì
ĠìĤ¬ëŀĮëĵ¤ ê³¼
Ġì¶ľ ê·¼
ĠëĤĺìĻĢ ìĦľ
Ġë»Ķ íķ´
Ġë²Ĺ ê³ł
Ġbla ze
ìĿ ¸ì
ìķ¼ ì¿ł
ìĭľ ëĤĺìĿ´
ê·¸ ê³³ìĹĲ
å ĥı
ĠìĨį ì£Ħ
Ġì°¨ ê³ł
Ġê¹Į ë§£ê²Į
Ġê·¸ëŀ¬ ëĵ¯ìĿ´
Ġst ing
Ġp ul
Ġghost s
íĽ¨ íĽ¨
íķĺ ê¸°ìĹĲ
ê° Īì
pre tend
Ġìĭľ ì¼ľ
Ġì´ĪëĿ¼ íķ´
Ġê±¸ìĿĮ ìĿĦ
Ġmuz ic
ëĦĪ ë§ĮìĿĺ
l an
Ġíĸī ì§Ħ
ìŀħ ìĿĢ
ëĤ´ìĿ¼ ìĿ´ë©´
ë£¨ ëıĮíĶĦ
æ°Ĺ æĮģãģ¡
ye llow
ĠìķĦìī¬ ìĽĢ
Ġì§§ ìķĦ
Ġì¤ĳ ìĹĲìĦľ
Ġë°ĸ ìĿĦ
íĺĢ ì§Ħ
ìĬ¤ì³Ĳ ê°ĢëĬĶ
ãģĹ ãģĭ
ver n
ĠëĨĢ ìķĦìļĶ
Ġêµ³ ìĿ´
ìĽĲ ë§Ŀ
ìĮ į
ìĥĪì ½¤
ì¹ĺ ìĻĢ
ì¹´ ìĤ¬
ê¸°ìĸµ ìĿ´
pt on
ĠìĽĥ ìŀĲ
ĠìķĦíĶĶ ìĹĲ
Ġìĭľìŀĳ ëĲĺëĬĶ
Ġê±°ë¦¬ ê°Ģ
Ġten sion
ìļ ¸ëł
ìĻĦ ìłĦ
il s
cu ando
ĠìĿ´ ë£¬
ĠìĻĶ ì§Ģ
Ġìĸ´ ëĳ¡
Ġì§Ģ ìĽł
Ġë²ł ìĿ´ë¹Ħ
Ġfor ty
ìļ° íĥĢ
ë¬´ ìĸ¸
ç¬ĳ ãģ£ãģ¦
tr ave
hear ted
ĠíķľìĪ¨ ìĿ´
Ġë§¤ ëĭ¬ëł¤
Ġfif ty
Ġdes cri
Ġcru mble
ê·¸ ëĬĺ
e ned
ĠĠĠĠĠĠĠĠĠĠĠĠĠĠĠĠ ĠĠĠĠĠĠĠĠ
Ġíķ´ ëĨĵê³ł
Ġìŀħ ìĸ´
ĠìĿ´ ê²ĥìĿ´
Ġìĺģíĺ¼ ìĿĢ
ĠëĤĺ ë£¨
Ġêµ ¶
Ġtid ings
ëŃĲ ëĵł
ëķĮ ë©´
ëĦĪ ëĦĪ
ëĤĺ ë§Ī
ë¿Ĳ ìĿ´ì£ł
Ġíķ´ íĶ¼
ĠìķĦë¦Ħëĭ¤ ìĽłëįĺ
ĠìĪ¨ ìĿĢ
Ġì¶¤ì¶Ķ ë©°
Ġbur den
íĥ Ĳ
°ë ķĮ
st it
Ġíĸ¥ íķĺê³ł
Ġì¶ķíķĺ íķ´
ĠëĳĲ ëĪĪ
ĠëĬ¦ ê²Į
Ġë¶ĪëŁ¬ ë´Ĳ
Ġë¯¸ëł¨ ìĿ´
Ġvision s
ìĭ¬ ìĹĲ
wa ve
fr ont
ĠìĹŃ ìĤ¬
ĠëĸłëĤĺê°Ģ ì§Ģë§Ī
ĠëıĮ ë³´
Ġê¸°ëĭ¤ëł¤ ëıĦ
Ġw ears
íħ ĮìķĦ
í ĩ´
ì£¼ ë¨¸ëĭĪ
ľ ĺ
Ġíĥľ ìļ°ê³ł
Ġë°Ķëŀ¬ ìĸ´
ìĨĮ ë¦¬ëĬĶ
Ġíķľ ìĿ´
Ġíķĺ ë©´ìĦľëıĦ
ĠíĥĢ ë²Ħë¦°
Ġë°Ķë³´ ê°Ģ
Ġë§ĿìĦ¤ ìĿ´ì§Ģ
Ġv ous
Ġintention s
Ġeng lish
ä¼ Ŀ
du et
ĠíĿĺ ë¦´
Ġíķĺë£¨ ìĿĺ
Ġíķ «
Ġì¡°ì°¨ ëıĦ
ĠëģĬ ìĸ´
Ġê°ķ ìĿĦ
Ġê°Ģ ëĬĲëĥĲ
Ġvel vet
Ġstr uck
Ġcomm un
ìĿ´ ê²¨
ëĨĵ ì§Ģ
ê³± ê²Į
åı ¯
å¤ ĸ
fuck er
fill ed
ĠìķĦ ëĤ´
Ġì§Ģ ê²¹
Ġë¨¸ë¬´ ëĬĶ
Ġro ots
Ġreve nge
Ġfr own
Ġ å¤¢
ìľĦ íķľ
ìĻ ĵ
ë¶ĪìķĪ íķľ
er al
Īë ĵ¯
ĠìĻĦë²½ íķ´
Ġì²´ ìĺ¨
Ġì¡´ ëĤĺ
Ġ ze
éŁ ¿
å¥ ĩ
ãĤĤ ãģªãģĦ
ãģĿãĤĮ ãģ¯
¬ â
zz le
ĠíıīìĥĿ ìĹĲ
ĠìłĢ ìĸ´
Ġì£¼ ìĤ¬
ĠëĪĪ ê³¼
Ġë³´ ìĦ¸ìļĶ
Ġë¦½ ìĬ¤íĭ±
Ġê· ľ
Ġmeet s
Ġcow boy
Ġam bit
ìł Īë¡ľ
ê±°ë¦¬ ê³ł
å ¸
ãĤĪ ãģŃ
âĻ¬ âĻ¬
Ã ²
ot t
ok lyn
m ow
ĠìķĮ ê²łëĭĪ
Ġê¸°ìĸµ ìĿĺ
Ġst y
Ġsleep in
Ġsavi our
Ġlo ca
Ġl le
Ġìĺ¤ëŀĺ ìłĦ
ĠìĹ¬ ëįŁ
ĠìĦľíĪ °
Ġì³Ĳëĭ¤ ë´Ĳ
Ġì§ ¸
ĠëĬĲê»´ ì§Ī
Ġëª¨ìĹ¬ ëĿ¼
Ġê²¨ ìļ¸ë
ëľ¨ ëł¤
ëĭ¤ëĬĶ ê²Į
ĵ Ŀ
Ġìĸĺê¸° ëĵ¤
Ġsh attered
Ġclou dy
íĸ Īìľ¼ë©´
nes day
en a
ĠëĤľ ëį°
Ġë°ĺ ì§Ģ
Ġë§Ĳ ìŀĲê³ł
Ġpi er
Ġdo s
íĨł ìĹĲ
ëĤł ìĶ¨
i u
11 11
Ġë¯¿ ìĹĪ
Ġpreac her
¸ ī
Ĭ ¼
Ġí į
Ġë³´ ì§Ģë§Ī
Ġë¯¸ìĽĮ ìĦľ
Ġfire s
ëĲĲ ëĦ¤
å¾ Ĺ
do g
Ġìłģ ëıĦ
ĠìĨĲ ê³¼
ĠëĸłëĤĺ ê°Ģê³ł
Ġëĵ¤ ìľ¼ë©°
Ġëĭµ ìĿĦ
Ġê·¸ê³³ ìĹĲìĦľ
Ġr ail
ë°© íĻ©
³ ¸
ĠìķĦë¬´ ë§ĲëıĦ
ĠìĶ© ìĶ©
ĠëķĮ ìĿĺ
ë¦Ħ ìĿ´
g al
ĠíķĺëĤĺ ìĹĲ
Ġkick in
Ġa le
ëĿ¼ ì§Ģ
ê¸´ ê¸´
ot ic
hor se
Ġìķ¼ìĨį íķľ
ĠìĨĶ ìĨĶ
ĠìĨįìĹĲ ëĬĶ
ĠìĤ¬ëŀĮìĿ´ ìĹ¬
Ġëĭµ ìĿ´
Ġk ic
Ġinvis ible
íĸĩ ë¹Ľ
íħĶëłĪë¹Ħ ìłĦìĹĲ
ë¬´ ëĬĶ
ĠíĿĶ ëĵľëĬĶ
Ġstr ay
Ġr ick
Ġha unt
ìĹĨ ê²Į
ìķĦ ëĤĮìĹĨìĿ´
ëĿ¼ ëĭ¤
ëıĮìķĦ ìĺ¨
l ar
f eed
Ġìĺģ ìĿ´
Ġì°¬ìĸĳ íķĺìĹ¬ëĿ¼
Ġë°Ģìĸ´ ëĤ´
Ġê·¸ë¦¬ ìļ¸
Ġfle w
Ġf antastic
Ġaw ful
íĮ į
o st
lon don
ĠìĤ¬ëŀĳíķĺ ê¸°
Ġna da
Ġcirc us
ìĦ ¹ìĭľ
ãģ« ãģĭ
ame rican
Ġíı¬ê·¼ íķľ
ĠëıĮìķĦ ë³´
ĠëĤ´ ëĶĽ
Ġë¯¸ìĽĮ ìļĶ
ìķĹ íĥĢ
ãĤı ãĤī
ff in
ĠìĹĦë§Ī ìĿĺ
Ġìĸ» ìľ¼ë¦¬
Ġì¢ĭ ê²Į
Ġê°Ħ êµ¬
Ġwhe ther
Ġs af
Ġm ie
Ġla p
Ġdead ly
Ġcha os
Ġbor ing
íĻ© íĺ¼
ìķĦ ê¹Į
ëĤĺ ëŃĩìŀİ
ãĥĥ ãĤ¯
rr rr
ĠìĻĢ ëĿ¼
ĠìĹ ¿
Ġëķ¡ ë²Į
ĠëĲĺ ìĹĪìĸ´
Ġë£¨ ë£¨ë£¨
Ġrel ations
Ġmagaz ine
Ġeye d
ìķĦë²Ħì§Ģ ìĿĺ
ìĦł íĥĿ
ê³ģ ìĹĲìĦľ
sli de
Ġíĺ¼ìŀĲ ë§Į
ĠìķĦë¦Ħëĭµ ëįĺ
ĠìĬ¤ ë²łíħĮ
ĠëĤ¬ ìĸ´
ìĹĲ ìĬ¤
ìķĦ ëĵ¤
ì¤¬ ìĸ´
ì¢ĭìķĦ íķĺëĬĶ
ë¶Ģ ì§Ģ
Ġëħ ¸ë¥¼
Ġstr aw
Ġre inde
æ Ł
¤ ©
ĠíĹ¤ ë§
ĠìĤ° ëĭ¤
Ġshe lf
Ġp iss
Ġmia mi
ì¶Ķ ê³ł
ëĸłëĤĺ ë²Ħë¦°
ëĤĺ ë¯¸
ëĤ´ ë¦°
ãģĦãģ¤ ãģ§ãĤĤ
cu re
ĠìķĦëĭĪ ìĹĲìļĶ
Ġì¤Ģë¹Ħ íķľ
Ġì ©
Ġê°Ģëł¤ ì§Ħ
Ġput s
Ġb ai
ìĿ´ëŀĢ ëĭ¤
ìĪĺ ê±´
ëŃĲ ìķ¼
ë¹Ħ ìĻĢ
ª ¬
ur u
ha m
b ee
Ġthug s
Ġh ump
Ġbob by
Ġbe lly
n as
er na
b one
ĠíĿĺëŁ¬ ê°Ģê³ł
ĠíĿĺë¦¬ ìĭł
Ġê·¸ë¦¬ ëıĦ
Ġth o
ìĸ´ìłľ ìĻĢ
j ay
fri day
ĠíĦ° ìł¸
Ġëª©ìĨĮë¦¬ ìĹĲ
Ġser a
Ġj ap
Ġdisco ver
íĿĲ ë¦°
ìķĦë¬´ ë§ĲëıĦ
ì¤Ħ ìĿĦ
ëĴ Ģ
ë¬´ ë¦¬
ë§Ĳ íķĺê³ł
å Ķ
t ea
Ġì°¾ìķĦ ìĺ¤ëĬĶ
Ġs lo
Ġea gle
ê·¸ë¦¬ìĽĢ ë§Į
ê³µ ë¶Ģ
æĤ² ãģĹãģ¿
ĠíĹĪë¬´ íķľ
Ġë²Ĺ ìĸ´ëĤł
Ġê°ľ ìĿĺ
ìĿ´ëłĩê²Į ëıĦ
ìľł ìļ°
ìĭĿ ìĿĢ
ì¼ °
³ ĳ
~~~~ ~~~~
Ĺ ¥
Ġëĭ¹ëĭ¹ íķĺê²Į
Ġê¹Ĭ ê³ł
Ġfac ts
Ġìĸ´ëĸ¡ íķĺëĿ¼ê³ł
Ġëķħ ìĿ´
Ġê¼¬ ë¦¬
Ġse oul
ì¶ķ íķĺ
¹ Ģ
ca sh
ĠìĻĦ ìĦ±
ĠìĤ¬ ì¹ĺ
ĠëĬ¦ ìĸ´
íķľ ëķĮëĬĶ
ìĥ Īë¹¨ê°Ħ
ëĵ± ìĿĦ
ëĲĺëıĮ ë¦´
ëĤĺë¬´ ìķ¼
wa sn
ĠìĿ´ ê°Ģ
Ġë¶ĢìĤ° íķŃ
Ġë§Ī ìĭľë©°
Ġspin nin
Ġdom in
íķĺ êµ¬ëĤĺ
ìŀĶ ìĿ¸
ì¼ Ģì
å Ļ
Ġìķł ì²ĺ
ĠìĶ¹ ìĸ´
ĠìĤ¬ìĿ´ ê°Ģ
Ġì¡ ¸ëĿ¼
íĨ ¨
» ê
love ly
f ine
Ħë ķĮ
ĠìĬ ¤íĬ
Ġë³´ ìķĺëĦ¤
Ġê·¸ëŀ¬ ì§Ģ
Ġqu eens
Ġf ue
Ġdy in
Ġdra wn
Ġcred it
Ġba llo
ì£¼ëĭĺ ê³¼
¸ëłĪ ëıĦ
for t
) :
ĠìŀĶ ìĹĲ
Ġì¹ľêµ¬ ìĿĺ
Ġëª¨ ìĸĳ
Ġê·¸ë¦¬ìĽĢ ìĿĦ
Ġko rea
Ġj us
ëĦ¤ ëª¨ëĤľ
ê°Ħ ìĿĺ
éĻ Ĳ
ĠìŀĬìĸ´ ë²Ħë¦¬ê³ł
Ġìŀ¥ë¯¸ ê½ĥ
ĠìķĪ ê¸¸
ĠëŃĺ ê¹Į
Ġë¶Ģ ìĭł
Ġë¬¼ ëĵ¤ìĿ´
Ġkic ked
Ġdy namite
Ġcour t
ìĺ¤ìĺ¤ ìĺ¤ìĺ¤
åŃ £ç¯Ģ
cha sing
Ġíĳľìłķ ìĿĦ
ĠëĤ¨ê²¨ ëĳĶ
Ġê¸¸ë ª©
Ġê°Ģ ëĤľíķľ
Ġi mm
Ġ2 2
ìŀ Īìľ¼ë©´
ìĹĨ ìĿ¸
ì½ ľ
on o
i y
cti ve
Ġìĺµ ëĭĪëĭ¤
Ġì¹ĺ ìľł
ĠëĬ¥ëł¥ ìľ¼ë¡ľ
Ġê°Ĳìłķ ìĿ´
Ġglor ious
ìĹĪ êµ¬ëĤĺ
ìĬ¤ ê°Ģ
ë²Ħ ë¦ĩ
² ì
Ġìŀł ëª»
Ġê°Ĳ ê°ģ
Ġes ca
ì°© ê°ģ
ly rics
ĠìĬ¤ ë¦¬
Ġì¢ĭ ìķĺëĦ¤
ĠëķĮ ìĹĲëıĦ
Ġëĭµëĭµ íķľ
ëĭ¬ ë¦¬ëĬĶ
ë¨¸ ëĤĺë¨¼
ë¦¬ ìĸ´
ãģ« ãģĤãĤĭ
ne t
Ķ °ëĿ¼
Ġíķľ ê°ķ
Ġì§Ħì§ľ ë¡ľ
Ġthie f
Ġra re
ëĤł ê°ľë¥¼
½ Ķì½Ķë¡ľ
ĠíķĦìļĶ íķł
Ġê¸¸ ëıĦ
ëĤ´ ê¸°
ë§ī íķľ
ê¸° ìģĺ
e yed
Ī ²
ĠìĹĨ ìĹĪëĭ¤
Ġê²½ë°° íķ©ëĭĪëĭ¤
Ġê² ¹
Ġget cha
íĻĶ ìķ¼
ìķĹ íħĮ
æ³ ¢
ĠíĴĪ ìĸ´
Ġë¯¸ ìĽĢ
Ġë§Ľ ìĿ´
Ġper for
Ġknow ledge
ìļĶ ëĤĺëĿ¼
ìļ° ìĤ°
ìĺ¤ ë¡ľì§Ģ
tru th
ah hh
Ġìļ¸ ìĹĪëįĺ
ĠìķĮìķĺ ì£ł
Ġëĸłìĺ¤ ë¥¼
Ġëĵľ ëł¤
Ġëį° ìĿ´íĬ¸
Ġê¸ Ģì
Ġê°Ħ ëĭ¤ê³ł
æº ¢
æ ŀ
ãģłãģĳ ãģ®
e ous
ĠìĿµìĪĻ íķ´ìł¸
Ġìļ¸ë©´ ìĦľ
ĠìĤ° íĥĢ
Ġëħ¸ ëŀľ
Ġê¹¨ ì§Ģ
Ġsoci ety
ìŀĲ ìĹ¬
ì¹ĺ ëįĺ
ê¿ ¨
Ġíķ´ ìķ¼ì§Ģ
ĠíĮ ¬
ĠìĦ¸ìĥģ ìľ¼ë¡ľ
ĠìĦ± ê²½
Ġë¬¼ ë¡ł
Ġê±¸ ìĹĪëĦ¤
Ġê±· ëĦ¤
Ġshi ver
Ġf rench
Ġ( ?)
ìĻľëĥĲ ë©´
ëĤ¨ ëĵ¤ìĿ´
c oo
ĠíĥĢ ìĺ¤ë¥´ëĬĶ
ĠìĦľë¡ľ ìĹĲê²Į
ĠëĲĺ ìļĶ
ĠëĤłê°ľ ê°Ģ
Ġê·¸ëĮĢ ëĿ¼ëĬĶ
Ġreac tion
Ġmea dow
ìĸ¼ ìĿĮ
ì¹ĺ ìĹĲ
ëĪĪ ìķŀìĹĲ
é ŃĶ
fre sh
f ish
dd le
ĠíļĮ ìĥī
Ġìłķ ìĿĺ
ĠìķĪìķĦ ì¤Ħê²Į
ĠìĭľìĦł ìĿ´
ĠìĤ° ìĿ´
ĠëıĮìķĦìĦľ ë©´
ĠëıĦìĭľ ìĿĺ
Ġëħ ¸ë
Ġë¹Ħ ë¹Ħ
Ġë°Ģëł¤ ìĺ¤ëĬĶ
Ġê¹Į ë¶Ī
Ġus ing
Ġl ui
Ġb un
ìĿ¼ ê±°ìķ¼
ë§ī ìĿĦ
sten ce
ou red
bit ches
ĠëĪĦêµ°ê°Ģ ìĿĺ
Ġê³¼ ìĹ°
Ġve gas
Ġpue do
íĨł ë§ĪíĨł
ë© ľ
çŀ¬ éĸĵ
dr own
ĠìĹ¼ ìĨĮ
ĠìĦ¸ë ĮĢ
Ġê³³ ëıĦ
Ġte xt
Ġjump ed
ëłĪë ħ¸
ë§Ĳ ëĿ¼ê³ł
¿ ¨
ste ned
Ġëª°ëŀĲ ìĿĦê¹Į
Ġë§Į ìĿĢ
Ġpos se
Ġlip stick
Ġg ala
ìķĦ ìĭľ
ì°¨ ê³ł
ì£¼ ëĤĺ
ëĳĲ ëłµ
æĦĽ ãĤĴ
oooo o
Ġì¹ĺ ë§Ī
Ġë³´ê³ł íĶĪ
Ġsu dden
Ġh ol
íĿ° ëĪĪìĿ´
ìļ°ë¦¬ ëª¨ëĳĲ
ìļ° ê¸°
ìĺĪìĪĺ ëĬĶ
ìķĦ ëĤĺ
ëıĮìķĦìĻĢ ìļĶ
ëĥĪ ìĸ´
ê°Ģ ëĤľíķľ
who le
so s
Ģê º½
ĠìĹĨìĿĦ ê±°ìķ¼
Ġìĸ´ ê¹ĢìĹĨìĿ´
Ġneed ing
Ġincre dible
Ġíı Ĳ
Ġíį¼ ì§ĢëĬĶ
Ġìĭłê²½ ìĵ°
ĠìĤ½ìŀħ ê³¡
Ġë ĩĮ
Ġfai led
Ġani m
íķĺ ìĭľë¦¬
ë¬ ¼ì
ê¿Īê¾¸ ëĬĶ
åĩº ãģĹãģ¦
Ġìĺ· ê¹ĥ
Ġì°½ ìĿĦ
Ġì§Ģì¼ľ ì¤Ģ
Ġë¯¿ ëĦ¤
Ġvo id
Ġl ala
ìķĦìĿ´ ì²ĺëŁ¼
æ ł
ãģķ ãģª
ng er
ĠìĨįìĤŃ ìĿ´ëĬĶ
Ġë¬¼ìĸ´ ë´Ĳ
Ġu l
Ġneed le
ì¦Ī ëĭĪ
ëĳ¥ê¸Ģ ê²Į
ê²Į íķ´
ĠíĽĦíļĮ ëıĦ
Ġìĥ ´
ĠìĤ¬ëŀĳíĸĪ ê¸°ìĹĲ
Ġì¶©ë¶Ħ íŀĪ
Ġëķħ ìĿĺ
Ġë°ĺì§Ŀ ë°ĺì§Ŀ
Ġë§Ĳ íķĺëĦ¤
Ġë§¡ ê¸°
Ġcare ss
íĬ ¹
ìłĦ íĺĢ
ë¬´ ìŀĳìłķ
ë¨¸ë¦¬ ë¥¼
p hy
ĠìĹ¬ ìļ°
ĠëĤł ëĵ¤ìĿĢ
Ġd ang
ur ity
si le
h on
fe ver
Ġìĭ¤ ëł¤
ĠìĨĮë§Ŀ ìĿ´
Ġë¨¸ë¦¿ ìĨįìĹĲ
Ġpen ny
Ġling er
å¿ĺ ãĤĮãģªãģĦ
star ted
ĠíĿĶëĵ¤ íĿĶëĵ¤
Ġìŀĥ ìĿĦ
ĠìĿ¼ ëħĦ
Ġn ails
Ġex peri
ìĹĪëįĶ ëĭĪ
ìĹĦë§Ī ëı¼ì§Ģ
å¼ ķ
an ti
ĠìĦł íķľ
Ġëĭ¤ê°Ģ ìĦľ
ĠëĨĵ ìĿ¸
Ġdi al
ìľł íĸī
ì±Ħ ë¡ľ
ì£½ ìĹ¬
ãĤĭ ãģ®
he avy
Ġìłľ ê°Ģ
Ġìĺ¤ ë¦¬
Ġìĥģìĥģ ìĿĦ
Ġì§Ħ ìłķíķľ
ĠëĶ ©
Ġë¬´ íķľ
Ġg y
Ġa sh
íĦ °ë¦¬
ì¹ĻíıŃ íıŃ
ëĬĲ ëĿ¼
åı «
so ft
ŀ ©
Ĥ ¦
Ġìĺ¤ ëª¨
Ġì¢ĭìķĦ íĸĪëįĺ
Ġste pped
Ġse lling
Ġfr ank
ë¯¸ë ħ
ma in
lea sed
ħ ¡
Ġìłķ íķ´
ĠìĨĮìĭĿ ìĿĦ
Ġë°ĺê°Ģ ìĽĮ
Ġë°ĶëĿ¼ ë©°
Ġt ame
Ġh unt
íķ «
be y
Ġìļ¸ ìłģ
Ġëĭ´ ìķĦìĦľ
ì¢ĭìķĦ íķ´
å ī
Ġìķ Īì£¼
Ġì¥ Ķ
Ġë½ Ģë¡ľë¡ľ
Ġê·¸ëķĮ ì²ĺëŁ¼
Ġê²° ìłķ
Ġcon vin
Ġa nt
Ġ <
ìķł íĥĢëĬĶ
ãĤ ®
me t
fall in
ĠíĨµ íķĺìĹ¬
ĠìĻĶ ëĤĺ
Ġìĺ¤ëĬĺ ìĿĺ
Ġë¬¼ê²° ìĿ´
Ġz ai
Ġsh u
Ġpol itic
Ġpa rents
ìľĦ ìĿĺ
x c
Ġìľ łì¿ł
Ġì¡´ ê·Ģíķľ
ĠëĤ¨ìķĦ ìŀĪ
Ġë ®¤
Ġê²° ê³¼
Ġdece ive
Ġcoll ec
Ġco vers
ĉĠĠĠĠĠĠĠĠ ĠĠĠĉ
ì£¼ ìĭľê³ł
ê±° íĴĪ
ve re
m ark
9 6
Ġíĳ ¸
Ġìĸ´ëĶĶ ëĵłì§Ģ
Ġë§ĲìĶĢ ìĿ´
Ġwood s
Ġs well
Ġre n
Ġr oo
ìĸ¸ìłľ ëĵłì§Ģ
ëĪĪë¬¼ ìĹĲ
ë¹łë¹ł ë¹ł
ë§Į ëĤľ
ç §
ha ving
ad le
Į ©
ĠíĹĪ ê³µ
Ġìłľ ìŀĲ
ĠìĨį ìĹ¬
ĠëĤłìķĦ ê°Ģê³ł
Ġë¯¸ìķĪ íķľ
Ġê°ĢìĬ´ ìĨį
Ġrac ing
Ġgentle men
ëĭ¤ ì§Ĳ
ĠìĽ ħ
Ġì§Ģì³¤ ìĸ´
íŀĪ ëĦ¤
ãģŃ ãģĪ
sp eed
one sty
ĠíĹ¤ë§¤ ê³ł
ĠìĽĥìĿĮ ë§Į
Ġì°¾ ëįĺ
Ġr us
Ġfly in
ìĿ´ ëĵł
ì¹´ ë¡ľìļ´
ľ ī
Ġíı¬ ìŀ¥
ĠìŀĪëĬĶ ê±°ìķ¼
Ġtem po
íĹĪ ê³µ
ìĺĪìłĦ ì²ĺëŁ¼
ëĥĩ ê°ĢìĹĲ
ê¸° ìĹ¬ì°¨
d ition
ĠìĿ´ë¦Ħ ë§Į
Ġëįĺ ì§Ħ
Ġinde pend
íķ´ ë¥¼
ìĤ¬ ë¿Ĳ
ê°Ģë¡ľ ëĵ±
ê°Ģ ëĤľ
è «
ç İ
Ġë¬´ ìłķ
Ġê´´ë¡Ń íĺĢ
Ġê³ł ëıĻ
Ġê³µ ìĽĲ
Ġsi empre
Ġfo g
Ġchrist ma
Ġa more
íĮĮ ëŀĳ
ìķĦë¬´ ëŀĺëıĦ
ëĤ¨ ëĵ¤
ë§Īë ħ¸
war m
p se
Ġìķħ ëª½
ĠìķĦë ¢°
Ġì½Ķ ëıĦ
Ġë´Ħ ëĤł
Ġreinde er
íĻľ ì§Ŀ
ìĺ ¬ëķĮ
ìķĦ ì¹´
vi lle
ses sed
ĠìĪľê°Ħ ìĿĺ
ĠìĨĲ ê¸¸ìĿ´
ĠìĦ¬ ê¸°ë¦¬
ĠëķĮ ë¥¼
ĠëĪĦ ë¦¬
Ġpeace ful
ì¢Ģ ëįĶ
ê¹¨ ë¹Ħ
ãĤ· ãĥ§
le toe
h ale
ĺë ĥĲ
ĠìĦľ ëĬĶ
ĠëįĶìļ± ëįĶ
Ġê°Ħ ëĭ¤ë©´
ë§Ĳ ìķ¼
ê²¬ ëĶĶ
ê°ĦìłĪ íŀĪ
da h
br and
ĠìĿĮìķħ ìĿĢ
Ġìĸ´ëĳł ìĹĲ
ĠëıĮìķĦ ë³´ì§Ģ
Ġmillion s
Ġmat er
ìĽĶ ìĹĲ
ëĤ ¡ìĿĢ
ãĤĬ ãģ«
ĠìĹ¬ë¦Ħ ìĿ´
ĠëĪĪë¬¼ ì§ĵ
Ġë°ĶëŀĮ ê³¼
Ġê±° ìĿĺ
ĉĠĠĠĠ ĠĠ
íĦ° ì§Ī
ìĥĿê°ģ ë§Į
ëĳĺ ë§ĮìĿĺ
è¦ ļ
è ¯
st es
en ces
Ġìĸ´ì§Ģ ëŁ¬ìĽĮ
Ġvi ll
Ġdes i
íĥ ī
ìĭ¶ ìĸ´ìļĶ
ë§Ĳ ìķĦ
but ter
ĠìŀĶ ìĨĮë¦¬
ĠëĬĲëģ¼ ê²Į
Ġë°© ëŀĳ
Ġë¬´ëĦĪ ì§Ħ
Ġê°ĢìĿĦ ìĿ´
Ġ ]
ìķĦëĵĿ íķľ
ëĦ ĺì³Ĳ
çĪ ±
å¼ µ
Ġìĭ¶ìĿĢ ê±¸
Ġìĥģì ¾Į
Ġunderstand ing
Ġscream in
ìĿĦ íħĲëį°
ë¹Ħ ë£¨
ç ½
ĵ ëĬĶ
ĠìĽĲ íķĺëįĺ
ĠëĤł ê¹Į
Ġtab les
íĿĶ íķľ
ìĭľ íĹĺ
ë©į ì²Ń
cali fornia
ľì Ķ¨
Ġíķĺ êµ¬ëĤĺ
Ġìĭľê°Ħ ëĵ¤ìĿĢ
Ġì ¾Į
Ġor ange
Ġin spiration
Ġdest ination
Ġal arm
Ġab and
ìĬ¤ ëª¨
ëĵľ ë¦´
r an
ii ii
Ġëħ¸ëŀĺ ëıĦ
Ġë°ĶëĿ¼ ë´ĲìļĶ
Ġå ¿ĥ
ë°Ľ ì§Ģ
åĭ ĩ
ãģ¨ ãģĭ
ãģ¡ãĤĩ ãģ£ãģ¨
com p
ĩ ¨
Ġì¦Ŀ ëªħ
Ġë´Ĳ ì¤ĺ
Ġë°Ķëŀ¬ ëįĺ
Ġre ly
Ġe mer
Ġ Ð
ìĥĿê°ģ íķĺë©´
ëħ¸ ì¹´
ë¬´ ìĭł
ãģį ãģª
f it
ĠíĿĶìłģ ìĿĦ
Ġìĸµ ì§Ģë¡ľ
ĠìķĬ ìŀĸìķĦ
ĠìķĦë¬´ ëĤĺ
Ġì°¨ ë¥¼
ĠëĦĺ ëĬĶ
Ġë¹Ľ ìĹĲ
Ġg in
Ġ2 3
ìł¸ ë§Į
ìĭľ ìĭľ
ëį° ìĩ¼
ëĭ¤ ëłĪëª¨
ê³µ ì£¼
ãģķ ãĤĮãģ¦
e ight
bb in
0 7
Ġëĭ¥ ì³Ĳ
Ġfra gile
ìĦł ìĿĢ
ëĮĢ ê¸°
ãģķ ãģĦ
ĠíĹ· ê°Ī
Ġë¨ ¸ë
Ġv as
Ġsna p
Ġlou ie
Ġìŀłëĵ¤ ì§Ģ
ĠëıĮìķĦìĺ¤ ë©´
Ġm all
Ġho ller
ìĦł ìĥĿëĭĺ
ëĪĦêµ¬ ëĿ¼ëıĦ
ë°Ķ ë°Ķ
ê½ĥ ìĿĢ
èĩª çĶ±
tw inkle
**** ****
Ġìĺ¤ ê²Į
Ġë³´ ëĭ¨
Ġê¹¨ ê³ł
Ġê³ł ìĹ¬
Ġå Ī
ìŀĥ ìĿĢ
ìĭŃìŀĲê°Ģ ìĿĺ
ìĥģ ëıĦ
ì¼ ĵ
ë°ĸ ìĹĶ
ë§ĮëĤĺ ê³ł
Īì Ķ¨
Ģë ļľ
ìĿµ ìĿĢ
ìĤ´ëŀĳ ìĤ´ëŀĳ
çŁ¥ ãĤīãģªãģĦ
ãģĹ ãĤĪãģĨ
Ġì¤Ħ ìĿ´ìķ¼
ĠëıĦ ìĽĢ
Ġëĭ¬ëł¤ ê°Īê²Į
Ġê¸´ ê¸´
ì§¸ ê¹į
ì¦Ĳ ê±°
ëĵ¤ ì§Ģ
ëĤ¬ ëĦ¤
ê¸´ ëĭ¤
bu l
b Ã
Ġìŀłìĭľ ë§Į
ĠìĺĪë £¨ìĤ´ëłĺ
Ġìĵ°ëŁ¬ ì§Ī
Ġì§ĢìĽĮ ìķ¼
ìĹ¾ ìĿĢ
ëĨĪ ìĿĺ
ãģ¨ ãģĨ
ĠíĥĢ ê³łìĦľ
ĠìĹ¬ ê¸¸
Ġì§Ģ ë¶Ħ
Ġë¹łì ¡Įìĸ´
Ġë³Ģíķ´ ë²Ħë¦°
Ġë§Ĳ ì§Ģ
Ġpap ers
Ġh ai
Ġbud dy
ìķĦë¦Ħëĭµ ê³ł
ãĤ ħ
ãģ®ç ¬ĳé¡Ķ
± ł
Ġìĺģ ìĽħ
ĠìĤ¬ëŀĳ íķĺìĭł
Ġì§ Īë
Ġì¡° ìķ½ëıĮ
Ġje wel
Ġfuck er
íĹ¤ ìĸ´ì§Ħ
ìļ° ìĬ¤
ìĪĺ ê³ł
ìĨĮë¦¬ ìĹĨìĿ´
ut s
l it
cr is
ĠíĬ ¹
ĠìĿ¸ íķĺìĹ¬
Ġì§Ģ ìľ¼ë©°
Ġëĭ¤ê°ĢìĻĢ ìĦľ
Ġforgive ness
ìĤ´ ê³ł
ì¹´ ëĭĪ
be ll
an tom
Ġì ħ
Ġë¯¿ìĿĮ ìĿ´
Ġcre ate
Ġcle ver
ìĹĪ ëĭ¤ê°Ģ
ìĨĲ ìŀ¡ê³ł
ì´ī ì´ī
v as
ĠìĥĿê°ģ íķľ
Ġëª¨ ìĿ¸
Ġdri f
ìŀłìĭľ ë§Į
ìĿ´ ìĸ´
li ze
Ġíķĺ ìĦ¸ìļĶ
ĠíĭĢ ë¦°
ĠìĦŀ ìĿ¸
Ġì£¼ëĭĺ ë§ĮìĿĦ
Ġë©Īì¶° ë²Ħë¦°
Ġê°Ģ ë²Ħëł¤
ìķĪíĥĢê¹Į ìļ´
ì ĮĢ
ãĤĬ ãģ®
ãģĵãĤĮ ãģĭãĤī
Ġíķľ ê²°
ĠìĪľê°Ħ ìĹĲëıĦ
Ġì£¼ ìĭ¤
Ġsuper man
Ġm ul
Ġci el
íķľ ë°ľ
íķĺëĤĺëĭĺ ê»ĺ
ì¨Į ëĵł
ì§Īëĵ¯ íķľ
ul ate
ĠíĤ¤ë¯¸ ìĺ¤
Ġwa ck
Ġsym pathy
Ġchampi on
Ġbur st
Ġbr ush
íĴĢ ìĿ´
ì± ł
ê°Ģë²¼ ìļ´
m h
as ses
ĠìĥĪ ìĭ¹
Ġëª¨ë¥´ ëįĺ
Ġwon ders
Ġre ap
ëĭ¨ ê±¸
ëĥł ëĥł
ê¸ Īë
ãģĦãģ¤ ãģłãģ£ãģ¦
j oice
is in
Ġìł ł
ĠëĪĪë¶Ģì ħĶ
Ġshot gun
ì½Ķ ëģ¼ë¦¬
ãĤı ãģŁãģĹ
gla d
Ġíķľë²Īì¯¤ ìĿĢ
Ġìļ¸ ìĹĪëĦ¤
ĠìĹ¬ëŁ¬ ë¶Ħ
Ġri bb
íķĺ ëĤĺìĿĺ
ë°Ķ ë¦¬
ëª» ëĭ¤íķľ
ãģ§ ãģĻ
ãģ£ãģ¦ ãģĦãģŁ
ĠìŀĬ ìĸ´ëıĦ
ĠìķĮ ê²łì§Ģ
ĠìĪĺ ìĹĨìĿ´
Ġga ze
ìŀĺ íķ´
ìĦ¸ìĽĶ ìķĦ
ëª¨ ì§Ħ
åĮ ħ
ãģĦ ãģ«
la w
ĠìĿĺì§Ģ íķĺìĹ¬
Ġìĺģê´ĳ ìĿ´
ĠìĪ¨ê²° ìĿ´
ĠìĤ´ìķĦ ìĻĶ
ĠëĤ´ ì§Ģ
Ġë´Ħ ìĿĢ
Ġtee nage
Ġro ar
Ġmagic al
Ġgre et
ëĭ¤ ëłĪì¹´
åĨ ·
ter y
ĠëĪĪ ìĤ¬ëŀĮ
Ġë°± íķ©
Ġj an
Ġfr ustr
Ġfine st
ì¸ łì¿ł
ãģĹãģ¦ ãģŁ
dar lin
ĠíĸĩìĤ´ ì²ĺëŁ¼
ĠìĽĢì§ģ ìĿ´ëĬĶ
Ġìĸ´ìļ¸ ë¦¬ëĬĶ
ĠìĪľê°Ħ ìĿĢ
Ġëĭ¤ì§Ĳ ìĿĦ
ìĺĪ ìłĦìĹĲ
æ³ ķ
ãģĹãģ¦ ãģĦãĤĭ
¢ ĭ
Ġíı °
Ġìĸ´ìļ¸ ë¦¬ì§Ģ
ĠìĮĵ ìķĦ
ĠìĤ¬ ìļ©
Ġì°¨ ì§Ģ
Ġëģ¼ ê³ł
Ġê¿Ī ê²°
Ġê¸Ģ ìŀĲ
Ġbre ed
íĤ¤ ìĻĢ
ìĭľ ìĽĲ
ìĪ ´
ëĮĢíķľ ë¯¼êµŃ
ê°Ħ ì§ģ
ãĤī ãĤĮ
pe cially
ĠíĺĦìĭ¤ ìĿĦ
ĠíĦ° ëĦĲ
Ġìĺ ¬ëķĮ
ĠìĹĨ ìľ¼ë¦¬
Ġë§ī ì§Ģ
Ġê½ĥ ìĨ¡ìĿ´
Ġê¸° ë¡Ŀ
Ġ9 0
ìĨĮ ë°ĶëĭĪ
ìĤ¶ ìĿ´
ëĦ¤ ìĺ¨
cli mb
ca s
ĠíĿĺëŁ¬ ê°ĢëıĦ
ĠìĽĥ ìľ¼ë©´
Ġëª¨ëĵł ê²ĥìĿ´
Ġwe ird
Ġchica go
Ġc ouch
Ġba st
ëıĦ ìĻĢ
Ġì°¨ ìĿ´
Ġwor n
ìķĪëħķ ìĿ´ëŀĢ
ë°ĶëŀĮ ëıĦ
lin es
ĠíĿĲ ë¦¿
Ġíķĺ íķĺ
ĠìĿ´ìľł ëıĦ
Ġì§Ģì³Ĳ ë²Ħë¦°
Ġê·¸ëĵ¤ ìĿĦ
Ġrub ber
Ġcre ated
ë³´ ëĤ´ê³ł
ë°© ìĿ´
ê·¸ ê¹Įì§ĵ
å¿ĺ ãĤĮ
äºº ãģ¯
ä¹ Ł
ĠìķĬ ìĸ´
Ġì¹ľêµ¬ ëĵ¤ìĿĢ
Ġxi ang
Ġunc le
Ġkiss in
Ġcoraz on
íķ¨ê»ĺ íĸĪëįĺ
ìľ łì
éĽ »
çķ ¶
w Ç
step s
5 4
ĠíĿĶëĵ¤ìĸ´ ë´Ĳ
Ġhe l
Ġb in
ëĨĢëĿ¼ ìļ´
© ĭ
oooo oh
mo vin
al ong
Ĩ Ĵ
ĠëĲĲ ê³ł
Ġëª©ìĨĮ ë¦´
Ġë¡ľë§¨ ìĬ¤
ê² Ł
å¤§åĪĩ ãģª
n Ç
! â
Ġìĺ¬ ê±°ìķ¼
ĠìĹĲ ìĦľ
Ġê¸°ìĸµ ë§Į
Ġhum ble
Ġang e
ìķĦíĶĦ ê²Į
fo ot
ĠìŀĬíĺĢ ì§Ģ
ìķĦìī¬ ìļ´
ë°© ê¸ĭ
u Ã
ĠíĶ¼ ë¶Ģ
ĠìķĦëĭĪëĿ¼ ë©´
Ġì¹´ì ¼Ģ
Ġì¤¬ ëįĺ
Ġor che
Ġj ing
Ġde fend
Ġ( '
íħĮ íħĮ
ëıĻ ê·¸ëŀĢ
ë¹Ľ ìľ¼ë¡ľ
ç· ļ
æ ¼
Ķë »Ķ
ı ī
ĠëŀĦ ëŀĦëŀĦ
Ġstri kes
ìŀĲ ì¡´ìĭ¬
Ġíŀĺ ìľ¼ë¡ľ
Ġíķł ëłĲë£¨
Ġì°¸ìķĦ ìķ¼
Ġsc ri
Ġc d
ìłĪ ë§Ŀ
ìķł ê°Ģ
ê³¤ íķ´
å¯ Ĥ
ãģĦãģ¦ ãĤĭ
³ ³
ĠëĬĲëģ¼ ì§Ģ
Ġë°° ëĬĶ
Ġup set
Ġlo lli
ìĿ´ëĿ¼ ë©°
ìĿ´ ê³³ìĹĲ
ìĭł ìĿĦ
ìº Ĳ
ë½Ģë¡± ë½Ģë¡±
ë¹ł ìł¸
ê·¸ë¦¬ ìĬ¤ëıĦ
į ¹
ĠíĻĶ ëł¤
Ġìļ°ë¦¬ ëķħ
ĠìĻ¸ ì¹¨
Ġì£¼ìłĢ ìķī
Ġë¿ ¡
Ġwis hed
Ġme llow
Ġ è¦ĭ
ìĿ¸ ì²ĺëŁ¼
ëłĪ ê°Ģ
ë¿¡ ë¿¡
ê·¸ëĮĢ ëĿ¼ëĬĶ
atin um
Ġíĸīë³µíķ´ ìķ¼
ĠìŀĪ ìĿĮ
ĠìĿ¼ ëĵ¤ìĿĦ
Ġìĸ´ëĶĶ ê¹Įì§Ģ
Ġì° Ĳ
Ġsla m
Ġe gg
ë³´ê³ł ìĭ¶ìĸ´
miss ing
ĠìĦľ ëĳĲ
Ġì§Ħìĭ¤ íķľ
ĠëĸłëĤĺ ëĦ¤
Ġë²½ ìĿĦ
Ġly ric
Ġcand les
ëĭ¤ ìłķíķľ
what cha
ĠìķĬ ëĤĺ
Ġì§ Ĭ
Ġì ¯Ķ
Ġëĭ¬ë¦¬ ìŀĲ
Ġëªĩ ë²Ī
Ġtempt ation
Ġpray ed
Ġchi m
ë´Ĳ ìķ¼
ë°Ķ ëĭ¤ê°Ģ
ë¯¸ë ª¨
êµ¬ ëĳĲ
¸ëł ĪìĬ¤
par adise
Ġë³¸ ëĭ¤ë©´
Ġë§Į ìĿĦ
Ġê¸°ëĭ¤ ëł¸ìĸ´
Ġti es
Ġreck less
Ġch ina
íĬ ¸ë
ìķĦ ë°Ķ
ê¹ °
ê¸¸ ìĹĲìĦľ
êµ¬ ë£¨
form ation
^ ^
ĠíĦ¸ ê³ł
Ġìłģ ìĹĲ
ĠëĦĵ ê³ł
Ġë°° ìļ´
Ġê¸°ìłģ ìĿ´
Ġz h
Ġvac ation
Ġspa re
Ġl alala
¥Ĳ ê³ł
Ġì½Ķ ìĹĲ
Ġì´ī ì´ī
Ġlea f
ìĿĦ ê±°ìķ¼
ìĦ ¸ì
ì¡Į ëĦ¤
åĨ į
mi ra
heart s
ĠíĤ¤ë¯¸ ê°Ģ
Ġìĸ´ìĥī íķ´
ĠìĤ¬ëŀĳ ìĿ¸ê±¸
Ġì¡° ê±´
ĠëĪ Īë¶Ģ
Ġê°Ģì§Ģ ìļĶ
Ġwarri or
Ġwar s
ìĺ¤ëĬĺë°¤ ëıĦ
ìĸ ı
ìĦ± íķľ
ìĥĪëĵ¤ ìĿ´
ë²Ħë¦¬ ìŀĲ
ëª¨ ìĺ¤
ãĥ Ŀ
ãģĤãģªãģŁ ãģ«
ĠíĶĦ ë¡ľ
ĠìĿ¸ìĹ° ìĿ´
ĠìĨĶì§ģ íķĺê²Į
Ġvis it
Ġcent ury
Ġastr ay
ë°ĳ ìĹĲ
t ì
p us
Ġìĭľ ëģĦ
Ġê°Ģ ìĺ¤
Ġsle pt
ìĭľê°Ħ ìĹĲ
ëĤ ©
¦Īì ¿ł
exc use
b id
Ġíľ ©
ĠíĻĶ ìŀ¥
Ġëª¨ëĳĲ ëĵ¤
Ġtal es
vol ved
mar ia
ĠìĻ¸ë¡Ń ê³ł
Ġìĸ¼ ìĸ´
Ġëĵ¤ ë¦´
Ġë§Īì£ ¼ì³Ĳ
Ġê·¸ ê²ĥìĿĦ
Ġs ain
Ġpa ve
ì§ĢìķĬ ìĿĢ
ëĭ¹ìĭł ê»ĺ
ëĪĪë¬¼ ìĿĺ
ë¹¨ ê°ķ
ê³ł ëıĻ
å¯ ¦
ĠìķĦ ëĵ¤ìķĦ
ĠìĤ¬ëŀĳíķł ê±°ìķ¼
ĠëįĶ ëŁ½
Ġë¨¸ë¦¿ ê²°
Ġshi ft
Ġbri de
ëĤĺë¹Ħ ìķ¼
ê· ł
xi co
ma ster
ľì ´Īë¶ĢíĦ°
Ĵ Ģ
ĠìĿĢ íķĺ
ĠìĪ² ìĨį
ĠëĤĺëĿ¼ ìĦľ
Ġë³Ģíķ¨ ìĹĨëĬĶ
Ġë§Ī íĥĢ
Ġz oom
Ġto ol
Ġsw eep
Ġm our
Ġcon quer
íĺ¸ ìĤ°ëĤĺ
ìķĮìķĦ ìļĶ
ìĤ¬ ìĨĮíķľ
ëłĪë ĸ¼
ëıĮìķĦ ìĦł
i or
Ġë³´ ìĿ¼ê¹Į
Ġë°¤ìĥĪ ëıĦë¡Ŀ
Ġëª¨ë¥¸ ëĭ¤
Ġte ngo
Ġconfi dence
ê¶ģ íĻĶ
ãģªãģıãģ¦ ãĤĤ
mu ch
ĠíĮĶëĶ± íĮĶëĶ±
ĠíĥĿ íķľ
Ġìĺ¤ ëįĺ
Ġê¸°ëıĦ íķĺë©°
Ġê°Ķ ëįĺ
Ġch in
íı¬ê·¼ íķľ
ë°¤ íķĺëĬĺìĹĲ
ë¯¸ ìĽĮëıĦ
ë§Įìľ¼ë¡ľ ëıĦ
sea s
a is
ĠìĹĨ ëįĶëĿ¼
ĠìĹ´ ëĳĲ
ĠëıĮìķĦ ê°Ħëĭ¤
Ġëħ¸ëŀĺ íķĺìŀĲ
Ġë¿ ľ
Ġë¹Ħì¼ľ ëĿ¼
Ġë°¤ íķĺëĬĺìĹĲ
Ġê¿Īê¿Ķ ìĻĶëįĺ
Ġê¸°ëĭ¤ ëł¸ëįĺ
Ġto ss
Ġthirst y
Ġcho p
ëł¤ ì§Ħ
ëĿ¼ ë¯¸
ëĪĪë¬¼ ë§Į
ë¯¸ìĨĮ ë¥¼
ë©ĭ ì§Ģê²Į
ãģ£ãģ ±
so ld
ha ven
Ġë©Ķ ë¦¬
Ġstar ry
Ġmove ment
ãģ¾ ãģ¾ãģ§
ti er
lp h
j am
ĠíĺĦìĭ¤ ìĹĲ
ĠìķĦ ì°Ķ
Ġìī ¿
ĠìĥĿìĿ¼ ìĿĦ
Ġì´Ľ ë¶Ī
Ġë¯¸ëł¨ ëıĦ
Ġdig ital
ìĸ´ ëĳ¡
ë¹Ħíĸī ê¸°
æĹ ©
d ue
ĠíĨµ ë¡ľê°Ģ
Ġì§Ĳ ìĿ´
Ġëĭ¬ëŀ Ĳ
ĠëĤł ë¦¬ëĬĶ
ĠëĤ ¸
Ġê°Ģ ìĺ¤ëĭĪ
Ġgu ilt
Ġen core
Ġcli p
ì¡Į ì§Ģ
ëĤ´ìĿ¼ ìĿĺ
ë´¤ ì§Ģë§Į
ê°ĢìĬ´ ìĿĢ
ãĥĩ ãĤ£
re ct
pe red
ĠëĦĺ ê³ł
Ġê·¸ë¦¼ ìĿĦ
ìĿ¼ ìĿ¸ì§Ģ
ìĪł ìĿ´
ì£½ ëıĦë¡Ŀ
ëĤ¨ ìĿ´
æ ´
et ic
Ġë¯¸ëŀĺ ëĬĶ
Ġë¬¶ ìĸ´
Ġëª» ìŀĬìĿĦ
Ġê±±ìłķ íķĺì§Ģ
Ġtex as
Ġpisto l
ìļ¸ë©´ ìĦľ
ref rain
oo doo
Ġëĭ¬ë¹Ľ ìĿ´
Ġë³´ê³łìĭ¶ ëĭ¤
Ġë¬´ìĦľ ìļ´
Ġê³µ ì£¼
íĺ ¸ëĿ¼
ìĤ¬ëŀĳ ìĿ´ëĿ¼ëĬĶ
ëĭ¨ ìĭ¬
Ġapp reci
mon day
Ġìŀ ĪìĬµëĭĪëĭ¤
Ġìĵ° ëĭ¤ëĵ¬
ĠìĮĵ ìĿ´ëĦ¤
ĠëĤł ë¡ľ
Ġë²Ħ ë¦¼
Ġë°¤ ìĿ´ìĹ¬
Ġuse less
Ġsh ark
Ġre nd
Ġam ar
ìĿ´ ëĭ¤ê°Ģ
ÃŃ a
. ]
ĠíĽĦíļĮ ê°Ģ
ĠíĽ Įì©į
ĠíĸĪ ëĦ¤
Ġìłģ ìĭľê³ł
Ġmirac les
Ġca fe
ìĥ Īë¥¼
ëıħ ëıĦëĬĶ
ëıĦë¡ľ ìĬ¤
ëħ¸ë ¥¼
su me
re mind
ĠìĺĪë»Ĳ ìĦľ
ĠìķĦëĭĮ ê°Ģ
Ġê¸°ìĸµ ëĵ¤ìĿĢ
Ġs atell
Ġp ose
Ġfin ished
ì§Ģ ëĬĶëį°
ëĭ ¦
fuck ing
īì Ń
Ġìŀ¡ íŀĲ
ĠìĹĲ ìĿ´
ĠìĦ¸ê³Ħ ë¡ľ
Ġë³´ ìĺĢ
Ġwhis pers
Ġway ne
Ġset ting
Ġnot es
Ġgl ance
íģ¬ ìĭł
ìĿ¼ ì§ĢëıĦ
ëĮĦ ëĮĦ
ëģĿ ëĤĺì§Ģ
² Ģ
joh nny
ĠìĪĺ ë°±
Ġì£½ ìľ¼ëĤĺ
Ġê¸°ëĭ¤ ë¦¬ì§Ģ
Ġdaw g
Ġau to
ìĨĮì¤ĳ íĸĪëįĺ
ìħ ĭ
ìĤ¬ ìĻĢ
ëıĪ ìĿĦ
ë½Ĳ ëĤ´ëĬĶ
« Į
§ ±
ber t
Ġìļ¸ ë¦¬ì§Ģ
ĠìĨįìĤŃ ìĿ´ëįĺ
ĠìĤ´ ê¹Į
ĠëıĻ ë¬´
ĠëĤĺ íķĺê³ł
Ġë§Ĳ ê¹Į
Ġê¸¸ ê³ł
Ġb ent
ìķĦ ê»´
ì¹¨ ìĹĨìĿ´
ê¹ ¥
çħ§ ãĤī
ĠìłĢ ìĸ´ëĿ¼
Ġìŀ¥ëĤľ ìĿ´
ĠìĿ´ ëĵ¤
Ġìļ¸ ê¸´
ĠëıĻ ìĤ°
Ġë°ķ ìĪĺ
Ġa che
ìĦł ìĹĲ
ãĤ ´
al ready
ĠìĨĮ ë¦¬ëĬĶ
Ġì¥Ĳ ìĸ´
Ġëĵ± ëĮĢ
Ġë¨¸ë¬¼ ëįĺ
Ġgoodby es
Ġe lla
ìĿ´ ì¯Ķ
ìĿ´ ë¤Ħ
ì¹´ ê°Ģìķ¼
ë¯¸ íĥĢìĿ´
ĠíķĺëĤĺëĭĺ ìĿĢ
ĠìŀĪëĬĶ ê²Į
Ġìļ´ëªħ ìĿ´
ĠìķĦìĿ´ ëĵ¤
Ġìķ½ìĨį ìĿĢ
Ġìĭľ ì§ĳ
ĠëıĦ ëıĦ
Ġnorm al
Ġhaun ting
Ġbreak fast
ì»¤ ëĭĪ
tend ed
nes see
Ĥ ģ
Ģì ª½
ĠìĿ´ê²¨ ëĤ´
Ġìļ°ìļ¸ íķ´
ĠìĨį ìķĦ
Ġì§ĵ ë°Ł
Ġëı ķ
Ġë¹Į ê³ł
Ġë§ī íŀĮ
Ġê·¸ë¦¬ìĽĮ ëĿ¼
Ġsol ution
Ġgod damn
Ġcigare ttes
Ġbal ance
Ġam our
ìĬ¬íĶĶ ìĿ´
å »
¤ ç
ti re
7 5
ĠìŀĲ ìłĦê±°
ĠìĸĦ ë¯¸ìļ´
Ġìĸ´ëĸ¡ íķ´ìķ¼
Ġì¢Į ìłĪ
Ġz he
Ġtoo th
Ġt Ãº
Ġre el
Ġpro gram
Ġj uly
íħ Įì
ìŀĬ ìĿĢ
ìĭ ¯
ëłģ ìĿ´ëĬĶ
ë¶Ģ ëĶª
ëª» íķĺê³ł
Ġëĳĺ ë§Į
Ġëĭ¹ ê²¨
Ġê³µ ë£¡
Ġê°Ģ ìł¸ë´Ĳ
Ġth ou
Ġoce ans
Ġl ac
Ġcelebr ation
ë´ ħìĭľëĭ¤
ë§Ī ìĭľ
¨ìī ´
shor ty
it ely
į ëĭĪëĭ¤
Ġíķĺ ìĭ¤
ĠíĮĶ ìķĦ
ĠíĤ¤ ëª¨
ĠìŀĶìĿ¸ íķľ
ĠìķĬ ê¸°
ĠëĨĢ ëł¤
Ġë³´ìĹ¬ ì£¼ê³ł
Ġë°Ķ ëŀĮìķĦ
Ġvibe s
Ġsli ppin
çµ ¶
åĥķãĤī ãģ¯
ame n
ĠìŀĪìĹĪ ëĤĺìļĶ
ĠìĿ´ë¦¬ ìłĢë¦¬
Ġìĵ°ë¦¬ ëŀĳ
Ġëĸł ëıĮ
Ġë²ł ìĿ´
Ġë¯¸ëł¨ íķľ
Ġë¬´ ëłµ
Ġsing er
Ġo oooh
Ġfight er
Ġallow ed
íĥĢ íĸ¥
ì¶Ķìĸµ ìĹĲ
ëĮĢ ì§Ģ
ë°° ê°Ģ
ê¸Īì ¯¤
ê·¸ ë§Ī
ê°ľ ìĿĺ
sec ond
ĠìĤ¬ëŀĮ ìĿ¸ëį°
ĠëĦĪ ìĿ¸ëį°
Ġê³łíĨµ ìĿĦ
Ġê³ł ëŀĺ
Ġsp eech
Ġhat in
Ġgre ater
ìĪĺ ìĹĲ
ìĤ¬ëŀĳ íķĺê¸°
ìĤ¬ ë¡ľ
ãģ©ãģĨ ãģĹãģ¦
re ns
an ana
Ġíŀ Īë¹Ħ
Ġíĸ¥ íķĺëĬĶ
Ġìĺģ ìłĳ
Ġì¼ľ ê³ł
Ġì§ĢíĤ¬ ê²Į
Ġëįĺ ì§Ģê³ł
Ġëĭ¬ëĿ¼ ì§Ī
Ġspeak ers
Ġplu g
Ġme at
Ġm ut
Ġl ink
Ġfavour ite
íĥĵ íħĮ
ìļĶë¦¬ ëª¨
ëĭ¤ ë¥¼
n ation
h at
h al
Ġìļ° íĥĢ
ĠìĤ¬ ìĨĮíķľ
Ġì¶° ìļĶ
Ġì°Ķ ëŁ¬
Ġë³´ ìĿ¸ëĭ¤
Ġë§Ĳ ëĵ¤ìĿĦ
Ġn un
Ġintro du
Ġflash ing
ìŀĪ ì§Ģë§Į
ìĤ¬ ë§ī
ì¤ĺ ìķ¼
ëĳĲ ì»¤ëĭĪ
åĪ »
ãģĮ ãģĤ
ta ge
be red
ĠíŀĪ íĨłë¦¬
ĠìķĦíĶĶ ë§Į
Ġì¹ĺ íĤ¨
ĠëĺĲ ëĬĶ
Ġë°© ìķĪìĹĲ
Ġë§Įëĵ¤ìĸ´ ê°ĢìļĶ
Ġê°Ģ ìķ¼ë§Į
Ġf ence
ìĦ± ìĹĲ
ì¤Ħ ëŀĺìļĶ
ë§Īì ¿ł
ama zing
ĳíĴ Ī
Ġíİ ĳíİĳ
ĠëĲł ê²Į
Ġke lly
Ġjealous y
Ġex it
ìķĦë¦Ħëĭ¤ ìĽĮ
ë²Ħë¦´ ê¹Į
ê°Ħ ëĭ¤ë©´
é ¦
w y
ł ¨
Ġìłķ íķ´ì§Ħ
ĠìŀĪìĸ´ ì£¼ë©´
Ġì¿µ ì§Ŀ
ĠëĲł ëŀĺìļĶ
Ġê³µ ìĹ°
ë§Į ìĦ¸
å¤¢ ãĤĴ
ãģķ ãĤĪ
Ģ ķ
ĠìķĬ ìľ¼
Ġì²ĺìĿĮ ì²ĺëŁ¼
Ġêµ¬ íķ´
Ġto ps
íķĺ ë£»ë°¤
ìĹ´ ìĭ¬íŀĪ
ëŁ¬ ê¸°
ëĤĺìĹĲê²Į ëĬĶ
² ¹
ĪìĪĺ ìķĦë¹Ħ
Ĩ Ģ
ĠìłĦ íķĺëĬĶ
Ġì¹ľêµ¬ ìĻĢ
Ġëĵ¤ìĸ´ ëĿ¼
Ġë§İ ì§Ģ
Ġê·¸ ëıĻìķĪ
Ġtem ps
Ġ' '
íķľ ê°ķ
ëħ¸ ëĬĶ
ë°Ķ ë
å· ®
ãģ¡ãĤĥ ãģĨ
sp here
pic ture
moon light
Ġìļ°ìĤ° ìĿĦ
ĠìĻ ł
ĠëĨĢ ëŀĺ
Ġêº¾ ìĸ´
Ġê·Ģ ê°Ģ
Ġt ank
Ġsentime ntal
Ġask in
Ġapologi ze
ìĿ ¸ëĵ¯
ìĭŃ ëĭĪê¹Į
ìº ¬
ëķĮ ë¡ľ
ëĤ« íħĮ
ë§ī íŀĮ
ê½ ¥
ê³ł ë¡ľ
col or
Ĺ ¤
Ġëĭ¬ ë¦´
ĠëĪĦêµ¬ ìĿĺ
Ġë°ĶëĿ¼ë³´ ëĭĪ
ìĹ¬ ë³´ìĦ¸ìļĶ
ìĬ¬íĶĶ ìĿĦ
ãģª ãģ®
į ķ
ĠìķĦ ëĵ¤ìĿ´
Ġê¸°ë»Ĳ íķ´
Ġb ark
íŀ Īì
ìĸ´ëł¤ ìļ´
ì½ĶíĨł ë°Ķ
ë¯¸ë ¯
è į
µ ´
ne n
f at
Ġìĺ¤ëĬĺ ëĶ°ëĿ¼
ĠìķĪê¸° ìĦ¸
ĠìķĦ ë©Ķ
Ġì±ĦìĽĮ ì£¼ìĨĮìĦľ
Ġë¹Ħì ³Ĳ
Ġë²Ĺ ê²¨
Ġë§Īì§Ģë§ī ìĿ´
Ġê°Ĳ ê¸°
Ġt welve
Ġju ne
íĻķ ìĭ¤
ĠíĿĲ ë¦Ħ
Ġìķ¼ ìĤ¬
ĠìĤ¬ëĿ¼ ì§Ģì§Ģ
Ġì ©Ķ
Ġê¹¨ëģĹ íķľ
Ġê°Ģ ë¦¬ê³ł
Ġsha ck
Ġr y
Ġpo le
ìĻĢëĿ¼ ëĤĺìĿ´
t out
b is
ate ful
İ æĹ¥
ĠìĪľìĪĺ íķľ
Ġë¶Ļ ëĵ¤
Ġwill i
Ġi i
ëĨĵ ìķĦ
ë¹Ħ ì²ĺëŁ¼
ë³´ ë¦¬
por que
ĠíĬ¼ íĬ¼
Ġìĭľ ëĮĢ
Ġëĳĺ ìĿĢ
Ġs oo
Ġpar don
ìĪĺì¤į ê²Į
°Ķ ëŀĮ
ĠíķĺëĬĺ ëıĦ
Ġíķ´ ì¤Ħëŀĺ
Ġìŀħ ê°ĢìĹĲ
ĠìĦ¸ ê²Į
Ġë°ķ ìŀĲ
Ġêµ³ ìĿĢ
Ġmist letoe
Ġbl ank
ëłĪë °©
ê³ł ë¦¬
0 6
ĠíĴĪ ìķĪìĹĲ
Ġìŀłê¹Ĳ ë§Į
Ġìĸ¸ìłľ ëĵł
ĠìĦł ìĿĦ
Ġì§ĢìĽĮ ë²Ħëł¤
Ġì§Ģ ìļ°ëĬĶ
Ġëª°ëŀĲ ìĸ´ìļĶ
Ġê°Ĳ ìĿĦ
Ġvi lla
Ġu nt
Ġs ab
Ġphysi cal
Ġp y
ìĿ´ ë£°
ë³´ ìĿ¼
ãģ®ç ©º
beaut y
ĠìķĦíĮĮ ìĻĢ
Ġì¤Ħ ê¹Į
ĠëĴ·ëª¨ìĬµ ìĿĦ
ĠëĤł ì²ĺëŁ¼
Ġcom ple
íļĮ ìĥī
ìĽ ¨
ìĻĢ ìĬ¤ëłĪ
ë§ĪëĪĦ ìĹĺ
ê¸°ìĸµ ìĿĦ
ãĤ ½
ãģ¯ ãģĺ
who se
f ro
ange ls
ĠìĤ¬ëŀĳíķ´ ì¤ĺìļĶ
ĠëĶ° ëĭ¤
Ġright s
Ġlar ge
Ġf iction
ìł ¤
ìĵ °ëĿ¼ë¦°
ê±¸ ìĸ´ê°Ģ
ãĥ ¨
er k
ĠíĥĢ ëĭ¤
ĠìĪľê°Ħ ê¹Įì§Ģ
Ġìĥģ ëĥ¥
Ġê±° ë¶Ģ
Ġfor sa
Ġconne ction
Ġcomp romise
íĸ¥ê¸°ë¡ľ ìļ´
íĤ¤ íĥĢ
ìķĦ ìĹĲ
ë§ ĺëĮĢë¡ľ
ë İ
ä¼ ¸
i er
hhhh hhhh
ffere nt
7 4
Ġíŀĺ ìĹĲ
Ġíŀĺ ê²¨
Ġìĸ´ëĶĶ ê°Ģ
ĠëĨĵ ìķĦì¤ĺ
Ġê¸¸ ìĿĺ
íķĺ ëĭ¤ë©´
ìĹĲ ê°Ģìĺ¤
ìĥĿëªħ ìĿĺ
ì¹ĺ ìĽĮ
ëĦĪë ¨¸
ê·¼ ìĭ¬
² ī
oun tain
fight ing
bu y
* )
ĠíĿĺëŁ¬ ëĤ´ëł¤
ĠíĿ¬ ê²Į
ĠìĿ´ë£¨ ê³ł
ĠìĹĨ ìĹĪì£ł
Ġì¹´ ìłľ
ĠëĬ¥ëł¥ ìĿ´
Ġê·¸ë¦¬ ëĭ¤
Ġsav age
Ġm ail
Ġfranc isco
Ġcons cience
ìĿ´ëŁ¬ ë©´
ìĸ´ë¦° ìĿ´
ëĵ¤ìĿ´ ìĹ¬
ëĤ¨ ìŀĲê°Ģ
cha in
Ļ Ħ
ĠíĹ ¤ì³Ĳ
ĠìĿ¸ëıĦ íķĺìĹ¬
Ġì¶© ìĦ±
Ġì´ Īë
ĠëħĦ ìĿĦ
Ġëħ¸ìĿĦ ìĿ´
Ġawe some
íħĮ ìļĶ
ìĿ´ëŁ¬ ëĭ¤
ìĤ° ìĿĢ
ëĤĺ ê°ĢëĬĶ
ëĤ¨ ê²¨
ãģķãĤĪ ãģªãĤī
ĠìĦł ìĥĿ
Ġì¹´ ê°Ģìķ¼
ĠëĽ° ëĨĢ
Ġr if
Ġfa rewell
ì¹´ ëª¨
ì§Ģ ëĤ´
ëĤĺ ì¸ł
ê¸ Īë³´ëĭ¤
ê·¸ëħĢ ìĻĢ
pa ble
hum an
boo gie
and a
Ġë½Ģ ë¡±
Ġê³łíĸ¥ ìĿ´
Ġsta in
Ġr ug
ëĤĺ ìŀĩ
ê°Ĳ ìĭ¸
éĢĥ ãģĴ
t each
c andy
Ġìłĸ ëĬĶ
ĠìĦľ ë¥¸
ĠìĤ¬ëŀĳíĸĪ ëĭ¤ê³ł
ĠëĺĲ ëĭ¤ë¥¸
íĨł ëĭ¥
ë°¤ ìĥĪìĽĮ
Ĩ Ī
ĠìĿ´ ìĤ¬
Ġli stened
Ġhear s
Ġcr adle
Ġchar ms
íķĺê³ł íĶĪ
íķĺ ëįĶëĿ¼
íķ¨ ëıĦ
ë¶Ģ ì§Ī
ê²¼ ìĸ´
ĠìŀĪìĸ´ ì¤ĺìļĶ
ĠìĹ¬ ìŀĺ
Ġìī ¼
ĠìĤ° ìľ¼ë¡ľ
ĠëģĿëĤĺ ë©´
Ġë³Ģíķ´ ê°ĢëĬĶ
Ġê°Ļ ëĭ¤
Ġthe me
Ġg ir
Ġbill ion
Ġ ï¼
íĿĺëŁ¬ ê°Ħ
íĮ ½ìĿ´
ëĪ Ħì¼Ģ
ë¯¿ìĿĮ ìľ¼ë¡ľ
ê²½ ë°°
ãĤ¹ ãĥĪ
ãģŁ ãģı
ãģ®é ł
might y
ĠíĿĺ ë¦¬ê³ł
ĠìĨĮ íĴį
Ġì½ĶíĨł ë°Ķ
Ġë¹Ħ ê²ģ
ìĺĪë »Ĳ
ëĶ°ëľ» íķĺê²Į
ëĭ¬ ìĿĦ
½ì Łģ
¸ ı
any body
Ġì§ĢëĤĺ ê°Ī
Ġì¢ĭìķĦ íķĺëįĺ
Ġëĭ¬ëŀ ł
ĠëĦĪíĿ¬ ëĬĶ
Ġê±°ë¦¬ ìĿĺ
ìļ© ê¸°ë¥¼
ìĹ° ìķł
ì¹ľêµ¬ ëĵ¤ê³¼
ëıĻ ë°±
ãģĿãģ° ãģ«
Ġìĸ´ë¨¸ ëĭĺ
ĠìķĪìĹĲ ëĦ£ê³ł
Ġìĭ« ìĹĪìĸ´
Ġìĥģìĥģ íķ´
Ġì°¨ ìĺ¤ë¥´ëĬĶ
ĠëĤ¨ ìķĺìĸ´
Ġê±¸ìĸ´ ìĺ¨
Ġth or
Ġf lu
íķ¨ ìĿ´ëĿ¼
ìĺ¤ ëĬĶëį°
ìĸ´ëĶĶ ê¹Įì§Ģ
ìķĮ ë©´ìĦľëıĦ
æĦŁ ãģĺãģ¦
ĠëĿ¼ ëĶĶìĺ¤
Ġsca re
Ġma ze
Ġh orn
ë§ĪìĿĮ ìĨįìĹĲ
s us
j os
g ame
cl ou
ĠìķĦíĮĮ íķł
Ġì¶Ķ ë©°
ĠëĬĲê¼Ī ìĸ´
íĽĦ ëłĪ
ìļ ¸ì
ìĤ¼ ìķĦ
ì¹ĺ ëĭ¤
ì¤Ħ ê±°ìķ¼
c lub
Ģì© ¡
ĠíĻĶ ëģĪ
ĠíĻ© ì§ĦìĿ´
ĠìĽĥìĿĮ ìĨĮë¦¬
Ġëį® ìľ¼ìĨĮìĦľ
Ġëº¨ ìĹĲ
Ġë³´ ìķĺëįĺ
Ġë°Ķë³´ ê°Ļ
Ġwit ch
Ġvio lent
Ġt ed
Ġsp anish
Ġpri me
ìĿ´ ëŀĳ
ì°¨ ëł¤
ëłµ ëĭĪëĭ¤
ë¡ľ ìĿ´
ê°Ħ ìŀ¥
ãģį ãģ¿
shi rt
mist ry
Ġí ĹĲ
Ġê¸°ëĭ¤ë¦¬ ëĬĶëį°
Ġg listen
íŀĺ ê»ı
ìŀĺ ëĤľ
ìĪ¨ ê¸¸
ëıĮìķĦ ìĺ¤ëĬĶ
ëĤĺ ìķ¼
ê·¸ë¦¬ ìĽĮìĦľ
çľ ŀ
ea st
Ġíĥ Ķ
ĠìĹ° ì£¼
ĠìĦľìļ¸ ìĿĺ
Ġëª© ëł¨
Ġê½ĥ ëĵ¤ìĿ´
Ġê³ĦìłĪ ìĿĢ
Ġtok yo
ë³µìŀ¡ íķľ
ãģĤ ãģŁãģĹ
y í
ĠìĿ´ íĥĢ
Ġìļ¸ ìĸ´ìļĶ
ĠìĤ¬ëŀĳ íķĺëĤĺë´Ĳ
Ġë³ ¸ë
Ġêº ½
Ġrock star
Ġj en
íĽĦ ë¦¬
ë°© ìĿĺ
çĶ ¨
ti go
t ou
gh ost
con f
ĺ ëĭ¤
ĠíĿ¥ ìĸ¼
ĠíĽĦíļĮ íķĺê³ł
ĠìĹ¬íĺ¸ìĻĢ ë¥¼
ĠìĪĻ ìĹ¬
Ġì¶ķíķĺ íķ´ìļĶ
ĠëĮĦ ìĬ¤
Ġê·Ģ íķĺëĭ¤
Ġric hes
Ġj ar
Ġbutter flies
ìĸ´ëĳł ìĿĦ
ê¶ ĤìĿĢ
ê°Ķ ëĤĺ
å½ ¼
ĠíĿ¬ë¯¸ íķ´ìł¸
Ġì°į ê³ł
Ġë¶Ħ íĻį
Ġside walk
Ġneighbor hood
Ġemotion al
Ġa vo
ìĿ´ ëĸ¼
ìľł ìĿĺ
ìĻ¸ë¡ľ ìĽĢìĹĲ
ìĬ¤ì½Ķ ìĭľ
ì¹ĺíĤ¤ ì¹ĺíĤ¤
ë¨¸ë¦¬ ìĹĲ
ë§ĳ ê³ł
ppin ess
4 8
Ġíĺ¸ ìĿ´
Ġëĵ¤ ê³łìĦľ
Ġëħ¸ëŀĺ ë¶Ģë¥´
Ġë°ľê±¸ìĿĮ ìĿĦ
Ġê¸°ìĸµ íķĺëĬĶ
Ġo ho
Ġanim als
Ġa p
ì¦ Īë
ë¯¸ìķĪ íķĺëĭ¨
ak a
ĠìĿ´ê¸° ìłģìĿ¸
ĠìķĦ ìĭľ
Ġìĵ °ëĿ¼ë¦°
ĠëĤĺëĿ¼ ìĻĢ
Ġë§ĮëĤĺ ë¦¬
Ġë§ī ê³ł
Ġright eous
Ġhall s
² Ń
ħ ¸ëĿ¼
ĠíĺĦ ìŀ¬
Ġíķ© ìĨĮìĦľ
Ġì¶¤ìĿĦ ì¶Ķ
Ġëĭ¬ ëĭĺ
ĠëĦĪ ëĭĪê¹Į
Ġë¹Ħ ë°ĶëŀĮ
Ġë§ĮëĤ¬ ìĸ´
Ġvu el
Ġst oned
Ġsain ts
íĬ¸ ëĭĪ
ëªĩ ë²Ī
r at
ex cept
ĠíĳľíĺĦ íķł
Ġìł ¤
ĠìĿ¼ìľ¼ íĤ¤
Ġëª¨ ìħĶ
Ġê±· ìŀĲ
Ġhat red
íĸ¥ ê¸°ê°Ģ
ëª¨ë¥´ ê²łìĸ´
ê·¸ëĤł ìĿ´
¯ Ķì
qu it
da me
Ĺ ¼
Ġìłķ ëĭ¤ìļ´
ĠìŀĬ ìľ¼ë¦¬
ĠìĽĢì ¼ľì
ĠëĪ Īë¶Ģìĭľê²Į
ĠëĪ Īë¬
Ġë²Ī ìĿ´ê³ł
Ġê°ĢìĤ¬ ë¥¼
Ġf ir
ìĦ¸ ëĤĺìĿ´
v s
p ho
Īë³´ ë¦¬
ĠíıīìķĪ ìĿĦ
ĠëĲĺ ìŀĸìķĦ
Ġpre ach
ìķĦë¦Ħëĭ¤ ìĽłëįĺ
ë§Į ìĿ¼
ë¦¼ ìĿ´
ê¾ Ģ
ĩ í
Ġìłľ ì£¼
ĠìĿ´ë¦Ħ ëıĦ
ĠìĽĲ ì¹ĺ
Ġìĸ´ëĶĺ ì§Ģ
Ġm aid
Ġhe ight
Ġclimb ing
ìĹ¬ ê¸°ëĬĶ
ë¥¸ íķľ
ãĥģ ãĥ£
ãĥ³ ãĤ¹
9 1
Ġìĺ¬ëĿ¼ íĥĢ
Ġëļ±ëļ± íķ´
ĠëıĮìĿ´ ì¼ľ
Ġê·¸ë¦¬ìĽĮ ëıĦ
Ġê·¸ë Ł
Ġgy psy
ç ľ¼
ãģŁ ãĤī
ĠìŀĪìĿĦ ê»ĺ
Ġìŀ ī
ĠìĬ¹ë¦¬ ìĿĺ
ĠìĨĮì¤ĳ íŀĪ
ĠëĤ´ë§ĺ ìĹĲ
Ġëª¨ ìķĦìĦľ
Ġnoti ced
Ġm ass
Ġc ie
Ġba h
ì¹´ ëħ¸
ëĿ¼ ëħ¸
¼ ì§Ŀ
shadow s
fuck a
ear ly
ĠíĽ Ħíļ
ĠìĿ´ ìĭŃ
Ġìļ° ë¬¼
ĠìĹ¬ìŀĲ ì¹ľêµ¬
Ġìį¨ ë´ĲëıĦ
Ġê¿ĩ ê³ł
Ġê·¸ëŀ¬ ëįĺ
Ġê°Ī ë§Ŀ
Ġheal th
Ġcr is
íĹ¤ ìĸ´ìł¸
ìĭľíħĮ ëª¨
ê´ľ íķľ
èĥ¸ ãģ«
åĩº ãģĹãģŁ
sec ret
say in
iz ed
ĺ ĺ
ĠìĨįìĹĲìĦľ ëıĦ
Ġpull s
Ġbru ise
ìķĮ ê²Į
ëłĪëį° ëª¨
ëıĮìķĦ ìĺ¤
und erstood
Ġíķĺ ìĨĮ
Ġìļ° ëļĿ
Ġë¶Īë ¡ľ
Ġd or
Ġa wa
ëĭ ¬ì
Ġìĺ¤ ë¥¼
Ġìĸ¼êµ´ ëıĦ
ĠìķĮìķĦ ëıĦ
Ġë§Ĳíķ´ ìķ¼
Ġven us
ç ¦
æĢ ĸ
pa per
c lean
ĠìĿĺë¯¸ ëıĦ
ĠìĤ¬ëŀĮ ë§Į
Ġì¶Ķ ëĦ¤
Ġì¢ĭìķĦ íķľ
ĠëĲĺ ì£ł
Ġëª» íķĺë©´
Ġê° Ĳì
Ġz i
Ġex press
Ġa te
Ġa qu
ìĿĦê¹Į ìļĶ
ì£¼ ê¸°ë¥¼
ë°ĸ ìľ¼ë¡ľ
ê±°ë£© íķĺìĭł
è¶ ħ
æķ £
qui et
op s
Ġìļ´ ëıĻ
ĠìĹĲíĹ¤ ìļĶ
Ġìĭľê°Ħ ë§Į
Ġt umble
Ġguarant ee
Ġgroov y
ëł ĪëĿ¼
ê·Ģ ëĬĶ
temp t
rea ching
ļ ì
ĠìłĦ ë¶ĢíĦ°
Ġìĸ´ ë¥¸ëĵ¤
Ġëĵ¤ ë¦¬ëĭĪ
Ġê²ĥ ìĿ¼ê¹Į
Ġind eed
ê·¸ ë§Įíģ¼
¸Į æľĽ
ĠìĿ´ ëķħìĹĲ
Ġìĸ» ìĹĪëĦ¤
ĠìĤ´ ìĸ´
Ġì´ ĪëĮĢ
ĠëĤĺ ìŀĸìķĦ
Ġë¶Ģ ë¹Ħ
Ġê¾ ¹
Ġê³³ ê¹Įì§Ģ
Ġer r
Ġdre ad
ìĭ¬ íķĺê²Į
love d
d as
ĠìĿĢíĺľ ìĿĺ
ĠìĿ¸ëĶĶ ìĸ¸
Ġë³´ ìķĺìĸ´
Ġë¬´ìĹĩ ìĿ¸ì§Ģ
Ġwar n
Ġhand some
íŀĺ ì°¨ê²Į
íİ¸ ì§Ģ
ìł¸ë ³´
ìĹī ê¸Ī
ìĦ¤ëłĪ ìĿ´ëĬĶ
ëŃĲ ëĿ¼
ë» ¥
ë¶Ģëĵľ ëŁ½ê²Į
ê°ľ ê°Ģ
æľ Ł
ow s
laugh ing
a th
Ġto ll
Ġarri ve
íķĺ ì¦Ī
ìļ© ê°Ĳ
ìĸ´ ìŀĪëĬĶ
ìĬ¤ ì¹ĺëĬĶ
ì°¨ ì¹´
ëĭ¤ íĤ¤ìĭľ
ëħ¹ ìķĦ
ë©Īì¶° ë²Ħë¦°
ê¸° ìĻĢ
ç¹ °
ãĥ³ ãĥĪ
celebr ate
b at
ĠíĪ¬ ëªħíķľ
ĠìłĬ ìĿĮ
ĠìŀĦ ìŀ¬
ĠìķĬìĿĦ ê»ĺ
Ġìĭ¶ ëĭ¨
ĠìĬ¤ ë¬´
ĠìĪ¨ìī¬ ê³ł
Ġì¹ ĺì
Ġì¡° ìļ©íķľ
Ġë§İ ìķĺëįĺ
Ġindi ans
Ġb id
Ġave c
ìĺ¤ëĬĺ ì²ĺëŁ¼
ê¸ Īë°©
å¤ «
f fo
as hes
Ġìļ´ëªħ ìĿĺ
ĠëĤĺ ê°ĢëĬĶ
Ġë°ĶëĢ Įìĸ´
Ġë°° ëł¤
Ġgeor ge
ì§Ģ ë¦¬
ëĭ´ ìķĦ
ëĤĻìĹ½ ìĿ´
éģķ ãģĨ
æĤ Ķ
ta kin
0 9
Ġpo in
ì¢ĭ ìķĦìļĶ
ëł¥ ìĿĦ
ëĭ¤ ëĿ¼
ëĦĺ ì¹ĺëĬĶ
ë¨¹ ëĬĶ
ë¨¸ë¦¬ ë¶ĢíĦ°
um in
g rap
ĠìĨĮë¦¬ ì§ĪëŁ¬
ĠìĥĿ ìķł
Ġë§Īì ¤ĳ
Ġê°Ĳ ìĭ
Ġth read
Ġje we
Ġfie nd
íĮĲ ìĿĦ
ëĭ¬ëł¤ ê°Ģ
è¨ ±
æī ĵ
s we
Ĥ ²
Ġíı¬ ëıĦ
ĠìĿĺ ìĭĿ
Ġìļ° ìĬ¤
Ġìĸ´ëĶĺ ê°ĢìĹĲ
Ġë°ĸ ìĹĶ
Ġê¸° ìĸ´
Ġpha se
Ġp ep
Ġali en
ìĺ¤ëĬĺ ë¶ĢíĦ°
ìĦ¸ìĽĶ ìĿĢ
ëĺĳ ë°Ķë¡ľ
ëĪĦêµ°ê°Ģ ë¥¼
he m
ha ppiness
? ,
ĠìĽĲ ìĪĺ
ĠìĺģíĻĶ ë¥¼
ĠëĿ¼ ëıĦ
Ġëĭ¤ ëĭĲ
ìĤ´ ìĿĦ
ì£¼ ìĿ¸
ãģĭ ãģĳ
ãģ¾ãĤĭ ãģ§
ĠìĻ¸ë¡ľ ìĽĮëıĦ
Ġì°½ ë°ĸìĿĦ
Ġëĵ£ ê²Į
Ġë§ĮëĤĺ ìŀĲ
Ġi o
íĨł ëıĦ
ìĸ »
ìĦ±ëł¹ ìĿ´
ë§Į ìĽĲ
Ġíķľ ë°ľ
ĠìĿ¼ ëŁ¬
ĠëĤ´ê°ĢìĬ´ ìĹĲ
Ġch rome
íİ¸ ëĭ¨ìĭ¬
ëįĶ ìļ´
ë¡ľ ë¶ĢíĦ°
ãģ§ ãģĹãĤĩãģĨ
scream ing
is sip
bb ing
Ġíĳ ¸ë¥
Ġìĸ¸ ëĭĪ
ĠìĨĶ ë¡ľ
ĠìĤ° ëĭ¤ëĬĶ
ĠëĶ°ëľ» íķ´
ĠëıĮìķĦ ìĦ°
Ġë° §
Ġë¯¿ ìĹĪëĬĶëį°
Ġê·¸ëĤł ìĹĲ
Ġju li
Ġgentle man
íĹ ĪëĿ½
íĶ¼ ê³ł
íģ¼ íķľ
ì¼Ģ ë¡ľ
ê° Īëł¤
ãĥ¼ ãĥĪ
³ ê
mur der
ano id
ĠìŀĶ ëĶĶ
ĠìķĦëĭĪ ê¸¸
Ġëĭ¬ëł¤ ìĻĢ
Ġto re
Ġsor t
Ġdivi de
ìŀĲê¸° ìķ¼
ëĬ ¬
w ea
m ou
ĠìĤ¬ëŀĳíķĺ ê¸°ìĹĲ
Ġs ke
Ġs ans
Ġh ah
ìłĦ ìĿĦ
ìĦł ìĿĺ
éł ĥ
ãģ¨ ãĤĤ
Ġíķł êº¼ìķ¼
ĠíķĺëĬĺ ìķĦëŀĺ
Ġì§Ģ ë°°
Ġë¹Ħì¶Ķ ëĦ¤
Ġë§Į íķľ
Ġê±°ì§ĵ ìĿ´
Ġbut ton
ëķħ ìĿĦ
ê¹ ľì§Ŀ
è Ń
æĢĿ ãģĨ
00 00
Ġê¸°ëĮĢ ê³ł
Ġro yal
Ġhaun ted
Ġg all
Ġdoub ts
Ġac hi
ìľ¼ìĵ± ìľ¼ìĵ±
ìĺĢ ëĭ¤
ìĺ¤ ìļ°
ì£¼ ìľĦë¥¼
ë¨¹ ìĿĢ
ë§ŀ ìķĦ
ãģ® ãģķ
ure s
ĠìĺģìĽĲ íķĺê¸¸
ĠëĦĪëĿ¼ ê³ł
ĠëĤ´ ëĤ´
Ġë² ¼
Ġë°Ģëł¤ ìĻĢ
Ġë¯¿ ìľ¼ë©°
Ġv in
Ġp aw
ìĭľ ëĮĢ
ë²Ĺ ìĸ´ëĤĺ
è¦ĭ ãģĪãģªãģĦ
ãĥ¼ ãĥ«
inter lude
ľ ¬
ĭ ¿
ĠìŀĪ ëĬĲëĥĲ
Ġì¶Ķìĸµ ë§Į
Ġë°Ŀ íŀĪ
Ġë°ĶëĿ¼ ë´ħëĭĪëĭ¤
Ġê¸ ¸ìŃī
Ġê±° ëĳĲ
Ġstay in
Ġcru ise
ìł¸ë²Ħ ë¦´
ìĿ¼ ì§ĢëĿ¼ëıĦ
ìľ¼ ìĦ¸ìļĶ
ê°Ģ ëĭ¤
ĠëħĦ ìĿ´
Ġë¶Ģ ìĹ¬
Ġëª¨ìĬµ ëĵ¤
Ġë§ĮëĤł ê¹Į
Ġê¸¸ ê²Į
Ġu mm
Ġdid dy
íŀĺëĵ¤ìĸ´ ëıĦ
íĮĮ ìĨĶ
ì¹´ëĤĺ ìĭľ
ëª© ìĹĲ
t an
sp it
Ġfoo led
ãĤĴæ Ĭ±
ster n
Ġíĺ¸ íĤ¤íı¬íĤ¤
ĠìĭľìłĪ ìĹĲ
Ġê°Ģ ê²łì§Ģ
Ġal cohol
ê¿Ī ë§Į
ãģĵãģ® ãģ¾ãģ¾
vi a
ru b
issip pi
ĵ ¨
ĠìĹ´ ëł¤
ĠìĹ¬ê¸° ëĬĶ
ĠëĬĲê¼ Īëįĺ
Ġë¶ĢìĦľ ì§ĢëĬĶ
Ġêµ¬ë¦Ħ ìķĦ
Ġkn eel
Ġj aw
íķĺëĬĶ ê²Į
ìķĬ ìĿĦ
ç ĭ
he ro
fl ash
Ġíĺ¼ìŀĲ ë§ĮìĿĺ
Ġíķĺ ëĵł
ĠìĤ¬ëŀĳíķĺ ìĤ¬
Ġê²Ģ ê²Į
Ġê°Ĳ ìĺ¥
Ġde ck
Ġcher ish
Ġblo s
Ġbase ment
ìĹ¬íĺ¸ìĻĢ ëĬĶ
ìĤ¬ ìĺ¤
ë¯¸ ìĻĢ
ê¿ ĩ
ê¹Ģ ì¹ĺ
up on
a to
Ġìĺ¬ëł¤ ëĭ¤
Ġë³¸ ëĬ¥
Ġm ate
ìĬ¤ ë¬´
ë İĮ
ĠìľĦíĹĺ íķľ
Ġìĺ¨ ìłĦíŀĪ
ĠìķĦëł¨ íķľ
Ġì¹ĺ ë©´ìĦľ
Ġëĭ¬ìķĦ ëĤĺ
ĠëĬĳ ëĮĢ
Ġê¾Ģ ê¼¬ë¦¬
Ġê·¸ëĮĢ ëª¨ìĬµ
Ġme xico
ìŀĦ ìĿ´
é¢¨ ãģ«
äº ¤
st u
ĠíķĺëĬĶ ê°Ģ
ĠìĻĢ ìĬ¤ëłĪ
ĠëĮĢ ì¶©
Ġë¬´ìĹĩìĿ´ ëĵł
Ġpra cti
Ġol vi
Ġbeg gin
ìĭľê°Ħ ìĿĺ
ëĤĺëŀĢ íŀĪ
ê¸ Ģí
ê³ł ê°¤
Ġíģ° ìĨĮë¦¬
Ġìĭľ ìĭľ
ĠìĥĿê°ģ ë³´ëĭ¤
Ġë§Īì °¨
Ġover come
Ġef fect
ìĹ Ħì
ì½Ķ ìĻĢ
ëĭ¤ì¼Ģ ëį°
see ing
į¨ ãģ¦
Ġíı¬ê¸° íķł
ĠìĦ Ń
ĠìĤ´ ë©´ìĦľ
Ġì¹ľêµ¬ ë¡ľ
ĠëıĻ ë°ĺ
Ġëį° íĤ¤
Ġê±¸ìĿĮ ìĶ©
Ġspeak s
Ġcot ton
íķĺë¦¬ ëĭĪ
ìŀĲ ìĻĢ
ì¹ĺ ëħ¸
ì£¼ ê¸°
ë§¨ ëĤł
æĻĤ ä»£
l c
ine m
ei ther
ĠìĽĢì§ģ ìĿ¼
Ġì¹ľêµ¬ ëıĦ
Ġì§Ħ ëĭ¬ëŀĺ
Ġì§ ļ
Ġì ĩł
ĠëĦĺìĸ´ ê°Ģ
Ġë¹łìł¸ëĵ¤ ìĸ´
Ġë³Ģ íķĺê³ł
Ġt am
Ġspo on
Ġau f
ìĤ° ëĵ¤
ëĦĪë¬´ ëĦĪë¬´
ë¶ĦìľĦ ê¸°
ë´¤ ëįĺ
ë°Ķëĳĳ ìĿ´
ĠìĪĺ íıīìĦł
ĠìĨį ê³ł
Ġì§Ģ ëĤ¼
Ġì£¼ ìłľ
ĠëıĦ ë¡ľ
Ġsnow man
ë³Ģ íķľ
ëª» íĨł
ç¹ ĭ
æľ¬ å½ĵ
æĹ¥ ãĢħ
å® Ł
do ctor
ĠíļĮ ê°ľ
ĠìĨĮ ëĤĺê¸°
ĠëĨĵ ì¹ĺê³ł
Ġëª» ìŀĬ
Ġë§ĲìķĦ ì¤ĺìļĶ
Ġz om
Ġsli pped
Ġh ating
íĥĢì ¼Ģ
ì¤Ģ ëĭ¤
ĠìŀĦ ìĿĢ
ĠìĽĲ íķĺë©´
Ġìĸ´ëķĮ ìĦľ
Ġì§Ģê¸Ī ê»ı
Ġê²¨ìļ¸ ìĹĲ
Ġê±° ê¸°ìĹĲ
Ġwe i
ì§ĵ ê³ł
ê°Ħ ì§Ģ
ç´ Ħ
ä½ ¿
wo h
sw ear
ĠíĮĮëıĦ ì²ĺëŁ¼
Ġìļ¸ë ¨¹
Ġìĸ´ëĸ¨ ê¹Į
ĠìĥĿê°ģ íĸĪëįĺ
Ġë¹Ħë°Ģ ìĿĦ
Ġë´Ħ ë°ĶëŀĮ
Ġê·¸ëŁ¬ ëĭĪê¹Į
Ġsto ppin
Ġp uzz
Ġk om
ìŀİ ìĿ´
ìĿ´ë¦Ħ ìĿĦ
ìĽĮ ìĸ´ìĸ´
ìĺ¤ëŀĺ ìłĦ
ì²ĺë ¿ĲìĿ¸
ê¸Ģí į¼
Ŀ íģ´
Ġìļ°ë¦¬ ëĵ¤ìĿĦ
ĠìĻ Ģì
ĠìĬ¬íĶĦ ì§Ģ
ĠìĪł ëŀĺ
Ġì§Ģì³Ĳ ëıĦ
ĠëĤĺê°Ģ ìĭłëĭ¤
Ġëªħ ëł¹
Ġê°ķ ëĤ¨
Ġreme dy
Ġo cc
ìŀĲ ì£¼
ìĿ´ íĮħ
ãģĭãĤī ãģªãģĦ
Ġìķł íĥĢëĬĶ
Ġìĭ¬ íŀĪ
Ġtri es
Ġje lly
Ġau tomatic
ëĿ¼ ë©°
se at
g ers
ļ Ħ
Ġíĸīë³µ ìĿĢ
ĠìĤ¬ëŀĳíķĺëĬĶ ì§Ģ
ĠëģĿ ìĹĶ
Ġê²¨ ìĽĮ
Ġto tal
Ġsearch in
Ġi ve
Ġhar lem
ãģª ãģ©
su ck
op h
la ce
h onest
ĠíŀĪ íĨłì¸ł
ĠìŀĪìĹĪ ì§Ģë§Į
Ġë³´ìĿ´ ëĦ¤ìļĶ
Ġë°ĶëŀĮ ê²°ìĹĲ
Ġë¯¸ìĨĮ ë§Į
Ġê³µ ë¡ľ
Ġswo re
Ġsit s
Ġex cept
Ġcl ai
Ġcar pet
Ġb ind
ëĭ¨ íķ´
ë¶Ħëªħ íŀĪ
w d
p an
m my
ĠìłĢ ë¬¼
Ġì¢ ĩ
Ġëĵ¤ ìľ¼ë©´
ĠëĬĲê»´ ìļĶ
Ġunk ind
Ġunderstand s
Ġspr ay
Ġhonest ly
Ġha b
Ġfli rt
ìĿĮìķħ ìĿ´
ìĭł ìĿĢ
ë¶Ģì¡± íķľ
æĬ ľ
åĥķ ãģĮ
å¹ ³
funk y
ĠìŀĦ ìĿĦ
Ġìĸĺê¸° íķĺì§Ģ
ĠìķĪ ê¸°ê³ł
Ġìį°ë§¤ ë¥¼
ĠìĦłíĥĿ íķľ
ĠëĪ Īë³´ëĿ¼
Ġë¨¹ ì§Ģ
Ġê±°ìļ¸ ìĿĦ
Ġsno op
Ġod ds
Ġab sol
íİ Ĳ
ìĺ¤ íķ´
ìķĦíĶĦ ì§Ģ
ìĥģì²ĺ ë¥¼
ëĪĦêµ°ê°Ģ ìĿĺ
ê¿ Īì²ĺëŁ¼
ê·¸ëĵ¤ ìĿ´
çĽ ¸
pa th
ĠíĻĺ íŀĪ
Ġíĺ¼ ëŀĢ
ĠìŀĪ ìĿĮìĹĲ
ĠìĽĥ ìĸ´ëıĦ
ĠìĹ´ ìĸ´ëĿ¼
Ġìķ Įì
Ġsurround ed
Ġfight s
ìĺ¤ ëĦ¤ìļĶ
ì ¬
ê¸°ìģ¨ ìĿĺ
ur ally
ord in
. â
ĠìłĦ ì§Ħ
ĠìĿ´ìĥģ ìĿĺ
ĠìĹ¬ ë³´
Ġêµ¬ë¦Ħ ìĿĦ
íĨł ëħ¸
ìĬ¤ ë°Ķ
ëŀĢ ê±¸
ë¹° ë¹°
ë°Ķ ìģľ
å± Ĩ
ãģį ãĤī
¨ į
Ġíķĺ ëįĶëĿ¼
Ġì§ĢëĤĺ ìĺ¨
ĠëĤłìķĦ ìĦľ
Ġë°Ľ ìľ¼ë©°
ĉĠĠĠĠĠĠĠĠĠĠĠĠĠĠĠĠ ĠĠĠĠĠĠĠĠ
íķľ ì¤Ħê¸°
ìĨĮ ë¦´
ëıĮìķĦìĦľ ë©´
ëĤ ©ëĭĪëĭ¤
ë¹Ħ ë°ĶëŀĮ
ê°Ĳ íŀĪ
ãģĦ ãģ®
ta ste
sit tin
say s
rou s
ķĮ ë¬¸ìĹĲ
ĠìłĦë¶Ģ ê°Ģ
Ġìĸ¸ìłľ ëĵłì§Ģ
Ġìĸ »ê²Į
ĠìķĪíĥĢê¹Į ìļ´
Ġë§Į ìĿ´
Ġê°Ģ ë¬¼
Ġprison er
íĨł ì¹´
ì§ĳ ëĭĪëĭ¤
ëĦ Īë³´ëĭ¤
ë¹µ ë¹µ
åħ¨ éĥ¨
ãģĪ ãģŁãģĦ
âĪ ¼
ħ ¸ë
ĠëĲĺ ëĭĪê¹Į
Ġë§ĮëĤ¨ ìĿĢ
Ġê¼¬ ë¶Ģëŀĳ
Ġw eal
Ġsho pping
Ġpresi dent
Ġbath room
ìļĶ ìļ°
ìĭ¶ ëĭ¤
ëĤĺ ë¹Ħê°Ģ
ë² ĪëįĶ
ä¸į å®ī
¸ëĵ ±
ĠíĿ° ëĪĪìĿ´
Ġíĺķìłľ ìĹ¬
Ġíĸīë³µ íķ©ëĭĪëĭ¤
Ġìŀĥ ìĸ´ëıĦ
ĠìĥĿê°ģ íĸĪëĬĶëį°
Ġì¤Ģë¹Ħ ë¥¼
ĠëĪĪë¹Ľ ëıĦ
ĠëĤĺ ë¹Ħê°Ģ
Ġë¹¨ ê°Ľê²Į
Ġê¿Ī ê°ĻìĿĢ
Ġê±°ìĬ¬ ëŁ¬
Ġdescri be
ì¢ĭ ìķĺëįĺ
be lls
Ħí Ľ
Ġìĺ¤ì ħ¨
ĠìĦł ëħĢ
Ġëª°ëŀĲ ì£ł
Ġpart ner
íķł ëŀĺìļĶ
ìķŀ ë§Į
ìĭľì¿ł íħĮ
ë¯¸ ë¦¬
ê°Ģ ìľĦ
ĠìłĦë¶Ģ ëĭ¤
Ġì¡° ìļ©
Ġëĭ®ìķĦ ê°ĢëĬĶ
ĠëĤĺëĪł ìļĶ
ĠëģĿ ëĤ¼
Ġë°© ìķĦ
Ġn et
Ġmel ting
Ġdist ra
Ġc ous
íı ¬ì
ìŁ ¤
ëıĮìķĦ ìĺ¤ì§Ģ
ëª¨ ë¥´ê²Į
can t
ĠíĿĺ ë¦¬ì§Ģ
Ġíķľ ë°¤
ĠíĤ¤ë¯¸ ëĭĪ
Ġìłģ ìĭľ
ĠìĻ¼ ìĨĲ
ĠìĺĽëĤł ìĹĲ
Ġëĭ¤ ë¦¬ë¥¼
Ġwe b
Ġd up
Ġc ities
Ġ ~~
íķĺ ìĺ¤ëĭĪ
íĪ¬ ëªħíķľ
ìĺĪìĪĺëĭĺ ìĿĺ
ë¬´ ìĭ¬íķľ
ê·Ģ ìĹĲ
æĪ Ĳ
se mble
g ent
ba m
b as
ĠìĻ¸ ìĽĮ
Ġìĺ¤ ë¥´ëĬĶ
ĠìķĪìķĦì£¼ ìĦ¸ìļĶ
ĠìĪ ĺì
Ġë³´ëĤ´ ìļĶ
Ġæ ĻĤ
Ġsound track
Ġpi pe
ëłĮ ì§Ģ
ë¬´ ìłķíķľ
ç ģ«
ãĤĴæ İ¢
kiss ing
fl ower
and e
Ġíķ¨ê»ĺ íķ´ìļĶ
ĠìĤ¬ íĥķ
ĠìĤ¬ ê°Ģ
Ġì½Ķ ê°Ģ
Ġì²Ń ëħĦ
ĠëĳĲ ëĪĪìĿĦ
ĠëĲ łêº¼ìķ¼
Ġê°ķ ìļĶ
Ġcu be
íķĻ ìĥĿ
ìĤ´ ìĤ´
ì§Ħ ìĭ¬ìľ¼ë¡ľ
ëĬĲëĤĮ ìĿ´
ë´Ĳ ë´Ĳ
åĸ ľ
ãģ£ ãģ¡
spin ning
qui la
per haps
ki ds
ch y
.... ...
ĠìĿ´ ìĹĲ
ĠìĹ¬ìŀĲ ëĵ¤
ĠìķĮ ì£ł
Ġì°¬ìĸĳ íķĺë©°
Ġì¡°ê¸Ī ëıĦ
Ġë¬ ´ì
Ġê°ĲìĤ¬ íķĺë©°
ìĹĲíĹ¤ ìļĶ
ì°½ ë¬¸ìĿĦ
ì§ĢëĤľ ëĤł
ëį© ìĿ´
ç »
ãģķ ãĤĮãģŁ
me l
ĠìĿ´ë¦¬ ëıĦ
ĠìĬ¤ë©° ëĵľëĬĶ
Ġë¬´ëĦĪ ì§ĢëĬĶ
Ġë§ĳ ê³ł
Ġê°Ģìł¸ ëĭ¤
Ġwho re
Ġup town
Ġspa ces
íĤ¤ ë¦¬
ìĥģ íķ´
ëĳĲëł¤ ìĽĢ
ë¯¸ íĥĢ
êµ° ìĿĺ
ê³µ ë£¡
èª° ãģ«ãĤĤ
ĠíĨµ íĻĶ
Ġìļ°ë¦¬ ëĤĺëĿ¼
ĠëĴ ¹
Ġëĭ¹ìĭł ë§Į
ĠëĪĪ ë§Ŀìļ¸
Ġë§Ĳ ìĸ´ëĿ¼
Ġu mb
Ġremin is
Ġman kind
Ġd ump
Ġcri minal
íĳľ ìłķ
ìĿ´ë²Ī ìĹĶ
ãģ® ãģ¾ãģ¾
era de
ĠìķĦëĭĪ íķĺë©°
Ġìĭľìŀĳ ìĿĢ
ĠëĤĺëĪ ´
Ġê²½ ê³Ħ
Ġtender ness
Ġr im
Ġpro vi
Ġfriend ly
Ġcheck ing
Ġbri cks
íħĮ ìľłì¿ł
ìĦ¸ì¸ł ëĤĺ
ê°Ķ ëĦ¤
æŃ »
âĢ ķ
ĠìĹĦë§Ī ê³°
Ġìĸ´ì©Ķ ìĪĺ
ĠìķĬ ê²łì§Ģë§Į
Ġìĭ¶ êµ¬ëĤĺ
ĠëĤ´ê³ģ ìĿĦ
Ġpick ing
Ġp ala
Ġlem me
Ġl end
Ġd well
ìĽĮ ìĸ´
ìķĦ ìĻĢ
ìĪĺì¤į ìĸ´
ëªħ ìĿĺ
ê·¸ëķĮ ê°Ģ
è¨Ģ ãģĨ
§ ´
gen cy
į ľ
Ġíĳľìłķ ìľ¼ë¡ľ
Ġìĸ´ ìĿ´íķ´
ĠìĤ¬ìĿ´ ë¥¼
ĠëĮ ĵ
Ġê½ĥ ë°ĶëŀĮ
Ġsw er
Ġh us
ìĿĺ ìĹĲ
ìĿ¸ íĺķ
ìĥĿê°ģ ìĹĲ
ì°¾ ìĿĦ
ëĮĢ ëįĺ
ë¥´ ëĦ¤
³¤ ìĸ´
li st
Ī ¼
ĠìĨĮìļ© ìĹĨìĸ´
Ġìĥģê´Ģ ìĹĨ
Ġì¼ ł
ĠëĤł ë¶ĢíĦ°
Ġth ighs
íĺ¸ ìĿ´
ìĥ Īì²ĺëŁ¼
ëŃĲ ëĵłì§Ģ
æ°£ æĮģãģ¡
âĢĻ ,
ĠìĦ¹ìĭľ íķľ
ĠìĥĪë¡ľ ìĽĮ
Ġëĭ¤ê°ĢìĻĢ ì¤ĺ
ĠëĤ¨ ìķĺëĦ¤
Ġë³Ħ ëıĦ
Ġê¸°ëĭ¤ ë¦½ëĭĪëĭ¤
Ġe res
Ġbl unt
ìĸ ¼ìĶ¨êµ¬
s pace
me lo
d one
6 9
" .
ĠìŀĬíĺĢ ì§Ģì§Ģ
Ġìĥģì²ĺ ëĬĶ
Ġì« Ħ
Ġë£ ¸ë°Ķ
Ġê°Ģë¥´ì³Ĳ ì¤Ģ
Ġg ue
Ġfor given
ì£¼ ë¨¹
ëķ¡ ëķ¡
sha me
n x
con ne
ĠìŀĪë ĵłì§Ģ
ĠìŀĪ ìĹĪëĭ¤
Ġìļ° ìłķ
ĠìĨĮë¦¬ ë§Į
ĠëĤĺ ëĿ¼ëĬĶ
Ġup s
Ġtri pping
íĶ¼ ë¥¼
ìŀłìĭľ ëĿ¼ëıĦ
ìĤ¬ ë¬´
ì²ľ ëħĦìĿĦ
ë³´ íĺĪ
ê² ¸ìĨĲ
è¨Ģ ãĤı
erna lly
bu st
Ġíķ¨ ìĦ±
Ġìĺ¤ëĬĺ ì²ĺëŁ¼
ĠìķĦ ëĭĪê¹Į
ĠëĨĴìĿ´ ë¦¬
Ġë¯¸ìĨĮ ìĻĢ
Ġë¬´ìĸ¸ ê°Ģ
Ġrab bit
Ġdea f
Ġa ce
íķĺ ê³¤
ìŀ¡ ì§Ģ
ìĭľ ìļ¸
ìī¬ ì§Ģ
ëĸ¨ ìĸ´ì§Ħ
ëĨ Īëĵ¤
ë§Ĳ íķ´ì¤ĺ
ê·Ģ ì°®
sw er
ĠíĿĲ ëĬĲê»´
Ġíķĺ ì§Ħ
ĠëĲĺìĸ´ ë²Ħë¦°
ĠëĮĢëĭµ ìĿ´
Ġë²Īì ©į
Ġë°ĸ ìĹĲëĬĶ
Ġti ming
Ġlem on
Ġfo x
Ġcause d
ëįĶ ëĿ¼ê³ł
ê°Ļ ìķł
w ra
spe cial
p ha
mi ly
Ġíŀĺ ê²¨ìĽĮ
Ġëĸł ëıĦ
ĠëĤ¨ìŀĲ ë¡ľ
Ġë¬¸ ìĿ´
Ġë¨¹ ìĸ´ëıĦ
Ġë§Ĳ ëĵ¤ë¡ľ
Ġstr ain
Ġstart in
Ġde j
Ġbou lev
ìķ łì
ìĭľê³Ħ ëĬĶ
ëıĦ ìĺ¤
ëĪ Īì
se qu
c up
ĠìķĦë¦Ħëĭ¤ìĽĮ ìļĶ
Ġì¹ľ íķľ
Ġëĵ¤ íĤ¬
ĠëģĬ ìŀĦìĹĨìĿ´
Ġëª¨ë¥´ ê²ł
Ġê¹ľ ë°ķ
Ġfi red
ìĤ° ê³¨
ì£¼ ë§Ĳ
ëĤ¯ìĦ¤ ìĿĢ
wonder ful
ord an
less ly
ĠíĬ ķ
Ġìĸ´ ê¸ĭ
Ġì§Ģìļ° ì§Ģ
ĠëģĪ ìĿĦ
Ġë¹Ħ ì¶ľ
Ġser vice
Ġpl atinum
íĻĶ ìŀ¥ìĿĦ
íĸīë³µ ìĿĺ
íĪ¬ ë¥¸
ìŀĺ ê°Ģ
rel ease
ĠíĸĪ ëĭĪ
Ġìĭ± ê¸Ģ
Ġë§¥ ì£¼
Ġê·¸ëłĩ ê³ł
Ġto c
Ġsha dy
íķł ìĪĺë¡Ŀ
íĥĢ ë¹Ħ
ìĸ´ë¨¸ ëĭĺ
ìĸ´ ëķĮ
ê°ľ ìļ¸
f ur
ar re
ģì ŁģìĿ´
ĠíĴį ëŀĳ
Ġë¬¼ ë¦¬
Ġsight s
Ġ ãģª
íĨ¡ íĨ¡
ìłĢ ë§Īëĭ¤
ìĿ´ ìĪľê°Ħ
ìľ¼ ëĥĲ
ê°Ĳ ì¶°
si des
Ġíŀĺëĵ¤ ìĹĪëįĺ
ĠìĤ´ìķĦê°Ģ ìķ¼
Ġì¶ĺ ëĭ¤
ĠëļĿ ëļĿëļĿ
Ġpear ls
Ġg ear
Ġco eur
ìłĲ ìĿ´
ìŀĪëĬĶ ì§Ģ
ìĸ´ ë¡ľ
ëıĮìķĦ ê°Ģ
he al
ĠìĤ¬ëŀĮëĵ¤ ìĹĲê²Į
Ġë°Ķë³´ ìĺĢ
Ġë°© íķ´
Ġê·¸ë¦¬ìĽĮ ìł¸
Ġê±¸ìĸ´ ê°ĢëĦ¤
Ġê°Ģ ê¹Ŀ
Ġperfect ly
Ġm ig
íĺ¸ ìĭľìĿ´
ìĤ¬ëŀĳ íķĺë©´
ìº ĦìºĦíķľ
ì§ ĪìĪĺë¡Ŀ
ì£½ ìĿĮ
ê¸ ĪëįĶ
ê·¸ ìłľ
Ħ ¬
ĠìĹ° ê·¹
Ġì²Ńì¶ĺ ìĿĦ
ĠëĪĦêµ¬ ìĹĲê²Į
ĠëĤłìĶ¬ íķ´
Ġë¶Ģ ìŀĲ
Ġrat tle
íĥĢì¿ł íħĮ
ìłľ ëĮĢë¡ľ
ìŀłê¹Ĳ ë§Į
ìĬ¤ íĬ
ëĭµ ìĿĢ
ê°Ģ ë§Į
p it
ĠìľĻ íģ¬
ĠìķĬìĿĢ ëį°
Ġë³´ ìķĦëĿ¼
Ġëª¨ ê¸Ī
Ġë§ĲíĸĪ ìŀĸìķĦ
Ġpro phe
Ġnut tin
Ġless ons
Ġbe lle
íĤ¤ íĥĢìĿ´
ëĤĺ ê°Ī
lle ge
Ġìļ¸ ëĭ¤ê°Ģ
ĠëŃĲ íķĺëĭĪ
Ġë¯¸ë £¨
Ġë§Ľ ìŀĪìĸ´
Ġê²ĥë§Į ìľ¼ë¡ľ
Ġste pping
Ġs ar
Ġas sist
íĥľ ìĸ´ëĤĺ
ìĤ¬ëĬĶ ê²Į
ì¹ «
na de
en ts
? '
Ġìłķ ì²ĺ
Ġìĭ¬ìŀ¥ ìĹĲ
ĠëĦĪ íķľíħĮ
Ġë¬´ìĹĩ ê³¼ëıĦ
Ġë§Įëĵľ ìĭł
Ġtru mp
Ġsend ing
Ġe du
íı¬ ë¡ľ
ìĹ Īìľ¼ëĭĪê¹Į
ìķĦì£¼ ìĦ¸ìļĶ
ëĭ¬ ë¹ĽìĿ´
ë³´ê³ł ìĭ¶ìĿĢ
ë°ĺë³µ ëĲĺëĬĶ
ãģĤãģªãģŁ ãĤĴ
so line
ĠìŀĦ ìķĦ
ĠìĭŃìŀĲê°Ģ ìĿĺ
Ġì§Ģì¼ľ ì¤ĺ
Ġì¤ į
ĠëĤ¨ê²¨ ìł¸
Ġë¯¸ë ¤Ħ
Ġê°Ļ ëĭ¤ê³ł
Ġê°ĢëĬĶ ê±°ìķ¼
Ġmon de
Ġdest ro
íķ´ íĶ¼
ì° »
ì§Ī ìĿĦ
ëĤ ¨ì
ãģķ ãģĤ
ãģ©ãģĵ ãģĭ
br own
ĠíĤ¤ìĬ¤ ë¥¼
Ġìļ°ë¦¬ ëıĦ
Ġìĸ´ë¦° ìķł
ĠëĤł ìľ¼ëĬĶ
ĠëģĬ ìĿĦ
Ġë§Ĳ ê³¼
Ġêµ¬ìĽĲ íķĺìĭł
Ġê³³ ìĹĶ
Ġê±° ëĬĶ
Ġus ually
Ġm ouse
Ġgl ea
íĿ¬ë§Ŀ ìĿĺ
íĥľ ìĸĳìĿ´
ìĿ¸ìĥĿ ìĿ´ëŀĢ
ëį° ëłĲ
ëĤł ìķĦê°Ģ
ê±°ë¦¬ ìĹĶ
æŃ £
ĠìĿ´ëŁ´ ê¹Į
ĠìļĶ ëłĩê²Į
ĠìĶ Į
ĠìĦ¸ê³Ħ ë¥¼
ĠëĦ¤ ê²Ĳ
ĠëĤĺëĤĺëĤĺ ëĤĺëĤĺ
Ġëºı ìĸ´
Ġë´Ĳ ìķ¼
Ġë° ĺëĮĢë¡ľ
Ġski ll
Ġh ail
Ġfind s
Ġa k
ìļ¸ë ©°
ìĺĢ ì§Ģë§Į
ìĹĲìĦľ ëĬĶ
ëł¥ ìĿ´
ê·¸ ê±°
çª ģ
æĻ¯ èī²
j ours
ĸ ł
Ħ °
Ġíķ´ ë³´ìŀĲ
Ġíĥľìĸĳ ì²ĺëŁ¼
Ġëĭ¨ ë¹Ħë¥¼
Ġëĭ¤ìĭľ íķľë²Ī
ĠëĤ´ìĿ¼ ë¡ľ
ĠëĤ¨ ê¸°ì§Ģ
Ġë°ľ ìŀĲìļ±
Ġë°ĶëĿ¼ ë³¸ëĭ¤
Ġë§Į ì§Ī
Ġê¸°ëıĦ íķĺëĦ¤
Ġpas se
Ġde ja
Ġback wards
íĶĦ ë¦¬
ìĿ¼ê¹Į ìļĶ
ìļ° ëħ¸
ì§Ħìĭ¤ íķľ
ë¹Ħ ìķĦ
f ra
b ility
ĠíķŃ íķ´
ĠìĻľ ìĿ´ë¦¬
Ġìĸĺê¸° ëıĦ
Ġìĸ´ê¹¨ ê°Ģ
Ġì²ľ ë¦¬
Ġëķħ ìľĦìĹĲ
Ġëĭ¹ íĻ©
Ġë§¡ ê¸´
Ġë ŀĮ
Ġê¸°ëıĦ íķĺëĬĶ
íķĺ ëŀ´
ìĤ¬ëŀĳ ë§Į
ì¹ĺ ìĺ¤
ëĤ´ë§ĺ ìĿĦ
ë§ŀ ìĿ´
ê·¸ëŀĺ ìķ¼
´ æĸ¹
n one
e at
Ĥ µ
ĠìĽ ģëĭĪëĭ¤
Ġìļ¸ì§Ģ ë§ĪëĿ¼
Ġìĺ¤ ë¥¸ë°ľ
ĠìĨĲ ë°Ķëĭ¥
ĠëĶ°ë¥´ ë¦¬
Ġëĭ¹ íķľ
Ġcoll ar
íŀĪ ê²Į
ìĨĮ ìļ©
ë§ ¡
ê·¸ ê²ĥë§Į
æĺ ¨
ãģ£ãģ¦ ãģı
he e
Ġìľłì¹ĺ ìĽĲ
Ġìĭ¸ ëĬĺ
Ġë² ¨
Ġste ppin
Ġr ally
Ġp lot
Ġglow ing
Ġconf ession
ëıĻê¸Ģ ëıĻê¸Ģ
ëĦ Īì
¾ ¹
aa ah
ĠìĥĿëªħ ìĿ´
Ġput tin
Ġph antom
ë´¤ ì§Ģ
ê½ĥìŀİ ìĿ´
ãĤĤãģĨ ä¸Ģåº¦
n umber
again st
ĠíĸĪ ìĿĦ
Ġë´¤ ì§Ģ
Ġsil hou
Ġo pin
ìĿ¼ ìĸ´
ì£¼ëĭĺ ë§ĮìĿ´
ê¸ ¸ë°Ķ
ru m
k t
Ġíĸīë³µ ìĹĲ
ĠíķĺëĤĺ ëĲĺìĸ´
ĠìĥĿê°ģ íĸĪ
ĠëķĮ ì²ĺëŁ¼
Ġëĭ¬ë¹Ľ ìĹĲ
ĠëĤĺ íĺ¼ìŀĲ
Ġë¹Ħ ë¡ľìĨĮ
Ġê·¸ëŁ¬ ì§Ģ
Ġê±° ë©´
Ġmer rily
ìĭľ ìĻĢ
ì´ Ľ
ì§ĢìķĬ ê²Į
ì£¼ ìĤ¬
ëĤłìķĦ ëĿ¼
ê·¸ë§Ī íķľ
ãĤĮãģ° ãģĦãģĦ
mo sphere
ĥ ĳ
Ġìĺ¤ ê¸¸
ĠìĤ¬ëŀĮ ìľ¼ë¡ľ
Ġë¯¿ìĿĮ ìĿĦ
Ġë¬´ìĹĩ ìĿ¸ê°Ģ
Ġë¬´ëĦĪ ì§Ī
Ġëª° ëł¤
Ġê±¸ ìĹĪì§Ģ
Ġpark ing
Ġfor t
Ġexcuse s
ìĻ ¸ë©´
ì£¼ ëł¤
ëĶĶ ì°¬
ë¹Ľ ìĿĺ
ë¹ ´
ë¡ ¯
ê·¸ëŁ¬ ìļ´
éĢ £
èµ ¤
è¦ĭ ãģŁ
ª ì
qu erade
mar ry
ĠíĻį ëĮĢ
ĠìŀĶ ëĭ¤
ĠìĹ° ìĿ¸ìĿ´
Ġì²Ńì¶ĺ ìĿ´
Ġì£¼ê³ł ë°ĽëĬĶ
Ġëĸ¨ êµ¬
ĠëĪĪ ìĹĲëĬĶ
Ġë¶ĢìĦľ ìł¸
Ġë°Ķ ìĹĶ
Ġê·¸ë¦ ĩ
Ġê°Ģ ë¦°
Ġsto ck
Ġshi ps
Ġpet er
Ġgl asses
íĶ¼ íķł
ê¹Į ë¦¬
âĶĢ âĶĢ
£ ¨ì
wi se
ĠíķĺëĬĺ ìľĦë¡ľ
ĠìŃ Ī
Ġìĵ° ëłĪê¸°
Ġê¸°ëĭ¤ ë¦°ëĭ¤
Ġê°ĻìķĦ ëıĦ
Ġwo of
ìĬ¬íĶĶ ìĿĢ
ëıĦ ë¬´ì§Ģ
åĲĳ ãģĵãģĨ
ti ed
mow eh
ct ing
co pe
ĠëĸłëĤĺê°Ģ ëıĦ
ĠëĳĲ ëĵľëł¤
Ġë¹Ħ ì²ĺëŁ¼
Ġë°ľ ë²Ħëĳ¥
Ġê¸°ìģĺ ëĭ¤
ì£¼ ëĭĪ
ë¥ Ļ
ê¶ Ī
§ a
su ng
sta ge
p aint
ĪìĶ¨ êµ¬
Ġíŀĺëĵ¤ ì§Ģ
ĠìĹĩ ê°Ī
ĠìĬ¤ì ½Ķ
ĠìĨį ëıĦ
ĠìĥĿê°ģ ëĤł
Ġì½Ķ ë¦¬ìķĦ
Ġì°¾ ê¸°
Ġti cking
ìĭľ ëł¨
ìĪł ëŀĺ
ìĥ¤ ë°Ķ
ä¸ Ī
Ð ¾
p ink
ff le
Ġê·¸ëŁ° ê±°
Ġê³ł ê°¯
Ġê±°ë¦¬ ë¡ľ
íģ´ ëŁ½
ìĸ´ ì§¸ìĦľ
ëĭĪë ¯¸
ê°ľ êµ¬
¼ ¿
tr ate
7 8
ĭ Ĳ
ĠíķĺëĤĺ ë¿Ĳ
Ġìłķìĭł ìĿĦ
Ġìĥģì²ĺ ëıĦ
Ġë°° ìĽł
Ġë ¥¼
Ġê¸ Īì
Ġê°Ī ê±°ìķ¼
Ġwi moweh
Ġsa x
Ġhelp ing
Ġ4 5
íĮĶ ëŀĳ
íĨł ë¹Ħ
ìĺĪë°° íķ©ëĭĪëĭ¤
ëŁ½ ê³ł
ĠìķĦ ëĤĺ
ĠëķĮë¬¸ ëıĦ
Ġë¶Ģ ëĳĲ
Ġë³´ ìĿ´ë©´
Ġsli ck
Ġmic key
Ġfli ck
Ġfar mer
Ġfai lu
Ġex tre
Ġcomfor table
Ġcom pre
ìĸ´ëĶĺ ê°Ģ
ë¹ł ìĿ´
ê³³ ìľ¼ë¡ľ
ãģķ ãģªãģĦ
ª ¸
drink ing
d ee
ŀ ĩ
Ġìĺ¤ ì§Ī
ĠìķĦë¬´ ë§Ĳ
Ġê±° ìĦ¼
Ġê°Ģìķ¼ íķł
Ġê°Ģ ìľĦ
Ġtra gic
Ġsc or
Ġin volved
Ġgood ness
Ġcon tr
íħĮ ë©´
ìŀĪ ëĭ¤ê³ł
ìĸ´ëĳł ìĹĲ
ì§Ģ ê¸ĭ
ëĵ¤ëł¤ ìĺ¤ëĬĶ
¹ ìĵ¸
ci ble
į ½
Ġìķ½ íķ´
Ġë§¡ê²¨ ë´Ĳ
Ġrid es
Ġkick ing
Ġ19 8
ìł¸ë²Ħ ë¦¬ê³ł
ìŀĶ ìŀĶíķľ
ì£Ħ ìķħ
êº¼ ëĿ¼
ãģ§ãģį ãģªãģĦ
qu ick
boo k
ĠíĴį íĮĮ
ĠìŀĲ ì¡´
Ġìļ¸ëł ¤íį¼
Ġì¦Ĳê²¨ ë´Ĳ
Ġëĵ¤ìĸ´ ìĺ¨
ĠëĲĺ ìŀĲ
ĠëĨĢìĿ´ íĦ°
Ġê¿Īê¾¸ ê²Į
Ġê³¤ ëŀĢ
Ġê±· ì§Ģ
Ġsti cks
Ġglo ck
Ġb ond
íĥĦ ëĭ¤
ìĺ¤ëĬĺ ë§ĮìĿĢ
ì£½ ìĿĢ
ëª° ìķĦ
ãĤĵãģł ãĤįãģĨ
ãĤĭ ãģĵãģ¨
sat is
c ea
a fraid
ĠìłĢ ë©Ģë¦¬
ĠìĿ´ëŁ¬ ë©´
Ġìķŀ ê¸¸
ĠìĤ¬ëŀĳíĸĪ ì§Ģë§Į
ĠëĲĺ ë²Ħë¦°
Ġê±° ëĳ¬
íĬ¸ ìĹĲ
ìĤ ¬ëŀĮìķĦ
ëĵľ ë¡ľ
ê¼¬ë¬¼ ê¼¬ë¬¼
ti p
jo in
ho lic
Ġíķ ı
Ġìĺ¤ ìĨĶ
Ġì¤ĳìļĶ íķ´
Ġëĸł ëıĦëĬĶ
ĠëĪĦêµ¬ ëĿ¼ëıĦ
Ġê·¸ë ª¨ìĬµ
Ġê²ĥ ìľ¼ë¡ľ
Ġpor ch
Ġper cussion
è ¸ı
æı ı
di fferent
Ġìļ° ëĬĶëį°
ĠìĹĲ ê°Ģìĺ¤
Ġì§ĢíĤ¤ ì§Ģ
Ġëĵ¤ìĸ´ ë´ĲìļĶ
ĠëĲľ ê±°ìķ¼
Ġë¬»ìĸ´ ëĳĶ
Ġë§Īì£¼ ë³´ë©°
Ġê¸°ëĮĢ ëıĦ
Ġsan ity
Ġraz or
Ġo g
Ġinse cure
Ġfreak s
ìĿĺ ìĭ¬
ì°½ ë°ĸìĿĦ
gr and
4 1
Ġíĺķ ìĥģ
Ġíĸī ìĹ¬
Ġìĸ´ëĬĲ ëį§
ĠëŃ £
Ġë³Ģíķ´ ê°Ģ
Ġl unch
íĺ ģ
ìĿ´ëŁ° ê²Į
ìĭ¬ ìŀ¥
ê·¸ëķĮ ë¡ľ
ver age
i us
ho le
Ġìķ½ìĨį íķľ
Ġë³´ ë¦¬
Ġê¿Ī ëĤĺëĿ¼
Ġê±° ëĵŃ
Ġæ °
Ġpl ant
íķĺëĤĺ ë¿ĲìĿ¸
ìĿ´ íĨł
ìķĦ ìĻĢìĦ¸
ì¸ Ħ
ëĶ© ëıĻëĮķ
æĽ ²
¤ ĺ
oh hhh
di ction
6 1
Ġíĳ¸ë¥´ ë¥¸
ĠìłĦ ìĦ¤
Ġìĺ¨ ëıĦ
Ġìķł ëĵ¤ìĿĢ
Ġë©İ ìĿĦ
Ġë§Ĳ íķĺì£ł
Ġê° ĪëķĮ
ìĽ ¨ìĿ´
ì¿ łì
éģł ãģĦ
ç©º ãģ«
w at
Ġíķ´ ë¥¼
ĠìŀĲ ë¦¬ê°Ģ
Ġrag ing
Ġr ang
Ġcra ve
ìĿ´ ìłĦ
ëŃĩ ê°Ģì§Ģ
ê´´ ë¡ľìļ´
al t
ĠíĶ¼ ëĤľì²ĺ
Ġìŀ¥ ëĭ¨
ĠìĺĪìĪĺ ê»ĺìĦľ
Ġì¿ł ë£¨
ĠëŀĦ ëĿ¼ëĿ¼ëĿ¼
Ġre play
Ġd eed
ìĺ¤ íĽĦ
ìĭł ë¹Ħ
ìĤ¬ëŀĳ íķĺì§Ģ
ëıĮìķĦìĻĢ ì¤ĺ
ë©Ķ ìķĦë¦¬
t f
[ ?
. '
Ġìĺģ ìĥĿ
Ġì£¼ìĿ¸ê³µ ìĿĢ
ĠëĮĢ ê³ł
ĠëĤĺëĿ¼ ë¥¼
Ġêµ³ ìĦ¸ëĿ¼
Ġtre ated
Ġfreak in
Ġd ome
ìĿ´ ê±¸
ëĳ¥ ê·¼
ëĭ¬ ìĥĺ
ëĬ ĳ
ë²Ħ ë¦¬ê²Į
ê¿Ī ê¾
ê¾ ¸ëŁ¬ê¸°
ãģĵ ãģĿ
ãģ¤ ãģı
ĠìĹ¬ ìļ°ìķ¼
ĠìĥĪëģ¼ ëĵ¤
ĠëĬ¦ ìĹĪìĸ´
Ġë§ŀ ìĿĢ
Ġwater fall
íĳ¸ë¥´ ë¥¸
íĤ¤ì ¦Īì
ìĸ´ìłľ ë³´ëĭ¤
çŃĶ ãģĪ
sleep ing
ra iny
ag es
ĠíĹ¤ìĸ´ì§Ģ ì§Ģ
Ġíķľ ëĪĪ
ĠìķĦ ìļ°
ĠìĬ¤ì³Ĳ ê°Ħ
ĠìĪĻ ìĿ¸
Ġì§ĢëĤĺ ë²Ħë¦°
ĠëĽ° ê²Į
Ġsp ider
Ġre vol
Ġkit ty
Ġj unk
Ġgri ef
Ġbom bs
ìĻ¸ë¡Ń ê³ł
ìĹĦì ³Ĳ
ìķ ¡
ëĭ¹ìĭł ë§Į
to ms
mp his
k b
ĠìķĦ ëĦ¤
ĠëıĻ ëıĻëıĻ
Ġëĭµ ìĿĢ
Ġëĭ¤ íĪ¼
ĠëĤĺëĪĦ ë©°
Ġëª© ìĹĲ
Ġëª¨ ì§Īê²Į
Ġë©į ë©įë©į
Ġë§Ĳíķł ëŀĺ
Ġë§ Ŀì
Ġå ¿
Ġde mo
íĽ ĦíĽĦ
ìļ¸ ìĸ´ëĿ¼
ì¯¤ ìĹĲìĦľ
ëĤĺ ìĺ¤
ê°Ĳ ëĭ¹
en n
ĠìĿ¸ëıĦ íķĺëĬĶ
ĠìĿ´ìĥģ íĺķ
ĠìļĶ ë£¨
Ġì° ¼
ĠëĤĺëĤł ëĵ¤
Ġë°ĽìķĦì£¼ ìĨĮìĦľ
Ġë§Įëĵ¤ ì§Ģ
ìŀĲ ìłĦê±°
ìĸ´ëĶĶ ë¥¼
ì¹´ ëłĪ
ê¼Ń ì§Ī
æ± Ĥ
Ġëħ¸ëŀĺ íķĺë¦¬
Ġë§Ī ìĭ¤
Ġê·¸ëķĮ ë¥¼
Ġê·¸ëĤł ì²ĺëŁ¼
Ġê²ģ ìĿ´ëĤĺ
Ġê±°ë£© íķĺìĭł
êº¼ ëĿ¼ê³ł
Ãł n
ught ers
re lax
li ci
ang le
Ġíķľ ì¤Ħê¸°
ĠíĴ Īìľ¼
Ġìļ¸ ì§ĢëıĦ
Ġìļ°ë¦¬ ë§ĮìĿĺ
ĠìĤ¬ëŀĳíķĺ ê²łìĸ´
Ġì§ ¹
ĠëĶ°ëĿ¼ê°Ģ ë¦¬
ĠëĤ ļ
Ġë¶Ģëª¨ ëĭĺ
Ġê°Ģ ëĿ¼ê³ł
Ġbou nc
ìĦľ ë¦¬
êµ¬ìĽĲ ìĿĺ
ãģĦ ãĤīãģªãģĦ
§ º
ŀ ı
Ġìĵ ±
ĠìĦľ ìļ´
Ġì§Ħ ëĭ¤
Ġëį° ë¡ľ
ĠëĮĢ ë°ķ
Ġë¹ł ì§Ģë©´
Ġë§´ëıĮ ê³ł
Ġir re
Ġigno r
Ġfe liz
Ġcop y
ì¡ °ëĿ¼
å¤ ķ
º Ĩ
p her
ĠìĺĪë»Ĳ ìļĶ
ĠëĭĲë¦¬ë¦¬ ìķ¼
Ġë¶ĪëŁ¬ ëĿ¼
Ġê¹Į ì§ĢëıĦ
Ġswee theart
Ġm Ã¡s
Ġk u
Ġfai re
Ġf use
íİ¸ íŀĪ
ëĭ¹ ìŀ¥
ë³Ģíķ¨ ìĹĨëĬĶ
ç ¿
åı ĭ
ãģ®å ¥
ãģªãģį ãĤĥ
ond ition
ĠìķĦ ìĭľëĬĶ
ĠìĤ¬ëŀĳìĿ´ ì£ł
Ġëĭ¿ ìľ¼ë©´
Ġë°Ķ ì¹ľ
Ġê·Ģ ìĹ½
Ġre joice
ë¯¸ ìĨĶ
å¤§ äºĭ
h ust
gold en
dro ps
Ĳ ĸ
Ĥ ī
ĠíĽĦìĹĲ ìķ¼
ĠìķĮìķĺ ëĭ¤ë©´
ĠìķĬ ê¸°ë¡ľ
Ġì¦Ĳê±° ìĽģê²Į
íķł ê¹ĮìļĶ
ëĵ¤ìĸ´ ë´Ĳ
ë²Ī ìĹĲ
æ ĩ
ĠìŀĲ ëŀĢ
ĠìĥĿ ìĹĲ
Ġë¹Ħ ìĭ¼
Ġê°Ģ ë´Ĳ
Ġlight er
Ġf as
Ġco in
Ġbro oklyn
ìļ° ìłģ
ìĸ´ë¦¬ ìĦĿìĿĢ
ì¤Ħ ìĹĲ
ëĭµ ìĿĦ
ë¹Ľ ëĤľ
ë§¤ íķľ
ë¦¼ ìĿĦ
ä½ķ ãĤĴ
Ġíĺ¼ ìŀ£
ĠìĭľìłĪ ìĿ´
ĠìĦ ľì
ĠìĤ¬ëĿ¼ ì§ĢëĦ¤
Ġì¶Ķ ìĽĮ
Ġì£¼ ìĬ¤
Ġëķħ ìĹĲìĦľ
ĠëĤĺ ëĦ¤ìļĶ
Ġë¯¸ìĽĮ íķ´
Ġê°Ģ ë©°
Ġbe ha
ìĿ´ ìĤ¬
ì¼Ģ ë£¨
ì¸ łì¦Īì¼Ģ
ë°± íķľ
ê° ĩ
ãĤĦ ãģ£ãģ¦
ãģ» ãģĹãģĦ
k h
bu mp
Ļì ª½
ĠìĹ¬ê¸° ìłĢê¸°
Ġìĭ¬ ìłķ
Ġì¤ĺ ëıĦ
Ġë§Ĳíķ´ ì£¼ìĦ¸ìļĶ
Ġê¹Ģ ì¹ĺ
Ġo il
Ġdu es
Ġde g
Ġag es
íŀ Īë©´
íĺ¼ìŀĲìĦľ ëĬĶ
íķĺëĤĺ ìĶ©
ëħĦ ìĹĲ
ãģĤãģªãģŁ ãģ¨
Ĥ ª
ĠíĽĦíļĮ ë¥¼
Ġê°ĸ ëĭ¤
Ġye ll
Ġbl onde
íĿĺ ëł¤
íĮ ¬
ì§Ĳ ìĿĦ
ë§Ŀ ìĿ´
ê·¸ëħĢ ìĹĲê²Į
ãĢĢ Ġ
Ġíĺ¹ìĭľ ëĤĺ
ĠìĿĢ ìĿĢ
ĠìĹ° ê²°
Ġì¹Ń ì¹Ń
Ġë°ĶëĿ¼ë³´ ì§Ģ
Ġê¿ ¨
Ġbless ings
ì¹´ ë£¨
ë¥ ł
ê·¸ëłĩ ëĭ¤ë©´
ê·¸ë ħĪ
Ĺ İ
ĠíĴį ê¸°ëĬĶ
Ġìłķ ê±°ìŀ¥
Ġìļ°ë¦¬ ëĦ¤
ĠìĦł íķĺìĭł
ĠìĤ¬ìĭ¤ ìĿĦ
Ġì§Ģ ìļ´
Ġëĭ´ ëĮĢ
Ġë°Ķ ëĬĺ
Ġun ited
Ġskin ny
Ġsau ce
Ġma is
ìĸ´ëĸ¡ íķ´ìķ¼
ëĳĺ ê²Į
ë° ĺì
æĸ° ãģĹãģĦ
ãģĭ ãģĽãģ¦
st ance
Ľ ĥ
Ġëĭ¤ íĤ¤ìĭľ
Ġë´Ħ ìĿĦ
Ġê°Ģ ë°©
Ġrou te
Ġra ppin
Ġpar ties
ìĸ´ ìĹ¬ìģľ
ëĪĦêµ°ê°Ģ ê°Ģ
ë§Ī ìł¸
æĪ »
¬ê º¼ìķ¼
£ ł
z ard
t is
Ġìĺ¤ ìĿ´
Ġëĭ Īì
Ġëĥ ł
Ġë¯¸ë ģĦ
Ġre vi
Ġk night
Ġhas n
Ġbe hold
Ġapp eal
ìĿ´ ëĬĶëį°
ìĺ ³
ìķĦë¬´ ë§Ĳ
ë©Ķ ëĭĪ
ç¥ Ī
åĭ Ŀ
ãĤĤãģĹ ãĤĤ
ĠìķĪë³´ ìĹ¬
Ġìķ ĵ
ĠëĥĦ ìĥĪê°Ģ
Ġë³Ģ íĸĪ
Ġë§Į ìĦ¸
Ġve nt
Ġsleep y
Ġpim pin
Ġhelp ed
Ġe ste
ìĿ¸ íķ´
ëįĺ ì§Ģ
ëª¸ ìľ¼ë¡ľ
éĻį ãĤĬ
ĺë ķĮ
ĠìĿĮ ìĦ±ìĿĦ
ĠìĿ´ ìĦ¸ìĥģìĹĲ
Ġìļ°ë¦¬ ìĤ¬ëŀĳ
ĠìĹ¬íĺ¸ìĻĢ ê»ĺ
ĠìĤ¬ë ĥ¥
Ġë³¼ ê²Į
Ġroom s
íĶ ¼ì
ëıĦëĿ¼ ì§Ģ
ë°ĶëŀĮ ë§Į
ê·¸ëłĩ ëĭ¤ê³ł
æĬ±ãģįãģĹ ãĤģãģ¦
© ĺ
j an
Ġíķĺ ê²łì§Ģë§Į
ĠíĥĦ ìĥĿ
ĠìĥĿê°ģ íķĺë©´ìĦľ
Ġì½©ëĭ¥ ì½©ëĭ¥
Ġëıħ íķľ
Ġëĭ« ê³ł
ĠëĨĢ ëŀĦ
ĠëĤĺ ê°Ħ
ĠëĤ¨ ê¸°
Ġê·¸ ê²ĥë§Į
Ġsp ite
Ġfac ing
ìķĦ ìĿ´ìķ¼
ìĤ¬ íķľ
ëį° ëł¤
ë³Ģíķ¨ ìĹĨìĿ´
ë³¼ ê¹ĮìļĶ
çµ Ĳ
æµ ®
don na
) -
Ĺ ½
ĠíĮĮëıĦ ë¥¼
ĠìĻĢ ëŀı
ĠìĹ´ìĸ´ ì¤ĺ
ĠëŃĲ ëĭĪ
ĠëĮĢëĭµ ìĿĢ
Ġëĭ¿ ìĿĢ
Ġtor ture
Ġsc ent
Ġre vel
ìĤ¬ëŀĮ ëĵ¤ìĿĺ
ê°Ģ ë©´ìĦľ
§ Ļ
to i
! ?
ĠíĮĮëŀĢ íķĺëĬĺ
Ġíĥľìĸĳ ìĿĢ
ĠìĿ¸ìĥĿ ê¸¸
ĠìķĪì ĵ°
ĠìĨĲ ëģĿ
Ġëĳĺ ë¦¬
ĠëĲł ì§Ģ
ĠëĦ¤ê²Į ë¡ľ
Ġë³´ ëĭĪê¹Į
Ġv ita
Ġto mb
Ġti em
ìł ĦìŁģ
ìĦł ëªħ
ì§Ħ ìłķíķľ
ëķħ ìĿĺ
ëĭ¤ìĭľ íħĮ
si g
o ce
am or
İ ìĿĢ
ĠìłĢ ë¬¼ìĸ´
ĠìķĬ ìľ¼ëł¤
Ġìĥ Į
Ġë¶Ļìŀ¡ ì§Ģ
Ġë³¼ ìĪĺë¡Ŀ
Ġëª» íķĺë¦¬ëĿ¼
Ġë§ĮëĤľ ëĭ¤ë©´
Ġten nessee
Ġexi stence
Ġcu er
íķĺ ìĭľë©°
ìĹĪ ìĹĪì§Ģ
ë³´ ì§Ģë§Ī
ç ¬
ri d
ar ies
ĠìĿ´ ëĿ¼ëıĦ
Ġë ĥĪ
Ġê³µê°Ħ ìĹĲ
Ġsa ck
Ġhop in
Ġhit tin
Ġal though
Ġ $
ìĿ¸ìĥĿ ìĿĦ
ìĽ Ģì
ìĸ´ëĬĲ ìĥĮê°Ģ
sile nce
or i
lo vers
di os
ĠìŀĪ ëıĦëĭ¤
Ġìĸ´ëĶĶ ë¡łê°Ģ
Ġì¢ĭìķĦ íķĺê³ł
Ġëĭ¹ íķł
Ġë¹łìł¸ë ĵľ
Ġë¹Ľ ëĤĺê²Į
Ġremind s
Ġrema stered
Ġpa use
Ġcon dition
ëłĪë°© ìķĦ
ãģŁ ãģ³
ĠíĮĶ ë¡ľ
Ġìĺ¨ ê¸°ë¥¼
Ġì»¤ìł¸ ê°ĢëĬĶ
Ġswing ing
Ġra cks
Ġnin ety
Ġhy pe
Ġhe e
ìķł íĥĢê²Į
ë¦° ëĭ¤ë©´
ê·¸ëĵ¤ ìĿĺ
çľ ĭ
ãģ®éł ĥ
ba h
ĠìłĢ ë¬¸
ĠìŀĪ ëĭ¤ê°Ģ
Ġì¤Ħ ê»ĺìļĶ
Ġëĵ¤ëł¤ ìĺ¨ëĭ¤
Ġëĵ¤ íĮĲìĹĲ
Ġëĭ¬ëŀĺ ë©°
ĠëĪĪë¬¼ ê³¼
ĠëĤ¨ìŀĲ ëĵ¤
Ġgala xy
Ġcreep ing
Ġa us
íĹĪ ìłĦíķľ
íķł ë¨¸ëĭĪ
ê¸° ìķ½
ãģĤãģªãģŁ ãģ¯
¦ ĩ
! âĢĿ
Ħ ¡
ĠìĿ¸ëıĦ íķĺìĭľëĦ¤
Ġë¹Ī ìŀĲ
Ġsto mach
Ġmea sure
Ġlo op
íĸ¥ ê¸ĭíķľ
íĬ¹ë³Ħ íķľ
èª ĵ
ãģı ãģªãĤĭ
to ps
ĠìĨįìĤŃìĹ¬ ì¤ĺ
Ġtem ple
Ġmo lly
Ġgo vern
Ġbe ck
Ġal ma
ìĿ´ìłľ ê»ı
ë¶ Īí
ë¥ ¨ìĿĦ
ê¿Ī ìĿĺ
å® ļ
å¤§ äºº
p res
lear n
Ġì§ĢëĤĺ ê°ĢëıĦ
Ġëĭ¹ìĭłìĿ´ ê¸°ìĹĲ
Ġë¬¼ ê±´
Ġresp on
Ġn y
Ġmotherfuck ing
Ġla bel
Ġgang ster
Ġbreak down
Ġb is
Ġ ing
ç¹° ãĤĬè¿Ķ
ä½ł çļĦ
c ord
ĠìŀĶ ìŀĶíķľ
ĠìķĦë¦Ħëĭµ ê³ł
Ġì§ĵ ëįĺ
ĠëĳĲ ê³łìĦľ
Ġëĭ¨ íĴį
Ġë²Ĺ ìĿĦ
Ġëª¸ ìľ¼ë¡ľ
Ġê³ł ë¦¬
Ġgu it
Ġco llege
ìĻ ¸ì³Ĳ
ìħ¨ ëıĦëĭ¤
ëĤ¬ ëįĺ
ë¯¸ë £¨
ë§Īì ħĶ
å «Į
ãĥĨ ãĤ£
ãģ® ãģªãĤī
ca de
ĠíĿĺëŁ¬ ëĤ´ë¦¬ëĬĶ
ĠìŀĲ ìľłì¼Ģ
ĠìĦ± íĻĶ
Ġìĥģì²ĺ ë¡ľ
ĠìĤ¬ë ¿Ĳ
Ġthre at
Ġgut s
Ġfun eral
íĥĢ ê¸°
ì¡Į ëĭ¤
ä¸ »
tu ally
ĠíĨł íķ´
ĠìĿĮ ìĭĿ
ĠìĿĢ ë°Ģ
Ġìķł ëĭ¬íĶĪ
Ġìķ½ìĨį ëıĦ
ĠìĬ¬íį¼ íķĺì§Ģ
ĠìĨĮ ë¬¸
ĠëĲĺ ìĥĪ
ĠëĤĺ ë§ĮìĿ´
Ġj in
Ġfool ing
Ġexperi ence
Ġc ong
Ġat l
íŀĺëĵ¤ ê²Į
ìł ¼
ëį° ìĻĢ
ë³Ħ ìĿĺ
ë¨¸ë¬¼ ëŁ¬
pla ced
ĠìĪ² ìĨįìĹĲ
ĠìĨ ľìĶ¨
Ġì¤Ħ ìĪĺ
ĠëĲĺ ìĭľëĬĶ
ĠëĲĺ ëł¤
Ġë§Ī ëĬĶ
Ġê´ľì°® ëĭ¤ê³ł
Ġê³łíĸ¥ ìĿĦ
Ġn ana
íĽĦíļĮ ëĬĶ
ìĸ´ê¹¨ ë¥¼
ëĵľ ë¦Ħ
ī ĭ
ĥ ¤
Ġìĭľìŀĳ ëĲĺ
ĠìĤ¬ëŀĳ ìĿ´ëĿ¼ê³ł
Ġë§Ĳ ìĿ´ëĿ¼ëıĦ
Ġê³ĦìĨį íķ´
Ġdra in
Ġdo c
íķł ê»ĺìļĶ
ìķ½ìĨį íķ´
ìħĶ ìļĶ
ãģĮ ãĤĬ
¼ìĶ¨ êµ¬ëĤĺ
pi red
jo e
: )
Ġíľĺ ëĤł
ĠìĬµê´Ģ ì²ĺëŁ¼
ĠëĽ° ìĸ´ëĿ¼
Ġëª» íĸĪì§Ģ
Ġë§İ ìķĦëıĦ
Ġë§İ ëįĺ
Ġtum bling
Ġo ption
Ġche mistry
ëĳĲê·¼ ê±°ë¦¬ëĬĶ
ëĤ¨ìŀĲ ëĭµê²Į
ë¬´ëĦĪ ì§Ħ
ë¬´ ìĭľ
æ »
z ie
s ar
gi ous
ĠìŀĪ ê²łìĸ´
Ġìŀ ĳíĴĪ
ĠìĹĲ ë£¨
Ġì°¾ ì§Ģë§Ī
ĠëĤ¨ ê²Į
Ġê¿Īê¾¸ ê³ł
Ġro ot
Ġpl ead
Ġar gue
Ġa na
ìĬ Īíį¼
ëıĮìķĦ ê°Ģê³ł
ê±±ìłķ ìĿĢ
Ã ¢
pro of
ge ous
and ed
ĠìŀĶ ìŀĶ
ĠìŀĬ ìĸ´ìĦľ
ĠìĿ´ëŁ¬ ëĬĶì§Ģ
Ġì§Ģ ëıħíķľ
Ġê·¸ëĮĢ ë¡ł
Ġrush ing
Ġpear l
Ġan nie
ìĥī ìĿĺ
ì¿ µì¿µ
ê¸ Īë¹Ľ
ãĤı ãģĽ
u ce
na me
ĠìŀĲìĭł ìĹĲê²Į
ĠìĦ¬ ê¸°
Ġì£¼ ìĽĮ
ĠëĦĪ ëĦ¨
Ġë¬´ ê¸°
Ġrel ate
Ġf is
Ġch at
Ġat mosphere
ìĺ ¬ëŀĺ
ìĭľ êµ¬
ìĭ¤ ìĹĲ
ëĦĪ ëĦ¨
ê°ģ ìĭľ
å¾® ç¬ĳ
9 5
( "
Ġìĺ¬ ê¹ĮìļĶ
ĠëĤĺ ê°Ħëĭ¤
Ġê¸°ëĮĢ íķ´
Ġê¸ ģ
Ġê´ľì°® ìĨĮ
Ġê³Ħ ìĤ°
Ġtech ni
Ġindi an
Ġchim ney
Ġbelieve s
Ġall e
íķĺ íķĦ
íķĺ ê²łì§Ģë§Į
ëĤ¨ ëª°ëŀĺ
ê° ĪëĮĢ
è¼Ŀ ãģı
ãģĤãĤĬ ãģĮ
¹ ¸
vin cible
ed er
bit ter
Ġìĺ¤ ëĥĲ
ĠëıĦìĭľ ë¥¼
ĠëĮĢëĭµ íķ´
Ġë¶Ģ ìľ¼ìĨĮìĦľ
Ġvol ume
Ġflex in
Ġboulev ard
íĸ¥ íķľ
ìĤ ¼ì
ë³´ì¿ł ëħ¸
ê·¸ ìĤ¬ëŀĮ
êµ¬ ì£¼
ãĤ· ãĥ£
ee e
chi e
ķ ¡
ĠíĤ¤ì ¦Ī
ĠìķĦë¬´ ëŀĺëıĦ
Ġì¶¤ì¶ ĺëĭ¤
Ġëĭ« ìķĦ
Ġê°Ĳìłķ ìĿĢ
Ġper fection
íĨł ëĭĪ
ì¦ Īì
ë´Ħ ë´Ħ
ê¶ģê¸Ī íķ´
æ¯ ı
run away
it ate
glor ia
ĠìĿ´ ë§ĪìĿĮ
Ġpre y
Ġp atter
Ġmu ndo
Ġf uss
íĴĢ ìŀİ
ìĿ´ ìĭľëĭĪ
ìĪ ĺì
ìĥģì²ĺ ë§Į
ëŁ ¿
ëĸłëĤĺ ì§Ģë§Ī
ëĵ ľì
ëĭĪ ê¹Ĳ
ëĤ´ ë©´
ê¼ ¬ë
µ ¸
qui ero
qu een
li o
ĠíĿĶëĵ¤ ë¦¬ê³ł
ĠíĺĦìĭ¤ ìĿĢ
ĠìŀĶ ëľ©
ĠìĿ´ë£¨ ëĬĶ
Ġì£¼ ë¦¬ê³ł
Ġvoc al
Ġmis understood
Ġbla zing
íķĳ íģ¬
ìľĦ ìĹĶ
ëĦĪ ë§ĮìĿĢ
ëĤ´ ë¦¬
ãģłãģĳ ãģĮ
flow ers
ev in
danc in
ĠìĿ´ ìĽĥ
Ġìĸ´ëĸ»ê²Į ëĵł
Ġë² Ļ
Ġë§Ĳ ê±¸
Ġcro oked
ìĿ´ìĥģ íķľ
ìĿ´ íģ¬
ìĸ¼êµ´ ìĿ´
ì´Ī ê°Ģ
ì§Ģë£¨ íķľ
åĩº éĢ¢
¸ łì¿ł
sa fe
pa st
p ot
d ust
įì ¨į
Ġìľ¡ ì§Ģ
Ġìĭł ì§Ģ
Ġë°Ķ ìģĺê²Į
Ġê·¸ëŀĺ ìķ¼
Ġve ux
ìĿ´ ìĿĺ
ëĸł ìĺ¤ë¥´ëĬĶ
ë³ĳ ìĹĲ
ê³ĦìĨį íķ´ìĦľ
åĲĳ ãģĭ
ãģŁ ãģ£ãģŁ
ãģĻãģĲ ãģ«
ul ation
Ġíĥ ±
Ġìĭľ ìķ¼
Ġìĥ ¹
ĠìĤ¬ëŀĳíķĺ ë¦¬ëĿ¼
ĠìĤ¬ëĿ¼ ì§Ģ
ĠëĮĢìĭł íķł
Ġë¶Īì Ķ¨
Ġë² ļê½ĥ
Ġë ¼
Ġtun nel
Ġscre w
Ġjewe ls
Ġgra in
Ġan them
ëĤľ ëĤĺ
æĺ¨ æĹ¥
ä»Ĭ ãĤĤ
t ail
la h
Ġíķľë§ĪëĶĶ ìĹĲ
Ġì§ĵ ê²Į
Ġë¨¸ ë¦¬ëĬĶ
Ġv ou
Ġv oodoo
Ġlo yal
Ġhun ter
Ġcha lle
ìłģ ìĹĲ
ìĬ¤ëª¨ ìĬ¤
ë¶Ħ ë§Į
ë°ĶëĿ¼ ë³´ëĬĶ
ë¬´ ëį¤
ä¼ ¼
¶ ľ
c ro
ĠíĿĲ ë¦°
ĠìŀĲ ëŀĢëĭ¤
ĠìĿ´ ëĶ°
ĠëĬ¥ëł¥ ìĿĺ
Ġë³µìŀ¡ íķľ
Ġë¬´ ìĭ¬íķľ
Ġë§Ĳ ë³´ëĭ¤
Ġth ump
Ġfron tin
Ġfe llow
Ġchristma ses
Ġc ease
ìļĶ ë£¨
ìĻĶ ëĬĶëį°
ëª¨ ëĿ½
ë§ĳ ê²Į
ê³ł ìĥĿ
ê³ĦìłĪ ìĿĢ
é ĩĮ
è »
¡ ëŁī
un ken
ou nt
lo so
fe lt
Ġìĸ´ ìĸ´
Ġìº ĦìºĦ
Ġëĭ¤ ëłĪ
ĠëĪ ķ
Ġê¸ Īë
Ġmother s
Ġl una
Ġjac ket
Ġco caine
Ġcl earer
ìĻĦë²½ íķľ
ìĹ¬ëŁ¬ ë¶Ħ
ìĬ¤ ë¬¼
ä¸Ī å¤«
yo n
bir th
be neath
ĠìķĬëĬĶ ëĭ¤ë©´
Ġìĥ Īì²ĺëŁ¼
Ġë³´ ëĥĪëįĺ
Ġë² Īë
Ġthrow in
ì½ĺ ëĤĺ
ë°ķ íķľ
ë¡ľ ìĹĲ
é Ń
¸ ¡
ble ss
alal alala
Ġíıīë²Ķ íķľ
Ġëĵ¤ìĸ´ ìĦľ
Ġë½ ķ
Ġë³µ ìĿ´
Ġë©Ķ ê³ł
Ġë©Ģ ìĸ´ì§Ģê³ł
Ġê°Ģ ëĭ¤
Ġun true
Ġbow l
Ġback s
Ġa pri
ìĸ´ ìĦ¤íĶĪ
ëĭ¤ìĭľ íķľë²Ī
ë°ĸ ìĹĲëĬĶ
¤í Ĭ¸
ħ Ĳ
ĠíĻķìĭ¤ íķľ
Ġìķħ ìĸ´ëĸ¼
ĠìĮĵ ìĿ´ëĬĶ
Ġëħ¸ëł¥ íķ´
Ġê¹¨ ë¬¼
Ġsol ve
Ġob li
Ġnut s
Ġmo b
Ġla ce
ìĭ ¤ëķĮ
ì§Ħ ìĭ¬
ëĵľ ëł¤ìļĶ
ëĵľ ëŁ¬
ãģĬ ãģĨ
uck le
47 97
Ġì²Ńì¶ĺ ìķĦ
Ġì°¾ ëĬĶëĭ¤
Ġì§Ģ ëĤĺëĬĶ
ĠëĤĺ ë¯¸ëĭ¤
Ġëª¨ëŀĺ ìķĮ
Ġfr an
ìĿĮìķħ ìĿĦ
ìļ¸ëł ģ
ìĦľ ê¸ĢíĶĪ
ç§ģ ãģ®
æ¨ £
ãģķ ãĤĵ
ãģªãĤĵ ãģĭ
si ppin
... "
ĠíĿĺëŁ¬ ê°Ģë©´
ĠíĴ Īë°Ķ
ĠìĺĪìĪĺ ëĬĶ
Ġìķł ìĿ¸ìĿ´
ĠìķĬ ìľ¼ë¦¬ëĿ¼
ĠìĤ¬ëŀĳ íķĺëĤĺ
ĠëĤ´ ìĦľ
Ġë°Ķ ëŀľ
Ġz oo
Ġh onesty
íŀĺ ìĹĨìĿ´
ìĤ° ê³¼
ëĤĺê°Ģ ìŀĲ
ë¹Ħì ¼ľ
ê¸ ´ì
ri ck
cr ow
ĠíĶ¼ ëĦ¤
Ġìĸ´ ë¦¬ëĬĶ
ĠëĤłìķĦ ìĺ¤ë¥´
ĠëĤł ìĹĲëıĦ
Ġë²ķ ì¹Ļ
Ġwol ves
íĹ¤ ìĸ´ì§Ī
ãģĹãģŁ ãĤī
su b
ĠìĦľ ë¦¬ëĿ¼
ĠìºĶ ëĶĶ
Ġì§Ģì¼ľ ì£¼ëĬĶ
Ġì¤Ħ ëŀĺìļĶ
Ġëª¨ ìĦ¸
Ġê·¸ëŁ° ëį°
Ġs ally
Ġlaw s
Ġballo on
ìĸ´ ë§Į
ìķ¼ ìĨį
ëł ī
ëĦ¤ ìĹĲ
ê±°ì§ĵë§Ĳ ì²ĺëŁ¼
çķ ª
ĠìĨĮìļ© ìĹĨëĬĶ
Ġì§ĵ ìĿĦ
Ġì§Ħ ì§Ģ
Ġê½¤ ëĤĺ
Ġterri ble
Ġsea l
Ġre arr
Ġought a
Ġa mo
Ġ? ??
Ġ2 8
ìĤ¶ ìĹĲ
ëĩ ¨
ë¶Ģ ë¦ī
èī ¯
i ans
Ĥ ±
ĠíĹ¤ìĸ´ ì§Ģê³ł
Ġëĭ¤ íķľ
Ġë»Ĳ ê¾¹
Ġsh ou
Ġpri est
ìĹ¬ ìļ°ìķ¼
ìĤ´ ëĭ¤ë³´ë©´
ì°¨ì°¨ ì°¨
ëĵ¤ê³¼ ëĬĶ
ë³µ ìĿĦ
ë¡ľ ìį¨
ê¹ Ł
åĪĨ ãģĭ
le te
ac he
Ġíİ Ħ
Ġíģ° ìĿ¼
Ġìŀ¡ ìķĺ
Ġì»¤ìł¸ ë§Į
Ġì§ĳ ìĿ´
Ġëª© ìĪ¨ìĿĦ
Ġë§Ī êµ¬
Ġ ãģĬ
ëŁ¬ ë¸Į
ë¥´ ë©´
æ³£ ãģĦãģ¦
å½ ±
ãģĵãģ¨ ãĤĴ
sion s
m ì
lo cked
Ġìĸ´ ê¹°
Ġëĥī ìłķ
Ġë§¤ëł¥ ìĿ´
Ġgen ie
íĹĪ ë¦¬
íķĺ ëĵł
ìĿ´ë¦Ħ ìĿĢ
ìķĦíĶĦ ê³ł
ìķĦ ì°Ķ
ì°¨ ëĬĶ
ì§ĳ ìĿ´
ëĳĲ ìĨĲ
ëıĦ ëª¨
ê¸° ìļ¸
å¼ ±
day light
ĥì Ķ¨
Ġìŀĺëª» íķľ
ĠìĻĶ ëĬĶì§Ģ
Ġì°¬ìĨ¡ íķ©ìĭľëĭ¤
Ġëª°ëĿ¼ ì£¼ëĬĶ
Ġface d
Ġbaby lon
ìĨĶì§ģ íķĺê²Į
ì¿ł ë£¨
ê±¸ ê³ł
ê°Ģ ê¸°
ãĤ³ ãĤ³
° ĩ
a more
ĠìłĦ ê¹Įì§Ģ
Ġìĭľìŀĳ ìĿ´
Ġìĭľ ê¸°
Ġëĭ¬ ë¦°
Ġëĭ¨ ìĪľ
Ġê¿ Īìľ¼ë¡ľ
Ġ ä¸Ģ
íĺ¸ ìĭľ
íķł êº¼ìķ¼
ìĺ¤ ë¥¸ë°ľ
ëĪĪ ìĿĢ
ë¹¼ ê³ł
st eal
c les
ĠìŀĲë¦¬ ë¡ľ
Ġìĺ¤ìĭľ ëł¤ëĤĺ
ĠìĪ« ìŀĲ
Ġëĭ¤ ë¥´ì§Ģ
ĠëĤĺ ì¿ł
ĠëĤ´ê²Į ë§Į
Ġê¸°ìĸµ ëĤĺ
Ġtan to
Ġsi rens
íķĺëĤĺ ê°Ģ
ìī½ ì§Ģ
ë³´ê³ł íĮĮ
ê¸ Ģë
ç Ńī
ãĤ·ãĥ§ ãĥ³
¼ì ¦Ĳ
sw itch
gu ar
g ain
5 9
Ġíķ´ ë³´
Ġìĸ´ìłľ ìĻĢ
ĠìĥĪë²½ ìĹĲ
Ġì´Īì ¡°
ĠëĦ¤ ìŀİ
ĠëĤłìķĦ ìĻĢ
Ġë³ĳ ëĵł
Ġë°Ķëĭ· ê°ĢìĹĲ
Ġë°Ķëĭ¤ ìĿĺ
ë°Ķëĭ¤ ë¡ľ
ĠìĿ´ìłľ ìĻĢ
Ġìļ°ìļ¸ íķľ
ĠìķĦ ìĿ´ìķ¼
ĠëĤ´ë§ĺ ìĿ´
ĠëĤ´ ë©´
Ġsmi th
Ġmess ing
Ġmar ket
Ġevery night
Ġappreci ate
¿Ĳ ìĿ´ìķ¼
forget table
ĠĠĠĠĠĠĠĠ ĠĠĠ
ĠìĦ¸ ìĸ´
ĠìĥĪë²½ ìĿĦ
Ġì°¾ ìľ¼ëł¤
Ġì°½ìŀĳ ëıĻìļĶ
Ġì§ĪëŁ¬ ë´Ĳ
Ġtr amp
Ġgr ateful
Ġf red
Ġclose t
Ġback ground
íĺ¸ íĿ¡
ìŀł ìĹĲìĦľ
ìĵ ´
ìĤ¬ íĤ¤
ë¿ Ķ
ia o
co ll
ĩìĩ¼ ëĭĪ
ĠíķĦìļĶ ëĬĶ
ĠìĻķìŀĲ ëĭĺ
ĠìĹ´ ë©´
ĠìĨĮë§Ŀ ìĿĦ
ĠìĤ´ ê±°ìķ¼
Ġë³´ê³łíĮĮ ìĦľ
Ġê³ł ìŀ¥
Ġê°ķ ìĿ´
Ġwi e
Ġv ul
Ġes per
ìļ°ë¦¬ íķ¨ê»ĺ
ìĹ¬ ê¸°ê°Ģ
ë¯¸ëł¨ íķľ
t b
ce p
any more
Ġí ŀĲ
Ġìŀħ ìĿ´
Ġëĸ¨ ìĸ´ì§Ī
ĠëĦĪ ìĺĢìĸ´
Ġmam bo
Ġins anity
ìļ´ ëĮĢ
ìĥģ ëĥ¥
ë¥´ ë©°
ê» ´ì
è¶Ĭ ãģĪãģ¦
heart break
ĠíĸĩìĤ´ ìĿĦ
ĠìĿ´ ê¸°ê³ł
ĠìĻ¸ë¡ľìĽĢ ìĿ´
Ġìķŀ ìĿ´
ĠìĪ¨ ìĸ´ëĿ¼
ĠìĥĿê°ģ íķĺì§Ģë§Ī
ĠìĤ¬ëŀĳíķł ìĪĺ
Ġëı Īë
ĠëįĶ ëŁ¬ìĽĮ
Ġëĭ¿ ìķĦ
Ġê°ĲìĤ¬ íķ©ëĭĪëĭ¤
Ġhur tin
Ġcontin ue
Ġbe ware
ëĴ ¤ëļ±
ë¯ ¸ì¸ł
ë§Į ìĿ´ìķ¼
èĳ Ĺ
æĻ ´
å± ĭ
pr ot
e vil
al es
ĺ ¹
Ġìĺ¤ìĭľ ëĤĺ
ĠëĤĺìķĦ ê°ĳëĭĪëĭ¤
ĠëĤ´ìĤ¬ëŀĳ ìķĦ
Ġë³´ì¿ł ìĻĢ
Ġê·¸ë¦¬ ëĦ¤
Ġth umb
Ġtar get
Ġsli ps
Ġs light
íĿĲ ë¦¿
íķĺëĬĺ ê³¼
ìĿ´ ìģľ
ìĬµê´Ģ ì²ĺëŁ¼
ë§Ī ëıĦ
ê¼¬ë Įģ
st ate
di an
an ne
Ġìĭł ìĤ¬
Ġìĭ¬ ê°ģ
ĠìĪľ ìĿ´ìķ¼
Ġë¶Ģ ìĪ´
Ġë¯¸ëł¨ ìĿĦ
Ġë§Ī ìĭł
Ġê¹¨ ìļ°ëĬĶ
Ġê·¸ë ¬¼
Ġê°ĢëĿ¼ ìķī
Ġyear ning
Ġvi cious
Ġtr ance
Ġr on
ìĭľ ë¦¬ëĿ¼
ìĪŃ ìĿ´
ì°¸ ê³ł
ëĭ ¬ëŀĳ
st upid
and er
Ġìĸ´ëĶĶ ìĦłê°Ģ
Ġë°Ķ ê¹¥
Ġê°ĢìĬ´ ë§Īëĭ¤
ìĦ¤ ë§Ī
ì¸ µ
ëĿ¼ ëĭĪ
ëľ¨ ê±°ìĽĮ
si a
Ļì ıĻ
ĠíŀĺìĿ´ ìļĶ
Ġì§Ģ íķĺì²ł
Ġëĵľ ëĶĶìĸ´
ĠëĬ¦ ê¸°
ĠëĦĪìĹĲê²Į ë§Į
Ġë©Ģ ìĸ´ëıĦ
Ġë¦¬ëĵ¬ ìĿĦ
Ġd row
ìĺ¬ ë¦°
ìķłê¸° ê³°ìĿĢ
ì°¨ ì¹´ì
ì§Ħ ëĭ¬ëŀĺ
æŃ¢ ãĤģ
å Ĥ³
a ut
? â
125 39
Ľ Ģ
Ġíķ´ ìķ¼ë§Į
ĠìĿ´ëģĦ ëĬĶ
ĠìĭĿ ìĿĢ
Ġë´¤ ìŀĲ
Ġë©Ģ ì§Ģ
Ġlow er
Ġen tre
ï½ ģ
íķ ¸ëĵľíı°
ìķĦ ì§ĢëĬĶ
ë§ĪìĿĮ ê»ı
ê³ł ëĤľ
~ (
gre at
Ġíķĺ ìĤ¬
ĠíĮĮëıĦ ìĹĲ
ĠìķĬìĿĦ êº¼ìķ¼
Ġëª» ê°Ģ
Ġëª©ìĨĮ ë¦¬ëĬĶ
Ġê¹¡ì¶© ê¹¡ì¶©
Ġwand ering
Ġumb rella
Ġm rs
Ġj ive
Ġcount y
íĥĢ ìŀĦ
ìł ĵ
ìĭľìķĦ ìĻĢìĦ¸
ëĭ¬ ìĿĢ
ãĤ ¡
iv ing
ic ation
ĠìĿ´ë³Ħ ìĿ´ëŀĢ
ĠìĻ¸ ì¹ĺëĬĶ
ĠìĨĲ ê¸¸ë¡ľ
Ġì¹ľêµ¬ ìĹĲê²Į
ĠëĲł ê¹Įë´Ĳ
Ġë³´ ëŀĢ
Ġë°ĶëŀĮ ìĨĮë¦¬
Ġë§¹ìĦ¸ íķľ
Ġê°Ĳ ìķĦìļĶ
Ġvilla ge
Ġste ve
Ġpow ers
Ġgr am
Ġconstant ly
ìŀĦ ìĹĲ
ì¹´ íİĺ
ë¬´ ìĭ¬ì½Ķ
êµ ĲíļĮ
å°ı ãģķãģª
wan ted
jec ts
ent ro
Ń Ī
ĠìĿ´ì¸ł ëª¨
ĠìĿ´ë¦¬ ìĻĢ
ĠìĦľ ê²Į
Ġì°¾ìķĦ ìĺ¤ë©´
ĠëĤĺìķĦ ê°Ī
Ġë°ĶëŀĮ ë§Į
Ġë§İìĿ´ ëıĦ
Ġta stes
Ġl at
ìĿ´ê¸° ìłģìĿ¸
ìĭľ ì§Ģ
éĢ Ķ
å Ł
ãĤĴè¦ĭ ãģ¦
ãģ©ãģĵ ãģ¾ãģ§ãĤĤ
sc ri
r ah
Ġíĥľìĸ´ëĤĺ ëıĦ
ĠìłĬ ìĿĮìĿĦ
ĠìĹĨìŀĸìķĦ ìļĶ
Ġëº¨ ìĿĦ
Ġë³¼ ìĿĦ
Ġn ÇĲ
Ġa la
Ġ8 0
ìłģ íķľ
ìŀĶ ëľ©
ìľłë©Ķ ìĺ¤
ë¹¨ ê°Ľê²Į
ê°Ģì§Ģ ìļĶ
æļ Ĺ
å¤§ ä¸Īå¤«
Ãł i
p d
er te
ĠìĥĪ ëĬĶ
Ġì´ Į
Ġë§ŀì¶Ķ ë©´
Ġs ane
íĹĪ íĹĪ
íĶĦ ë¡ľ
ì¡°ìĭ¬ ìĬ¤ëłĪ
ë³´ ëĤ´ëĬĶ
æŀľ ãģ¦
ãģį ãĤĬ
´Ī ìĹĲ
po or
no m
67 1
ĺ ħ
Į ¯
ĠíĹ¤ ìķĦ
Ġìĸ¼êµ´ ë§Į
Ġìĸµ ìļ¸
Ġì¸ łì
Ġëª ¹ìĭľ
Ġë¨¸ë¦¿ ìĨį
Ġê¿Ģê¿Ģê¿Ģ ê¿Ģ
Ġç Ľ
Ġnei ther
Ġcur ious
ìŀĪ ìĹĪìĸ´
ìĶ© ìĶ©
ìĪł ìĿĦ
ìĦľë¡ľ ìĹĲê²Į
ëĮĢ ìŀ¥
ë¶Ħ íķ´
ë² ¤
êµ³ ê²Į
ê±° ë¯¸
çĦ¡ ãģĦ
¹ °
ĳ ¤
ĠíĿĺëŁ¬ ë§Į
ĠíĻĶ ìŀ¥ìĿĦ
ĠíĤ¤ë¯¸ ìĻĢ
Ġì°½ì¡° íķĺìĭł
Ġsla p
Ġabu se
ìĿ¸ìĥĿ ìĿ´
ìķĦëĭĪëĿ¼ ê³ł
ì§ĢìķĬ ìĿĦ
ì¡°ê¸Ī ëıĦ
ëĶ° ìĿ´
ëĭ¹ ê·¼
ëª» íķĺëĬĶ
ë§¤ìĿ¼ ìĿ´
æĥ ĳ
å· ¡
os ing
27 671
ĠìłĦ ìĹĶ
ĠìŀĲ ë¦°
Ġìĸ´ëķĮ ìļĶ
Ġìķłê¸° ê³°
Ġsho ve
ìĻĶ ëĦ¤
ìĬ ´ì½Ķ
ìĪĺ ë°ķ
ìĦ± ìĿĺ
ìĤ° ëĭ¤ëĬĶ
ì¼Ģ ëłĪëıĦ
ëĬĶ ì§ĢëıĦ
ë¶Ģ ê¸°
æĹ¥ ãģĮ
åīį ãģ«
wait in
to w
Ġìŀĺ íķĺê³ł
Ġìĺ¤ ìĺĪ
Ġìĭ¶ ìĹĪëĬĶëį°
Ġì¶ķíķĺ íķ©ëĭĪëĭ¤
ĠëıĦ ìĽĢìĿ´
Ġëĭ¦ ê³ł
Ġê±° ìłĪ
Ġworth y
Ġsw it
Ġh ated
Ġbright ly
Ġbit es
Ġbeha vi
ìŀĬíĺĢ ìł¸
ìĿ´ ìħĺ
ì²ĺ ëħĢ
ë¶Ģ ë¶Ħ
Ģ â
ĠíĹĪ ëĤĺ
ĠìĤ Ĳëļ¤
Ġì°¡ ê·¸ë¦°
Ġì§Ģ ìĿĦ
ĠëĮĢ ì§Ģ
ĠëĤ´ ìī¬
Ġë¶ ĵ
Ġë©į ìĿ´
Ġkill a
Ġj es
Ġi do
í ĭĪ
ìĽĮ ëĿ¼
ëĭ· íĥĢ
ê±°ìļ¸ ìĿĦ
æĮ¯ ãĤĬ
ĠíĹ¤ìĸ´ì§Ģ ë©´
Ġíķĺ ëł¤ê³ł
ĠíĶ¼ ìĹĪëĦ¤
ĠìŀĪìĹĪ ëĭ¤ë©´
Ġìļ´ëªħ ìĿĦ
Ġìĭ ¤ì»·
ĠìĨĮ ë°ĶëĭĪ
ĠëķĮ ìĹĲëĬĶ
ĠëĤĺ ì§ĢìļĶ
Ġë°Ķ ì¹ł
Ġê±´ ëĦ
Ġpop ping
Ġdec ay
Ġ2 01
ìĿĺ ì§Ģ
ãĤĦ ãģķ
sp ring
a ha
ĠíĹ¤ìĸ´ìł¸ ìķ¼
ĠíıīíĻĶ ë¥¼
ĠìŀĬìľ¼ ë¦¬ëĿ¼
ĠìĿ´ ë¹¨
Ġìĺ¬ì±Ļ ìĿ´
ĠìĹĲ ëĦĪ
Ġìĸ» ìĸ´
ĠìķĦë¬´ ëłĩì§ĢëıĦ
ĠìĦľìĦľ íŀĪ
Ġì£¼ ìĸ´ëıĦ
Ġë°ľ ëĿ¼
Ġê·¸ëĮĢ ë§ĮìĿ´
Ġê°ľ êµ´
Ġê°ĢëĵĿ ì°¨
Ġpi u
Ġph ra
Ġ ken
ìłĦíĻĶ ë¥¼
ìĹ° ìķ½íķľ
ìķĦë¹ł ê³°ìĿĢ
ëĸ¼ ë£¨
ëĪĦêµ¬ ìĹĲê²Į
ë§Īì °
ê¸Ī ìĿĦ
ê¸°ìģ¨ ìľ¼ë¡ľ
ê¸°ëĭ¤ ë¦¬
ãĥ¢ ãĥİ
ri din
re w
o re
be nd
Ģ Ķ
Ġìĭľëł¤ ìĽĮ
ĠìĤ° ëĭ¤ê³ł
Ġì§Ģ ëĥĪ
ĠëĶ° ëŁ¬
Ġtem p
Ġsc ary
Ġri pped
Ġlim its
Ġhigh s
Ġhe a
Ġdo e
ëı Ľ
ãģ« ãģĹãģ¦
ro se
Ĳí Ĭ
ĠìĪĺ ë°ķ
Ġëĭ¤ ìļ´
ĠëģĿ ìĿ´ìķ¼
Ġê¿Ī ìĿ¸
Ġspe c
Ġcr unk
Ġa aah
íĺ ¸ëĵ±
ëł´ íĴĭ
ëĵ¤ ë¦¬ì§Ģ
e ë
che rs
ĠíĿĶìłģ ìĿ´
Ġíķĺê³ł ìĭ¶ìĿĢ
Ġìĭľìŀĳ ìĿĦ
ĠìĨį íķľ
Ġguit ars
íŀĺ ëĤ´
íĿ¬ë§Ŀ ìĿĦ
° ĵ
° ëĮĢ
¥ íĥĢìĿ´
re an
li p
Ġíķĺ ê¸°ìĹĶ
ĠìĿ´ëģĮ ëł¤
ĠëĤĺ ì§Ī
Ġë¹ł ëĿ¼
Ġse le
Ġcul ture
Ġb uc
íı¬ ëĬĶ
ìĺģ ìĺģ
ì¹¨ ë¬µ
ë°Ķë³´ ìķ¼
ë¯ Ģ
ê°ĢìĿĦ ìĿ´
æĻĤ ãģ¯
åĴ Į
d h
ĳ ä
Ġëı¼ ë²Ħë¦°
Ġë°ĽìķĦ ì¤Ħ
Ġëª°ëŀĲ ì§Ģ
Ġspi ll
Ġmater ial
Ġinst rumental
Ġhypnoti zed
Ġhome s
ìľł íĺ¹
ì§ Īì
å ±ħ
ä½ ĵ
Ĵ ãģĦ
Ġìŀİ ìĥĪ
ĠìĻ¸ë¡ľ ìĽĮìĦľ
Ġìĺ¤ëŀľ ë§ĮìĹĲ
ĠìĹĲë£¨ íĻĶ
ĠìĪľê°Ħ ëĵ¤ìĿ´
ĠìĤ´ ìķĺìĸ´
ĠëıĦ ëł¤
Ġë°ĶëĢ Ĳ
Ġê±° ëĿ¼ëĬĶ
Ġn ations
Ġhalf way
íĽĮ ëĿ¼
ìĸ´ëĶĶ ìĹĲìĦľ
ìĦł íĻĶ
ì²ľ íķĺ
ëĵ¤ ë¦¬
¼ë Ŀ½
Ġìĺ® ê²¨
Ġë°Ķ ìĩ¼
Ġë¨¹ ìĹ¬
Ġê¹ľ ê¹ľ
Ġê°ľêµ¬ë¦¬ ëĲĲëĦ¤
Ġê°Ĳìĭ¸ ëĬĶ
Ġga soline
Ġboy z
Ġbea m
ãģ¨ ãģĵ
¸ łì
Ġìĸ¸ëįķ ìĿĦ
Ġì¶ķë³µ ìĿĦ
Ġì§ĢìĽĮ ìł¸
ĠëĤĺìĹĲê²Į ëıĦ
Ġë¹Ħ ì¹ĺëĦ¤
Ġë³´ëĤ´ ì£¼ìĺ¤
Ġëª»íķĺ ê²łìĸ´
ìĹ¬ ìľł
ìĦł ìĥĿ
ì¤ĺ ëıĦ
ëĤĺëĤĺëĤĺëĤĺ ëĤĺ
ë³Ħ ëĵ¤ìĿ´
ë°ĶëŀĮ ê²°ìĹĲ
ë¬´ìĹĩ ëıĦ
ë¨¸ ëĭĪê°Ģ
è¦ĭãģ¤ ãĤģãģ¦
¥ì ĳ¥
r ated
ĠìŀĬ ìĹĪëįĺ
ĠìĬ¤ íĨłë¦¬
Ġë³Ħ ê³¼
Ġë¯¸ëł¨ ìĹĨìĿ´
Ġê¸°ëĭ¤ë¦¬ ë©´
Ġstr a
Ġout er
Ġdi men
Ġcur tains
Ġbroad way
íĻĶ ìŀ¥
íĸīìĹ¬ ëĤĺ
íķĺë©´ìĦľ ëıĦ
ìķ¼ìķ¼ ìķ¼
ìĭľ ë§Īìļ°
ìĬ¬íĶĶ ìĹĲ
ê·¸ë ĪĦ
r ors
le nd
ĠíķĺëĬĺ ìĹĶ
ĠìĿ´ë¦Ħ ìĿĺ
ĠìĿ´ ìĹ¬
ĠìķĦëĭĪ ìļĶ
ĠìĤ´ ìĿ´
Ġì§ģ ìĹħ
ĠëĤĻ ìĦľ
Ġkind ness
ìłĲ ìĿĦ
ëķĮ ëıĦ
ç´Ħ æĿŁ
ĠíĴĢ ëł¤
Ġìŀ¡ìķĦ ë´Ĳ
ĠìĺĪìĪĺ ê°Ģ
ĠìĥĪë²½ ìĿ´
Ġê·¸ë¦¼ìŀĲ ë¥¼
Ġwound ed
Ġtit le
Ġcu ando
íķł ìķĦë²Ħì§ĢëĬĶ
íĮľíĮľ íĮľ
íĮĮëŀĢ íķĺëĬĺ
ìĿ´ìĬ¤ ëĿ¼
ìĸ¼êµ´ ìĿĦ
ë³Ħ ì²ĺëŁ¼
ç ĸ
ä¹ Ĺ
Ġìĺģíĺ¼ ìķĦ
ĠëĺĳëĶ± ëĺĳëĶ±
Ġëı¼ ìĦľ
Ġë§¡ ê¸°ê³ł
Ġê¹ °
Ġê°Ī ê¸¸
Ġgut ter
Ġchi ps
íĸĩ ë³ķ
íĸ¥ íķ´
ìķ¼ ê²łìĸ´
ìĭł ìĿĺ
ìĤ¶ ìĿĢ
ëĿ¼ ìĺ¤
ëĳĲ ìĤ°
ëĨĴ ìĹ¬
ê°Ģ ëŀĳ
ãĤŃ ãĥ©
ĠìĻķ ê»ĺ
ĠìĺĪ ìĺĪìĺĪ
ĠìĭľìĦł ìĿĢ
Ġì§Ļ ê²Į
Ġë³´ëĤ´ ì¤Ģ
Ġoh hhh
Ġ ãģĿãģĨ
íķ´ ë³Ģ
ìĵ± ìĵ±
ìĪľ ìĿ´
ìĦľ ëĳĲ
éł Ń
é ģ¸
ãĤŃ ãĤ¹
¥ ¬
tre ss
r z
hhhh h
flo ating
Ġëį¤ ë²¼
Ġê° Īë
Ġex ec
íŀ Īë¡ľ
ìļ´ ëĵľ
ìķĦ ìĤ¬
ìķĦ ë¦¬ê°Ģ
ëĭĪ ëĦ¤
éĩį ãģŃ
æĻĤ ãĤĤ
hu ng
ĠìłĦë¶Ģ ìķ¼
Ġìĸ´ëł¤ ìĽĢ
ĠìĪ¨ ê¸´
ĠìĤ¼ íĤ¨
ĠëĦĪ ìŀĸìķĦ
Ġro de
Ġo ak
Ġla b
Ġear n
Ġdig ging
Ġacc id
íķĺìĭľ ë©´
íĮĮëıĦ ê°Ģ
íĥľ ê·¹
ì°Į ëĿ¼
ëį° ìĬ¤
ëĭ Īëį°
ê½ĥ ë³´ëĭ¤
ê°Ļ ì§Ģ
ê° Īë
ãģ«ãģª ãģ£ãģŁ
with in
tur ns
ĠíķĺëĤĺ ë°ĸìĹĲ
ĠíĮĮê³ł ëĵľëĬĶ
Ġìĸ´ìłľ ì²ĺëŁ¼
ĠìķĦ ë²Ħ
Ġìı ´
Ġìĭ £
ĠìĥĪ ìķ¼
Ġëĸ¨ëł¤ ìĻĢ
Ġëĭ¬ëł¤ ìĺ¨
Ġë¯¿ ìĿĢ
ìľ¼ ìĭľëĦ¤
ìĤ¬ ìĹ°
ì§Ģ ëª»íķ´
ëĵľ ëĵĿ
ë¶Ģ ë¹Ħ
pr in
ame d
ĠíĹ¤ìĸ´ì§Ģ ìŀĲ
ĠëĪĪ ìĨįìĹĲ
Ġë¯¸ìķĪ íķĺëĭ¤
Ġj im
Ġd ic
ĉ ãĢĢ
íĽĦ ë£¨
ìĭľ ëĲĺ
ëł¸ ìĿĦ
ëĪĦêµ¬ ìĿĺ
ë§Īë ĵ¤
si ster
le mme
ĠíĪ¬ ëªħ
ĠìŀĪëĭ¤ëĬĶ ê±¸
ĠìĿµ ìĿĢ
ĠëķĮ ìĹĶ
Ġë°Ķëĭ¥ ìĹĲ
Ġê·¸ëĮĢë¡ľ ìĿĺ
Ġsex ual
Ġpos itive
Ġapri l
ìĥĿ íĻľ
ê³łíĸ¥ ìĿĦ
å ¸ĮæľĽ
ĠíĹ¤ ì¹ĺê³ł
ĠìŀĲëĿ¼ ìĦľ
ĠìŀĬ ê¸°
ĠìĿ¸ ê¸°
Ġìĸ´ ì©Ĳì§Ģ
ĠìķĦëĭĪëĿ¼ ëıĦ
ĠìķĦë¦Ħëĭ¤ ìĽł
Ġì½Ķ ìĻĢ
Ġì°¬ìĨ¡ íķĺê²łëĦ¤
Ġëĺĳê°Ļ ìķł
Ġê±¸ìĸ´ ëĿ¼
Ġrep ly
ìĪĺ ë¡ľ
ì§¤ëŀĳ ì§¤ëŀĳ
äºĮ åº¦
ãģ®å īį
gl ing
! .
Ġìĸ´ëĳł ìĿĺ
ĠìĤ¼ ì²ľ
ĠìĤ¬ëŀĳ íķĺëĦ¤
Ġì ĮĢ
Ġëĵ¤ëł¤ ìĻĢ
Ġë¯¿ ëħ¸ëĿ¼
Ġtou jours
Ġth ursday
åħ ±
ti de
ica lly
d ressed
ļ ¨
Ġìļ°ìļ°ìļ° ìļ°
ĠìĻĶëįĺ ê°Ģ
ĠìĺģìĽĲ ìĿĦ
Ġìĸ´ëĳł ìĨįìĹĲ
ĠìĶ ¬
Ġì£¼ ë§ī
Ġëĵ¤ìĹ¬ ëĭ¤
ĠëĦ¤ ëª¨ëĤľ
Ġë¿ Ķ
Ġë°ĳ ìĹĲìĦľ
Ġë¬» ìĸ´ëĳĲê³ł
Ġëª» íķĺëĭĪ
Ġê°ľ ëĤĺë¦¬
Ġse ats
Ġcas a
ìĸ´ ëĶĶì¯¤
ë°Ķ ìĩ¼
ê¸Ģ ë²¨
¦ ½
ut ely
!! )
ĠíĮĶ ìĿ´
ĠìłĦë¶Ģ ìĿ¸
ĠìĿ¸ìĥĿ ìķĦ
ĠìĻ ¸ì
ĠìĦ¸ìĽĶ ìķĦ
ĠìĥĪë ©´
ĠëĴ¤ ì§ĳìĸ´
Ġë²ł ìĸ´
Ġë²Ħë¦´ ê¹Į
Ġsk irt
Ġs em
Ġdis grace
ï¿½ï¿½ï¿½ï¿½ ï¿½ï¿½ï¿½ï¿½
ëł¸ ì£ł
ê°ķ ìĿĦ
åı ª
ãĥ³ ãĥī
hi ding
Ġíĸīë³µ íĸĪìĸ´
ĠìķĮ ê¹ĮìļĶ
ĠìķĦ ìĭľíĥĢ
Ġê°ķ ê°Ģë¡ľ
Ġnat urally
Ġdist ur
Ġda ughters
ìĤ¶ ìĿĦ
ì°¨ê°Ģ ìĽĮì§Ħ
ë°Ģëł¤ ìĺ¤ëĬĶ
ç¨ ĭ
tion s
des per
ĠìĺĪë »¤
Ġëĭ¤ìĬ¤ ë¦¬ëĦ¤
ĠëĤĺê°Ģ ìĦ¸
Ġë§Īì£ ¼ì
Ġë£ °
Ġwish in
Ġwed nesday
Ġfright ened
Ġfl own
Ġbing o
ëħĢ ë¦°
ë¶ĢëģĦ ëŁ¬ìĽĮ
çĶŁãģį ãĤĭ
° Ŀ
ut ch
ar te
ĠìŀĪëĭ¤ ëĦ¤
ĠëĶĽ ê³ł
Ġëĭ¹ìĭł ë¿Ĳ
Ġëĭ® ìķĺ
Ġëĭ¬ëł¤ ê°Ģê³ł
ĠëĤ¯ìĦ¤ ìĿĢ
Ġë¯¸ ì²ĺ
Ġê´ľ íķľ
Ġê±±ìłķ íķĺì§Ģë§Ī
Ġwas sup
Ġs lu
Ġli me
Ġk ra
Ġfantas ies
Ġf aking
Ġdre w
Ġ ....
íĿ© ìĸ´ì§Ħ
íĹ ¬
ìĿ´ ì¿ł
ì°¨ ë¥¼
ëĭ¬ì½¤ íķĺê²Į
ëĭ¤ì¼Ģ ëħ¸
äºº çĶŁ
s pi
is y
f if
dri ft
ĠëĨĵ ìķĦì£¼
Ġstea m
Ġambit ion
Ġaf rica
ìķĦ ëĤ´
ëĭ¹ ê¸°
ëĤĺ ê°ĻìĿĢ
ë½ Ģë¡ľë¡ľ
ë°¥ ìĿĦ
ê±· ê³ł
æĦĽ ãģ®
Ġíķ´ ë³´ê³ł
ĠìĿ¸ìĥĿ ìĿ´ëŀĢ
ĠëĸłëĤĺ ìĺ¨
Ġë¶Ģë¥´ ë©´ìĦľ
Ġwhi rl
Ġshi eld
Ġob session
Ġcie lo
ëħ¸ë ª¨
ë¯¸ ìĽĢ
¼ĵ åĭķ
¤ ª
pl ug
i la
feel ings
Ġìķ ¡
ĠìĤ °ì±ħ
Ġì´Ī ëĬ¥ëł¥
Ġì²ł ìĿ´
ĠëĤ¨ ëĤ¨
ĠëģĮ ë¦¬ëĬĶ
Ġë¯¸ìĨĮ ëıĦ
Ġsy n
Ġcru c
íĻĶ ìĪĺ
ìĿ´ ìĦ¸ìĥģìĹĲ
ìĸ´ë¨¸ ëĭĺìĿĺ
ê³ł ëŀĺ
éģİ åİ»
ãģķ ãĤĮ
19 8
ĠíĶ¼ê³¤ íķ´
ĠìĬ¤ë©° ëĵ¤ìĸ´
Ġì¹ľ êµ
ĠëĦĪ ëĤĺ
Ġmil ky
Ġm eal
ìķ¼ë§Į íķ´
ìĵ¸ìĵ¸ íŀĪ
ìĤ¬ ìļĶëĤĺëĿ¼
ì¢ Ĩ
ë³´ ìĬ¬
åĴ ²
p at
eng lish
ce des
bo b
Ġíķľ ëķĮ
Ġíİ¼ì³Ĳ ì§Ī
ĠíħĮ ìĺ¤
ĠìĿµìĪĻ íķ´ì§Ħ
Ġë°± ë§Ī
Ġê¹ ¬
Ġê·¸ ìĻĢ
Ġê·¸ ì¹ĺ
Ġpar aly
Ġlaugh s
Ġglor ia
Ġg ust
Ġdif fic
Ġall right
íķ´ ë°ĶëĿ¼ê¸°
ìĻķ ìĿ´
ì§Ģ ì¹ĺê³ł
ëĿ¼ ì¿ł
ëĦĪíĿ¬ ëĬĶ
ê°Ģ ìļ°
ä¸Ģç· Ĵ
ãģĿãĤĮ ãģĮ
sol ation
ordin ary
g low
ĥ Ħ
Ġíķľë§ĪëĶĶ ê°Ģ
ĠíıīíĻĶ ê°Ģ
ĠíĮ ¡
ĠìķĶ íĥī
ĠìķĬ ëĭ¤ê³ł
ĠìĬ¤ íĤ¤
Ġì§ľë¦¿ íķľ
Ġì¡° ë¡±
ĠëıĮìķĦ ìļĶ
Ġë²Ħëł¸ ì§Ģ
Ġë§Ĳ ëĵ¯
Ġë§İ ìķĦìļĶ
Ġun wind
Ġme th
íİ¸ ìķĪ
ìĸ´ëĸ ł
ìĤ¬ ëłĪ
ì° Ĳ
ëı Ĺ
ãģ¨ ãģ¦ãĤĤ
[...]
